{
  "version": "1.0",
  "truncation": null,
  "padding": null,
  "added_tokens": [
    {
      "id": 0,
      "content": "<UNK>",
      "single_word": false,
      "lstrip": false,
      "rstrip": false,
      "normalized": false,
      "special": true
    },
    {
      "id": 1,
      "content": "<CLS>",
      "single_word": false,
      "lstrip": false,
      "rstrip": false,
      "normalized": false,
      "special": true
    },
    {
      "id": 2,
      "content": "<SEP>",
      "single_word": false,
      "lstrip": false,
      "rstrip": false,
      "normalized": false,
      "special": true
    },
    {
      "id": 3,
      "content": "<PAD>",
      "single_word": false,
      "lstrip": false,
      "rstrip": false,
      "normalized": false,
      "special": true
    },
    {
      "id": 4,
      "content": "<MASK>",
      "single_word": false,
      "lstrip": false,
      "rstrip": false,
      "normalized": false,
      "special": true
    }
  ],
  "normalizer": null,
  "pre_tokenizer": {
    "type": "Metaspace",
    "replacement": " ",
    "prepend_scheme": "always",
    "split": true
  },
  "post_processor": null,
  "decoder": null,
  "model": {
    "type": "BPE",
    "dropout": null,
    "unk_token": "<UNK>",
    "continuing_subword_prefix": null,
    "end_of_word_suffix": null,
    "fuse_unk": false,
    "byte_fallback": false,
    "ignore_merges": false,
    "vocab": {
      "<UNK>": 0,
      "<CLS>": 1,
      "<SEP>": 2,
      "<PAD>": 3,
      "<MASK>": 4,
      "\n": 5,
      " ": 6,
      "!": 7,
      "\"": 8,
      "#": 9,
      "$": 10,
      "%": 11,
      "&": 12,
      "'": 13,
      "(": 14,
      ")": 15,
      "*": 16,
      "+": 17,
      ",": 18,
      "-": 19,
      ".": 20,
      "/": 21,
      "0": 22,
      "1": 23,
      "2": 24,
      "3": 25,
      "4": 26,
      "5": 27,
      "6": 28,
      "7": 29,
      "8": 30,
      "9": 31,
      ":": 32,
      ";": 33,
      "<": 34,
      "=": 35,
      ">": 36,
      "?": 37,
      "@": 38,
      "A": 39,
      "B": 40,
      "C": 41,
      "D": 42,
      "E": 43,
      "F": 44,
      "G": 45,
      "H": 46,
      "I": 47,
      "J": 48,
      "K": 49,
      "L": 50,
      "M": 51,
      "N": 52,
      "O": 53,
      "P": 54,
      "Q": 55,
      "R": 56,
      "S": 57,
      "T": 58,
      "U": 59,
      "V": 60,
      "W": 61,
      "X": 62,
      "Y": 63,
      "Z": 64,
      "[": 65,
      "\\": 66,
      "]": 67,
      "^": 68,
      "_": 69,
      "`": 70,
      "a": 71,
      "b": 72,
      "c": 73,
      "d": 74,
      "e": 75,
      "f": 76,
      "g": 77,
      "h": 78,
      "i": 79,
      "j": 80,
      "k": 81,
      "l": 82,
      "m": 83,
      "n": 84,
      "o": 85,
      "p": 86,
      "q": 87,
      "r": 88,
      "s": 89,
      "t": 90,
      "u": 91,
      "v": 92,
      "w": 93,
      "x": 94,
      "y": 95,
      "z": 96,
      "|": 97,
      "}": 98,
      "~": 99,
      "": 100,
      "": 101,
      "¡": 102,
      "¢": 103,
      "£": 104,
      "¥": 105,
      "§": 106,
      "°": 107,
      "±": 108,
      "²": 109,
      "³": 110,
      "´": 111,
      "µ": 112,
      "·": 113,
      "º": 114,
      "½": 115,
      "¿": 116,
      "Á": 117,
      "Ä": 118,
      "Å": 119,
      "Æ": 120,
      "Ç": 121,
      "É": 122,
      "Í": 123,
      "Î": 124,
      "Ñ": 125,
      "Ó": 126,
      "Ö": 127,
      "×": 128,
      "Ø": 129,
      "Ú": 130,
      "Ü": 131,
      "Þ": 132,
      "ß": 133,
      "à": 134,
      "á": 135,
      "â": 136,
      "ã": 137,
      "ä": 138,
      "å": 139,
      "æ": 140,
      "ç": 141,
      "è": 142,
      "é": 143,
      "ê": 144,
      "ë": 145,
      "ì": 146,
      "í": 147,
      "î": 148,
      "ï": 149,
      "ð": 150,
      "ñ": 151,
      "ò": 152,
      "ó": 153,
      "ô": 154,
      "ö": 155,
      "ø": 156,
      "ù": 157,
      "ú": 158,
      "û": 159,
      "ü": 160,
      "ý": 161,
      "þ": 162,
      "Ā": 163,
      "ā": 164,
      "ă": 165,
      "ą": 166,
      "ć": 167,
      "Č": 168,
      "č": 169,
      "Đ": 170,
      "đ": 171,
      "Ē": 172,
      "ē": 173,
      "Ĕ": 174,
      "ĕ": 175,
      "ė": 176,
      "ę": 177,
      "ğ": 178,
      "ħ": 179,
      "ī": 180,
      "İ": 181,
      "ı": 182,
      "Ľ": 183,
      "Ł": 184,
      "ł": 185,
      "ń": 186,
      "Ō": 187,
      "ō": 188,
      "œ": 189,
      "ř": 190,
      "Ś": 191,
      "ś": 192,
      "Ş": 193,
      "ş": 194,
      "Š": 195,
      "š": 196,
      "ţ": 197,
      "ũ": 198,
      "ū": 199,
      "ů": 200,
      "ų": 201,
      "ź": 202,
      "Ż": 203,
      "ż": 204,
      "Ž": 205,
      "ž": 206,
      "ơ": 207,
      "ư": 208,
      "ǎ": 209,
      "ǔ": 210,
      "Ș": 211,
      "ș": 212,
      "ț": 213,
      "ȯ": 214,
      "ɐ": 215,
      "ɑ": 216,
      "ɒ": 217,
      "ɔ": 218,
      "ə": 219,
      "ɛ": 220,
      "ɜ": 221,
      "ɡ": 222,
      "ɢ": 223,
      "ɪ": 224,
      "ɫ": 225,
      "ɳ": 226,
      "ɽ": 227,
      "ɾ": 228,
      "ʁ": 229,
      "ʃ": 230,
      "ʊ": 231,
      "ʋ": 232,
      "ʒ": 233,
      "ʔ": 234,
      "ʕ": 235,
      "ʲ": 236,
      "ʻ": 237,
      "ʼ": 238,
      "ʾ": 239,
      "ʿ": 240,
      "ˈ": 241,
      "ˌ": 242,
      "ː": 243,
      "́": 244,
      "̃": 245,
      "̍": 246,
      "̥": 247,
      "̯": 248,
      "͍": 249,
      "Α": 250,
      "Δ": 251,
      "Κ": 252,
      "Ν": 253,
      "Π": 254,
      "Τ": 255,
      "Φ": 256,
      "Χ": 257,
      "Ω": 258,
      "ά": 259,
      "έ": 260,
      "ή": 261,
      "ί": 262,
      "α": 263,
      "β": 264,
      "γ": 265,
      "δ": 266,
      "ε": 267,
      "η": 268,
      "θ": 269,
      "ι": 270,
      "κ": 271,
      "λ": 272,
      "μ": 273,
      "ν": 274,
      "ξ": 275,
      "ο": 276,
      "π": 277,
      "ρ": 278,
      "ς": 279,
      "σ": 280,
      "τ": 281,
      "υ": 282,
      "χ": 283,
      "ψ": 284,
      "ω": 285,
      "ό": 286,
      "ύ": 287,
      "ώ": 288,
      "А": 289,
      "Б": 290,
      "В": 291,
      "Г": 292,
      "К": 293,
      "П": 294,
      "Р": 295,
      "С": 296,
      "У": 297,
      "Х": 298,
      "Я": 299,
      "а": 300,
      "в": 301,
      "г": 302,
      "д": 303,
      "е": 304,
      "ж": 305,
      "з": 306,
      "и": 307,
      "й": 308,
      "к": 309,
      "л": 310,
      "м": 311,
      "н": 312,
      "о": 313,
      "п": 314,
      "р": 315,
      "с": 316,
      "т": 317,
      "у": 318,
      "х": 319,
      "ц": 320,
      "ш": 321,
      "ъ": 322,
      "ы": 323,
      "ь": 324,
      "ю": 325,
      "я": 326,
      "є": 327,
      "ֵ": 328,
      "ֶ": 329,
      "ָ": 330,
      "ֹ": 331,
      "ּ": 332,
      "א": 333,
      "ב": 334,
      "ג": 335,
      "ה": 336,
      "ו": 337,
      "ז": 338,
      "ח": 339,
      "י": 340,
      "ל": 341,
      "ם": 342,
      "מ": 343,
      "ן": 344,
      "נ": 345,
      "ס": 346,
      "ף": 347,
      "פ": 348,
      "צ": 349,
      "ר": 350,
      "ש": 351,
      "ת": 352,
      "ء": 353,
      "أ": 354,
      "إ": 355,
      "ا": 356,
      "ب": 357,
      "ة": 358,
      "ت": 359,
      "ث": 360,
      "ج": 361,
      "ح": 362,
      "خ": 363,
      "د": 364,
      "ذ": 365,
      "ر": 366,
      "س": 367,
      "ش": 368,
      "ص": 369,
      "ع": 370,
      "ف": 371,
      "ق": 372,
      "ك": 373,
      "ل": 374,
      "م": 375,
      "ن": 376,
      "ه": 377,
      "و": 378,
      "ي": 379,
      "ܐ": 380,
      "ܕ": 381,
      "ܗ": 382,
      "ܝ": 383,
      "ܠ": 384,
      "ܢ": 385,
      "ܬ": 386,
      "ܲ": 387,
      "ܵ": 388,
      "ं": 389,
      "अ": 390,
      "ई": 391,
      "क": 392,
      "ग": 393,
      "ण": 394,
      "त": 395,
      "द": 396,
      "न": 397,
      "प": 398,
      "ब": 399,
      "म": 400,
      "य": 401,
      "र": 402,
      "ल": 403,
      "व": 404,
      "स": 405,
      "ह": 406,
      "ा": 407,
      "ि": 408,
      "ु": 409,
      "ू": 410,
      "े": 411,
      "ै": 412,
      "्": 413,
      "আ": 414,
      "ল": 415,
      "হ": 416,
      "া": 417,
      "্": 418,
      "ਅ": 419,
      "ਲ": 420,
      "ਹ": 421,
      "ਾ": 422,
      "ੁ": 423,
      "ੱ": 424,
      "അ": 425,
      "ള": 426,
      "ഹ": 427,
      "ാ": 428,
      "്": 429,
      "ก": 430,
      "ค": 431,
      "ง": 432,
      "ช": 433,
      "ซ": 434,
      "ญ": 435,
      "ฐ": 436,
      "ณ": 437,
      "ด": 438,
      "ต": 439,
      "น": 440,
      "บ": 441,
      "ป": 442,
      "พ": 443,
      "ภ": 444,
      "ม": 445,
      "ย": 446,
      "ร": 447,
      "ล": 448,
      "ว": 449,
      "ศ": 450,
      "ษ": 451,
      "ส": 452,
      "ห": 453,
      "อ": 454,
      "ฮ": 455,
      "ะ": 456,
      "ั": 457,
      "า": 458,
      "ิ": 459,
      "ี": 460,
      "ึ": 461,
      "เ": 462,
      "แ": 463,
      "ไ": 464,
      "็": 465,
      "่": 466,
      "้": 467,
      "๊": 468,
      "์": 469,
      "Ⴀ": 470,
      "Ⴂ": 471,
      "Ⴃ": 472,
      "Ⴈ": 473,
      "Ⴌ": 474,
      "Ⴕ": 475,
      "Ⴟ": 476,
      "ა": 477,
      "ბ": 478,
      "გ": 479,
      "დ": 480,
      "ე": 481,
      "ვ": 482,
      "ზ": 483,
      "თ": 484,
      "ი": 485,
      "კ": 486,
      "ლ": 487,
      "მ": 488,
      "ნ": 489,
      "ო": 490,
      "პ": 491,
      "ჟ": 492,
      "რ": 493,
      "ს": 494,
      "ტ": 495,
      "უ": 496,
      "ფ": 497,
      "ქ": 498,
      "ღ": 499,
      "ყ": 500,
      "შ": 501,
      "ჩ": 502,
      "ც": 503,
      "ძ": 504,
      "წ": 505,
      "ჭ": 506,
      "ხ": 507,
      "ჯ": 508,
      "ჰ": 509,
      "ჱ": 510,
      "ჲ": 511,
      "ჳ": 512,
      "ჴ": 513,
      "ჵ": 514,
      "ჶ": 515,
      "ჷ": 516,
      "ჸ": 517,
      "ჹ": 518,
      "ჺ": 519,
      "჻": 520,
      "ᵻ": 521,
      "ḍ": 522,
      "ḏ": 523,
      "Ḥ": 524,
      "ḥ": 525,
      "ḷ": 526,
      "ṃ": 527,
      "ṅ": 528,
      "ṇ": 529,
      "ṛ": 530,
      "ṣ": 531,
      "ṭ": 532,
      "ṯ": 533,
      "ạ": 534,
      "ả": 535,
      "ấ": 536,
      "ầ": 537,
      "ậ": 538,
      "ắ": 539,
      "ễ": 540,
      "ệ": 541,
      "ị": 542,
      "ọ": 543,
      "ỏ": 544,
      "ỗ": 545,
      "ộ": 546,
      "ớ": 547,
      "ứ": 548,
      "ử": 549,
      "ữ": 550,
      "ỳ": 551,
      "ỹ": 552,
      "ἀ": 553,
      "ἰ": 554,
      "ὀ": 555,
      "ὁ": 556,
      "ὑ": 557,
      "​": 558,
      "‐": 559,
      "‑": 560,
      "–": 561,
      "—": 562,
      "―": 563,
      "‘": 564,
      "’": 565,
      "“": 566,
      "”": 567,
      "„": 568,
      "†": 569,
      "‡": 570,
      "•": 571,
      "…": 572,
      "′": 573,
      "″": 574,
      "⁄": 575,
      "₣": 576,
      "₤": 577,
      "€": 578,
      "₹": 579,
      "⅓": 580,
      "⅔": 581,
      "→": 582,
      "−": 583,
      "≡": 584,
      "≤": 585,
      "①": 586,
      "☉": 587,
      "☫": 588,
      "♀": 589,
      "♭": 590,
      "♯": 591,
      "⚳": 592,
      "〈": 593,
      "〉": 594,
      "〜": 595,
      "あ": 596,
      "い": 597,
      "う": 598,
      "お": 599,
      "か": 600,
      "が": 601,
      "き": 602,
      "ぎ": 603,
      "く": 604,
      "ぐ": 605,
      "け": 606,
      "こ": 607,
      "ご": 608,
      "さ": 609,
      "し": 610,
      "す": 611,
      "ず": 612,
      "ぜ": 613,
      "た": 614,
      "だ": 615,
      "ち": 616,
      "っ": 617,
      "つ": 618,
      "と": 619,
      "な": 620,
      "に": 621,
      "の": 622,
      "は": 623,
      "ば": 624,
      "ひ": 625,
      "ふ": 626,
      "ほ": 627,
      "ま": 628,
      "み": 629,
      "め": 630,
      "も": 631,
      "ゃ": 632,
      "ゆ": 633,
      "ょ": 634,
      "ら": 635,
      "り": 636,
      "る": 637,
      "れ": 638,
      "わ": 639,
      "を": 640,
      "ん": 641,
      "ァ": 642,
      "ア": 643,
      "ィ": 644,
      "イ": 645,
      "ゥ": 646,
      "ェ": 647,
      "エ": 648,
      "ォ": 649,
      "オ": 650,
      "カ": 651,
      "ガ": 652,
      "キ": 653,
      "ク": 654,
      "グ": 655,
      "ゲ": 656,
      "コ": 657,
      "サ": 658,
      "シ": 659,
      "ジ": 660,
      "ス": 661,
      "ズ": 662,
      "セ": 663,
      "タ": 664,
      "ダ": 665,
      "チ": 666,
      "ッ": 667,
      "ツ": 668,
      "テ": 669,
      "デ": 670,
      "ト": 671,
      "ド": 672,
      "ナ": 673,
      "ニ": 674,
      "ネ": 675,
      "ノ": 676,
      "ハ": 677,
      "バ": 678,
      "パ": 679,
      "フ": 680,
      "ブ": 681,
      "プ": 682,
      "ヘ": 683,
      "ベ": 684,
      "マ": 685,
      "ミ": 686,
      "ム": 687,
      "モ": 688,
      "ャ": 689,
      "ュ": 690,
      "ョ": 691,
      "ラ": 692,
      "リ": 693,
      "ル": 694,
      "レ": 695,
      "ロ": 696,
      "ン": 697,
      "ヴ": 698,
      "・": 699,
      "ー": 700,
      "一": 701,
      "七": 702,
      "下": 703,
      "世": 704,
      "丙": 705,
      "中": 706,
      "主": 707,
      "乃": 708,
      "之": 709,
      "乙": 710,
      "九": 711,
      "二": 712,
      "云": 713,
      "人": 714,
      "今": 715,
      "付": 716,
      "作": 717,
      "侗": 718,
      "依": 719,
      "信": 720,
      "傳": 721,
      "儚": 722,
      "充": 723,
      "光": 724,
      "全": 725,
      "兵": 726,
      "其": 727,
      "具": 728,
      "円": 729,
      "再": 730,
      "出": 731,
      "判": 732,
      "前": 733,
      "剛": 734,
      "劇": 735,
      "劉": 736,
      "動": 737,
      "化": 738,
      "北": 739,
      "华": 740,
      "厂": 741,
      "去": 742,
      "古": 743,
      "可": 744,
      "台": 745,
      "史": 746,
      "同": 747,
      "名": 748,
      "君": 749,
      "吳": 750,
      "周": 751,
      "命": 752,
      "和": 753,
      "咲": 754,
      "善": 755,
      "四": 756,
      "國": 757,
      "園": 758,
      "圣": 759,
      "在": 760,
      "坂": 761,
      "堤": 762,
      "場": 763,
      "塘": 764,
      "夕": 765,
      "大": 766,
      "天": 767,
      "夫": 768,
      "女": 769,
      "妙": 770,
      "姚": 771,
      "子": 772,
      "孟": 773,
      "守": 774,
      "安": 775,
      "宋": 776,
      "完": 777,
      "宗": 778,
      "宝": 779,
      "宫": 780,
      "寝": 781,
      "寺": 782,
      "小": 783,
      "少": 784,
      "尾": 785,
      "山": 786,
      "岳": 787,
      "川": 788,
      "州": 789,
      "巳": 790,
      "市": 791,
      "師": 792,
      "平": 793,
      "广": 794,
      "庆": 795,
      "府": 796,
      "座": 797,
      "廬": 798,
      "建": 799,
      "式": 800,
      "張": 801,
      "彌": 802,
      "彩": 803,
      "彼": 804,
      "後": 805,
      "御": 806,
      "德": 807,
      "思": 808,
      "愛": 809,
      "憑": 810,
      "憶": 811,
      "應": 812,
      "懷": 813,
      "战": 814,
      "戦": 815,
      "扈": 816,
      "技": 817,
      "拉": 818,
      "拳": 819,
      "挑": 820,
      "揺": 821,
      "攻": 822,
      "放": 823,
      "政": 824,
      "散": 825,
      "斯": 826,
      "方": 827,
      "日": 828,
      "旦": 829,
      "旭": 830,
      "昌": 831,
      "明": 832,
      "星": 833,
      "春": 834,
      "晋": 835,
      "景": 836,
      "曦": 837,
      "月": 838,
      "望": 839,
      "未": 840,
      "本": 841,
      "李": 842,
      "村": 843,
      "杜": 844,
      "束": 845,
      "来": 846,
      "林": 847,
      "桜": 848,
      "梶": 849,
      "棘": 850,
      "椎": 851,
      "楊": 852,
      "楚": 853,
      "榮": 854,
      "橘": 855,
      "機": 856,
      "正": 857,
      "殻": 858,
      "殿": 859,
      "母": 860,
      "水": 861,
      "汉": 862,
      "沂": 863,
      "沙": 864,
      "河": 865,
      "泗": 866,
      "波": 867,
      "泣": 868,
      "洪": 869,
      "淹": 870,
      "清": 871,
      "湯": 872,
      "漢": 873,
      "澄": 874,
      "澤": 875,
      "火": 876,
      "灯": 877,
      "灵": 878,
      "灼": 879,
      "焼": 880,
      "熱": 881,
      "物": 882,
      "狐": 883,
      "狸": 884,
      "玄": 885,
      "王": 886,
      "玩": 887,
      "珂": 888,
      "珙": 889,
      "球": 890,
      "理": 891,
      "琦": 892,
      "琪": 893,
      "瓊": 894,
      "生": 895,
      "田": 896,
      "畢": 897,
      "番": 898,
      "瘡": 899,
      "白": 900,
      "皮": 901,
      "真": 902,
      "砲": 903,
      "礮": 904,
      "祈": 905,
      "神": 906,
      "祠": 907,
      "秋": 908,
      "空": 909,
      "立": 910,
      "精": 911,
      "約": 912,
      "絵": 913,
      "織": 914,
      "義": 915,
      "翠": 916,
      "者": 917,
      "耕": 918,
      "肖": 919,
      "胡": 920,
      "膀": 921,
      "臂": 922,
      "興": 923,
      "良": 924,
      "花": 925,
      "芳": 926,
      "芽": 927,
      "若": 928,
      "英": 929,
      "藕": 930,
      "藥": 931,
      "蘄": 932,
      "蘇": 933,
      "行": 934,
      "裁": 935,
      "規": 936,
      "覺": 937,
      "观": 938,
      "解": 939,
      "記": 940,
      "誓": 941,
      "誡": 942,
      "誰": 943,
      "謎": 944,
      "许": 945,
      "谭": 946,
      "豪": 947,
      "豫": 948,
      "費": 949,
      "贵": 950,
      "赤": 951,
      "趙": 952,
      "足": 953,
      "跡": 954,
      "転": 955,
      "辛": 956,
      "逆": 957,
      "遇": 958,
      "運": 959,
      "過": 960,
      "遠": 961,
      "選": 962,
      "邦": 963,
      "邱": 964,
      "部": 965,
      "郭": 966,
      "都": 967,
      "酈": 968,
      "里": 969,
      "野": 970,
      "金": 971,
      "銃": 972,
      "鋼": 973,
      "錄": 974,
      "錡": 975,
      "鍵": 976,
      "鐵": 977,
      "钱": 978,
      "铁": 979,
      "關": 980,
      "防": 981,
      "阿": 982,
      "陈": 983,
      "陳": 984,
      "陽": 985,
      "隊": 986,
      "階": 987,
      "集": 988,
      "雪": 989,
      "雲": 990,
      "霖": 991,
      "霹": 992,
      "靂": 993,
      "韓": 994,
      "願": 995,
      "顯": 996,
      "颜": 997,
      "马": 998,
      "高": 999,
      "龍": 1000,
      "대": 1001,
      "독": 1002,
      "라": 1003,
      "립": 1004,
      "병": 1005,
      "보": 1006,
      "부": 1007,
      "알": 1008,
      "연": 1009,
      "제": 1010,
      "ﷲ": 1011,
      "ﻋ": 1012,
      "﻿": 1013,
      "／": 1014,
      "３": 1015,
      "～": 1016,
      "�": 1017,
      " t": 1018,
      "he": 1019,
      " a": 1020,
      "in": 1021,
      " the": 1022,
      "er": 1023,
      "on": 1024,
      " ,": 1025,
      "re": 1026,
      " s": 1027,
      "ed": 1028,
      " o": 1029,
      " w": 1030,
      "nd": 1031,
      "at": 1032,
      " .": 1033,
      "or": 1034,
      "it": 1035,
      " c": 1036,
      "en": 1037,
      " f": 1038,
      "is": 1039,
      "es": 1040,
      "ar": 1041,
      " of": 1042,
      " b": 1043,
      "an": 1044,
      " in": 1045,
      "al": 1046,
      "ing": 1047,
      " p": 1048,
      " and": 1049,
      "as": 1050,
      " to": 1051,
      "ro": 1052,
      "ic": 1053,
      " m": 1054,
      " d": 1055,
      " h": 1056,
      "ion": 1057,
      "le": 1058,
      "ou": 1059,
      " T": 1060,
      " re": 1061,
      " =": 1062,
      " \"": 1063,
      " A": 1064,
      " S": 1065,
      "ent": 1066,
      "il": 1067,
      " th": 1068,
      " 1": 1069,
      "st": 1070,
      " C": 1071,
      "el": 1072,
      "om": 1073,
      " l": 1074,
      "am": 1075,
      " \n": 1076,
      " e": 1077,
      " n": 1078,
      " @": 1079,
      "ad": 1080,
      "ac": 1081,
      " was": 1082,
      " M": 1083,
      "ur": 1084,
      " The": 1085,
      "ec": 1086,
      " on": 1087,
      "ly": 1088,
      " B": 1089,
      " I": 1090,
      " g": 1091,
      " '": 1092,
      "et": 1093,
      "ol": 1094,
      "id": 1095,
      "iv": 1096,
      "im": 1097,
      " for": 1098,
      "ir": 1099,
      "-@": 1100,
      " @-@": 1101,
      "ig": 1102,
      "ot": 1103,
      "ter": 1104,
      " as": 1105,
      " H": 1106,
      "us": 1107,
      "ow": 1108,
      " st": 1109,
      "ut": 1110,
      "ith": 1111,
      "ay": 1112,
      " 2": 1113,
      " P": 1114,
      "ation": 1115,
      "ver": 1116,
      " be": 1117,
      "her": 1118,
      " that": 1119,
      " with": 1120,
      " 's": 1121,
      " R": 1122,
      "ce": 1123,
      "th": 1124,
      " D": 1125,
      " is": 1126,
      "un": 1127,
      "em": 1128,
      " F": 1129,
      " wh": 1130,
      "ul": 1131,
      " by": 1132,
      " al": 1133,
      "ch": 1134,
      " )": 1135,
      " (": 1136,
      " W": 1137,
      " con": 1138,
      "ra": 1139,
      " G": 1140,
      "os": 1141,
      " L": 1142,
      " N": 1143,
      " at": 1144,
      "ers": 1145,
      "ct": 1146,
      " it": 1147,
      " 19": 1148,
      "rom": 1149,
      "and": 1150,
      " an": 1151,
      "um": 1152,
      "est": 1153,
      " J": 1154,
      "ag": 1155,
      " he": 1156,
      "00": 1157,
      "ist": 1158,
      "ain": 1159,
      "od": 1160,
      "av": 1161,
      "ri": 1162,
      " E": 1163,
      " O": 1164,
      " from": 1165,
      " com": 1166,
      " his": 1167,
      "op": 1168,
      " pro": 1169,
      "res": 1170,
      "ies": 1171,
      "if": 1172,
      " v": 1173,
      "ort": 1174,
      "ere": 1175,
      "ill": 1176,
      "ld": 1177,
      " de": 1178,
      "pp": 1179,
      " su": 1180,
      "ore": 1181,
      " In": 1182,
      " r": 1183,
      " se": 1184,
      " were": 1185,
      "ew": 1186,
      "ong": 1187,
      "igh": 1188,
      "ard": 1189,
      "ate": 1190,
      "all": 1191,
      "art": 1192,
      "ak": 1193,
      "ich": 1194,
      " ch": 1195,
      " or": 1196,
      "ab": 1197,
      "ant": 1198,
      "ud": 1199,
      "oc": 1200,
      "ber": 1201,
      " ex": 1202,
      "gh": 1203,
      "ity": 1204,
      "ated": 1205,
      "pt": 1206,
      "ess": 1207,
      "ear": 1208,
      " K": 1209,
      " pl": 1210,
      "ame": 1211,
      "qu": 1212,
      "ive": 1213,
      "rou": 1214,
      " are": 1215,
      " sh": 1216,
      " k": 1217,
      "ack": 1218,
      "ect": 1219,
      " U": 1220,
      " had": 1221,
      "se": 1222,
      " which": 1223,
      "red": 1224,
      "ov": 1225,
      " St": 1226,
      "ast": 1227,
      " sp": 1228,
      "ian": 1229,
      " y": 1230,
      "ment": 1231,
      " le": 1232,
      " not": 1233,
      "ge": 1234,
      "ord": 1235,
      "rit": 1236,
      "ip": 1237,
      "ine": 1238,
      "ell": 1239,
      "ally": 1240,
      "our": 1241,
      "ost": 1242,
      "ight": 1243,
      "ther": 1244,
      "ap": 1245,
      " u": 1246,
      "ish": 1247,
      " Ch": 1248,
      "oun": 1249,
      "ia": 1250,
      " 3": 1251,
      "ave": 1252,
      "ary": 1253,
      "ust": 1254,
      "og": 1255,
      " 200": 1256,
      " un": 1257,
      "ous": 1258,
      "irst": 1259,
      " V": 1260,
      "cc": 1261,
      " inc": 1262,
      " ;": 1263,
      " comp": 1264,
      "ru": 1265,
      "ions": 1266,
      " their": 1267,
      " but": 1268,
      "ide": 1269,
      "ure": 1270,
      "so": 1271,
      " cont": 1272,
      " int": 1273,
      "fter": 1274,
      "ical": 1275,
      "ial": 1276,
      " ar": 1277,
      " first": 1278,
      "ould": 1279,
      " its": 1280,
      "hed": 1281,
      " –": 1282,
      " whe": 1283,
      "wo": 1284,
      "out": 1285,
      "ub": 1286,
      " 20": 1287,
      "ff": 1288,
      " :": 1289,
      "ue": 1290,
      " her": 1291,
      "own": 1292,
      "ok": 1293,
      " also": 1294,
      " cl": 1295,
      "per": 1296,
      "ign": 1297,
      "ater": 1298,
      "ran": 1299,
      "orm": 1300,
      "ie": 1301,
      "ome": 1302,
      "ork": 1303,
      "ass": 1304,
      "ire": 1305,
      "end": 1306,
      " res": 1307,
      " ab": 1308,
      " ad": 1309,
      " us": 1310,
      "ry": 1311,
      " rec": 1312,
      " have": 1313,
      "age": 1314,
      " He": 1315,
      " 4": 1316,
      " ro": 1317,
      "mer": 1318,
      " one": 1319,
      "ond": 1320,
      "low": 1321,
      " has": 1322,
      " Th": 1323,
      "du": 1324,
      " 5": 1325,
      " per": 1326,
      " been": 1327,
      "ime": 1328,
      " two": 1329,
      "ence": 1330,
      "land": 1331,
      " 18": 1332,
      ".@": 1333,
      " @.@": 1334,
      "ult": 1335,
      "ree": 1336,
      "ough": 1337,
      "ile": 1338,
      " who": 1339,
      " Al": 1340,
      " sc": 1341,
      "uring": 1342,
      "pl": 1343,
      "ory": 1344,
      "ition": 1345,
      "ric": 1346,
      "ations": 1347,
      " dis": 1348,
      " this": 1349,
      " bec": 1350,
      " app": 1351,
      "iz": 1352,
      " It": 1353,
      "are": 1354,
      "ach": 1355,
      "lud": 1356,
      "ade": 1357,
      " play": 1358,
      " j": 1359,
      " man": 1360,
      "act": 1361,
      "ely": 1362,
      " part": 1363,
      " des": 1364,
      " ag": 1365,
      " they": 1366,
      " year": 1367,
      "ount": 1368,
      " 201": 1369,
      " over": 1370,
      " other": 1371,
      "ound": 1372,
      " after": 1373,
      "ib": 1374,
      "over": 1375,
      " ser": 1376,
      " en": 1377,
      " off": 1378,
      " im": 1379,
      "ction": 1380,
      " Y": 1381,
      "ke": 1382,
      "ite": 1383,
      ",@": 1384,
      " @,@": 1385,
      "te": 1386,
      "urn": 1387,
      " includ": 1388,
      "ress": 1389,
      "ance": 1390,
      "ang": 1391,
      " att": 1392,
      "ice": 1393,
      "ace": 1394,
      "ark": 1395,
      " out": 1396,
      "wn": 1397,
      "ph": 1398,
      "ember": 1399,
      " pre": 1400,
      " up": 1401,
      "ens": 1402,
      "man": 1403,
      " ev": 1404,
      " time": 1405,
      "nder": 1406,
      "rough": 1407,
      "ced": 1408,
      " fin": 1409,
      " into": 1410,
      "one": 1411,
      "port": 1412,
      "round": 1413,
      "we": 1414,
      "ren": 1415,
      "les": 1416,
      "int": 1417,
      " On": 1418,
      "vel": 1419,
      " comm": 1420,
      " she": 1421,
      "ason": 1422,
      "amp": 1423,
      " te": 1424,
      " would": 1425,
      "ward": 1426,
      " more": 1427,
      " 6": 1428,
      "ied": 1429,
      "ose": 1430,
      "rib": 1431,
      " Un": 1432,
      " all": 1433,
      "ings": 1434,
      "tern": 1435,
      "ces": 1436,
      "able": 1437,
      " we": 1438,
      "ited": 1439,
      "ever": 1440,
      "ents": 1441,
      " him": 1442,
      "ased": 1443,
      "ors": 1444,
      "oy": 1445,
      "ood": 1446,
      " cent": 1447,
      "ix": 1448,
      "ase": 1449,
      "ild": 1450,
      " An": 1451,
      " 7": 1452,
      " work": 1453,
      "ates": 1454,
      "ious": 1455,
      "ath": 1456,
      " po": 1457,
      "rop": 1458,
      "old": 1459,
      "als": 1460,
      "iss": 1461,
      "ey": 1462,
      "ict": 1463,
      " fe": 1464,
      " them": 1465,
      "gan": 1466,
      " sec": 1467,
      " bet": 1468,
      " when": 1469,
      " song": 1470,
      " rem": 1471,
      "ep": 1472,
      "form": 1473,
      "ail": 1474,
      "fer": 1475,
      " ear": 1476,
      "ubl": 1477,
      "aw": 1478,
      " kn": 1479,
      "ake": 1480,
      "aus": 1481,
      " most": 1482,
      " cons": 1483,
      " during": 1484,
      " As": 1485,
      "orth": 1486,
      " new": 1487,
      "ered": 1488,
      "ilm": 1489,
      "ved": 1490,
      "att": 1491,
      " only": 1492,
      " 9": 1493,
      " dec": 1494,
      " 8": 1495,
      "ick": 1496,
      " game": 1497,
      "ons": 1498,
      "ug": 1499,
      " tr": 1500,
      "ft": 1501,
      "oth": 1502,
      "ook": 1503,
      " Mar": 1504,
      "reat": 1505,
      "way": 1506,
      " can": 1507,
      "ollow": 1508,
      "outh": 1509,
      "ween": 1510,
      " En": 1511,
      " 199": 1512,
      "ters": 1513,
      " rel": 1514,
      "ind": 1515,
      " about": 1516,
      " season": 1517,
      " again": 1518,
      "ral": 1519,
      " three": 1520,
      "ational": 1521,
      " under": 1522,
      "ular": 1523,
      " me": 1524,
      " than": 1525,
      " Com": 1526,
      " Ar": 1527,
      "hip": 1528,
      "ob": 1529,
      " ne": 1530,
      " between": 1531,
      " fl": 1532,
      "hn": 1533,
      "ve": 1534,
      " char": 1535,
      " col": 1536,
      " record": 1537,
      "iew": 1538,
      "ron": 1539,
      "fore": 1540,
      " through": 1541,
      "ision": 1542,
      "orn": 1543,
      " 00": 1544,
      "ock": 1545,
      " ver": 1546,
      " later": 1547,
      " num": 1548,
      " end": 1549,
      "olog": 1550,
      "ames": 1551,
      " pos": 1552,
      " writ": 1553,
      " produ": 1554,
      " while": 1555,
      " act": 1556,
      " rele": 1557,
      " film": 1558,
      "ished": 1559,
      " pr": 1560,
      "ans": 1561,
      " reg": 1562,
      " form": 1563,
      " ass": 1564,
      " Se": 1565,
      "ury": 1566,
      "ted": 1567,
      "ts": 1568,
      " made": 1569,
      " sub": 1570,
      " pe": 1571,
      " so": 1572,
      "orld": 1573,
      " ret": 1574,
      " New": 1575,
      " spec": 1576,
      " acc": 1577,
      " qu": 1578,
      " where": 1579,
      "ener": 1580,
      " mov": 1581,
      "hes": 1582,
      "meric": 1583,
      "ating": 1584,
      " inter": 1585,
      " Le": 1586,
      " Americ": 1587,
      " ra": 1588,
      " some": 1589,
      " co": 1590,
      " lar": 1591,
      " bu": 1592,
      " def": 1593,
      "bum": 1594,
      " ac": 1595,
      " mus": 1596,
      " follow": 1597,
      " At": 1598,
      "ins": 1599,
      "ived": 1600,
      "ific": 1601,
      "ual": 1602,
      " am": 1603,
      " such": 1604,
      " second": 1605,
      "ike": 1606,
      " four": 1607,
      " ind": 1608,
      "ann": 1609,
      "hen": 1610,
      " used": 1611,
      " Re": 1612,
      "ics": 1613,
      "lect": 1614,
      " day": 1615,
      "iel": 1616,
      "ily": 1617,
      " This": 1618,
      " 0": 1619,
      " publ": 1620,
      " call": 1621,
      " Jo": 1622,
      "ll": 1623,
      " album": 1624,
      " 000": 1625,
      "rans": 1626,
      " do": 1627,
      "any": 1628,
      " before": 1629,
      "ros": 1630,
      " Sh": 1631,
      " sy": 1632,
      "aid": 1633,
      " Eng": 1634,
      " being": 1635,
      " 10": 1636,
      "uc": 1637,
      " ep": 1638,
      " supp": 1639,
      " there": 1640,
      " years": 1641,
      "ars": 1642,
      "owever": 1643,
      " ent": 1644,
      "ife": 1645,
      " high": 1646,
      " found": 1647,
      "ird": 1648,
      " no": 1649,
      " set": 1650,
      "ines": 1651,
      "iver": 1652,
      "io": 1653,
      "other": 1654,
      "ject": 1655,
      " sur": 1656,
      "aj": 1657,
      "ten": 1658,
      " tra": 1659,
      " 12": 1660,
      "ised": 1661,
      "ities": 1662,
      "velop": 1663,
      " bl": 1664,
      "ale": 1665,
      " series": 1666,
      " loc": 1667,
      " number": 1668,
      " pres": 1669,
      "ane": 1670,
      "ause": 1671,
      "ode": 1672,
      "ek": 1673,
      "ton": 1674,
      " Sc": 1675,
      "ier": 1676,
      "ise": 1677,
      " sever": 1678,
      "ince": 1679,
      " both": 1680,
      "ank": 1681,
      "row": 1682,
      "irect": 1683,
      "son": 1684,
      " then": 1685,
      " Brit": 1686,
      "iet": 1687,
      " 16": 1688,
      " epis": 1689,
      " including": 1690,
      "its": 1691,
      "igin": 1692,
      " /": 1693,
      "pr": 1694,
      " against": 1695,
      " well": 1696,
      " became": 1697,
      " exp": 1698,
      " known": 1699,
      " trans": 1700,
      " charac": 1701,
      " —": 1702,
      "ram": 1703,
      " back": 1704,
      " add": 1705,
      " pop": 1706,
      " go": 1707,
      "urch": 1708,
      " desc": 1709,
      " sing": 1710,
      "ield": 1711,
      " perform": 1712,
      "ained": 1713,
      " rece": 1714,
      "ident": 1715,
      " em": 1716,
      "ert": 1717,
      "ures": 1718,
      " inv": 1719,
      " dep": 1720,
      " 198": 1721,
      "air": 1722,
      "ern": 1723,
      "ather": 1724,
      " Z": 1725,
      "ful": 1726,
      " mon": 1727,
      " many": 1728,
      " main": 1729,
      " stud": 1730,
      " long": 1731,
      "inn": 1732,
      "though": 1733,
      "up": 1734,
      "ool": 1735,
      " United": 1736,
      "led": 1737,
      "ement": 1738,
      " 15": 1739,
      "ower": 1740,
      " John": 1741,
      " op": 1742,
      " 11": 1743,
      "ined": 1744,
      " met": 1745,
      "ober": 1746,
      "ley": 1747,
      " 17": 1748,
      " century": 1749,
      " team": 1750,
      " est": 1751,
      " After": 1752,
      "yl": 1753,
      " min": 1754,
      "uch": 1755,
      "ute": 1756,
      " develop": 1757,
      " She": 1758,
      "0s": 1759,
      "iam": 1760,
      " show": 1761,
      "elf": 1762,
      " rep": 1763,
      " conc": 1764,
      "ative": 1765,
      " cre": 1766,
      "overn": 1767,
      "ared": 1768,
      " 194": 1769,
      " origin": 1770,
      " sm": 1771,
      "ivers": 1772,
      "az": 1773,
      " lead": 1774,
      " several": 1775,
      "ah": 1776,
      " ob": 1777,
      " rev": 1778,
      " mill": 1779,
      "erm": 1780,
      "ually": 1781,
      "oot": 1782,
      " began": 1783,
      " 196": 1784,
      "ired": 1785,
      " dif": 1786,
      " contin": 1787,
      " sign": 1788,
      "ik": 1789,
      " Ind": 1790,
      "ments": 1791,
      "ized": 1792,
      " 197": 1793,
      " direct": 1794,
      "au": 1795,
      " ext": 1796,
      "ross": 1797,
      "emb": 1798,
      "der": 1799,
      " pol": 1800,
      " may": 1801,
      "apt": 1802,
      "els": 1803,
      " Wh": 1804,
      " comple": 1805,
      " art": 1806,
      " Br": 1807,
      " Is": 1808,
      "une": 1809,
      "til": 1810,
      " crit": 1811,
      " hist": 1812,
      " early": 1813,
      " could": 1814,
      " Con": 1815,
      " did": 1816,
      " bel": 1817,
      " called": 1818,
      "ued": 1819,
      " near": 1820,
      " episode": 1821,
      "yp": 1822,
      " describ": 1823,
      "imes": 1824,
      " bro": 1825,
      "roup": 1826,
      "ople": 1827,
      " down": 1828,
      " run": 1829,
      "aking": 1830,
      " disc": 1831,
      " along": 1832,
      "ccess": 1833,
      " May": 1834,
      " feat": 1835,
      " inst": 1836,
      " American": 1837,
      " said": 1838,
      " dist": 1839,
      " inf": 1840,
      " imp": 1841,
      "ink": 1842,
      " ins": 1843,
      "ty": 1844,
      " these": 1845,
      " mil": 1846,
      "ven": 1847,
      " Ger": 1848,
      "gest": 1849,
      "ium": 1850,
      "enn": 1851,
      " Bl": 1852,
      " Aust": 1853,
      " resp": 1854,
      "ull": 1855,
      "ruct": 1856,
      "ured": 1857,
      " though": 1858,
      " ship": 1859,
      "ove": 1860,
      " oper": 1861,
      " British": 1862,
      " until": 1863,
      " prev": 1864,
      "itt": 1865,
      "amed": 1866,
      " car": 1867,
      "cept": 1868,
      " start": 1869,
      " city": 1870,
      " gener": 1871,
      " same": 1872,
      "ains": 1873,
      " War": 1874,
      "ists": 1875,
      "ially": 1876,
      "ided": 1877,
      " released": 1878,
      " land": 1879,
      "ism": 1880,
      " Car": 1881,
      " own": 1882,
      " war": 1883,
      " any": 1884,
      " prov": 1885,
      " return": 1886,
      " air": 1887,
      " They": 1888,
      "xt": 1889,
      "erson": 1890,
      "oman": 1891,
      " music": 1892,
      " km": 1893,
      " design": 1894,
      "ajor": 1895,
      " Pl": 1896,
      "ible": 1897,
      "osed": 1898,
      " sim": 1899,
      " const": 1900,
      " appear": 1901,
      " million": 1902,
      " because": 1903,
      " fam": 1904,
      "ash": 1905,
      " mat": 1906,
      " area": 1907,
      " use": 1908,
      " 13": 1909,
      " Aug": 1910,
      " Chr": 1911,
      " August": 1912,
      " occ": 1913,
      " ph": 1914,
      " open": 1915,
      " like": 1916,
      "ony": 1917,
      " success": 1918,
      "ole": 1919,
      "ouse": 1920,
      "erv": 1921,
      " count": 1922,
      " pass": 1923,
      "oss": 1924,
      " eff": 1925,
      " people": 1926,
      "my": 1927,
      "chool": 1928,
      "und": 1929,
      " Sp": 1930,
      "stem": 1931,
      " Cl": 1932,
      " offic": 1933,
      "ets": 1934,
      " six": 1935,
      "uth": 1936,
      "ange": 1937,
      "ues": 1938,
      " 195": 1939,
      " support": 1940,
      " around": 1941,
      " small": 1942,
      " Col": 1943,
      " However": 1944,
      " Sept": 1945,
      " dam": 1946,
      " %": 1947,
      " adv": 1948,
      " mod": 1949,
      " ele": 1950,
      " north": 1951,
      " Ju": 1952,
      "ales": 1953,
      " head": 1954,
      "ient": 1955,
      " govern": 1956,
      " group": 1957,
      "raph": 1958,
      " character": 1959,
      " br": 1960,
      " gr": 1961,
      " ed": 1962,
      " each": 1963,
      " point": 1964,
      " September": 1965,
      " Ad": 1966,
      "wards": 1967,
      " consid": 1968,
      "ution": 1969,
      " De": 1970,
      " German": 1971,
      " following": 1972,
      " World": 1973,
      " life": 1974,
      " gu": 1975,
      " Comm": 1976,
      " All": 1977,
      " Austral": 1978,
      "anc": 1979,
      " ann": 1980,
      " contro": 1981,
      "ural": 1982,
      " five": 1983,
      " var": 1984,
      "ys": 1985,
      " Her": 1986,
      " US": 1987,
      " attack": 1988,
      "ged": 1989,
      " 193": 1990,
      "ording": 1991,
      " result": 1992,
      " will": 1993,
      "ina": 1994,
      " Q": 1995,
      "ck": 1996,
      " ever": 1997,
      " Pro": 1998,
      " 191": 1999,
      " Eu": 2000,
      " large": 2001,
      " Me": 2002,
      " II": 2003,
      "lish": 2004,
      " North": 2005,
      "ling": 2006,
      " book": 2007,
      " report": 2008,
      "ont": 2009,
      "ague": 2010,
      " Fran": 2011,
      "ble": 2012,
      " For": 2013,
      "ox": 2014,
      "aced": 2015,
      "hel": 2016,
      " June": 2017,
      " tit": 2018,
      "ended": 2019,
      "dom": 2020,
      "ilt": 2021,
      "ives": 2022,
      " 14": 2023,
      "ats": 2024,
      " prom": 2025,
      "eb": 2026,
      "med": 2027,
      " week": 2028,
      "ately": 2029,
      "aving": 2030,
      "ored": 2031,
      " str": 2032,
      " Jan": 2033,
      " since": 2034,
      " States": 2035,
      " final": 2036,
      " major": 2037,
      "ax": 2038,
      " south": 2039,
      " received": 2040,
      " South": 2041,
      "ivision": 2042,
      " Gu": 2043,
      " name": 2044,
      " partic": 2045,
      "ery": 2046,
      " hel": 2047,
      "ology": 2048,
      "ption": 2049,
      " Christ": 2050,
      " care": 2051,
      " Oct": 2052,
      " public": 2053,
      " rest": 2054,
      " system": 2055,
      "ected": 2056,
      "ility": 2057,
      " Be": 2058,
      "ting": 2059,
      " King": 2060,
      " state": 2061,
      " batt": 2062,
      "ae": 2063,
      " what": 2064,
      "ages": 2065,
      "uary": 2066,
      " last": 2067,
      "rand": 2068,
      " described": 2069,
      " October": 2070,
      " line": 2071,
      " class": 2072,
      " $": 2073,
      " det": 2074,
      "iving": 2075,
      "raft": 2076,
      " Nov": 2077,
      " played": 2078,
      " prot": 2079,
      " incre": 2080,
      "aur": 2081,
      "ropical": 2082,
      " took": 2083,
      " mar": 2084,
      " now": 2085,
      "ified": 2086,
      "aim": 2087,
      " Par": 2088,
      "ional": 2089,
      "get": 2090,
      "rote": 2091,
      "ants": 2092,
      "ody": 2093,
      " [": 2094,
      " ]": 2095,
      "ively": 2096,
      " York": 2097,
      " build": 2098,
      " world": 2099,
      "..": 2100,
      " late": 2101,
      " Dec": 2102,
      "yc": 2103,
      " 25": 2104,
      " July": 2105,
      " wrote": 2106,
      "empt": 2107,
      "ball": 2108,
      "by": 2109,
      "esp": 2110,
      " Europ": 2111,
      "ret": 2112,
      " won": 2113,
      "app": 2114,
      "ideo": 2115,
      " species": 2116,
      "sion": 2117,
      " child": 2118,
      "ians": 2119,
      " ...": 2120,
      "omet": 2121,
      "iod": 2122,
      " port": 2123,
      " much": 2124,
      " Can": 2125,
      " During": 2126,
      " conf": 2127,
      " serv": 2128,
      " camp": 2129,
      "ection": 2130,
      " ref": 2131,
      " due": 2132,
      "ech": 2133,
      " short": 2134,
      "arn": 2135,
      " allow": 2136,
      " single": 2137,
      " Apr": 2138,
      " April": 2139,
      " differ": 2140,
      " just": 2141,
      " death": 2142,
      "ically": 2143,
      "ract": 2144,
      " star": 2145,
      " sl": 2146,
      " gun": 2147,
      "ission": 2148,
      "omin": 2149,
      "ital": 2150,
      " Mc": 2151,
      " And": 2152,
      " another": 2153,
      " included": 2154,
      " Mus": 2155,
      " poss": 2156,
      "ai": 2157,
      " old": 2158,
      " tri": 2159,
      "ham": 2160,
      " storm": 2161,
      " Ge": 2162,
      " vis": 2163,
      " January": 2164,
      " list": 2165,
      " left": 2166,
      " even": 2167,
      " par": 2168,
      " within": 2169,
      " England": 2170,
      "ple": 2171,
      " prog": 2172,
      " 30": 2173,
      " appro": 2174,
      "ger": 2175,
      "itions": 2176,
      " named": 2177,
      "ops": 2178,
      " based": 2179,
      " estab": 2180,
      " if": 2181,
      "inc": 2182,
      " although": 2183,
      " attempt": 2184,
      " top": 2185,
      "ilar": 2186,
      " track": 2187,
      " very": 2188,
      " belie": 2189,
      " bre": 2190,
      " third": 2191,
      "ards": 2192,
      " hum": 2193,
      " water": 2194,
      " March": 2195,
      "ene": 2196,
      " games": 2197,
      " organ": 2198,
      "ched": 2199,
      "orp": 2200,
      "ently": 2201,
      " beg": 2202,
      " power": 2203,
      " event": 2204,
      " previous": 2205,
      " family": 2206,
      " school": 2207,
      "ms": 2208,
      " best": 2209,
      "urric": 2210,
      "ulation": 2211,
      " November": 2212,
      "ances": 2213,
      " period": 2214,
      " review": 2215,
      " way": 2216,
      " His": 2217,
      " men": 2218,
      "aster": 2219,
      " expl": 2220,
      " home": 2221,
      " Europe": 2222,
      " fur": 2223,
      "que": 2224,
      " government": 2225,
      " typ": 2226,
      " By": 2227,
      " Ph": 2228,
      "ience": 2229,
      " turn": 2230,
      " 192": 2231,
      " December": 2232,
      "let": 2233,
      "ature": 2234,
      " cap": 2235,
      " those": 2236,
      " hand": 2237,
      " There": 2238,
      "avy": 2239,
      " place": 2240,
      "ached": 2241,
      " med": 2242,
      "hest": 2243,
      " City": 2244,
      " story": 2245,
      "oint": 2246,
      "aged": 2247,
      " built": 2248,
      "eder": 2249,
      "amb": 2250,
      " great": 2251,
      "ense": 2252,
      " dr": 2253,
      "ences": 2254,
      " person": 2255,
      "iven": 2256,
      " command": 2257,
      " 100": 2258,
      " kill": 2259,
      " Fl": 2260,
      " When": 2261,
      "oci": 2262,
      " month": 2263,
      " sent": 2264,
      "itary": 2265,
      "elt": 2266,
      " opp": 2267,
      " make": 2268,
      " original": 2269,
      "iversity": 2270,
      "oad": 2271,
      " hal": 2272,
      " requ": 2273,
      "ves": 2274,
      "ides": 2275,
      " Pr": 2276,
      " National": 2277,
      " eng": 2278,
      "gy": 2279,
      "ness": 2280,
      "ention": 2281,
      " 2009": 2282,
      " Or": 2283,
      " auth": 2284,
      " video": 2285,
      " 2008": 2286,
      "bs": 2287,
      " ant": 2288,
      " 2010": 2289,
      "ison": 2290,
      " mark": 2291,
      " dem": 2292,
      " sug": 2293,
      "ruction": 2294,
      "akes": 2295,
      " present": 2296,
      "line": 2297,
      " leg": 2298,
      " club": 2299,
      " Man": 2300,
      " River": 2301,
      "rench": 2302,
      "ival": 2303,
      " view": 2304,
      " Bro": 2305,
      "riend": 2306,
      "oard": 2307,
      " repl": 2308,
      "ograph": 2309,
      " capt": 2310,
      " 't": 2311,
      "alk": 2312,
      " still": 2313,
      " moved": 2314,
      " local": 2315,
      " stand": 2316,
      "eng": 2317,
      " led": 2318,
      " role": 2319,
      "ott": 2320,
      "aining": 2321,
      "ler": 2322,
      " term": 2323,
      " came": 2324,
      "aken": 2325,
      " dest": 2326,
      " iss": 2327,
      "ories": 2328,
      "ung": 2329,
      "side": 2330,
      "idge": 2331,
      "mp": 2332,
      " dra": 2333,
      " often": 2334,
      " common": 2335,
      " addition": 2336,
      " history": 2337,
      "urricane": 2338,
      " caus": 2339,
      "lev": 2340,
      " Comp": 2341,
      "sh": 2342,
      "atter": 2343,
      " trad": 2344,
      "rew": 2345,
      " few": 2346,
      " No": 2347,
      " We": 2348,
      " Char": 2349,
      " suggest": 2350,
      "lu": 2351,
      "read": 2352,
      "ister": 2353,
      " Ab": 2354,
      " 2007": 2355,
      " next": 2356,
      " effect": 2357,
      " considered": 2358,
      " bas": 2359,
      " deb": 2360,
      " player": 2361,
      " One": 2362,
      "ior": 2363,
      " cour": 2364,
      "astern": 2365,
      " mid": 2366,
      " Tr": 2367,
      " English": 2368,
      " help": 2369,
      "ead": 2370,
      " exper": 2371,
      "uted": 2372,
      " French": 2373,
      " career": 2374,
      " side": 2375,
      " similar": 2376,
      " recorded": 2377,
      " Batt": 2378,
      "ays": 2379,
      " right": 2380,
      " X": 2381,
      " win": 2382,
      " init": 2383,
      " import": 2384,
      " Acc": 2385,
      " real": 2386,
      "self": 2387,
      " Rec": 2388,
      " claim": 2389,
      " cover": 2390,
      " arch": 2391,
      " company": 2392,
      "be": 2393,
      "ining": 2394,
      " town": 2395,
      " published": 2396,
      " sold": 2397,
      " continued": 2398,
      " refer": 2399,
      " exc": 2400,
      " wind": 2401,
      " different": 2402,
      " you": 2403,
      " take": 2404,
      " without": 2405,
      "ternational": 2406,
      " songs": 2407,
      " With": 2408,
      "yn": 2409,
      " tot": 2410,
      " Per": 2411,
      " Port": 2412,
      " road": 2413,
      " former": 2414,
      " 21": 2415,
      " polit": 2416,
      " tw": 2417,
      " tem": 2418,
      " Bar": 2419,
      " held": 2420,
      "ches": 2421,
      " Te": 2422,
      " memb": 2423,
      " among": 2424,
      " level": 2425,
      " el": 2426,
      " Will": 2427,
      "ning": 2428,
      " field": 2429,
      " mag": 2430,
      "par": 2431,
      " elect": 2432,
      "ner": 2433,
      "iment": 2434,
      " av": 2435,
      "itar": 2436,
      " del": 2437,
      "uss": 2438,
      " prop": 2439,
      " written": 2440,
      "inning": 2441,
      "iter": 2442,
      "resent": 2443,
      " every": 2444,
      " Am": 2445,
      " State": 2446,
      "estern": 2447,
      " 23": 2448,
      " Ear": 2449,
      " commun": 2450,
      " half": 2451,
      "lear": 2452,
      "yle": 2453,
      " Division": 2454,
      "ampions": 2455,
      " 2011": 2456,
      " release": 2457,
      "ried": 2458,
      " further": 2459,
      "ots": 2460,
      " become": 2461,
      " west": 2462,
      " 2006": 2463,
      "ensive": 2464,
      " According": 2465,
      " cr": 2466,
      "enc": 2467,
      "rodu": 2468,
      " church": 2469,
      " Although": 2470,
      " strong": 2471,
      " fore": 2472,
      " however": 2473,
      " days": 2474,
      "roy": 2475,
      " find": 2476,
      " Canad": 2477,
      " cur": 2478,
      "ices": 2479,
      " east": 2480,
      "ising": 2481,
      " Count": 2482,
      " version": 2483,
      " foot": 2484,
      " beh": 2485,
      " spe": 2486,
      "augh": 2487,
      " particular": 2488,
      "ering": 2489,
      " &": 2490,
      " my": 2491,
      " low": 2492,
      " Church": 2493,
      "ize": 2494,
      "ebru": 2495,
      " Gener": 2496,
      " prof": 2497,
      " compet": 2498,
      " position": 2499,
      " title": 2500,
      " 24": 2501,
      " West": 2502,
      " military": 2503,
      " Roman": 2504,
      " conv": 2505,
      " author": 2506,
      " 22": 2507,
      " 26": 2508,
      " appe": 2509,
      "reen": 2510,
      " order": 2511,
      " League": 2512,
      "outher": 2513,
      " sol": 2514,
      "ront": 2515,
      "ittle": 2516,
      " control": 2517,
      "outhern": 2518,
      " times": 2519,
      " Song": 2520,
      "aces": 2521,
      "fric": 2522,
      " band": 2523,
      " Febru": 2524,
      " February": 2525,
      " fre": 2526,
      "pped": 2527,
      " less": 2528,
      " gave": 2529,
      " project": 2530,
      " vict": 2531,
      " defe": 2532,
      "ylan": 2533,
      " Geor": 2534,
      "osp": 2535,
      " Ass": 2536,
      " !": 2537,
      " Dylan": 2538,
      " chang": 2539,
      " reported": 2540,
      " members": 2541,
      " nort": 2542,
      " Park": 2543,
      "rick": 2544,
      " nov": 2545,
      " produced": 2546,
      " stat": 2547,
      "levision": 2548,
      " total": 2549,
      "isc": 2550,
      "arm": 2551,
      "eter": 2552,
      "hern": 2553,
      " 2012": 2554,
      "aying": 2555,
      " Old": 2556,
      " arr": 2557,
      "iety": 2558,
      " cult": 2559,
      " popular": 2560,
      " ter": 2561,
      " fire": 2562,
      "esc": 2563,
      "oung": 2564,
      "ailed": 2565,
      " production": 2566,
      "urs": 2567,
      "apan": 2568,
      " obs": 2569,
      " tropical": 2570,
      "hem": 2571,
      " Sim": 2572,
      " 28": 2573,
      " Pol": 2574,
      "ression": 2575,
      " post": 2576,
      " forces": 2577,
      " Ste": 2578,
      " critic": 2579,
      "ford": 2580,
      " Ha": 2581,
      " Japan": 2582,
      " children": 2583,
      " histor": 2584,
      " pat": 2585,
      " having": 2586,
      "ush": 2587,
      " Ed": 2588,
      " include": 2589,
      "ald": 2590,
      "echn": 2591,
      "ring": 2592,
      "ours": 2593,
      " surv": 2594,
      " invol": 2595,
      " influ": 2596,
      "alion": 2597,
      "ne": 2598,
      " sk": 2599,
      " lost": 2600,
      "rent": 2601,
      " aff": 2602,
      "atic": 2603,
      " Su": 2604,
      " given": 2605,
      " country": 2606,
      " want": 2607,
      "ably": 2608,
      " represent": 2609,
      "work": 2610,
      ".S": 2611,
      " El": 2612,
      " signific": 2613,
      " Cent": 2614,
      "omen": 2615,
      " Dav": 2616,
      " manag": 2617,
      "ope": 2618,
      "ploy": 2619,
      " General": 2620,
      " press": 2621,
      " equ": 2622,
      "vers": 2623,
      " 2013": 2624,
      "ges": 2625,
      " eight": 2626,
      " Miss": 2627,
      " comb": 2628,
      "reet": 2629,
      " sit": 2630,
      " site": 2631,
      "ades": 2632,
      " seen": 2633,
      "irc": 2634,
      " program": 2635,
      "sp": 2636,
      "ones": 2637,
      ".S.": 2638,
      "oon": 2639,
      " making": 2640,
      " Afric": 2641,
      " never": 2642,
      " match": 2643,
      "ration": 2644,
      " fem": 2645,
      " stated": 2646,
      " establ": 2647,
      "ither": 2648,
      " body": 2649,
      " plan": 2650,
      " fact": 2651,
      " read": 2652,
      " ord": 2653,
      " should": 2654,
      " While": 2655,
      " Ev": 2656,
      "sequ": 2657,
      " returned": 2658,
      "fic": 2659,
      "ator": 2660,
      " University": 2661,
      "ological": 2662,
      " soc": 2663,
      " ft": 2664,
      " er": 2665,
      "aun": 2666,
      " sound": 2667,
      "rem": 2668,
      " how": 2669,
      " 190": 2670,
      "ape": 2671,
      " These": 2672,
      " gen": 2673,
      " island": 2674,
      " Ne": 2675,
      " America": 2676,
      " cou": 2677,
      " struct": 2678,
      " earl": 2679,
      " ships": 2680,
      " announ": 2681,
      " established": 2682,
      " 50": 2683,
      "ampionship": 2684,
      " god": 2685,
      " ground": 2686,
      " Jack": 2687,
      " chart": 2688,
      " population": 2689,
      "aff": 2690,
      "ream": 2691,
      " cat": 2692,
      " div": 2693,
      " reached": 2694,
      " jo": 2695,
      "ground": 2696,
      " 27": 2697,
      "na": 2698,
      "view": 2699,
      "reland": 2700,
      " light": 2701,
      " noted": 2702,
      "aul": 2703,
      "ki": 2704,
      " away": 2705,
      " friend": 2706,
      " Ireland": 2707,
      " Black": 2708,
      "ille": 2709,
      "igade": 2710,
      "used": 2711,
      "ument": 2712,
      "ination": 2713,
      "ffic": 2714,
      "ese": 2715,
      " lim": 2716,
      "oll": 2717,
      " throughout": 2718,
      " across": 2719,
      " Reg": 2720,
      " developed": 2721,
      " thought": 2722,
      "iec": 2723,
      " Mich": 2724,
      " Lond": 2725,
      " seven": 2726,
      " somet": 2727,
      " cast": 2728,
      "aint": 2729,
      "ords": 2730,
      "ster": 2731,
      " gl": 2732,
      " proc": 2733,
      " William": 2734,
      " London": 2735,
      " pra": 2736,
      " rad": 2737,
      " introdu": 2738,
      "af": 2739,
      " good": 2740,
      " Feder": 2741,
      " using": 2742,
      " himself": 2743,
      " development": 2744,
      " black": 2745,
      "iness": 2746,
      "omb": 2747,
      " hig": 2748,
      " Har": 2749,
      " felt": 2750,
      "idence": 2751,
      "reek": 2752,
      " Australia": 2753,
      " human": 2754,
      " significant": 2755,
      " ide": 2756,
      " Air": 2757,
      "utes": 2758,
      "aren": 2759,
      " wat": 2760,
      " performed": 2761,
      " bar": 2762,
      "ump": 2763,
      " important": 2764,
      "most": 2765,
      "ivil": 2766,
      " Gl": 2767,
      " adm": 2768,
      " Atl": 2769,
      "itive": 2770,
      " night": 2771,
      " writing": 2772,
      " fun": 2773,
      " Pal": 2774,
      " Rich": 2775,
      " Ex": 2776,
      " destroy": 2777,
      " father": 2778,
      " Mag": 2779,
      " miles": 2780,
      " bo": 2781,
      "antic": 2782,
      " television": 2783,
      " Roy": 2784,
      " U.S.": 2785,
      " interest": 2786,
      " various": 2787,
      "osaur": 2788,
      " areas": 2789,
      "ief": 2790,
      " tour": 2791,
      "imately": 2792,
      " white": 2793,
      " modern": 2794,
      " full": 2795,
      "field": 2796,
      " ten": 2797,
      " died": 2798,
      " Cal": 2799,
      " look": 2800,
      "rie": 2801,
      "ogn": 2802,
      " enc": 2803,
      " activ": 2804,
      "ael": 2805,
      "aign": 2806,
      " went": 2807,
      " law": 2808,
      " Rober": 2809,
      " need": 2810,
      " tro": 2811,
      " events": 2812,
      " prim": 2813,
      " does": 2814,
      " successful": 2815,
      " Road": 2816,
      "ico": 2817,
      " red": 2818,
      "ization": 2819,
      " discover": 2820,
      " players": 2821,
      " started": 2822,
      " mm": 2823,
      " To": 2824,
      "rab": 2825,
      " James": 2826,
      " decl": 2827,
      "con": 2828,
      "reg": 2829,
      " ball": 2830,
      "ript": 2831,
      " see": 2832,
      "iting": 2833,
      " house": 2834,
      " feet": 2835,
      " formed": 2836,
      "ks": 2837,
      " wid": 2838,
      "ourn": 2839,
      " poem": 2840,
      " techn": 2841,
      " mix": 2842,
      " range": 2843,
      " Mount": 2844,
      " sett": 2845,
      " performance": 2846,
      " County": 2847,
      "rest": 2848,
      " put": 2849,
      " style": 2850,
      " vill": 2851,
      " relations": 2852,
      " building": 2853,
      " age": 2854,
      " sum": 2855,
      " too": 2856,
      " force": 2857,
      "abor": 2858,
      " caused": 2859,
      "ana": 2860,
      " ke": 2861,
      "ino": 2862,
      "epend": 2863,
      "ara": 2864,
      " You": 2865,
      "alth": 2866,
      " Ke": 2867,
      "ublic": 2868,
      " sw": 2869,
      "ened": 2870,
      " Cro": 2871,
      " novel": 2872,
      " pri": 2873,
      "iers": 2874,
      "isted": 2875,
      " 189": 2876,
      " created": 2877,
      " official": 2878,
      "day": 2879,
      "fall": 2880,
      "idd": 2881,
      "elling": 2882,
      "asing": 2883,
      " Som": 2884,
      " 2004": 2885,
      " Ang": 2886,
      "ym": 2887,
      " pit": 2888,
      " 2005": 2889,
      " relig": 2890,
      " entire": 2891,
      "gr": 2892,
      "less": 2893,
      " son": 2894,
      "ality": 2895,
      "eth": 2896,
      " Ol": 2897,
      " able": 2898,
      " coast": 2899,
      " political": 2900,
      " High": 2901,
      "ries": 2902,
      "ressed": 2903,
      " characters": 2904,
      " Sec": 2905,
      " ste": 2906,
      "inal": 2907,
      " get": 2908,
      " Ham": 2909,
      " others": 2910,
      " construction": 2911,
      " cert": 2912,
      " bird": 2913,
      " pred": 2914,
      " promot": 2915,
      "ases": 2916,
      " battle": 2917,
      "br": 2918,
      " Town": 2919,
      " national": 2920,
      "ways": 2921,
      "acy": 2922,
      " occur": 2923,
      "oming": 2924,
      " val": 2925,
      " ’": 2926,
      " fig": 2927,
      " Sw": 2928,
      "ample": 2929,
      " lik": 2930,
      "ament": 2931,
      " once": 2932,
      " Hist": 2933,
      "play": 2934,
      "ficult": 2935,
      " fac": 2936,
      " remained": 2937,
      "por": 2938,
      " Care": 2939,
      " Bra": 2940,
      " located": 2941,
      " mount": 2942,
      " tradition": 2943,
      "enth": 2944,
      "ivid": 2945,
      " rock": 2946,
      " scored": 2947,
      " works": 2948,
      " difficult": 2949,
      " Kingdom": 2950,
      "craft": 2951,
      " redu": 2952,
      " 31": 2953,
      " produc": 2954,
      "lected": 2955,
      " Island": 2956,
      " campaign": 2957,
      " guns": 2958,
      " tre": 2959,
      " cross": 2960,
      " Cup": 2961,
      " Mon": 2962,
      " stars": 2963,
      " Grand": 2964,
      " meet": 2965,
      " completed": 2966,
      " Australian": 2967,
      " announced": 2968,
      " rank": 2969,
      " region": 2970,
      " hold": 2971,
      "ett": 2972,
      " squ": 2973,
      "orse": 2974,
      " nuc": 2975,
      "ounc": 2976,
      "off": 2977,
      "itted": 2978,
      " grow": 2979,
      " super": 2980,
      " colle": 2981,
      " goal": 2982,
      " Company": 2983,
      "ique": 2984,
      "oid": 2985,
      " fav": 2986,
      "arch": 2987,
      " little": 2988,
      " conn": 2989,
      "umb": 2990,
      " let": 2991,
      " process": 2992,
      "ray": 2993,
      "enced": 2994,
      " fight": 2995,
      " front": 2996,
      "aly": 2997,
      "omp": 2998,
      "rought": 2999,
      " instead": 3000,
      " Act": 3001,
      "ky": 3002,
      " circ": 3003,
      " 29": 3004,
      " added": 3005,
      "here": 3006,
      "leet": 3007,
      " Mor": 3008,
      " cond": 3009,
      "omm": 3010,
      " least": 3011,
      "duct": 3012,
      " followed": 3013,
      " Bill": 3014,
      " know": 3015,
      " peak": 3016,
      " appeared": 3017,
      " born": 3018,
      " killed": 3019,
      " southern": 3020,
      "angu": 3021,
      " originally": 3022,
      " months": 3023,
      "oice": 3024,
      " wife": 3025,
      "urb": 3026,
      " comment": 3027,
      " Army": 3028,
      " stri": 3029,
      " David": 3030,
      "mar": 3031,
      " fif": 3032,
      " mother": 3033,
      " loss": 3034,
      "ota": 3035,
      " study": 3036,
      "ius": 3037,
      " hurricane": 3038,
      " associ": 3039,
      " women": 3040,
      " cell": 3041,
      "ects": 3042,
      " Music": 3043,
      " ident": 3044,
      " mass": 3045,
      "ston": 3046,
      " eastern": 3047,
      " non": 3048,
      " sex": 3049,
      "antry": 3050,
      " 40": 3051,
      " agre": 3052,
      " relationship": 3053,
      " aud": 3054,
      " award": 3055,
      " 2003": 3056,
      " critics": 3057,
      " broad": 3058,
      "ycl": 3059,
      " anim": 3060,
      " 185": 3061,
      " eventually": 3062,
      " features": 3063,
      " profess": 3064,
      "olution": 3065,
      " God": 3066,
      " Other": 3067,
      " voc": 3068,
      " young": 3069,
      "aper": 3070,
      " recogn": 3071,
      " 2015": 3072,
      "gin": 3073,
      "ata": 3074,
      " bus": 3075,
      " live": 3076,
      "ements": 3077,
      "ully": 3078,
      " France": 3079,
      " aver": 3080,
      " fourth": 3081,
      " taken": 3082,
      " Ser": 3083,
      "emy": 3084,
      " route": 3085,
      " estim": 3086,
      "cher": 3087,
      " Two": 3088,
      " Ber": 3089,
      " served": 3090,
      "liam": 3091,
      "ores": 3092,
      "istic": 3093,
      "ask": 3094,
      " commer": 3095,
      " prote": 3096,
      "illa": 3097,
      " appoint": 3098,
      "ography": 3099,
      "ze": 3100,
      " Co": 3101,
      "omes": 3102,
      " lack": 3103,
      "chie": 3104,
      " decided": 3105,
      " damage": 3106,
      "ama": 3107,
      " Mad": 3108,
      "unk": 3109,
      " heavy": 3110,
      "igned": 3111,
      "azine": 3112,
      " cor": 3113,
      " base": 3114,
      " either": 3115,
      " Im": 3116,
      " Battalion": 3117,
      "iation": 3118,
      " far": 3119,
      " condom": 3120,
      " proble": 3121,
      " separ": 3122,
      " arm": 3123,
      " impro": 3124,
      " insp": 3125,
      "val": 3126,
      " Part": 3127,
      "ought": 3128,
      " special": 3129,
      " behind": 3130,
      " Robert": 3131,
      " toget": 3132,
      "ica": 3133,
      "ecut": 3134,
      " Love": 3135,
      " coll": 3136,
      " individ": 3137,
      " believed": 3138,
      " together": 3139,
      " A.": 3140,
      "ida": 3141,
      " arg": 3142,
      " quar": 3143,
      "ency": 3144,
      "liament": 3145,
      "ipp": 3146,
      "aves": 3147,
      " clos": 3148,
      "iction": 3149,
      "ouncil": 3150,
      "cial": 3151,
      " mater": 3152,
      "rict": 3153,
      " playing": 3154,
      " Royal": 3155,
      " Carey": 3156,
      " burn": 3157,
      " dou": 3158,
      " Red": 3159,
      "rap": 3160,
      "aching": 3161,
      "iol": 3162,
      "iber": 3163,
      " Med": 3164,
      " move": 3165,
      " ir": 3166,
      " round": 3167,
      " creat": 3168,
      " bi": 3169,
      " langu": 3170,
      " Hen": 3171,
      " Du": 3172,
      " vol": 3173,
      " dev": 3174,
      " example": 3175,
      " close": 3176,
      " accept": 3177,
      " Mex": 3178,
      "gg": 3179,
      " Some": 3180,
      " Min": 3181,
      " almost": 3182,
      " 188": 3183,
      " No.": 3184,
      "alt": 3185,
      "ests": 3186,
      " service": 3187,
      " leading": 3188,
      " European": 3189,
      " sour": 3190,
      " fall": 3191,
      " Rep": 3192,
      "odes": 3193,
      " White": 3194,
      " generally": 3195,
      " Federer": 3196,
      " saw": 3197,
      "ators": 3198,
      " ce": 3199,
      " towards": 3200,
      " opened": 3201,
      " elements": 3202,
      "eal": 3203,
      " miss": 3204,
      " 35": 3205,
      "uter": 3206,
      "oring": 3207,
      " brought": 3208,
      " Brigade": 3209,
      " general": 3210,
      " weeks": 3211,
      " mot": 3212,
      " Pres": 3213,
      "ceed": 3214,
      " Wales": 3215,
      " Game": 3216,
      " International": 3217,
      " finished": 3218,
      " draw": 3219,
      " z": 3220,
      "stit": 3221,
      " laun": 3222,
      " Flor": 3223,
      " wall": 3224,
      " host": 3225,
      "oph": 3226,
      " Kh": 3227,
      " Viet": 3228,
      " regular": 3229,
      " highway": 3230,
      " featured": 3231,
      "cast": 3232,
      " Ir": 3233,
      " central": 3234,
      " aircraft": 3235,
      "lement": 3236,
      "irl": 3237,
      "ending": 3238,
      " indust": 3239,
      "board": 3240,
      " East": 3241,
      "ordan": 3242,
      "ounter": 3243,
      " resear": 3244,
      " reb": 3245,
      "etwork": 3246,
      " contract": 3247,
      " points": 3248,
      "eum": 3249,
      " fund": 3250,
      " inform": 3251,
      " directed": 3252,
      " -": 3253,
      " action": 3254,
      " mi": 3255,
      " Mo": 3256,
      "orts": 3257,
      " suff": 3258,
      " Championship": 3259,
      " meas": 3260,
      " director": 3261,
      " provided": 3262,
      "hing": 3263,
      " cut": 3264,
      "icated": 3265,
      " ren": 3266,
      " Bo": 3267,
      " Follow": 3268,
      "ude": 3269,
      "wood": 3270,
      " flood": 3271,
      " respect": 3272,
      " nar": 3273,
      " Jordan": 3274,
      " sequ": 3275,
      " upon": 3276,
      " mean": 3277,
      "ential": 3278,
      " From": 3279,
      " Gal": 3280,
      " appearance": 3281,
      "ned": 3282,
      " Jew": 3283,
      " yard": 3284,
      "ellow": 3285,
      " 186": 3286,
      " earlier": 3287,
      "sel": 3288,
      "ying": 3289,
      "atin": 3290,
      " Pe": 3291,
      " Rock": 3292,
      " Em": 3293,
      " king": 3294,
      " cost": 3295,
      " Cr": 3296,
      " rather": 3297,
      "ights": 3298,
      " 2014": 3299,
      " subsequ": 3300,
      " female": 3301,
      " Atlantic": 3302,
      " troops": 3303,
      " ill": 3304,
      "tt": 3305,
      " reve": 3306,
      " stru": 3307,
      " Od": 3308,
      "ishing": 3309,
      "medi": 3310,
      " Christian": 3311,
      " current": 3312,
      " Mary": 3313,
      " Op": 3314,
      " ve": 3315,
      " river": 3316,
      " largest": 3317,
      " travel": 3318,
      " victory": 3319,
      " Following": 3320,
      " House": 3321,
      "ander": 3322,
      " employ": 3323,
      " operations": 3324,
      " Hero": 3325,
      " particularly": 3326,
      " George": 3327,
      " manager": 3328,
      " achie": 3329,
      "erous": 3330,
      "ouri": 3331,
      " 19th": 3332,
      " prob": 3333,
      "ule": 3334,
      " fort": 3335,
      " opening": 3336,
      " wanted": 3337,
      "ving": 3338,
      " cop": 3339,
      " bur": 3340,
      " 500": 3341,
      "ength": 3342,
      " northern": 3343,
      "ault": 3344,
      " Mac": 3345,
      "ids": 3346,
      "osition": 3347,
      " exist": 3348,
      " yards": 3349,
      " evidence": 3350,
      " Play": 3351,
      "ita": 3352,
      " foc": 3353,
      " reason": 3354,
      " Sl": 3355,
      "eler": 3356,
      " conduct": 3357,
      " Phil": 3358,
      " Florida": 3359,
      "ee": 3360,
      "ih": 3361,
      "of": 3362,
      "yd": 3363,
      "head": 3364,
      " member": 3365,
      " Wal": 3366,
      "reng": 3367,
      " pract": 3368,
      "uck": 3369,
      "vest": 3370,
      " saying": 3371,
      "oms": 3372,
      " Bay": 3373,
      " Wil": 3374,
      "anding": 3375,
      " Street": 3376,
      " outside": 3377,
      " crew": 3378,
      " allowed": 3379,
      " possible": 3380,
      " engine": 3381,
      "co": 3382,
      "west": 3383,
      "atural": 3384,
      " Most": 3385,
      " Paul": 3386,
      " account": 3387,
      " Oliv": 3388,
      "uel": 3389,
      " past": 3390,
      " mer": 3391,
      " Mark": 3392,
      "irth": 3393,
      " stage": 3394,
      " neg": 3395,
      " McC": 3396,
      " hours": 3397,
      " whom": 3398,
      " respons": 3399,
      "conom": 3400,
      " case": 3401,
      "ington": 3402,
      "ago": 3403,
      "artment": 3404,
      " Missouri": 3405,
      " material": 3406,
      "bor": 3407,
      "ills": 3408,
      " 2001": 3409,
      " desp": 3410,
      " worked": 3411,
      " regard": 3412,
      " free": 3413,
      " mach": 3414,
      " length": 3415,
      " nec": 3416,
      " But": 3417,
      " gre": 3418,
      " streng": 3419,
      " object": 3420,
      " territ": 3421,
      " Tech": 3422,
      " gold": 3423,
      " plann": 3424,
      "aps": 3425,
      " working": 3426,
      " nomin": 3427,
      "vert": 3428,
      "ems": 3429,
      "lus": 3430,
      "ville": 3431,
      "aries": 3432,
      " San": 3433,
      " love": 3434,
      " rul": 3435,
      " poor": 3436,
      " quick": 3437,
      " designed": 3438,
      "cent": 3439,
      "now": 3440,
      "uk": 3441,
      "ari": 3442,
      " Vir": 3443,
      " Qu": 3444,
      " football": 3445,
      "onst": 3446,
      " mult": 3447,
      " hon": 3448,
      "urt": 3449,
      " Bus": 3450,
      " learn": 3451,
      " Indian": 3452,
      " construct": 3453,
      " praised": 3454,
      " esc": 3455,
      "ps": 3456,
      " treat": 3457,
      " Tor": 3458,
      " Best": 3459,
      " forced": 3460,
      " station": 3461,
      " Day": 3462,
      " First": 3463,
      "ession": 3464,
      " remains": 3465,
      " avail": 3466,
      "rated": 3467,
      "ites": 3468,
      "iding": 3469,
      " viol": 3470,
      " Val": 3471,
      " 187": 3472,
      " goals": 3473,
      " Michael": 3474,
      "uation": 3475,
      " think": 3476,
      "gypt": 3477,
      " winds": 3478,
      "heast": 3479,
      " civil": 3480,
      " Sm": 3481,
      " Squ": 3482,
      " above": 3483,
      " diss": 3484,
      " invest": 3485,
      " increased": 3486,
      " £": 3487,
      " pers": 3488,
      " Hel": 3489,
      " Fe": 3490,
      " Egypt": 3491,
      "hens": 3492,
      " previously": 3493,
      "wh": 3494,
      "itz": 3495,
      " Desp": 3496,
      "ula": 3497,
      "pper": 3498,
      " Thom": 3499,
      " soon": 3500,
      " replaced": 3501,
      " commercial": 3502,
      "asion": 3503,
      "ributed": 3504,
      " Richard": 3505,
      "BC": 3506,
      "gl": 3507,
      "erved": 3508,
      " must": 3509,
      " Ac": 3510,
      " Ag": 3511,
      " App": 3512,
      " ask": 3513,
      " Gr": 3514,
      " interview": 3515,
      " maint": 3516,
      " Super": 3517,
      " business": 3518,
      "onc": 3519,
      " clear": 3520,
      " pain": 3521,
      "ste": 3522,
      "olic": 3523,
      " Whe": 3524,
      "ription": 3525,
      " Despite": 3526,
      " Corp": 3527,
      " ly": 3528,
      " Dep": 3529,
      "osing": 3530,
      "abit": 3531,
      " writer": 3532,
      " Que": 3533,
      " Brown": 3534,
      " quarter": 3535,
      " °": 3536,
      "ming": 3537,
      " trib": 3538,
      " threat": 3539,
      " Mont": 3540,
      " unc": 3541,
      " Henry": 3542,
      "AF": 3543,
      "atory": 3544,
      "ania": 3545,
      " mph": 3546,
      " Os": 3547,
      " units": 3548,
      "oney": 3549,
      " Canada": 3550,
      " estimated": 3551,
      " pen": 3552,
      "ulf": 3553,
      "iff": 3554,
      "aker": 3555,
      "ibility": 3556,
      " specific": 3557,
      " court": 3558,
      " Oldham": 3559,
      "face": 3560,
      " pur": 3561,
      " react": 3562,
      "acing": 3563,
      " 36": 3564,
      " claimed": 3565,
      " Japanese": 3566,
      " joined": 3567,
      " highest": 3568,
      "band": 3569,
      "men": 3570,
      " Times": 3571,
      "ulated": 3572,
      "ching": 3573,
      " placed": 3574,
      " contr": 3575,
      " Carol": 3576,
      " involved": 3577,
      "ecutive": 3578,
      " President": 3579,
      "for": 3580,
      " western": 3581,
      " fly": 3582,
      " Sun": 3583,
      " Govern": 3584,
      " priv": 3585,
      " signed": 3586,
      " suggested": 3587,
      "leg": 3588,
      " Mos": 3589,
      "elled": 3590,
      " 45": 3591,
      " 183": 3592,
      " parts": 3593,
      " syn": 3594,
      " Card": 3595,
      " My": 3596,
      " Gold": 3597,
      " intens": 3598,
      " India": 3599,
      " Olivier": 3600,
      " tru": 3601,
      " hous": 3602,
      " School": 3603,
      "thlet": 3604,
      " Later": 3605,
      " proper": 3606,
      " change": 3607,
      " league": 3608,
      " itself": 3609,
      " Vietn": 3610,
      " esp": 3611,
      "mb": 3612,
      " inj": 3613,
      " don": 3614,
      " Cong": 3615,
      " Hall": 3616,
      " shot": 3617,
      " rap": 3618,
      "anna": 3619,
      " average": 3620,
      " Mexico": 3621,
      " Irish": 3622,
      " taking": 3623,
      " hard": 3624,
      " Not": 3625,
      "ume": 3626,
      " available": 3627,
      " ey": 3628,
      "urg": 3629,
      " except": 3630,
      " scene": 3631,
      "ronic": 3632,
      " transport": 3633,
      " transfer": 3634,
      " brother": 3635,
      " break": 3636,
      "ready": 3637,
      " introduced": 3638,
      " hit": 3639,
      " Pac": 3640,
      " whose": 3641,
      " heav": 3642,
      " recording": 3643,
      " village": 3644,
      " wood": 3645,
      " stop": 3646,
      " race": 3647,
      " Star": 3648,
      " Var": 3649,
      " subject": 3650,
      " rail": 3651,
      "porary": 3652,
      " Thomas": 3653,
      "go": 3654,
      "rd": 3655,
      "ximately": 3656,
      " slow": 3657,
      " phys": 3658,
      " grad": 3659,
      " religious": 3660,
      " fr": 3661,
      " mem": 3662,
      " network": 3663,
      "achel": 3664,
      " gra": 3665,
      " educ": 3666,
      " told": 3667,
      " nine": 3668,
      " names": 3669,
      " NY": 3670,
      " abs": 3671,
      " remov": 3672,
      " Britain": 3673,
      " shows": 3674,
      " damaged": 3675,
      "iqu": 3676,
      " test": 3677,
      " cru": 3678,
      "arily": 3679,
      " piec": 3680,
      " independ": 3681,
      " Scient": 3682,
      " increasing": 3683,
      " turned": 3684,
      " capital": 3685,
      " social": 3686,
      " Republic": 3687,
      "gu": 3688,
      " ap": 3689,
      "oration": 3690,
      " cal": 3691,
      "enes": 3692,
      " lines": 3693,
      " give": 3694,
      " Hurricane": 3695,
      " Po": 3696,
      " Great": 3697,
      " chap": 3698,
      " That": 3699,
      " Guitar": 3700,
      " structure": 3701,
      "aled": 3702,
      " Many": 3703,
      " Ant": 3704,
      " feel": 3705,
      " nearly": 3706,
      " determ": 3707,
      " appointed": 3708,
      " despite": 3709,
      " size": 3710,
      " cycl": 3711,
      "odies": 3712,
      " Union": 3713,
      " Zeal": 3714,
      " complet": 3715,
      " community": 3716,
      " ?": 3717,
      "hib": 3718,
      " bill": 3719,
      " international": 3720,
      " den": 3721,
      " date": 3722,
      " liter": 3723,
      " econom": 3724,
      " La": 3725,
      "ateg": 3726,
      "rang": 3727,
      " 184": 3728,
      " Art": 3729,
      " surround": 3730,
      " passed": 3731,
      "r.": 3732,
      " fut": 3733,
      " might": 3734,
      "oul": 3735,
      "ecially": 3736,
      "irt": 3737,
      " withd": 3738,
      "rian": 3739,
      "bert": 3740,
      " St.": 3741,
      "hedral": 3742,
      " score": 3743,
      " immedi": 3744,
      "inese": 3745,
      " occup": 3746,
      " establish": 3747,
      " debut": 3748,
      " initially": 3749,
      "osaurus": 3750,
      " certain": 3751,
      "lict": 3752,
      " winning": 3753,
      " cas": 3754,
      " pot": 3755,
      " tow": 3756,
      " Ma": 3757,
      " already": 3758,
      " Ever": 3759,
      " deal": 3760,
      " disp": 3761,
      " assist": 3762,
      " going": 3763,
      " particip": 3764,
      " archae": 3765,
      " Pacific": 3766,
      " failed": 3767,
      "ication": 3768,
      " states": 3769,
      " Chinese": 3770,
      " Early": 3771,
      " Zealand": 3772,
      "fect": 3773,
      "ha": 3774,
      "ires": 3775,
      " male": 3776,
      " doc": 3777,
      " Don": 3778,
      "rag": 3779,
      " Jin": 3780,
      "ability": 3781,
      " according": 3782,
      " rain": 3783,
      " training": 3784,
      " forest": 3785,
      " language": 3786,
      " probably": 3787,
      " especially": 3788,
      "den": 3789,
      " food": 3790,
      " Sing": 3791,
      " Cath": 3792,
      " key": 3793,
      " 2002": 3794,
      "ification": 3795,
      " depict": 3796,
      " minor": 3797,
      " issue": 3798,
      "nel": 3799,
      " aut": 3800,
      " daugh": 3801,
      " Pri": 3802,
      " Film": 3803,
      " Law": 3804,
      " 60": 3805,
      " studio": 3806,
      " III": 3807,
      " Tom": 3808,
      "ady": 3809,
      " forward": 3810,
      " Peter": 3811,
      " spent": 3812,
      " includes": 3813,
      "ference": 3814,
      " arrived": 3815,
      " ordered": 3816,
      " History": 3817,
      " Wheeler": 3818,
      "aut": 3819,
      "ship": 3820,
      "ises": 3821,
      " Awards": 3822,
      " Sch": 3823,
      "ilities": 3824,
      "aval": 3825,
      " army": 3826,
      " enough": 3827,
      " remaining": 3828,
      " block": 3829,
      " visit": 3830,
      " Canadian": 3831,
      " Angel": 3832,
      "stein": 3833,
      "ties": 3834,
      "onse": 3835,
      " fail": 3836,
      " dro": 3837,
      " Navy": 3838,
      " sometimes": 3839,
      " mixed": 3840,
      "back": 3841,
      "lor": 3842,
      "zz": 3843,
      " di": 3844,
      " Ter": 3845,
      " Soc": 3846,
      "owl": 3847,
      " Rose": 3848,
      " come": 3849,
      " UK": 3850,
      " complete": 3851,
      " approximately": 3852,
      " reviews": 3853,
      " required": 3854,
      " Associ": 3855,
      "orial": 3856,
      " touch": 3857,
      " Creek": 3858,
      " lower": 3859,
      " latter": 3860,
      "quar": 3861,
      "ranch": 3862,
      "rics": 3863,
      " imm": 3864,
      " center": 3865,
      "to": 3866,
      " Mer": 3867,
      " Met": 3868,
      "lymp": 3869,
      " Penn": 3870,
      " Inf": 3871,
      " remain": 3872,
      " beginning": 3873,
      " Africa": 3874,
      "down": 3875,
      "inct": 3876,
      "inist": 3877,
      "stant": 3878,
      " Hol": 3879,
      " Olymp": 3880,
      " 2000": 3881,
      " Virgin": 3882,
      " sem": 3883,
      " woman": 3884,
      "etic": 3885,
      " Stud": 3886,
      " journ": 3887,
      " decision": 3888,
      " prevent": 3889,
      " limited": 3890,
      "iest": 3891,
      "rack": 3892,
      "under": 3893,
      " happ": 3894,
      " dead": 3895,
      " 38": 3896,
      " usually": 3897,
      " better": 3898,
      " students": 3899,
      " additional": 3900,
      " changes": 3901,
      " Regiment": 3902,
      "edy": 3903,
      " stay": 3904,
      " Rout": 3905,
      " Rachel": 3906,
      " Nort": 3907,
      " Je": 3908,
      "aby": 3909,
      " president": 3910,
      " emb": 3911,
      " running": 3912,
      " response": 3913,
      "rat": 3914,
      " sch": 3915,
      "adron": 3916,
      " ended": 3917,
      " positive": 3918,
      " larger": 3919,
      " Scott": 3920,
      " concern": 3921,
      "gar": 3922,
      "erat": 3923,
      " mention": 3924,
      " TV": 3925,
      " Award": 3926,
      " quest": 3927,
      " supported": 3928,
      " type": 3929,
      " magazine": 3930,
      "ios": 3931,
      "uals": 3932,
      " Fort": 3933,
      " Jer": 3934,
      " notes": 3935,
      " depression": 3936,
      " police": 3937,
      " Charles": 3938,
      " pressure": 3939,
      " prior": 3940,
      "oor": 3941,
      "reak": 3942,
      " wide": 3943,
      " birth": 3944,
      "enty": 3945,
      " compl": 3946,
      " amount": 3947,
      " birds": 3948,
      " shown": 3949,
      " 1995": 3950,
      " related": 3951,
      " Billboard": 3952,
      " face": 3953,
      "uments": 3954,
      " 75": 3955,
      " feature": 3956,
      "rief": 3957,
      " fifth": 3958,
      " future": 3959,
      "aring": 3960,
      " Hot": 3961,
      " Under": 3962,
      " appl": 3963,
      " provide": 3964,
      " defeated": 3965,
      "com": 3966,
      " che": 3967,
      "ani": 3968,
      " der": 3969,
      "ils": 3970,
      " Camp": 3971,
      " Hill": 3972,
      " staff": 3973,
      " anc": 3974,
      "arts": 3975,
      " discovered": 3976,
      "bers": 3977,
      " sat": 3978,
      " sil": 3979,
      " section": 3980,
      " Sy": 3981,
      " Pat": 3982,
      " Res": 3983,
      " Oper": 3984,
      "ifa": 3985,
      " temper": 3986,
      " Route": 3987,
      "hou": 3988,
      "ney": 3989,
      " cm": 3990,
      "enon": 3991,
      " doll": 3992,
      " Bel": 3993,
      " FI": 3994,
      " Western": 3995,
      "riage": 3996,
      "ishop": 3997,
      " becoming": 3998,
      " Frank": 3999,
      " frequ": 4000,
      "gely": 4001,
      "oo": 4002,
      "eding": 4003,
      " word": 4004,
      "rael": 4005,
      " Light": 4006,
      " Colle": 4007,
      " Arab": 4008,
      " Rh": 4009,
      " Wood": 4010,
      "ands": 4011,
      " vot": 4012,
      " exam": 4013,
      "ector": 4014,
      "oke": 4015,
      "key": 4016,
      "oys": 4017,
      " smaller": 4018,
      "uf": 4019,
      "itte": 4020,
      " flow": 4021,
      " domin": 4022,
      " Tur": 4023,
      "idents": 4024,
      "unt": 4025,
      "raw": 4026,
      " intended": 4027,
      " percent": 4028,
      " screen": 4029,
      " colon": 4030,
      " groups": 4031,
      " idea": 4032,
      " Scientology": 4033,
      "well": 4034,
      "inent": 4035,
      " fir": 4036,
      " fleet": 4037,
      "asy": 4038,
      "iforn": 4039,
      " Year": 4040,
      " themsel": 4041,
      " mostly": 4042,
      " metres": 4043,
      " conclud": 4044,
      " discuss": 4045,
      " Haifa": 4046,
      " radio": 4047,
      " professional": 4048,
      " themselves": 4049,
      "gen": 4050,
      "ses": 4051,
      "era": 4052,
      "anies": 4053,
      " Russ": 4054,
      "ples": 4055,
      " 2016": 4056,
      " musical": 4057,
      " surface": 4058,
      " minutes": 4059,
      " captured": 4060,
      " referred": 4061,
      " Croat": 4062,
      " likely": 4063,
      "uing": 4064,
      "anish": 4065,
      " Since": 4066,
      " Mil": 4067,
      "imate": 4068,
      "cean": 4069,
      " Over": 4070,
      "iano": 4071,
      " office": 4072,
      " largely": 4073,
      " Parliament": 4074,
      " problems": 4075,
      " Association": 4076,
      "ror": 4077,
      " try": 4078,
      " lab": 4079,
      " link": 4080,
      " How": 4081,
      "rain": 4082,
      " Up": 4083,
      " und": 4084,
      " contem": 4085,
      " indic": 4086,
      " entered": 4087,
      " media": 4088,
      " Portug": 4089,
      " summer": 4090,
      "quarters": 4091,
      "iser": 4092,
      "isions": 4093,
      " makes": 4094,
      " Sov": 4095,
      " Nic": 4096,
      " Ott": 4097,
      " shoot": 4098,
      " Ver": 4099,
      " ens": 4100,
      "orning": 4101,
      " moving": 4102,
      " Israel": 4103,
      " Earth": 4104,
      " observ": 4105,
      " broadcast": 4106,
      " self": 4107,
      " pair": 4108,
      " contains": 4109,
      " Californ": 4110,
      " keep": 4111,
      " constructed": 4112,
      "sen": 4113,
      " inn": 4114,
      " money": 4115,
      "lex": 4116,
      " Sam": 4117,
      " Council": 4118,
      " Bey": 4119,
      " concept": 4120,
      " voice": 4121,
      " Inter": 4122,
      " sea": 4123,
      " 1999": 4124,
      " paren": 4125,
      " Sur": 4126,
      " nature": 4127,
      "iva": 4128,
      " Haw": 4129,
      " Ross": 4130,
      "ruit": 4131,
      " adop": 4132,
      "ylv": 4133,
      " guitar": 4134,
      " effects": 4135,
      " cele": 4136,
      " Galvest": 4137,
      " Galveston": 4138,
      "kan": 4139,
      "ergy": 4140,
      " stories": 4141,
      " Chic": 4142,
      "onym": 4143,
      " grant": 4144,
      " majority": 4145,
      " listed": 4146,
      " ranked": 4147,
      " Jewish": 4148,
      "het": 4149,
      " consist": 4150,
      " create": 4151,
      "hester": 4152,
      " experience": 4153,
      " research": 4154,
      "ma": 4155,
      " cle": 4156,
      "urity": 4157,
      " leaving": 4158,
      " uns": 4159,
      " meth": 4160,
      " Brad": 4161,
      " critical": 4162,
      " favor": 4163,
      " schol": 4164,
      " brief": 4165,
      " thus": 4166,
      " Mart": 4167,
      "owler": 4168,
      "aven": 4169,
      " 33": 4170,
      "ously": 4171,
      " script": 4172,
      " earth": 4173,
      " controll": 4174,
      " primary": 4175,
      "eratops": 4176,
      "pool": 4177,
      "rison": 4178,
      "oud": 4179,
      " Serv": 4180,
      " lived": 4181,
      " always": 4182,
      "ership": 4183,
      " deep": 4184,
      " Another": 4185,
      " 80": 4186,
      " underst": 4187,
      " films": 4188,
      " location": 4189,
      "anks": 4190,
      " runs": 4191,
      " officers": 4192,
      " gods": 4193,
      " agreed": 4194,
      " lyrics": 4195,
      " ri": 4196,
      "atively": 4197,
      " 2nd": 4198,
      "change": 4199,
      "teen": 4200,
      " rare": 4201,
      "ospital": 4202,
      " launched": 4203,
      " California": 4204,
      "dle": 4205,
      " counter": 4206,
      " ded": 4207,
      "aches": 4208,
      " Pet": 4209,
      "illery": 4210,
      "order": 4211,
      "lands": 4212,
      " attract": 4213,
      " prem": 4214,
      " teams": 4215,
      " minute": 4216,
      " culture": 4217,
      " quickly": 4218,
      " Catholic": 4219,
      " x": 4220,
      "awn": 4221,
      "ras": 4222,
      " fans": 4223,
      " If": 4224,
      " Fore": 4225,
      " Form": 4226,
      " meant": 4227,
      " amb": 4228,
      " episodes": 4229,
      " proposed": 4230,
      " occurred": 4231,
      " Chicago": 4232,
      "lo": 4233,
      "oir": 4234,
      " Saint": 4235,
      " lo": 4236,
      "imum": 4237,
      " whether": 4238,
      " adapt": 4239,
      " 400": 4240,
      " assigned": 4241,
      " access": 4242,
      " increase": 4243,
      "AS": 4244,
      " cred": 4245,
      " dram": 4246,
      " hop": 4247,
      " Tre": 4248,
      " Bec": 4249,
      " Latin": 4250,
      "umn": 4251,
      " 32": 4252,
      " poet": 4253,
      " cann": 4254,
      " product": 4255,
      " forms": 4256,
      " traffic": 4257,
      " appears": 4258,
      " defeat": 4259,
      " changed": 4260,
      " destroyed": 4261,
      "iant": 4262,
      " tons": 4263,
      " log": 4264,
      " Ben": 4265,
      " asp": 4266,
      " Nix": 4267,
      " commission": 4268,
      " trade": 4269,
      " Enter": 4270,
      " Arch": 4271,
      " longer": 4272,
      " Battle": 4273,
      " Central": 4274,
      " meaning": 4275,
      "mas": 4276,
      "ón": 4277,
      "oned": 4278,
      " bound": 4279,
      "anced": 4280,
      "rol": 4281,
      " mom": 4282,
      " Sever": 4283,
      " Camb": 4284,
      " Mey": 4285,
      " Ho": 4286,
      "ortun": 4287,
      " ran": 4288,
      " Alice": 4289,
      " job": 4290,
      " theme": 4291,
      " numbers": 4292,
      " princ": 4293,
      " Scot": 4294,
      "undred": 4295,
      " soldiers": 4296,
      " competition": 4297,
      " nucle": 4298,
      "ex": 4299,
      " bomb": 4300,
      " reach": 4301,
      " girl": 4302,
      "thing": 4303,
      " Dj": 4304,
      " kil": 4305,
      " leave": 4306,
      " Ital": 4307,
      " newsp": 4308,
      " acqu": 4309,
      " carried": 4310,
      " Tex": 4311,
      " awarded": 4312,
      " focus": 4313,
      " Northern": 4314,
      "tar": 4315,
      " 300": 4316,
      " 1998": 4317,
      " concert": 4318,
      " consider": 4319,
      " conducted": 4320,
      " private": 4321,
      " daughter": 4322,
      "NA": 4323,
      "ening": 4324,
      "anas": 4325,
      "rown": 4326,
      " Tw": 4327,
      " natural": 4328,
      "ows": 4329,
      " Jam": 4330,
      " overall": 4331,
      " env": 4332,
      " 70": 4333,
      " records": 4334,
      " Second": 4335,
      " subsequently": 4336,
      "cing": 4337,
      "itation": 4338,
      " cause": 4339,
      " tourn": 4340,
      " Tra": 4341,
      " thick": 4342,
      " emer": 4343,
      " BC": 4344,
      "imin": 4345,
      "usband": 4346,
      " Del": 4347,
      " Liver": 4348,
      " deg": 4349,
      " plans": 4350,
      " Villa": 4351,
      " Alkan": 4352,
      " dism": 4353,
      " anti": 4354,
      " fighting": 4355,
      " ult": 4356,
      "bar": 4357,
      "ga": 4358,
      "lin": 4359,
      " takes": 4360,
      " sus": 4361,
      "eds": 4362,
      "itor": 4363,
      "itude": 4364,
      " box": 4365,
      " rein": 4366,
      " lay": 4367,
      " graph": 4368,
      " kind": 4369,
      "ective": 4370,
      " whole": 4371,
      " 1993": 4372,
      " election": 4373,
      " Polish": 4374,
      " influence": 4375,
      " commented": 4376,
      " double": 4377,
      " industry": 4378,
      " +": 4379,
      "ken": 4380,
      " Tay": 4381,
      " Tour": 4382,
      " Minn": 4383,
      " serious": 4384,
      " finally": 4385,
      " bring": 4386,
      " asked": 4387,
      " Nixon": 4388,
      " Liverpool": 4389,
      " tar": 4390,
      " dig": 4391,
      " throw": 4392,
      " 1st": 4393,
      "alled": 4394,
      " upper": 4395,
      " compared": 4396,
      " Its": 4397,
      " jud": 4398,
      " centre": 4399,
      " ending": 4400,
      " Georg": 4401,
      " Somers": 4402,
      "stitute": 4403,
      " greater": 4404,
      " method": 4405,
      "ny": 4406,
      " purch": 4407,
      " done": 4408,
      " reject": 4409,
      " Mal": 4410,
      " Back": 4411,
      "olk": 4412,
      " Lady": 4413,
      "istics": 4414,
      "ells": 4415,
      " unable": 4416,
      " 47": 4417,
      " flight": 4418,
      "ologist": 4419,
      " positions": 4420,
      " accomp": 4421,
      "itting": 4422,
      " married": 4423,
      "ittee": 4424,
      " Texas": 4425,
      "II": 4426,
      "ging": 4427,
      " our": 4428,
      " big": 4429,
      "alys": 4430,
      " Hum": 4431,
      " Foot": 4432,
      " 39": 4433,
      "aily": 4434,
      " buildings": 4435,
      " personal": 4436,
      " market": 4437,
      " standard": 4438,
      " Mosley": 4439,
      " rapid": 4440,
      " Somerset": 4441,
      " Tropical": 4442,
      " Sol": 4443,
      " got": 4444,
      " Rob": 4445,
      "agon": 4446,
      " yet": 4447,
      " Vict": 4448,
      " party": 4449,
      " earned": 4450,
      " books": 4451,
      "TV": 4452,
      " mor": 4453,
      " dark": 4454,
      " Tenn": 4455,
      " Cour": 4456,
      " living": 4457,
      " hero": 4458,
      " Out": 4459,
      " 20th": 4460,
      " Three": 4461,
      " 1996": 4462,
      " collect": 4463,
      " phot": 4464,
      " conflict": 4465,
      " begins": 4466,
      " issued": 4467,
      " Busch": 4468,
      "car": 4469,
      " mur": 4470,
      " dom": 4471,
      " Sal": 4472,
      "ada": 4473,
      " Bob": 4474,
      " Fin": 4475,
      " Lake": 4476,
      "ria": 4477,
      " directly": 4478,
      " marked": 4479,
      " terms": 4480,
      "aught": 4481,
      " traditional": 4482,
      "house": 4483,
      " sal": 4484,
      "umed": 4485,
      " health": 4486,
      " aband": 4487,
      " scenes": 4488,
      "athan": 4489,
      " movement": 4490,
      " Spanish": 4491,
      " Christmas": 4492,
      " marriage": 4493,
      " status": 4494,
      " African": 4495,
      " Taylor": 4496,
      "rey": 4497,
      " path": 4498,
      " Fowler": 4499,
      "bery": 4500,
      " Command": 4501,
      " slight": 4502,
      " helped": 4503,
      " figure": 4504,
      " Several": 4505,
      "rical": 4506,
      "itch": 4507,
      " batter": 4508,
      " pil": 4509,
      " Cross": 4510,
      " norm": 4511,
      "adm": 4512,
      "aded": 4513,
      " Dem": 4514,
      " Lou": 4515,
      "odon": 4516,
      "eway": 4517,
      " Storm": 4518,
      " sched": 4519,
      " 90": 4520,
      "embly": 4521,
      " starting": 4522,
      " attacks": 4523,
      " schools": 4524,
      " experi": 4525,
      " information": 4526,
      " suffered": 4527,
      " planned": 4528,
      "bury": 4529,
      "anz": 4530,
      " husband": 4531,
      " lif": 4532,
      " Ill": 4533,
      " giving": 4534,
      " Nor": 4535,
      " Just": 4536,
      " rh": 4537,
      " performances": 4538,
      " associated": 4539,
      " inspired": 4540,
      " source": 4541,
      " Infantry": 4542,
      " Soviet": 4543,
      "ien": 4544,
      " division": 4545,
      "cend": 4546,
      " Jane": 4547,
      "ify": 4548,
      " plot": 4549,
      " closed": 4550,
      "ounds": 4551,
      "ibly": 4552,
      " transl": 4553,
      " Cont": 4554,
      " presented": 4555,
      " initial": 4556,
      " condoms": 4557,
      " Party": 4558,
      " machine": 4559,
      "tation": 4560,
      "atre": 4561,
      "ican": 4562,
      " Trans": 4563,
      "imb": 4564,
      " Go": 4565,
      " via": 4566,
      " Inn": 4567,
      " room": 4568,
      " image": 4569,
      " raised": 4570,
      " presence": 4571,
      " polic": 4572,
      " greatest": 4573,
      " Series": 4574,
      " education": 4575,
      "ares": 4576,
      "like": 4577,
      "sylv": 4578,
      "uff": 4579,
      "erve": 4580,
      " fell": 4581,
      " inters": 4582,
      " pay": 4583,
      " hundred": 4584,
      " Tem": 4585,
      " Six": 4586,
      " Cast": 4587,
      "olf": 4588,
      " Long": 4589,
      " chall": 4590,
      "ections": 4591,
      " unit": 4592,
      " uses": 4593,
      " 42": 4594,
      " writers": 4595,
      " continue": 4596,
      " nearby": 4597,
      " Club": 4598,
      " Paris": 4599,
      "orpor": 4600,
      " Carolina": 4601,
      " document": 4602,
      " Pennsylv": 4603,
      " Virginia": 4604,
      " susp": 4605,
      "iated": 4606,
      "rate": 4607,
      "án": 4608,
      " park": 4609,
      " S.": 4610,
      " Ram": 4611,
      " Live": 4612,
      " prep": 4613,
      "iami": 4614,
      " complex": 4615,
      " covered": 4616,
      " collection": 4617,
      " cyclone": 4618,
      "rid": 4619,
      " talk": 4620,
      "itect": 4621,
      " habit": 4622,
      " Mill": 4623,
      "imony": 4624,
      " conver": 4625,
      "essa": 4626,
      " space": 4627,
      " composed": 4628,
      " enj": 4629,
      " weap": 4630,
      "inner": 4631,
      " annual": 4632,
      " services": 4633,
      " Acad": 4634,
      " Queen": 4635,
      " College": 4636,
      " Meyer": 4637,
      "iny": 4638,
      " bodies": 4639,
      " really": 4640,
      "ether": 4641,
      " Water": 4642,
      " sev": 4643,
      " 1997": 4644,
      " numerous": 4645,
      " metal": 4646,
      " extended": 4647,
      " commander": 4648,
      " cathedral": 4649,
      " waters": 4650,
      " figures": 4651,
      " producer": 4652,
      " territory": 4653,
      "oncé": 4654,
      " Beyoncé": 4655,
      "een": 4656,
      "tain": 4657,
      " hot": 4658,
      " things": 4659,
      " Miami": 4660,
      "uries": 4661,
      " Dan": 4662,
      " Dam": 4663,
      " Lo": 4664,
      " Jose": 4665,
      "anta": 4666,
      "pted": 4667,
      "ports": 4668,
      " Germany": 4669,
      " Museum": 4670,
      " something": 4671,
      " vocals": 4672,
      " proteins": 4673,
      " individual": 4674,
      "ped": 4675,
      "zy": 4676,
      " Their": 4677,
      " Games": 4678,
      " Nations": 4679,
      "ipal": 4680,
      " 44": 4681,
      " financ": 4682,
      " artist": 4683,
      " operation": 4684,
      "ricket": 4685,
      " necess": 4686,
      " investig": 4687,
      "ev": 4688,
      "uit": 4689,
      " tax": 4690,
      " saf": 4691,
      " pick": 4692,
      " morning": 4693,
      "estival": 4694,
      " Er": 4695,
      "apo": 4696,
      " companies": 4697,
      " Through": 4698,
      " highly": 4699,
      " impact": 4700,
      " attacked": 4701,
      " detail": 4702,
      " attempts": 4703,
      " request": 4704,
      " Somal": 4705,
      " strength": 4706,
      " Service": 4707,
      "ding": 4708,
      "pole": 4709,
      "vement": 4710,
      " bad": 4711,
      " Cer": 4712,
      " Crit": 4713,
      "omer": 4714,
      "ado": 4715,
      "adium": 4716,
      " Gar": 4717,
      " recover": 4718,
      " dise": 4719,
      "ribution": 4720,
      " vers": 4721,
      " interact": 4722,
      " symb": 4723,
      " artillery": 4724,
      " confir": 4725,
      " speed": 4726,
      " era": 4727,
      " immediately": 4728,
      "admium": 4729,
      " Pennsylvania": 4730,
      "track": 4731,
      "atives": 4732,
      "isation": 4733,
      "isher": 4734,
      " purs": 4735,
      " piano": 4736,
      " AI": 4737,
      " Cons": 4738,
      " Major": 4739,
      " stone": 4740,
      " Li": 4741,
      " plat": 4742,
      " spir": 4743,
      " distance": 4744,
      " allowing": 4745,
      " tracks": 4746,
      " powerful": 4747,
      " situation": 4748,
      " Jackson": 4749,
      " nuclear": 4750,
      " Squadron": 4751,
      " removed": 4752,
      " celebr": 4753,
      " kilomet": 4754,
      "hic": 4755,
      "onna": 4756,
      " intern": 4757,
      "andid": 4758,
      "aging": 4759,
      " rate": 4760,
      " selected": 4761,
      " search": 4762,
      " kick": 4763,
      "iple": 4764,
      " 51": 4765,
      " offered": 4766,
      " secret": 4767,
      " blood": 4768,
      " studies": 4769,
      " inside": 4770,
      " advance": 4771,
      " variety": 4772,
      " friends": 4773,
      " needed": 4774,
      " peaked": 4775,
      " sexual": 4776,
      " purp": 4777,
      " Scotland": 4778,
      " Victor": 4779,
      " mole": 4780,
      "oura": 4781,
      " Sir": 4782,
      " native": 4783,
      " Bet": 4784,
      " Both": 4785,
      " stra": 4786,
      " Rad": 4787,
      " Los": 4788,
      "rial": 4789,
      " 182": 4790,
      "izing": 4791,
      " prec": 4792,
      " text": 4793,
      " 1991": 4794,
      " means": 4795,
      " coach": 4796,
      " Chris": 4797,
      " countries": 4798,
      " headquarters": 4799,
      " attempted": 4800,
      " copies": 4801,
      " Football": 4802,
      "ims": 4803,
      " Land": 4804,
      " rule": 4805,
      " China": 4806,
      " scoring": 4807,
      " advant": 4808,
      " hands": 4809,
      " widely": 4810,
      " respectively": 4811,
      " Open": 4812,
      " responsible": 4813,
      " casual": 4814,
      "aen": 4815,
      "hood": 4816,
      "ware": 4817,
      "alty": 4818,
      " max": 4819,
      " har": 4820,
      " Alex": 4821,
      " grand": 4822,
      " ang": 4823,
      "send": 4824,
      "annel": 4825,
      " sets": 4826,
      " extrem": 4827,
      " describes": 4828,
      " appearances": 4829,
      " controvers": 4830,
      " Anderson": 4831,
      " genus": 4832,
      " higher": 4833,
      " Department": 4834,
      " touchdown": 4835,
      "hew": 4836,
      " Are": 4837,
      "iron": 4838,
      " Post": 4839,
      " Off": 4840,
      "aped": 4841,
      "ends": 4842,
      " canc": 4843,
      " 1992": 4844,
      " lands": 4845,
      " constit": 4846,
      " course": 4847,
      " middle": 4848,
      " magn": 4849,
      " observed": 4850,
      " Braat": 4851,
      " Corps": 4852,
      " heavily": 4853,
      " ess": 4854,
      "MS": 4855,
      "me": 4856,
      "vin": 4857,
      " Time": 4858,
      " Bre": 4859,
      " Nes": 4860,
      "illed": 4861,
      " seem": 4862,
      "ellig": 4863,
      " compos": 4864,
      "rane": 4865,
      " adult": 4866,
      " display": 4867,
      " 1994": 4868,
      " relief": 4869,
      " Rev": 4870,
      " below": 4871,
      " sixth": 4872,
      "shire": 4873,
      " administ": 4874,
      " reduced": 4875,
      " meeting": 4876,
      " xenon": 4877,
      " enjoy": 4878,
      "light": 4879,
      "esota": 4880,
      " Midd": 4881,
      "ulations": 4882,
      " Like": 4883,
      "umber": 4884,
      " 37": 4885,
      " 48": 4886,
      " jump": 4887,
      " 76": 4888,
      " active": 4889,
      " blue": 4890,
      " singer": 4891,
      " matches": 4892,
      " resulted": 4893,
      " opportun": 4894,
      " audience": 4895,
      "force": 4896,
      " concluded": 4897,
      " Minnesota": 4898,
      "uated": 4899,
      " wing": 4900,
      " corn": 4901,
      "isk": 4902,
      " paper": 4903,
      " hol": 4904,
      " hour": 4905,
      " Cor": 4906,
      " Capt": 4907,
      " Pit": 4908,
      " Emp": 4909,
      "akapo": 4910,
      "rance": 4911,
      " shell": 4912,
      " instit": 4913,
      "inkel": 4914,
      " activity": 4915,
      " activities": 4916,
      " Smith": 4917,
      " true": 4918,
      " completely": 4919,
      "ris": 4920,
      " cer": 4921,
      "isl": 4922,
      " bene": 4923,
      " pu": 4924,
      "room": 4925,
      " Southern": 4926,
      " Bol": 4927,
      " stating": 4928,
      "utch": 4929,
      " Green": 4930,
      " Jul": 4931,
      " 3rd": 4932,
      " disapp": 4933,
      " managed": 4934,
      "athus": 4935,
      " Sea": 4936,
      " Center": 4937,
      " Townsend": 4938,
      " revealed": 4939,
      " Rosebery": 4940,
      " question": 4941,
      " contemporary": 4942,
      " Hawai": 4943,
      " Italian": 4944,
      " Meyerbe": 4945,
      "ipped": 4946,
      "ād": 4947,
      " wound": 4948,
      " Dist": 4949,
      " Fur": 4950,
      " Jim": 4951,
      "ift": 4952,
      " Ka": 4953,
      " quality": 4954,
      "ervation": 4955,
      " refused": 4956,
      " drum": 4957,
      " levels": 4958,
      " declared": 4959,
      " trees": 4960,
      " separate": 4961,
      " Nicole": 4962,
      " Meyerbeer": 4963,
      "bed": 4964,
      "bird": 4965,
      " pun": 4966,
      "acher": 4967,
      " Finkel": 4968,
      "ecting": 4969,
      " Thunder": 4970,
      "rowd": 4971,
      " 1970": 4972,
      " Conf": 4973,
      " brown": 4974,
      " Force": 4975,
      " approach": 4976,
      " Walpole": 4977,
      " contrast": 4978,
      " Because": 4979,
      " Finkelstein": 4980,
      "ingu": 4981,
      " today": 4982,
      " du": 4983,
      " Tessa": 4984,
      "stone": 4985,
      " Cat": 4986,
      " lot": 4987,
      " Do": 4988,
      "estic": 4989,
      " university": 4990,
      "peror": 4991,
      " recent": 4992,
      " Yue": 4993,
      " webs": 4994,
      " Shiva": 4995,
      " background": 4996,
      " reception": 4997,
      " 150": 4998,
      " featuring": 4999,
      " respond": 5000,
      " carry": 5001,
      " model": 5002,
      " typically": 5003,
      " historical": 5004,
      " vocal": 5005,
      " parents": 5006,
      "gal": 5007,
      "hold": 5008,
      " walk": 5009,
      "itual": 5010,
      " chem": 5011,
      " pow": 5012,
      "road": 5013,
      " hair": 5014,
      " Sar": 5015,
      " nation": 5016,
      " Pre": 5017,
      " beat": 5018,
      " Wild": 5019,
      " 52": 5020,
      " displ": 5021,
      " plays": 5022,
      "anger": 5023,
      "orship": 5024,
      " actions": 5025,
      " peace": 5026,
      " expected": 5027,
      " emot": 5028,
      "aha": 5029,
      " Blue": 5030,
      " issues": 5031,
      " Charl": 5032,
      " conditions": 5033,
      " vehic": 5034,
      " Society": 5035,
      " Ottoman": 5036,
      " Illino": 5037,
      "FA": 5038,
      "ka": 5039,
      " inh": 5040,
      " rear": 5041,
      "iled": 5042,
      " Balt": 5043,
      " Hal": 5044,
      " Ro": 5045,
      "ogue": 5046,
      " roy": 5047,
      " becomes": 5048,
      " attention": 5049,
      " weaken": 5050,
      " assault": 5051,
      " mainly": 5052,
      " famil": 5053,
      " efforts": 5054,
      " Spec": 5055,
      "arent": 5056,
      " houses": 5057,
      "eption": 5058,
      " wear": 5059,
      " mel": 5060,
      " draft": 5061,
      " Turn": 5062,
      " Av": 5063,
      "usion": 5064,
      " Des": 5065,
      " Om": 5066,
      "essions": 5067,
      " 34": 5068,
      " residents": 5069,
      " offer": 5070,
      "ocks": 5071,
      " specim": 5072,
      "ype": 5073,
      " instr": 5074,
      " Adam": 5075,
      " Franc": 5076,
      " Highway": 5077,
      " strugg": 5078,
      " Court": 5079,
      " Braathens": 5080,
      "BA": 5081,
      "bon": 5082,
      " athlet": 5083,
      " sense": 5084,
      " Tod": 5085,
      " Burn": 5086,
      "emic": 5087,
      "oses": 5088,
      "ocr": 5089,
      " recomm": 5090,
      " Arg": 5091,
      " actually": 5092,
      " calling": 5093,
      " elev": 5094,
      " titles": 5095,
      " demonst": 5096,
      " Hait": 5097,
      " soundtrack": 5098,
      " protein": 5099,
      "ufact": 5100,
      "onents": 5101,
      " sn": 5102,
      "edo": 5103,
      " crowd": 5104,
      "enge": 5105,
      " board": 5106,
      " thous": 5107,
      " altern": 5108,
      " Little": 5109,
      " roles": 5110,
      " poly": 5111,
      " 1990": 5112,
      " seasons": 5113,
      " write": 5114,
      " defend": 5115,
      "ledge": 5116,
      " Johnson": 5117,
      " Columb": 5118,
      " Def": 5119,
      " architect": 5120,
      " accepted": 5121,
      " struck": 5122,
      " achieved": 5123,
      " Government": 5124,
      " Portugues": 5125,
      " cannot": 5126,
      "cript": 5127,
      "iro": 5128,
      "ply": 5129,
      " fruit": 5130,
      "anes": 5131,
      "ications": 5132,
      " thr": 5133,
      " nin": 5134,
      " Mog": 5135,
      "utions": 5136,
      " Fam": 5137,
      " Fey": 5138,
      " Of": 5139,
      "pping": 5140,
      "berg": 5141,
      "ipl": 5142,
      " resc": 5143,
      " scient": 5144,
      "ension": 5145,
      " types": 5146,
      " practice": 5147,
      " Vietnam": 5148,
      "alysis": 5149,
      " Portuguese": 5150,
      " rough": 5151,
      "wen": 5152,
      " cam": 5153,
      " fiction": 5154,
      "roll": 5155,
      " dyn": 5156,
      " lb": 5157,
      " Mat": 5158,
      " L.": 5159,
      "anded": 5160,
      "eller": 5161,
      "irection": 5162,
      " 181": 5163,
      " scul": 5164,
      "anning": 5165,
      " distinct": 5166,
      " infantry": 5167,
      " Spain": 5168,
      " Add": 5169,
      "echan": 5170,
      " avoid": 5171,
      " primarily": 5172,
      " Secret": 5173,
      " sequence": 5174,
      " Academy": 5175,
      " sales": 5176,
      " Tint": 5177,
      "iles": 5178,
      " Civil": 5179,
      " Book": 5180,
      " I.": 5181,
      " Fer": 5182,
      " Group": 5183,
      " plant": 5184,
      " spread": 5185,
      " Young": 5186,
      " Engine": 5187,
      " 1986": 5188,
      " owned": 5189,
      " twenty": 5190,
      " elected": 5191,
      " combat": 5192,
      " slightly": 5193,
      "met": 5194,
      " sister": 5195,
      " Sarn": 5196,
      " Horse": 5197,
      "use": 5198,
      " Wels": 5199,
      " heart": 5200,
      " Es": 5201,
      " suc": 5202,
      " sust": 5203,
      " sport": 5204,
      "ograp": 5205,
      " inches": 5206,
      " scale": 5207,
      " offensive": 5208,
      " Ann": 5209,
      " expressed": 5210,
      " concent": 5211,
      " extra": 5212,
      " county": 5213,
      " Prince": 5214,
      " rights": 5215,
      " northeast": 5216,
      " affected": 5217,
      "ceeded": 5218,
      "onymous": 5219,
      " Louis": 5220,
      " Captain": 5221,
      "AA": 5222,
      "right": 5223,
      " sout": 5224,
      " words": 5225,
      "ora": 5226,
      " farm": 5227,
      " ple": 5228,
      " mis": 5229,
      " Tri": 5230,
      " Che": 5231,
      "ols": 5232,
      "ushed": 5233,
      " Dou": 5234,
      " 180": 5235,
      " neigh": 5236,
      " Att": 5237,
      " Review": 5238,
      " showed": 5239,
      " officer": 5240,
      " progress": 5241,
      " Nesb": 5242,
      " Tintin": 5243,
      " Welsh": 5244,
      "mond": 5245,
      "mitted": 5246,
      "orus": 5247,
      " hy": 5248,
      " Sil": 5249,
      " Manc": 5250,
      "igg": 5251,
      "igan": 5252,
      "astic": 5253,
      " ability": 5254,
      " Though": 5255,
      " themes": 5256,
      " Zhou": 5257,
      " Adm": 5258,
      " battalion": 5259,
      " Andrew": 5260,
      " excav": 5261,
      " combined": 5262,
      " Varanas": 5263,
      " newspaper": 5264,
      " Ceres": 5265,
      "ironment": 5266,
      " Empire": 5267,
      " Varanasi": 5268,
      "rect": 5269,
      " mess": 5270,
      " horse": 5271,
      " Fred": 5272,
      "ovic": 5273,
      " qual": 5274,
      " Commun": 5275,
      " titled": 5276,
      " portray": 5277,
      " cultural": 5278,
      " square": 5279,
      " Odaen": 5280,
      " Apple": 5281,
      " casualties": 5282,
      " Nesbitt": 5283,
      " says": 5284,
      " ox": 5285,
      " Tru": 5286,
      " reign": 5287,
      " Way": 5288,
      "aine": 5289,
      " 49": 5290,
      " remark": 5291,
      " produce": 5292,
      " continues": 5293,
      " grass": 5294,
      " Eva": 5295,
      " earliest": 5296,
      " mountain": 5297,
      "while": 5298,
      " Angeles": 5299,
      " mentioned": 5300,
      " ancient": 5301,
      " murder": 5302,
      " cerem": 5303,
      " Illinois": 5304,
      " Odaenathus": 5305,
      "Mont": 5306,
      "laim": 5307,
      "nown": 5308,
      "inus": 5309,
      "enant": 5310,
      " fully": 5311,
      " mission": 5312,
      "ented": 5313,
      " Cra": 5314,
      " Boy": 5315,
      "etts": 5316,
      " Direct": 5317,
      " Wash": 5318,
      "osen": 5319,
      " J.": 5320,
      " Jos": 5321,
      "oper": 5322,
      " championship": 5323,
      " manufact": 5324,
      " actor": 5325,
      " print": 5326,
      " artists": 5327,
      " resulting": 5328,
      "orpedo": 5329,
      " Records": 5330,
      " authorities": 5331,
      " influenced": 5332,
      " DuMont": 5333,
      " flooding": 5334,
      " narrow": 5335,
      " Olympic": 5336,
      " adopted": 5337,
      " disease": 5338,
      " advantage": 5339,
      " Mogad": 5340,
      " Sarnia": 5341,
      " wild": 5342,
      " Cap": 5343,
      " nest": 5344,
      "ura": 5345,
      " spl": 5346,
      " 65": 5347,
      " Colon": 5348,
      " Prot": 5349,
      " reports": 5350,
      " legal": 5351,
      " basis": 5352,
      " Perón": 5353,
      " represented": 5354,
      "lies": 5355,
      "lings": 5356,
      "mark": 5357,
      " sides": 5358,
      " candid": 5359,
      " bott": 5360,
      "asc": 5361,
      " toward": 5362,
      " mile": 5363,
      " Pop": 5364,
      " alone": 5365,
      " NC": 5366,
      " coming": 5367,
      " exhib": 5368,
      "ella": 5369,
      " apparent": 5370,
      " agg": 5371,
      " News": 5372,
      " defense": 5373,
      " bridge": 5374,
      "helm": 5375,
      " begin": 5376,
      " viewers": 5377,
      " Week": 5378,
      " letters": 5379,
      " withdraw": 5380,
      " tower": 5381,
      " tournament": 5382,
      " Middle": 5383,
      " Thunderbird": 5384,
      " Manchester": 5385,
      "bit": 5386,
      "writ": 5387,
      " torpedo": 5388,
      " direction": 5389,
      " hun": 5390,
      " SR": 5391,
      " Home": 5392,
      " Horn": 5393,
      " Four": 5394,
      " Lar": 5395,
      " Ocean": 5396,
      " rat": 5397,
      " kakapo": 5398,
      " yellow": 5399,
      " armed": 5400,
      " 18th": 5401,
      " workers": 5402,
      " relatively": 5403,
      " founded": 5404,
      " alongside": 5405,
      " occasion": 5406,
      " effort": 5407,
      " Clark": 5408,
      " northwest": 5409,
      "ancy": 5410,
      " illust": 5411,
      " Washington": 5412,
      "aith": 5413,
      "bour": 5414,
      "lam": 5415,
      "lers": 5416,
      " sac": 5417,
      " cadmium": 5418,
      "ala": 5419,
      " mechan": 5420,
      " hors": 5421,
      " C.": 5422,
      " losing": 5423,
      " Max": 5424,
      "ulate": 5425,
      " rang": 5426,
      "iana": 5427,
      " univers": 5428,
      " Van": 5429,
      " contain": 5430,
      " contact": 5431,
      " adj": 5432,
      "ricult": 5433,
      " attended": 5434,
      " emph": 5435,
      " 1988": 5436,
      " officially": 5437,
      " edition": 5438,
      " tried": 5439,
      " organized": 5440,
      " capture": 5441,
      " individuals": 5442,
      " transferred": 5443,
      " physical": 5444,
      "lim": 5445,
      " ast": 5446,
      " Sum": 5447,
      "ental": 5448,
      "adel": 5449,
      " Mass": 5450,
      " Hu": 5451,
      " proved": 5452,
      "abama": 5453,
      "gend": 5454,
      " perman": 5455,
      " Alabama": 5456,
      " neut": 5457,
      " acting": 5458,
      "prise": 5459,
      " Mean": 5460,
      " require": 5461,
      " winter": 5462,
      " behav": 5463,
      " pattern": 5464,
      " officials": 5465,
      " measure": 5466,
      " surrounding": 5467,
      " rainfall": 5468,
      " dedicated": 5469,
      " Joseph": 5470,
      " Omaha": 5471,
      " Mogadish": 5472,
      "che": 5473,
      "can": 5474,
      "rum": 5475,
      "rong": 5476,
      "uous": 5477,
      "inem": 5478,
      " feder": 5479,
      " Sen": 5480,
      " lives": 5481,
      " MD": 5482,
      " B.": 5483,
      " Bu": 5484,
      "imore": 5485,
      " Dest": 5486,
      " Kent": 5487,
      " energy": 5488,
      " 64": 5489,
      " Arm": 5490,
      " doing": 5491,
      " edge": 5492,
      " Edward": 5493,
      " couple": 5494,
      "ij": 5495,
      "iate": 5496,
      "onn": 5497,
      " wa": 5498,
      "itness": 5499,
      " folk": 5500,
      " mind": 5501,
      " Fant": 5502,
      " Gall": 5503,
      " Lord": 5504,
      " chief": 5505,
      " shape": 5506,
      " 46": 5507,
      "izes": 5508,
      "ibr": 5509,
      " prepar": 5510,
      " follows": 5511,
      "azz": 5512,
      " 1960s": 5513,
      " Independ": 5514,
      " designated": 5515,
      " shortly": 5516,
      " possibly": 5517,
      " Reception": 5518,
      " society": 5519,
      " divided": 5520,
      " function": 5521,
      " dissip": 5522,
      " Helms": 5523,
      " intensity": 5524,
      " Innis": 5525,
      " financial": 5526,
      " Mogadishu": 5527,
      "RA": 5528,
      "kare": 5529,
      " faced": 5530,
      " border": 5531,
      " paid": 5532,
      " Bh": 5533,
      " Bowl": 5534,
      " Prem": 5535,
      " Lis": 5536,
      " Journ": 5537,
      " your": 5538,
      " youn": 5539,
      " incorpor": 5540,
      " images": 5541,
      " albums": 5542,
      " 1980s": 5543,
      " repe": 5544,
      " 1940": 5545,
      " 1964": 5546,
      " simply": 5547,
      " older": 5548,
      " legisl": 5549,
      " Histor": 5550,
      " letter": 5551,
      " sources": 5552,
      " Wilhelm": 5553,
      " McCall": 5554,
      " eye": 5555,
      " determined": 5556,
      " journal": 5557,
      " maximum": 5558,
      " Argent": 5559,
      "VD": 5560,
      "eer": 5561,
      "ux": 5562,
      "wide": 5563,
      " aid": 5564,
      "inated": 5565,
      "aling": 5566,
      " master": 5567,
      "enture": 5568,
      " thir": 5569,
      " onto": 5570,
      " End": 5571,
      " comedy": 5572,
      " Kore": 5573,
      " places": 5574,
      "ipment": 5575,
      " advert": 5576,
      "ugby": 5577,
      " movie": 5578,
      " broken": 5579,
      " portion": 5580,
      " Assembly": 5581,
      " kept": 5582,
      " doub": 5583,
      " piece": 5584,
      " potential": 5585,
      " sculpt": 5586,
      " emphas": 5587,
      " rom": 5588,
      "Station": 5589,
      "edar": 5590,
      " cities": 5591,
      " frag": 5592,
      " dut": 5593,
      " hom": 5594,
      " Fleet": 5595,
      " Jup": 5596,
      "udd": 5597,
      "duction": 5598,
      " charge": 5599,
      " Commission": 5600,
      " argued": 5601,
      " iron": 5602,
      " PlayStation": 5603,
      " domestic": 5604,
      " royal": 5605,
      "isters": 5606,
      "lection": 5607,
      " Bir": 5608,
      " ge": 5609,
      " grew": 5610,
      "ety": 5611,
      " step": 5612,
      " Rih": 5613,
      " FA": 5614,
      " Good": 5615,
      " Night": 5616,
      "agan": 5617,
      "istry": 5618,
      " Kn": 5619,
      "asty": 5620,
      " spot": 5621,
      " unk": 5622,
      " Ven": 5623,
      " content": 5624,
      " roll": 5625,
      " 53": 5626,
      " 55": 5627,
      " color": 5628,
      " depth": 5629,
      " Common": 5630,
      " suggests": 5631,
      " authority": 5632,
      " projects": 5633,
      " management": 5634,
      " sites": 5635,
      " Hamels": 5636,
      " Valley": 5637,
      " Baltimore": 5638,
      " Rihanna": 5639,
      " say": 5640,
      " sens": 5641,
      " wor": 5642,
      " wave": 5643,
      " fung": 5644,
      " paint": 5645,
      " homes": 5646,
      " hospital": 5647,
      " Sky": 5648,
      "acement": 5649,
      "lys": 5650,
      " gained": 5651,
      " Writ": 5652,
      " Greek": 5653,
      "umes": 5654,
      " share": 5655,
      " science": 5656,
      " attend": 5657,
      " weak": 5658,
      " prison": 5659,
      " museum": 5660,
      " entrance": 5661,
      "ertain": 5662,
      " depart": 5663,
      " artic": 5664,
      " Constant": 5665,
      " belong": 5666,
      " phil": 5667,
      " causing": 5668,
      " twice": 5669,
      " criticized": 5670,
      " structures": 5671,
      " Palest": 5672,
      " Djed": 5673,
      " ultimately": 5674,
      " target": 5675,
      " schedul": 5676,
      " website": 5677,
      "rative": 5678,
      " fres": 5679,
      " mouth": 5680,
      " hyd": 5681,
      " Big": 5682,
      " Pen": 5683,
      " DVD": 5684,
      " Lew": 5685,
      " vess": 5686,
      " deploy": 5687,
      " Ul": 5688,
      " containing": 5689,
      " intellig": 5690,
      " 5th": 5691,
      " Anth": 5692,
      " formation": 5693,
      " interp": 5694,
      " defence": 5695,
      " results": 5696,
      " debuted": 5697,
      " Forest": 5698,
      " dismiss": 5699,
      " Jupiter": 5700,
      " Djedkare": 5701,
      "gn": 5702,
      "ya": 5703,
      "yr": 5704,
      " tail": 5705,
      "rel": 5706,
      "ati": 5707,
      "atur": 5708,
      "orter": 5709,
      " core": 5710,
      " cricket": 5711,
      " fast": 5712,
      " More": 5713,
      " Bur": 5714,
      " Hib": 5715,
      " chosen": 5716,
      " kg": 5717,
      " Us": 5718,
      " 56": 5719,
      " remix": 5720,
      " defensive": 5721,
      " opin": 5722,
      " miner": 5723,
      " 1947": 5724,
      " battles": 5725,
      " foreign": 5726,
      " planet": 5727,
      " collabor": 5728,
      " Torres": 5729,
      " label": 5730,
      "more": 5731,
      " fix": 5732,
      " inch": 5733,
      " pan": 5734,
      " 're": 5735,
      " Lock": 5736,
      " Jon": 5737,
      " Eastern": 5738,
      " Ox": 5739,
      " Chap": 5740,
      " Child": 5741,
      " 43": 5742,
      " security": 5743,
      " consecutive": 5744,
      " Short": 5745,
      " enter": 5746,
      " 120": 5747,
      " brigade": 5748,
      " prominent": 5749,
      " organization": 5750,
      " standing": 5751,
      " reference": 5752,
      " growing": 5753,
      " animal": 5754,
      " buried": 5755,
      " independent": 5756,
      " granted": 5757,
      " rejected": 5758,
      " abandoned": 5759,
      "ML": 5760,
      "bl": 5761,
      "then": 5762,
      " sand": 5763,
      " diam": 5764,
      " Field": 5765,
      " Gre": 5766,
      " ven": 5767,
      " seek": 5768,
      "ocated": 5769,
      " Once": 5770,
      " weight": 5771,
      " colony": 5772,
      " doct": 5773,
      " therefore": 5774,
      " student": 5775,
      " 1941": 5776,
      " visited": 5777,
      " claims": 5778,
      " temple": 5779,
      " orders": 5780,
      " Airport": 5781,
      " condition": 5782,
      " cells": 5783,
      "white": 5784,
      " Scottish": 5785,
      "ographer": 5786,
      " Applewhite": 5787,
      "ees": 5788,
      "mon": 5789,
      "mosp": 5790,
      " mic": 5791,
      " dress": 5792,
      " So": 5793,
      " SAF": 5794,
      " Cre": 5795,
      " Bon": 5796,
      " BBC": 5797,
      "iring": 5798,
      " RA": 5799,
      " Norm": 5800,
      " risk": 5801,
      " spect": 5802,
      "phia": 5803,
      " newly": 5804,
      " regions": 5805,
      " seconds": 5806,
      " singles": 5807,
      " 1987": 5808,
      "airs": 5809,
      " broke": 5810,
      " moment": 5811,
      " wounded": 5812,
      "adelphia": 5813,
      " SAFE": 5814,
      "ao": 5815,
      " tur": 5816,
      " ahead": 5817,
      " cases": 5818,
      " fear": 5819,
      "asters": 5820,
      "oured": 5821,
      " reaching": 5822,
      " height": 5823,
      "resp": 5824,
      " Institute": 5825,
      " seems": 5826,
      " enemy": 5827,
      " Indust": 5828,
      " 1970s": 5829,
      " solo": 5830,
      "ushing": 5831,
      " equipment": 5832,
      "fficient": 5833,
      " knowledge": 5834,
      " identified": 5835,
      " nominated": 5836,
      " Egyptian": 5837,
      " temperature": 5838,
      " Background": 5839,
      " versions": 5840,
      "ners": 5841,
      "tav": 5842,
      " tun": 5843,
      " aired": 5844,
      " cust": 5845,
      " council": 5846,
      " bud": 5847,
      " males": 5848,
      "ading": 5849,
      " Ban": 5850,
      " Due": 5851,
      " Jur": 5852,
      " unique": 5853,
      " 41": 5854,
      " 9th": 5855,
      " 1984": 5856,
      " 1989": 5857,
      " 1972": 5858,
      " returning": 5859,
      " supporting": 5860,
      " element": 5861,
      " Before": 5862,
      " campus": 5863,
      " opposed": 5864,
      "urban": 5865,
      " problem": 5866,
      " Croatia": 5867,
      " environment": 5868,
      " Further": 5869,
      "Le": 5870,
      "cy": 5871,
      "mun": 5872,
      " tim": 5873,
      "ero": 5874,
      " fired": 5875,
      " fox": 5876,
      "ishes": 5877,
      " Sub": 5878,
      "ads": 5879,
      " Mike": 5880,
      "ette": 5881,
      "oted": 5882,
      " Dr.": 5883,
      " atmosp": 5884,
      " analysis": 5885,
      " Each": 5886,
      " Kir": 5887,
      " unp": 5888,
      " 4th": 5889,
      " 54": 5890,
      " perfect": 5891,
      " teacher": 5892,
      " 1985": 5893,
      " operated": 5894,
      " Carl": 5895,
      " Origin": 5896,
      " looking": 5897,
      " increasingly": 5898,
      " literature": 5899,
      " Operation": 5900,
      " scholars": 5901,
      " Entertain": 5902,
      " straight": 5903,
      " unknown": 5904,
      "uct": 5905,
      " theory": 5906,
      " boy": 5907,
      "alle": 5908,
      "stream": 5909,
      "aming": 5910,
      " ec": 5911,
      " Mort": 5912,
      " Id": 5913,
      "ider": 5914,
      " HMS": 5915,
      " Ry": 5916,
      " Ret": 5917,
      " alter": 5918,
      " G.": 5919,
      " here": 5920,
      "ighth": 5921,
      " Kar": 5922,
      " compr": 5923,
      " weather": 5924,
      " writes": 5925,
      " defin": 5926,
      " acad": 5927,
      " 1960": 5928,
      " believe": 5929,
      " breeding": 5930,
      " explained": 5931,
      " commonly": 5932,
      " Barrow": 5933,
      " historian": 5934,
      " ideas": 5935,
      " settlement": 5936,
      " Swed": 5937,
      " burns": 5938,
      " Cardiff": 5939,
      " confirmed": 5940,
      " molec": 5941,
      "eg": 5942,
      "uge": 5943,
      "ych": 5944,
      " od": 5945,
      " oil": 5946,
      "ato": 5947,
      " Mic": 5948,
      " 'm": 5949,
      " stations": 5950,
      " Public": 5951,
      " Never": 5952,
      "aved": 5953,
      " Even": 5954,
      " vo": 5955,
      " Key": 5956,
      " Stan": 5957,
      " Vill": 5958,
      " arrest": 5959,
      " herself": 5960,
      " Only": 5961,
      " consisted": 5962,
      " singing": 5963,
      " 1944": 5964,
      " landfall": 5965,
      " Class": 5966,
      " advanced": 5967,
      " Develop": 5968,
      " systems": 5969,
      " parliament": 5970,
      " criticism": 5971,
      " females": 5972,
      " Michigan": 5973,
      " Keats": 5974,
      " strike": 5975,
      " Philadelphia": 5976,
      " property": 5977,
      " Congress": 5978,
      " economic": 5979,
      " controlled": 5980,
      "hu": 5981,
      "ket": 5982,
      "alions": 5983,
      " pict": 5984,
      "asure": 5985,
      " H.": 5986,
      " Hart": 5987,
      " Rog": 5988,
      " Gi": 5989,
      " Gord": 5990,
      " Ll": 5991,
      "illo": 5992,
      " deities": 5993,
      " imag": 5994,
      "weet": 5995,
      "awa": 5996,
      " 1990s": 5997,
      " exped": 5998,
      " creation": 5999,
      " leader": 6000,
      " 130": 6001,
      " Williams": 6002,
      " Mounted": 6003,
      " growth": 6004,
      " maintained": 6005,
      " pieces": 6006,
      " failure": 6007,
      " dropped": 6008,
      " semi": 6009,
      " Addition": 6010,
      " Meanwhile": 6011,
      " awards": 6012,
      "inity": 6013,
      "inary": 6014,
      "ena": 6015,
      " fict": 6016,
      " mob": 6017,
      " Ap": 6018,
      " M.": 6019,
      " Matt": 6020,
      " Bas": 6021,
      " gar": 6022,
      " Ros": 6023,
      " Den": 6024,
      " Dutch": 6025,
      "unic": 6026,
      "rak": 6027,
      " Gard": 6028,
      " Lu": 6029,
      " Luc": 6030,
      " compar": 6031,
      " arrang": 6032,
      " resemb": 6033,
      " 57": 6034,
      " Album": 6035,
      "hips": 6036,
      " filmed": 6037,
      " Leg": 6038,
      "fully": 6039,
      " guest": 6040,
      " killing": 6041,
      " freeway": 6042,
      " pitched": 6043,
      " honor": 6044,
      " flying": 6045,
      " injury": 6046,
      " federal": 6047,
      "ias": 6048,
      " tact": 6049,
      " task": 6050,
      "onom": 6051,
      " sen": 6052,
      " bit": 6053,
      " mist": 6054,
      " Bost": 6055,
      " Der": 6056,
      " Dis": 6057,
      " Dun": 6058,
      " Gh": 6059,
      " Nathan": 6060,
      "antly": 6061,
      "ieval": 6062,
      " Italy": 6063,
      " serve": 6064,
      "ampion": 6065,
      " 600": 6066,
      " actress": 6067,
      " retired": 6068,
      " km2": 6069,
      "ashion": 6070,
      " matter": 6071,
      " Guard": 6072,
      " restaur": 6073,
      " Andy": 6074,
      " belief": 6075,
      " humans": 6076,
      " Abu": 6077,
      " speak": 6078,
      " Steve": 6079,
      " boats": 6080,
      " religion": 6081,
      " promoted": 6082,
      " value": 6083,
      " mounted": 6084,
      " Minister": 6085,
      "lusion": 6086,
      " Jeff": 6087,
      " rapidly": 6088,
      " battery": 6089,
      " weapons": 6090,
      " horses": 6091,
      " ut": 6092,
      "cription": 6093,
      "jo": 6094,
      "kin": 6095,
      " selling": 6096,
      " bid": 6097,
      " bank": 6098,
      "roph": 6099,
      "iced": 6100,
      " ham": 6101,
      " Ast": 6102,
      " Cold": 6103,
      " Mod": 6104,
      "uli": 6105,
      " Les": 6106,
      "ersey": 6107,
      "ager": 6108,
      "alls": 6109,
      "ieut": 6110,
      " agricult": 6111,
      " flank": 6112,
      " column": 6113,
      " Americans": 6114,
      " description": 6115,
      " invasion": 6116,
      " Conference": 6117,
      " passes": 6118,
      " passing": 6119,
      " publication": 6120,
      " protest": 6121,
      " cougar": 6122,
      " significantly": 6123,
      " promotion": 6124,
      " connected": 6125,
      " recognized": 6126,
      " creating": 6127,
      " multiple": 6128,
      " clean": 6129,
      " premi": 6130,
      " accompan": 6131,
      " prepared": 6132,
      "cop": 6133,
      "fort": 6134,
      "han": 6135,
      "haps": 6136,
      "rete": 6137,
      "render": 6138,
      " sought": 6139,
      "itable": 6140,
      " bats": 6141,
      " mo": 6142,
      " data": 6143,
      " Mur": 6144,
      " Mem": 6145,
      " Final": 6146,
      " Wat": 6147,
      " Work": 6148,
      " Inst": 6149,
      " chose": 6150,
      " Video": 6151,
      "icks": 6152,
      "amese": 6153,
      " starts": 6154,
      " famous": 6155,
      " deliver": 6156,
      " popularity": 6157,
      " producers": 6158,
      "chers": 6159,
      " volume": 6160,
      " walls": 6161,
      " Slam": 6162,
      " regarded": 6163,
      " strengthen": 6164,
      " reaction": 6165,
      " silver": 6166,
      " aspects": 6167,
      " nucleus": 6168,
      " seventh": 6169,
      " necessary": 6170,
      " scheduled": 6171,
      "ca": 6172,
      "hi": 6173,
      "load": 6174,
      "yth": 6175,
      " drop": 6176,
      " reform": 6177,
      " Ari": 6178,
      " Cole": 6179,
      " laid": 6180,
      " Mr": 6181,
      "lying": 6182,
      "olved": 6183,
      "ote": 6184,
      " beaut": 6185,
      " Gulf": 6186,
      " Line": 6187,
      " Liber": 6188,
      " virt": 6189,
      " rise": 6190,
      " rival": 6191,
      " send": 6192,
      "ogen": 6193,
      " news": 6194,
      " 96": 6195,
      " 1981": 6196,
      " landing": 6197,
      "heless": 6198,
      " strik": 6199,
      " Vietnamese": 6200,
      " sustained": 6201,
      " philos": 6202,
      "hm": 6203,
      "och": 6204,
      "uan": 6205,
      " outer": 6206,
      " fat": 6207,
      " fought": 6208,
      " dated": 6209,
      " Sund": 6210,
      "standing": 6211,
      " Mu": 6212,
      " Haven": 6213,
      " D.": 6214,
      " Naz": 6215,
      " Obs": 6216,
      "ifying": 6217,
      " spring": 6218,
      "ips": 6219,
      "ocked": 6220,
      "venue": 6221,
      " Adv": 6222,
      " USA": 6223,
      " reflect": 6224,
      " Pho": 6225,
      " drive": 6226,
      " Among": 6227,
      " castle": 6228,
      " currently": 6229,
      " employed": 6230,
      " Cambod": 6231,
      "āda": 6232,
      " families": 6233,
      " Thunderbirds": 6234,
      " budget": 6235,
      "yt": 6236,
      " tree": 6237,
      "heastern": 6238,
      "ini": 6239,
      "onent": 6240,
      " save": 6241,
      " pul": 6242,
      " mort": 6243,
      " Athlet": 6244,
      "add": 6245,
      "ivity": 6246,
      "iments": 6247,
      " Domin": 6248,
      " Girl": 6249,
      " rating": 6250,
      " exec": 6251,
      " contained": 6252,
      " arms": 6253,
      " row": 6254,
      " 700": 6255,
      " underground": 6256,
      "orney": 6257,
      " ends": 6258,
      "ologists": 6259,
      "hess": 6260,
      "insula": 6261,
      " 179": 6262,
      " phase": 6263,
      " 1939": 6264,
      " trial": 6265,
      " facilities": 6266,
      " frequently": 6267,
      " Oxford": 6268,
      " Entertainment": 6269,
      "TC": 6270,
      "ii": 6271,
      "lines": 6272,
      "rig": 6273,
      "sw": 6274,
      " wed": 6275,
      "rog": 6276,
      " dial": 6277,
      " Ca": 6278,
      " la": 6279,
      " Han": 6280,
      " bey": 6281,
      "thur": 6282,
      " Dar": 6283,
      "unction": 6284,
      " Fre": 6285,
      " Friend": 6286,
      " Festival": 6287,
      " Greg": 6288,
      " NH": 6289,
      " Ell": 6290,
      " executive": 6291,
      "sea": 6292,
      "iance": 6293,
      "aph": 6294,
      " unus": 6295,
      " computer": 6296,
      " contributed": 6297,
      " arc": 6298,
      " prefer": 6299,
      " collected": 6300,
      " actors": 6301,
      " express": 6302,
      " 17th": 6303,
      " 1942": 6304,
      " simple": 6305,
      " allows": 6306,
      " negative": 6307,
      "borough": 6308,
      " Studios": 6309,
      " degree": 6310,
      " Revolution": 6311,
      " bottom": 6312,
      " Gordon": 6313,
      "iable": 6314,
      "kins": 6315,
      "ridge": 6316,
      " cited": 6317,
      " craft": 6318,
      "arian": 6319,
      " hor": 6320,
      " Sus": 6321,
      " Chel": 6322,
      "ayer": 6323,
      " Rail": 6324,
      "unte": 6325,
      " NBA": 6326,
      " shaped": 6327,
      "sey": 6328,
      " Step": 6329,
      " sports": 6330,
      " overl": 6331,
      "angers": 6332,
      " 61": 6333,
      " 73": 6334,
      " 95": 6335,
      " opera": 6336,
      " 1950s": 6337,
      " 1918": 6338,
      " effective": 6339,
      " entirely": 6340,
      " animals": 6341,
      " Coast": 6342,
      " improved": 6343,
      " subsequent": 6344,
      " Between": 6345,
      " Turner": 6346,
      " Crazy": 6347,
      " Premier": 6348,
      " fictional": 6349,
      "ieutenant": 6350,
      " beyond": 6351,
      "ez": 6352,
      "iot": 6353,
      "mission": 6354,
      "arp": 6355,
      " mig": 6356,
      " Bru": 6357,
      " gain": 6358,
      " gives": 6359,
      " Rel": 6360,
      "agement": 6361,
      " notable": 6362,
      "perial": 6363,
      " recently": 6364,
      " Alf": 6365,
      " 62": 6366,
      " 97": 6367,
      " 800": 6368,
      " Mario": 6369,
      " train": 6370,
      " 1968": 6371,
      " 1969": 6372,
      " extensive": 6373,
      "ancing": 6374,
      " Prov": 6375,
      " visual": 6376,
      " medical": 6377,
      " finding": 6378,
      " myth": 6379,
      " boat": 6380,
      " encoura": 6381,
      " Boise": 6382,
      " gradually": 6383,
      " Turk": 6384,
      " Martin": 6385,
      " kilometres": 6386,
      " Today": 6387,
      " Lewis": 6388,
      " Boston": 6389,
      ".com": 6390,
      "chen": 6391,
      "iences": 6392,
      "rine": 6393,
      " sail": 6394,
      "atus": 6395,
      "isy": 6396,
      " bass": 6397,
      "rot": 6398,
      " dates": 6399,
      " Cle": 6400,
      " Cub": 6401,
      " egg": 6402,
      "eck": 6403,
      "lywood": 6404,
      " Bart": 6405,
      " 've": 6406,
      " stages": 6407,
      " Rod": 6408,
      " Fox": 6409,
      "ules": 6410,
      " Jain": 6411,
      " chair": 6412,
      " Kang": 6413,
      " UN": 6414,
      " Stone": 6415,
      " Head": 6416,
      "aret": 6417,
      " finals": 6418,
      "rence": 6419,
      " floor": 6420,
      " mush": 6421,
      " secondary": 6422,
      " 12th": 6423,
      " severe": 6424,
      " expanded": 6425,
      " 1975": 6426,
      " Bridge": 6427,
      " occas": 6428,
      " Juan": 6429,
      "ycle": 6430,
      " serving": 6431,
      " antimony": 6432,
      " Barb": 6433,
      " survey": 6434,
      " programs": 6435,
      " glob": 6436,
      " Crown": 6437,
      " People": 6438,
      " System": 6439,
      " Russian": 6440,
      "ánh": 6441,
      " Daniel": 6442,
      "eed": 6443,
      "iations": 6444,
      "yson": 6445,
      "eda": 6446,
      "itan": 6447,
      " bow": 6448,
      " bul": 6449,
      "lee": 6450,
      " Aer": 6451,
      " Igu": 6452,
      " green": 6453,
      " items": 6454,
      " comes": 6455,
      "opp": 6456,
      "illing": 6457,
      " chur": 6458,
      "usted": 6459,
      " unf": 6460,
      " composition": 6461,
      " arran": 6462,
      "outs": 6463,
      " centuries": 6464,
      " 72": 6465,
      " 85": 6466,
      "ansas": 6467,
      " 1965": 6468,
      " 1974": 6469,
      "ographic": 6470,
      " exclus": 6471,
      " finds": 6472,
      " Evita": 6473,
      " join": 6474,
      " Magazine": 6475,
      " occupied": 6476,
      " Belg": 6477,
      " Upon": 6478,
      "set": 6479,
      "thes": 6480,
      "uate": 6481,
      "erts": 6482,
      " faith": 6483,
      " daily": 6484,
      "ompl": 6485,
      " naval": 6486,
      " Men": 6487,
      "ecess": 6488,
      " Band": 6489,
      " Gab": 6490,
      " Jac": 6491,
      " Jud": 6492,
      "izations": 6493,
      "ublin": 6494,
      " decades": 6495,
      " 81": 6496,
      " sole": 6497,
      " Isab": 6498,
      " Commander": 6499,
      " deaths": 6500,
      " successfully": 6501,
      " losses": 6502,
      " Khánh": 6503,
      " MacLe": 6504,
      " negot": 6505,
      " treatment": 6506,
      " slowly": 6507,
      " independence": 6508,
      " calc": 6509,
      " commissioned": 6510,
      " experienced": 6511,
      "win": 6512,
      " aer": 6513,
      " Avenue": 6514,
      " CD": 6515,
      "amy": 6516,
      " eth": 6517,
      " Rome": 6518,
      " Far": 6519,
      "istan": 6520,
      " 71": 6521,
      " 94": 6522,
      " flag": 6523,
      " cool": 6524,
      " 164": 6525,
      " didn": 6526,
      " Project": 6527,
      " trip": 6528,
      " personnel": 6529,
      " sentence": 6530,
      " engaged": 6531,
      " captain": 6532,
      " Songs": 6533,
      " Jamal": 6534,
      " purchased": 6535,
      " policy": 6536,
      " Liu": 6537,
      " benef": 6538,
      "aire": 6539,
      " labor": 6540,
      " eas": 6541,
      " Mot": 6542,
      " Brian": 6543,
      " street": 6544,
      " Pers": 6545,
      " beach": 6546,
      " Rol": 6547,
      " Dublin": 6548,
      " GA": 6549,
      "anda": 6550,
      "ava": 6551,
      " chorus": 6552,
      " nothing": 6553,
      " Chart": 6554,
      " accompl": 6555,
      " coal": 6556,
      "anny": 6557,
      " Sha": 6558,
      " supply": 6559,
      " Science": 6560,
      " 160": 6561,
      " concrete": 6562,
      " 1946": 6563,
      " southwest": 6564,
      " protagon": 6565,
      " worldwide": 6566,
      " begun": 6567,
      " elimin": 6568,
      " propos": 6569,
      " declined": 6570,
      " reasons": 6571,
      "ategory": 6572,
      " briefly": 6573,
      " Tennyson": 6574,
      " Temple": 6575,
      " Throughout": 6576,
      " District": 6577,
      " fresh": 6578,
      " Iguan": 6579,
      "town": 6580,
      " theat": 6581,
      "aton": 6582,
      "ingly": 6583,
      "ela": 6584,
      " nor": 6585,
      " Mov": 6586,
      " Bull": 6587,
      " gas": 6588,
      "iration": 6589,
      "uting": 6590,
      "utation": 6591,
      " Down": 6592,
      " Ing": 6593,
      " incident": 6594,
      " Also": 6595,
      " moves": 6596,
      " Leon": 6597,
      "pring": 6598,
      " leaders": 6599,
      " 1950": 6600,
      " drawn": 6601,
      " Track": 6602,
      " importance": 6603,
      " roads": 6604,
      " Simone": 6605,
      " summ": 6606,
      " escape": 6607,
      " Governor": 6608,
      " normal": 6609,
      " platform": 6610,
      " #": 6611,
      "bo": 6612,
      "born": 6613,
      " tall": 6614,
      " tend": 6615,
      "erc": 6616,
      "onic": 6617,
      " witness": 6618,
      " pet": 6619,
      " dance": 6620,
      " hired": 6621,
      "amin": 6622,
      " Bern": 6623,
      " Baby": 6624,
      " Ray": 6625,
      " isol": 6626,
      " Jes": 6627,
      " rac": 6628,
      " plum": 6629,
      "quake": 6630,
      " spons": 6631,
      "elli": 6632,
      "rug": 6633,
      "rupt": 6634,
      " decade": 6635,
      "ooking": 6636,
      " Maria": 6637,
      " flu": 6638,
      " foundation": 6639,
      " longest": 6640,
      " 1966": 6641,
      " 1952": 6642,
      " guard": 6643,
      " 1936": 6644,
      " Production": 6645,
      " 1919": 6646,
      " possibility": 6647,
      " Brook": 6648,
      " Team": 6649,
      " delay": 6650,
      " arrival": 6651,
      " chapter": 6652,
      " billion": 6653,
      " participated": 6654,
      " firm": 6655,
      " unsu": 6656,
      " Area": 6657,
      " enjoyed": 6658,
      " responded": 6659,
      " Family": 6660,
      " paintings": 6661,
      "respond": 6662,
      " Development": 6663,
      " senior": 6664,
      " accompanied": 6665,
      " MacLeod": 6666,
      "BS": 6667,
      "ls": 6668,
      "rons": 6669,
      "ía": 6670,
      "ān": 6671,
      "isers": 6672,
      " Board": 6673,
      " stret": 6674,
      " Row": 6675,
      " Rox": 6676,
      " Dream": 6677,
      " Five": 6678,
      "osa": 6679,
      " heard": 6680,
      " ring": 6681,
      "ichol": 6682,
      " Ulys": 6683,
      " Chains": 6684,
      " Ali": 6685,
      " Albert": 6686,
      " jack": 6687,
      " Marl": 6688,
      " vert": 6689,
      " subs": 6690,
      "ifications": 6691,
      " setting": 6692,
      " 110": 6693,
      " 177": 6694,
      " developing": 6695,
      " Dev": 6696,
      " oldest": 6697,
      " paralle": 6698,
      " squad": 6699,
      " agreement": 6700,
      " dollar": 6701,
      "hetic": 6702,
      " roughly": 6703,
      " Admir": 6704,
      " Summer": 6705,
      " Ulysses": 6706,
      " i": 6707,
      "OC": 6708,
      "chest": 6709,
      "oe": 6710,
      "ano": 6711,
      " pal": 6712,
      " dog": 6713,
      " Tim": 6714,
      " Bor": 6715,
      " Bond": 6716,
      "imet": 6717,
      " Wall": 6718,
      " Int": 6719,
      " choice": 6720,
      "pty": 6721,
      "essed": 6722,
      " 77": 6723,
      " remn": 6724,
      " consists": 6725,
      " decre": 6726,
      " accident": 6727,
      " calls": 6728,
      " transit": 6729,
      " adding": 6730,
      " populations": 6731,
      " emp": 6732,
      " 1973": 6733,
      " Const": 6734,
      " 1930": 6735,
      " lasted": 6736,
      "espread": 6737,
      " Phill": 6738,
      " towns": 6739,
      " combination": 6740,
      " technology": 6741,
      " existence": 6742,
      " regarding": 6743,
      " violence": 6744,
      " dominated": 6745,
      " poetry": 6746,
      " symbol": 6747,
      " Francisc": 6748,
      " athletes": 6749,
      " Dougl": 6750,
      " Anthony": 6751,
      " Instead": 6752,
      " Turkish": 6753,
      " ign": 6754,
      "aver": 6755,
      "come": 6756,
      "rant": 6757,
      "war": 6758,
      "itors": 6759,
      " fellow": 6760,
      " Sk": 6761,
      " Theatre": 6762,
      " Bishop": 6763,
      "usal": 6764,
      " altar": 6765,
      " comic": 6766,
      " seat": 6767,
      " note": 6768,
      " contrib": 6769,
      " reserv": 6770,
      " 59": 6771,
      "ressive": 6772,
      " committee": 6773,
      " Anonymous": 6774,
      " undert": 6775,
      " filming": 6776,
      " assass": 6777,
      " submar": 6778,
      " acres": 6779,
      " door": 6780,
      " trav": 6781,
      " performing": 6782,
      " 1967": 6783,
      " Conn": 6784,
      "ructure": 6785,
      " Carib": 6786,
      " clubs": 6787,
      " competitions": 6788,
      " Braz": 6789,
      " college": 6790,
      " association": 6791,
      " closely": 6792,
      " Ode": 6793,
      " existing": 6794,
      " applied": 6795,
      " habitat": 6796,
      " Radio": 6797,
      " weakened": 6798,
      " Hornung": 6799,
      " unsuccess": 6800,
      "vens": 6801,
      " trou": 6802,
      " tells": 6803,
      " fashion": 6804,
      "isf": 6805,
      " ps": 6806,
      " Aston": 6807,
      " AML": 6808,
      "iling": 6809,
      " Bi": 6810,
      " Life": 6811,
      "agre": 6812,
      "agle": 6813,
      "iston": 6814,
      " Kenn": 6815,
      " reconst": 6816,
      " roof": 6817,
      " perhaps": 6818,
      " descend": 6819,
      " 66": 6820,
      " 98": 6821,
      " truth": 6822,
      " Marc": 6823,
      " neither": 6824,
      " substant": 6825,
      " 175": 6826,
      " distingu": 6827,
      " provides": 6828,
      " 1930s": 6829,
      " 1914": 6830,
      " battalions": 6831,
      " serves": 6832,
      " capable": 6833,
      " greatly": 6834,
      " appeal": 6835,
      " Mountain": 6836,
      " correct": 6837,
      " correspond": 6838,
      " learned": 6839,
      " painting": 6840,
      " archaeological": 6841,
      " derived": 6842,
      " reinforce": 6843,
      " pilot": 6844,
      " details": 6845,
      " purpose": 6846,
      " administration": 6847,
      " opportunity": 6848,
      " ceremony": 6849,
      " occasionally": 6850,
      " Caribbe": 6851,
      "OT": 6852,
      "burg": 6853,
      "var": 6854,
      "ona": 6855,
      " som": 6856,
      " sort": 6857,
      " filled": 6858,
      " bought": 6859,
      " hyp": 6860,
      "entially": 6861,
      " thing": 6862,
      " ones": 6863,
      " Hon": 6864,
      " Dota": 6865,
      "rait": 6866,
      " Oh": 6867,
      " sufficient": 6868,
      " Inc": 6869,
      " Stew": 6870,
      "ountain": 6871,
      " 6th": 6872,
      " supposed": 6873,
      " expans": 6874,
      " receiving": 6875,
      " invited": 6876,
      " headed": 6877,
      " editor": 6878,
      " protection": 6879,
      " storyline": 6880,
      " Broad": 6881,
      " basket": 6882,
      " speaking": 6883,
      " skin": 6884,
      " encounter": 6885,
      " household": 6886,
      " technique": 6887,
      " neck": 6888,
      " innings": 6889,
      " Archae": 6890,
      " vehicles": 6891,
      " dissipated": 6892,
      " Chelsea": 6893,
      " churches": 6894,
      " Douglas": 6895,
      " Caribbean": 6896,
      "GN": 6897,
      "RE": 6898,
      "VN": 6899,
      "la": 6900,
      " aim": 6901,
      "inj": 6902,
      "oral": 6903,
      " cit": 6904,
      " cra": 6905,
      " crop": 6906,
      " drew": 6907,
      " hat": 6908,
      " eu": 6909,
      " Mel": 6910,
      "uri": 6911,
      " Det": 6912,
      " Low": 6913,
      " Lieutenant": 6914,
      " Jay": 6915,
      "agn": 6916,
      " ERA": 6917,
      " seg": 6918,
      "abil": 6919,
      "pton": 6920,
      " Vol": 6921,
      " evac": 6922,
      "ropri": 6923,
      " Asia": 6924,
      " acid": 6925,
      " goes": 6926,
      " receive": 6927,
      " 1945": 6928,
      " 1971": 6929,
      " What": 6930,
      " anything": 6931,
      " classified": 6932,
      " typical": 6933,
      " viewed": 6934,
      " About": 6935,
      " Perry": 6936,
      " survived": 6937,
      " islands": 6938,
      "iece": 6939,
      " widespread": 6940,
      "idden": 6941,
      " massive": 6942,
      " motion": 6943,
      " Cardinal": 6944,
      " stopped": 6945,
      " Maeda": 6946,
      " drama": 6947,
      " Georgian": 6948,
      " southeast": 6949,
      " Freder": 6950,
      " astron": 6951,
      " Constantine": 6952,
      " Hibari": 6953,
      "lik": 6954,
      "rist": 6955,
      "ruli": 6956,
      "tty": 6957,
      " opt": 6958,
      " fuel": 6959,
      " Age": 6960,
      "ilton": 6961,
      " load": 6962,
      "acity": 6963,
      " MTV": 6964,
      "ola": 6965,
      " Hin": 6966,
      " Hard": 6967,
      " Ré": 6968,
      " Run": 6969,
      " Rio": 6970,
      " why": 6971,
      " Wind": 6972,
      "opes": 6973,
      "ighter": 6974,
      " cho": 6975,
      " Kil": 6976,
      " shared": 6977,
      "apes": 6978,
      " 3D": 6979,
      "iege": 6980,
      " rob": 6981,
      " Ye": 6982,
      "iously": 6983,
      " flights": 6984,
      " subt": 6985,
      " soft": 6986,
      "anned": 6987,
      " 1982": 6988,
      " 176": 6989,
      " district": 6990,
      " Qedar": 6991,
      " Princ": 6992,
      " authors": 6993,
      " initi": 6994,
      " Romani": 6995,
      " Simon": 6996,
      " settlers": 6997,
      " missing": 6998,
      "glades": 6999,
      " Golden": 7000,
      " trying": 7001,
      " acquired": 7002,
      " digital": 7003,
      " converted": 7004,
      " safety": 7005,
      " Fantasy": 7006,
      "ibrary": 7007,
      " repeated": 7008,
      " ice": 7009,
      "cer": 7010,
      "vis": 7011,
      "inosaur": 7012,
      " cab": 7013,
      " dub": 7014,
      "stances": 7015,
      " lin": 7016,
      "idges": 7017,
      "ivered": 7018,
      " Patt": 7019,
      " Dr": 7020,
      " Gil": 7021,
      " Gang": 7022,
      " Gram": 7023,
      " Jones": 7024,
      "rier": 7025,
      "iful": 7026,
      " rich": 7027,
      " channel": 7028,
      " exact": 7029,
      " Stadium": 7030,
      " spacing": 7031,
      " legend": 7032,
      " routes": 7033,
      "mann": 7034,
      " finish": 7035,
      "ilding": 7036,
      "issance": 7037,
      " locations": 7038,
      " 1980": 7039,
      " 1976": 7040,
      " 1956": 7041,
      " 1913": 7042,
      " 1916": 7043,
      " 250": 7044,
      " experiment": 7045,
      "reme": 7046,
      " glass": 7047,
      " watched": 7048,
      " holding": 7049,
      " baseball": 7050,
      " rebu": 7051,
      " funding": 7052,
      " Moz": 7053,
      " focused": 7054,
      " planning": 7055,
      " Oslo": 7056,
      " depicted": 7057,
      " Surv": 7058,
      " Holy": 7059,
      " instrument": 7060,
      " Haiti": 7061,
      " succeeded": 7062,
      " permanent": 7063,
      " Venus": 7064,
      " opinion": 7065,
      " Shortly": 7066,
      " atmosphere": 7067,
      " Phoen": 7068,
      " wedding": 7069,
      " arranged": 7070,
      " Iguanodon": 7071,
      " Brazil": 7072,
      " urban": 7073,
      "s.": 7074,
      " table": 7075,
      " wick": 7076,
      " bowl": 7077,
      "anth": 7078,
      " pack": 7079,
      " mut": 7080,
      " Mah": 7081,
      " Fel": 7082,
      " Fire": 7083,
      " W.": 7084,
      " Gra": 7085,
      " Lenn": 7086,
      " chance": 7087,
      " Kat": 7088,
      "apers": 7089,
      " resident": 7090,
      " rose": 7091,
      " overse": 7092,
      " knew": 7093,
      " decline": 7094,
      " 8th": 7095,
      " Arts": 7096,
      "oba": 7097,
      " charter": 7098,
      " assemb": 7099,
      " defined": 7100,
      " 10th": 7101,
      " 112": 7102,
      " 1943": 7103,
      " revolution": 7104,
      " providing": 7105,
      " Allied": 7106,
      " protect": 7107,
      " reality": 7108,
      " Similar": 7109,
      " creator": 7110,
      " penalty": 7111,
      " earthquake": 7112,
      " rif": 7113,
      " credited": 7114,
      " Secretary": 7115,
      "LI": 7116,
      "pass": 7117,
      "ét": 7118,
      " tied": 7119,
      " sun": 7120,
      " wins": 7121,
      " dating": 7122,
      " Snow": 7123,
      " Mr.": 7124,
      "uration": 7125,
      " Bul": 7126,
      " IGN": 7127,
      " Hell": 7128,
      " Homer": 7129,
      " Rangers": 7130,
      " Gully": 7131,
      " rub": 7132,
      " Chronic": 7133,
      " pregn": 7134,
      "formation": 7135,
      " 87": 7136,
      " supplies": 7137,
      " 1963": 7138,
      " download": 7139,
      " airport": 7140,
      " moder": 7141,
      " heads": 7142,
      " ways": 7143,
      " explos": 7144,
      " Abb": 7145,
      " delivered": 7146,
      " Stevens": 7147,
      " laws": 7148,
      " technical": 7149,
      " Morrison": 7150,
      " separated": 7151,
      " renamed": 7152,
      " Everglades": 7153,
      "evo": 7154,
      " thousands": 7155,
      " Additionally": 7156,
      " Hindu": 7157,
      "SB": 7158,
      "crib": 7159,
      "gé": 7160,
      "hat": 7161,
      "min": 7162,
      " san": 7163,
      " fair": 7164,
      " dry": 7165,
      " Top": 7166,
      " Sound": 7167,
      "ador": 7168,
      " gal": 7169,
      " rural": 7170,
      " select": 7171,
      "essing": 7172,
      "ears": 7173,
      " UTC": 7174,
      "ube": 7175,
      "okes": 7176,
      " enl": 7177,
      " teaching": 7178,
      "issipp": 7179,
      " secure": 7180,
      "attle": 7181,
      " Arthur": 7182,
      " colour": 7183,
      " regime": 7184,
      " emperor": 7185,
      " Committee": 7186,
      " Australians": 7187,
      " turning": 7188,
      " commanded": 7189,
      " opposition": 7190,
      "ivalent": 7191,
      " courts": 7192,
      " surviv": 7193,
      " Mississipp": 7194,
      " certified": 7195,
      "ipping": 7196,
      " Walter": 7197,
      " eyes": 7198,
      " assistance": 7199,
      " remainder": 7200,
      " Hollywood": 7201,
      " journey": 7202,
      " indicate": 7203,
      " consisting": 7204,
      " Bradford": 7205,
      " Alexander": 7206,
      " Office": 7207,
      " powers": 7208,
      " Columbia": 7209,
      " Truj": 7210,
      " Sunday": 7211,
      " Friends": 7212,
      "oh": 7213,
      " aware": 7214,
      "erted": 7215,
      "rell": 7216,
      " card": 7217,
      " pup": 7218,
      " drug": 7219,
      " harm": 7220,
      " Tel": 7221,
      " Cop": 7222,
      " lit": 7223,
      " lov": 7224,
      " Mul": 7225,
      " Pu": 7226,
      " Ron": 7227,
      " Native": 7228,
      "estone": 7229,
      "opher": 7230,
      " sud": 7231,
      "ardo": 7232,
      "aked": 7233,
      " impr": 7234,
      " attached": 7235,
      " Marine": 7236,
      " quite": 7237,
      " highlight": 7238,
      " noisy": 7239,
      " surrender": 7240,
      " 16th": 7241,
      " address": 7242,
      " 11th": 7243,
      " 1978": 7244,
      " disturb": 7245,
      " occurs": 7246,
      " 1953": 7247,
      " camps": 7248,
      " turns": 7249,
      " views": 7250,
      " references": 7251,
      " valley": 7252,
      " Maryland": 7253,
      " Montana": 7254,
      " economy": 7255,
      " establishment": 7256,
      " Croatian": 7257,
      " Democr": 7258,
      " Critical": 7259,
      " Director": 7260,
      " hydro": 7261,
      " Trujillo": 7262,
      " −": 7263,
      "30": 7264,
      "dal": 7265,
      "ients": 7266,
      "nest": 7267,
      "rin": 7268,
      "ture": 7269,
      " fan": 7270,
      " branch": 7271,
      " Sav": 7272,
      "entions": 7273,
      " ML": 7274,
      " Mid": 7275,
      " Master": 7276,
      "othes": 7277,
      " store": 7278,
      " Dom": 7279,
      " Fish": 7280,
      "uma": 7281,
      "agues": 7282,
      " pros": 7283,
      " vic": 7284,
      "ewhere": 7285,
      " leaves": 7286,
      " resist": 7287,
      " Alan": 7288,
      " finishing": 7289,
      " Anton": 7290,
      "icted": 7291,
      " interior": 7292,
      "itsune": 7293,
      " monarch": 7294,
      " studied": 7295,
      " reputation": 7296,
      " leads": 7297,
      " distribution": 7298,
      "ception": 7299,
      " successor": 7300,
      " replace": 7301,
      " Stef": 7302,
      " Exp": 7303,
      " producing": 7304,
      " circum": 7305,
      " missions": 7306,
      " denied": 7307,
      " immig": 7308,
      " shooting": 7309,
      " adapted": 7310,
      " methods": 7311,
      " puzz": 7312,
      " Charlie": 7313,
      " Engineer": 7314,
      " portrayed": 7315,
      " Stephen": 7316,
      " Roxas": 7317,
      " Mississippi": 7318,
      "bur": 7319,
      "break": 7320,
      "ić": 7321,
      "rations": 7322,
      "real": 7323,
      " worth": 7324,
      " franch": 7325,
      " baby": 7326,
      " Sap": 7327,
      " lic": 7328,
      " lane": 7329,
      " Hug": 7330,
      " Press": 7331,
      " Di": 7332,
      " Flow": 7333,
      " NBC": 7334,
      "rien": 7335,
      " Edu": 7336,
      "aka": 7337,
      "onder": 7338,
      " offense": 7339,
      " prey": 7340,
      " upd": 7341,
      " 69": 7342,
      " 7th": 7343,
      " gameplay": 7344,
      " entry": 7345,
      " entering": 7346,
      " obt": 7347,
      " Plunk": 7348,
      " characteristics": 7349,
      " 1915": 7350,
      " protected": 7351,
      " Recording": 7352,
      " window": 7353,
      " Within": 7354,
      " politics": 7355,
      " crime": 7356,
      " getting": 7357,
      " Activision": 7358,
      " motor": 7359,
      " maintain": 7360,
      " Howard": 7361,
      "senal": 7362,
      " Samuel": 7363,
      " worst": 7364,
      " intelligence": 7365,
      " dismissed": 7366,
      "aug": 7367,
      "kh": 7368,
      "ni": 7369,
      "ns": 7370,
      " tell": 7371,
      "inals": 7372,
      "orer": 7373,
      "orters": 7374,
      " cry": 7375,
      " crown": 7376,
      " pound": 7377,
      " tomb": 7378,
      " die": 7379,
      "elve": 7380,
      "amber": 7381,
      "acent": 7382,
      "otes": 7383,
      " stones": 7384,
      " Ridge": 7385,
      " DNA": 7386,
      " Wy": 7387,
      " Loc": 7388,
      " Nether": 7389,
      "ctions": 7390,
      " von": 7391,
      " ru": 7392,
      " exerc": 7393,
      " Kel": 7394,
      " noting": 7395,
      "ender": 7396,
      " resour": 7397,
      " joint": 7398,
      " attributed": 7399,
      " shel": 7400,
      " knots": 7401,
      " Marsh": 7402,
      " charges": 7403,
      " retire": 7404,
      " monument": 7405,
      " classes": 7406,
      " capacity": 7407,
      " basin": 7408,
      " electric": 7409,
      " novels": 7410,
      " historic": 7411,
      " Eliz": 7412,
      " charts": 7413,
      " introduction": 7414,
      " interested": 7415,
      " Calvert": 7416,
      " holds": 7417,
      " dollars": 7418,
      " discussed": 7419,
      " philosoph": 7420,
      " mushroom": 7421,
      " Isabella": 7422,
      "eenth": 7423,
      "gie": 7424,
      "wise": 7425,
      " sector": 7426,
      "itage": 7427,
      "itled": 7428,
      " cinem": 7429,
      " fer": 7430,
      " Ts": 7431,
      " Trib": 7432,
      " Cam": 7433,
      " Bos": 7434,
      " Pope": 7435,
      " Danny": 7436,
      " Walk": 7437,
      "osis": 7438,
      "osure": 7439,
      " Jersey": 7440,
      " van": 7441,
      " vary": 7442,
      " vision": 7443,
      " Strand": 7444,
      " contest": 7445,
      " agent": 7446,
      " offers": 7447,
      " Yank": 7448,
      "angerous": 7449,
      " 74": 7450,
      " 79": 7451,
      "aws": 7452,
      " 91": 7453,
      " publisher": 7454,
      " sym": 7455,
      "ajevo": 7456,
      " 1948": 7457,
      " describing": 7458,
      " generation": 7459,
      " appearing": 7460,
      " 1917": 7461,
      " medieval": 7462,
      " fields": 7463,
      " solid": 7464,
      " statement": 7465,
      " pitch": 7466,
      " coastal": 7467,
      " predecess": 7468,
      " accounts": 7469,
      " ruled": 7470,
      " rules": 7471,
      " tribes": 7472,
      " chapel": 7473,
      " Resear": 7474,
      " colonial": 7475,
      " rhyth": 7476,
      " Sarajevo": 7477,
      " Weekly": 7478,
      " Lisa": 7479,
      " younger": 7480,
      " Industry": 7481,
      "6th": 7482,
      "bles": 7483,
      "ef": 7484,
      "gra": 7485,
      "water": 7486,
      "rets": 7487,
      " caught": 7488,
      " bond": 7489,
      " inner": 7490,
      " hope": 7491,
      " Sa": 7492,
      " Sor": 7493,
      "iders": 7494,
      "ivals": 7495,
      " Here": 7496,
      " R.": 7497,
      " Daily": 7498,
      " Wars": 7499,
      " Jif": 7500,
      "ateur": 7501,
      " plants": 7502,
      " kings": 7503,
      " unn": 7504,
      " arts": 7505,
      " manner": 7506,
      " desire": 7507,
      "intend": 7508,
      " 88": 7509,
      " releg": 7510,
      " soil": 7511,
      " someone": 7512,
      " 1979": 7513,
      " instruct": 7514,
      " 1951": 7515,
      " Organ": 7516,
      "engers": 7517,
      " basic": 7518,
      " everything": 7519,
      " discovery": 7520,
      " difficulty": 7521,
      "offman": 7522,
      " recognition": 7523,
      " zone": 7524,
      " synthes": 7525,
      " exception": 7526,
      " apart": 7527,
      " forests": 7528,
      " Campb": 7529,
      " rarely": 7530,
      " considerable": 7531,
      " Victoria": 7532,
      " emotional": 7533,
      " ninth": 7534,
      " Destiny": 7535,
      " article": 7536,
      " restaurant": 7537,
      " europ": 7538,
      " Frederick": 7539,
      " Yankovic": 7540,
      " ur": 7541,
      " taught": 7542,
      " worship": 7543,
      " cold": 7544,
      "ician": 7545,
      " mine": 7546,
      " munic": 7547,
      " ha": 7548,
      " hill": 7549,
      " hall": 7550,
      " Around": 7551,
      " Chen": 7552,
      "aments": 7553,
      " nob": 7554,
      " gall": 7555,
      "igades": 7556,
      "using": 7557,
      " Rem": 7558,
      "union": 7559,
      " Fair": 7560,
      " Elect": 7561,
      " Init": 7562,
      "ables": 7563,
      "abeth": 7564,
      " shore": 7565,
      "ultane": 7566,
      " wealth": 7567,
      " Lee": 7568,
      " Joe": 7569,
      " 121": 7570,
      " 122": 7571,
      " 1961": 7572,
      " landed": 7573,
      " 1954": 7574,
      " evening": 7575,
      " opponents": 7576,
      " replacement": 7577,
      " Television": 7578,
      " involvement": 7579,
      " settle": 7580,
      "graded": 7581,
      " volunte": 7582,
      " nomination": 7583,
      " specifically": 7584,
      " wooden": 7585,
      " Transport": 7586,
      " hotel": 7587,
      " Somali": 7588,
      " Clarkson": 7589,
      " thirty": 7590,
      " Rolling": 7591,
      " Mozamb": 7592,
      " sudden": 7593,
      "AC": 7594,
      "Brien": 7595,
      "C.": 7596,
      "eper": 7597,
      "iary": 7598,
      "lan": 7599,
      "yles": 7600,
      " tal": 7601,
      " tie": 7602,
      "reets": 7603,
      "atures": 7604,
      "orous": 7605,
      " fish": 7606,
      " bal": 7607,
      "ingale": 7608,
      "leep": 7609,
      " AR": 7610,
      " Si": 7611,
      " Santa": 7612,
      " Spring": 7613,
      "eless": 7614,
      " 'Brien": 7615,
      " stream": 7616,
      "verse": 7617,
      "ceived": 7618,
      " DA": 7619,
      " Fame": 7620,
      " consequ": 7621,
      " Lords": 7622,
      "istol": 7623,
      "avia": 7624,
      " leuk": 7625,
      " ju": 7626,
      " jazz": 7627,
      " Yan": 7628,
      "ropol": 7629,
      " secured": 7630,
      " Ash": 7631,
      " 99": 7632,
      " accur": 7633,
      " Lev": 7634,
      "inking": 7635,
      " carbon": 7636,
      " 1937": 7637,
      " Muslim": 7638,
      " believes": 7639,
      " Order": 7640,
      " communities": 7641,
      " Simps": 7642,
      " divine": 7643,
      " Roberts": 7644,
      " poems": 7645,
      "aska": 7646,
      " Duke": 7647,
      " industrial": 7648,
      " veget": 7649,
      " Singles": 7650,
      " Jerusal": 7651,
      " intersection": 7652,
      " Castle": 7653,
      " picked": 7654,
      " controversy": 7655,
      "ranean": 7656,
      " Wilde": 7657,
      " recommended": 7658,
      " split": 7659,
      " Colonel": 7660,
      " fungus": 7661,
      " Skye": 7662,
      " Bono": 7663,
      " Modern": 7664,
      " Francisco": 7665,
      " Jifna": 7666,
      " Simpsons": 7667,
      " Jerusalem": 7668,
      " ×": 7669,
      " ic": 7670,
      "ban": 7671,
      "rast": 7672,
      "theless": 7673,
      "va": 7674,
      " sed": 7675,
      " soul": 7676,
      " wrong": 7677,
      " fit": 7678,
      " faces": 7679,
      " dim": 7680,
      " dock": 7681,
      " Cab": 7682,
      " Cory": 7683,
      "ussion": 7684,
      " Rif": 7685,
      " Dur": 7686,
      " F.": 7687,
      " Win": 7688,
      " convers": 7689,
      " Nap": 7690,
      " Nick": 7691,
      " Jun": 7692,
      "agu": 7693,
      " vide": 7694,
      "allow": 7695,
      "ipe": 7696,
      " whereas": 7697,
      " Shak": 7698,
      "rows": 7699,
      " depend": 7700,
      " leadership": 7701,
      " signing": 7702,
      " Carter": 7703,
      " Plot": 7704,
      " 1955": 7705,
      " strateg": 7706,
      " organizations": 7707,
      "iveness": 7708,
      " Prime": 7709,
      " legs": 7710,
      " standards": 7711,
      " Hamilton": 7712,
      " missed": 7713,
      " drawing": 7714,
      " launch": 7715,
      " absor": 7716,
      " Olympics": 7717,
      " concerns": 7718,
      " Military": 7719,
      " scholar": 7720,
      " principal": 7721,
      " Human": 7722,
      " extremely": 7723,
      " specimens": 7724,
      " Adams": 7725,
      " Independent": 7726,
      " Argentina": 7727,
      "cape": 7728,
      "ext": 7729,
      "iar": 7730,
      "pective": 7731,
      "onica": 7732,
      "rec": 7733,
      " ske": 7734,
      " session": 7735,
      " bes": 7736,
      " ble": 7737,
      " AD": 7738,
      " Sand": 7739,
      "adow": 7740,
      " 'll": 7741,
      "iday": 7742,
      "imal": 7743,
      " Pan": 7744,
      " Pul": 7745,
      " Power": 7746,
      " conference": 7747,
      " 1900": 7748,
      " existed": 7749,
      " youth": 7750,
      " parties": 7751,
      "wealth": 7752,
      " teeth": 7753,
      " Anc": 7754,
      " 82": 7755,
      " 89": 7756,
      " muscar": 7757,
      " indig": 7758,
      " minister": 7759,
      " showing": 7760,
      "iversary": 7761,
      " distributed": 7762,
      " warm": 7763,
      " 1958": 7764,
      " Forces": 7765,
      " Beach": 7766,
      " tries": 7767,
      " approached": 7768,
      " demol": 7769,
      " Earl": 7770,
      " speech": 7771,
      " connection": 7772,
      " relationships": 7773,
      " treaty": 7774,
      " threatened": 7775,
      " grav": 7776,
      " surrounded": 7777,
      " emerged": 7778,
      " chemical": 7779,
      " Writing": 7780,
      " diameter": 7781,
      " Banai": 7782,
      " psych": 7783,
      " europium": 7784,
      " ib": 7785,
      "CA": 7786,
      "bie": 7787,
      "eor": 7788,
      "nes": 7789,
      "point": 7790,
      "edom": 7791,
      " option": 7792,
      " wants": 7793,
      "organ": 7794,
      "itals": 7795,
      " corp": 7796,
      " fal": 7797,
      " fle": 7798,
      "inger": 7799,
      " page": 7800,
      " mart": 7801,
      " rect": 7802,
      " CE": 7803,
      "amm": 7804,
      " Bank": 7805,
      " IV": 7806,
      " Iron": 7807,
      " Hung": 7808,
      " stem": 7809,
      "utt": 7810,
      " P.": 7811,
      " Point": 7812,
      " Disc": 7813,
      " alien": 7814,
      "cho": 7815,
      " WW": 7816,
      " cong": 7817,
      "uda": 7818,
      "oca": 7819,
      " shark": 7820,
      " Chief": 7821,
      " intention": 7822,
      " partial": 7823,
      " overw": 7824,
      " decor": 7825,
      " department": 7826,
      " 1949": 7827,
      " 1977": 7828,
      " bright": 7829,
      " pointed": 7830,
      "aurus": 7831,
      " oppos": 7832,
      " historians": 7833,
      " admitted": 7834,
      " seeing": 7835,
      " facing": 7836,
      " crossed": 7837,
      " regularly": 7838,
      " Depression": 7839,
      " railway": 7840,
      " immediate": 7841,
      " firing": 7842,
      " favorite": 7843,
      " hoped": 7844,
      " documentary": 7845,
      " constitution": 7846,
      " institutions": 7847,
      " alternative": 7848,
      " lbw": 7849,
      " ratings": 7850,
      " Norman": 7851,
      " Ryan": 7852,
      " Roger": 7853,
      " expedition": 7854,
      " unusual": 7855,
      " isolated": 7856,
      " expansion": 7857,
      " citiz": 7858,
      " Lennon": 7859,
      "ba": 7860,
      "iour": 7861,
      "ooth": 7862,
      "sch": 7863,
      "wich": 7864,
      "zen": 7865,
      "ívar": 7866,
      " sulf": 7867,
      " inland": 7868,
      " Ald": 7869,
      " lap": 7870,
      " eighth": 7871,
      " gather": 7872,
      "uses": 7873,
      "usad": 7874,
      "aya": 7875,
      " Person": 7876,
      " Desc": 7877,
      "eman": 7878,
      "emia": 7879,
      " Fern": 7880,
      " Fras": 7881,
      " Goffman": 7882,
      " E.": 7883,
      " champion": 7884,
      " recre": 7885,
      " 63": 7886,
      " Unlike": 7887,
      "formed": 7888,
      " consum": 7889,
      " flo": 7890,
      " regional": 7891,
      " assumed": 7892,
      " 07": 7893,
      "ledon": 7894,
      " owner": 7895,
      " designation": 7896,
      " 13th": 7897,
      "ossible": 7898,
      " anniversary": 7899,
      " Hergé": 7900,
      " protests": 7901,
      " breaking": 7902,
      " reviewer": 7903,
      " marks": 7904,
      " strongly": 7905,
      " changing": 7906,
      "spec": 7907,
      "ombat": 7908,
      " watch": 7909,
      " destroyers": 7910,
      " treated": 7911,
      " languages": 7912,
      " sequel": 7913,
      " literary": 7914,
      " Territ": 7915,
      " ancest": 7916,
      " Rhodes": 7917,
      " examples": 7918,
      " bringing": 7919,
      " Janeiro": 7920,
      " watershed": 7921,
      " Bolívar": 7922,
      " inhabit": 7923,
      " message": 7924,
      " romantic": 7925,
      " duties": 7926,
      " protagonist": 7927,
      " Kilmer": 7928,
      " franchise": 7929,
      " Saprang": 7930,
      "nell": 7931,
      "rates": 7932,
      "worth": 7933,
      "inet": 7934,
      "erog": 7935,
      " sections": 7936,
      " winner": 7937,
      " T.": 7938,
      " Test": 7939,
      " Tower": 7940,
      "sta": 7941,
      " Mand": 7942,
      " Bal": 7943,
      " Ball": 7944,
      " Base": 7945,
      " Bert": 7946,
      "eton": 7947,
      "otic": 7948,
      " stadium": 7949,
      " PA": 7950,
      " Pine": 7951,
      " Wimb": 7952,
      "rapped": 7953,
      " Lanc": 7954,
      " orchest": 7955,
      "ockey": 7956,
      " Kit": 7957,
      " Station": 7958,
      " Story": 7959,
      " Stock": 7960,
      "ogether": 7961,
      " Hearts": 7962,
      " aged": 7963,
      " outf": 7964,
      " 93": 7965,
      " meets": 7966,
      " retreat": 7967,
      " indicated": 7968,
      " 06": 7969,
      "ekān": 7970,
      " 1983": 7971,
      " crest": 7972,
      " Gerard": 7973,
      " airline": 7974,
      " Color": 7975,
      " Guy": 7976,
      " detailed": 7977,
      " approved": 7978,
      " 1920": 7979,
      "istered": 7980,
      "encies": 7981,
      " genre": 7982,
      " coup": 7983,
      " improve": 7984,
      " engineering": 7985,
      " grey": 7986,
      " Square": 7987,
      " completion": 7988,
      " Lawton": 7989,
      " Jean": 7990,
      " attracted": 7991,
      " BCE": 7992,
      " Georgia": 7993,
      "onnaissance": 7994,
      " wearing": 7995,
      " specimen": 7996,
      " Burns": 7997,
      " rescue": 7998,
      " Journal": 7999,
      " academic": 8000,
      " eggs": 8001,
      " easily": 8002,
      " Research": 8003,
      " Wimbledon": 8004,
      "how": 8005,
      "know": 8006,
      "ois": 8007,
      " sam": 8008,
      " sell": 8009,
      " ocean": 8010,
      " cul": 8011,
      " bay": 8012,
      " pric": 8013,
      "lets": 8014,
      " Sher": 8015,
      " Cru": 8016,
      " Cook": 8017,
      " Corn": 8018,
      " lob": 8019,
      " Bass": 8020,
      "igation": 8021,
      " streak": 8022,
      " Raj": 8023,
      " Wolf": 8024,
      " conqu": 8025,
      "osm": 8026,
      " Neb": 8027,
      "aga": 8028,
      "agas": 8029,
      " Offic": 8030,
      " proport": 8031,
      "ppet": 8032,
      " shif": 8033,
      " spaces": 8034,
      "oked": 8035,
      " cloud": 8036,
      "range": 8037,
      " Third": 8038,
      " preced": 8039,
      " flat": 8040,
      " accused": 8041,
      " interchange": 8042,
      " coord": 8043,
      " acknow": 8044,
      " depos": 8045,
      " Conc": 8046,
      " implement": 8047,
      " starling": 8048,
      " attempting": 8049,
      " medium": 8050,
      " terminus": 8051,
      " effectively": 8052,
      " Xe": 8053,
      " surviving": 8054,
      " equal": 8055,
      " reading": 8056,
      " catch": 8057,
      " looked": 8058,
      " settled": 8059,
      " inspiration": 8060,
      " traveled": 8061,
      " practices": 8062,
      " territories": 8063,
      " civilian": 8064,
      " Richardson": 8065,
      " feeling": 8066,
      " assistant": 8067,
      " happy": 8068,
      " Cambridge": 8069,
      " rhym": 8070,
      " challenge": 8071,
      " Somalia": 8072,
      " Attorney": 8073,
      " adjacent": 8074,
      " agricultural": 8075,
      " encouraged": 8076,
      " ethn": 8077,
      " Admiral": 8078,
      "cation": 8079,
      "dess": 8080,
      "hl": 8081,
      "mel": 8082,
      " tick": 8083,
      "heim": 8084,
      " sight": 8085,
      " swe": 8086,
      "itated": 8087,
      " Tam": 8088,
      " Sb": 8089,
      " et": 8090,
      " none": 8091,
      " nick": 8092,
      " Bed": 8093,
      " Hun": 8094,
      " stead": 8095,
      " Pass": 8096,
      "emet": 8097,
      " Lab": 8098,
      " Now": 8099,
      " anth": 8100,
      " hear": 8101,
      "ifer": 8102,
      " vac": 8103,
      " races": 8104,
      " ritual": 8105,
      "ewhat": 8106,
      " chronic": 8107,
      " orn": 8108,
      "abled": 8109,
      " Kombat": 8110,
      " plain": 8111,
      " shots": 8112,
      " compounds": 8113,
      " recalled": 8114,
      " partly": 8115,
      " serial": 8116,
      " evil": 8117,
      " Aniston": 8118,
      "aware": 8119,
      " Marg": 8120,
      " accomm": 8121,
      " 05": 8122,
      " 162": 8123,
      "ennis": 8124,
      " 1910": 8125,
      " possession": 8126,
      " visible": 8127,
      " stands": 8128,
      "attered": 8129,
      " convoy": 8130,
      " patron": 8131,
      " 1909": 8132,
      " Keamy": 8133,
      " identity": 8134,
      " armor": 8135,
      " multi": 8136,
      " painted": 8137,
      " brothers": 8138,
      "going": 8139,
      " towers": 8140,
      " Every": 8141,
      " Formula": 8142,
      " challeng": 8143,
      " Garc": 8144,
      " recovered": 8145,
      " extreme": 8146,
      " seemed": 8147,
      " scientific": 8148,
      " candidate": 8149,
      " Commonwealth": 8150,
      " Mortal": 8151,
      " arrangement": 8152,
      " Jesus": 8153,
      " somewhat": 8154,
      " obtained": 8155,
      " videos": 8156,
      " accommod": 8157,
      "SA": 8158,
      "ds": 8159,
      " tone": 8160,
      " theatre": 8161,
      " cens": 8162,
      " cycle": 8163,
      "isis": 8164,
      " bat": 8165,
      "icate": 8166,
      "icity": 8167,
      " hip": 8168,
      " hits": 8169,
      " Ton": 8170,
      " Type": 8171,
      "entures": 8172,
      " Bron": 8173,
      " gross": 8174,
      "idae": 8175,
      "igins": 8176,
      " Hor": 8177,
      " Hospital": 8178,
      "utz": 8179,
      "thosaurus": 8180,
      " Gun": 8181,
      " Joy": 8182,
      " Owen": 8183,
      " proceed": 8184,
      " exha": 8185,
      "oven": 8186,
      " 58": 8187,
      " schem": 8188,
      "achus": 8189,
      " impl": 8190,
      " teach": 8191,
      " consult": 8192,
      " Marines": 8193,
      " relative": 8194,
      " fled": 8195,
      " verse": 8196,
      " acts": 8197,
      " raid": 8198,
      "annah": 8199,
      " 08": 8200,
      "roscop": 8201,
      " preserved": 8202,
      " Johnston": 8203,
      " estate": 8204,
      " Islam": 8205,
      " passage": 8206,
      " Germans": 8207,
      " 1931": 8208,
      " 1935": 8209,
      " 1912": 8210,
      "espe": 8211,
      " twelve": 8212,
      " footage": 8213,
      " convin": 8214,
      " Poland": 8215,
      " reduce": 8216,
      " Islands": 8217,
      "stitution": 8218,
      " hosted": 8219,
      " funds": 8220,
      " suffering": 8221,
      " Op.": 8222,
      " absol": 8223,
      "iques": 8224,
      " FIA": 8225,
      " Arabic": 8226,
      " linked": 8227,
      " spirit": 8228,
      " controversial": 8229,
      " Design": 8230,
      " sculpture": 8231,
      " custom": 8232,
      " basketball": 8233,
      " Plunketts": 8234,
      " Elizabeth": 8235,
      " Corythosaurus": 8236,
      " Fraser": 8237,
      "ait": 8238,
      "bishop": 8239,
      " tailed": 8240,
      " au": 8241,
      " sessions": 8242,
      " siege": 8243,
      " wars": 8244,
      " cart": 8245,
      " inaug": 8246,
      " divers": 8247,
      "lete": 8248,
      " Tig": 8249,
      "illy": 8250,
      " thin": 8251,
      "elin": 8252,
      "amic": 8253,
      " Bark": 8254,
      "oli": 8255,
      "olay": 8256,
      "uts": 8257,
      " DC": 8258,
      " Div": 8259,
      " Dyn": 8260,
      " alleg": 8261,
      " Wi": 8262,
      " Gib": 8263,
      " Late": 8264,
      " Nintend": 8265,
      " prohib": 8266,
      " shut": 8267,
      " income": 8268,
      " context": 8269,
      " Your": 8270,
      "ensis": 8271,
      "amps": 8272,
      " 68": 8273,
      " verte": 8274,
      " defended": 8275,
      " musc": 8276,
      "ificial": 8277,
      " Rele": 8278,
      " expensive": 8279,
      "athers": 8280,
      " continuing": 8281,
      " province": 8282,
      " Allah": 8283,
      " attacking": 8284,
      " 1932": 8285,
      " Prof": 8286,
      " reviewers": 8287,
      " destruction": 8288,
      " debate": 8289,
      " equipped": 8290,
      " Palmy": 8291,
      " steel": 8292,
      " circulation": 8293,
      " responsibility": 8294,
      " learning": 8295,
      " blocks": 8296,
      " stayed": 8297,
      " concerned": 8298,
      " Hotel": 8299,
      " understand": 8300,
      " moral": 8301,
      " composer": 8302,
      " adults": 8303,
      " Special": 8304,
      " Protest": 8305,
      " incorporated": 8306,
      " Peninsula": 8307,
      " Marlborough": 8308,
      " parallel": 8309,
      " Shakespe": 8310,
      " opposite": 8311,
      "erogative": 8312,
      " Nintendo": 8313,
      " Shakespeare": 8314,
      "MO": 8315,
      "body": 8316,
      "nal": 8317,
      " trick": 8318,
      " ow": 8319,
      " pushed": 8320,
      " map": 8321,
      " Techn": 8322,
      " repr": 8323,
      " Sem": 8324,
      " Sweet": 8325,
      "state": 8326,
      " gone": 8327,
      "iminal": 8328,
      "uscript": 8329,
      "ithic": 8330,
      " Pict": 8331,
      " Dark": 8332,
      "osl": 8333,
      " answ": 8334,
      "rif": 8335,
      "aku": 8336,
      " kitsune": 8337,
      " Ur": 8338,
      "aste": 8339,
      " Channel": 8340,
      " reserve": 8341,
      " agree": 8342,
      "arked": 8343,
      " pool": 8344,
      " songwrit": 8345,
      " Real": 8346,
      " musicians": 8347,
      " passengers": 8348,
      " Space": 8349,
      " governor": 8350,
      " willing": 8351,
      " 1911": 8352,
      " classical": 8353,
      " Geoff": 8354,
      " 1921": 8355,
      " 1929": 8356,
      " driving": 8357,
      " Flight": 8358,
      " elabor": 8359,
      " lowest": 8360,
      " victims": 8361,
      " patrol": 8362,
      " limit": 8363,
      " Palace": 8364,
      " promote": 8365,
      " crossing": 8366,
      " meetings": 8367,
      " strip": 8368,
      " Media": 8369,
      " falling": 8370,
      " rebels": 8371,
      " measures": 8372,
      " renew": 8373,
      " Fei": 8374,
      " Lawrence": 8375,
      " Patrick": 8376,
      " voted": 8377,
      " observations": 8378,
      " throwing": 8379,
      "hews": 8380,
      " Pitman": 8381,
      "iplom": 8382,
      " Stanley": 8383,
      " occasions": 8384,
      " remnants": 8385,
      " Construction": 8386,
      " initiative": 8387,
      " Netherlands": 8388,
      "AT": 8389,
      "fare": 8390,
      "hol": 8391,
      "pent": 8392,
      "rating": 8393,
      "uv": 8394,
      "vention": 8395,
      "yard": 8396,
      "zi": 8397,
      "onia": 8398,
      " ster": 8399,
      " brick": 8400,
      " diet": 8401,
      " hang": 8402,
      " Treat": 8403,
      " Ak": 8404,
      "eline": 8405,
      "acle": 8406,
      "otal": 8407,
      "otton": 8408,
      " Hob": 8409,
      " Rain": 8410,
      " Free": 8411,
      " Wic": 8412,
      " Link": 8413,
      " Labor": 8414,
      " Our": 8415,
      " comments": 8416,
      " prol": 8417,
      "ifies": 8418,
      " ray": 8419,
      " rum": 8420,
      " sees": 8421,
      "oceratops": 8422,
      " retained": 8423,
      " acclaim": 8424,
      " raise": 8425,
      " defences": 8426,
      " 161": 8427,
      " obl": 8428,
      " 1962": 8429,
      " returns": 8430,
      " 1959": 8431,
      " 1938": 8432,
      " Mega": 8433,
      "quez": 8434,
      "alky": 8435,
      " involving": 8436,
      " representing": 8437,
      " equivalent": 8438,
      " goddess": 8439,
      " praise": 8440,
      " Atlanta": 8441,
      " villages": 8442,
      "ymph": 8443,
      " pitcher": 8444,
      " difficulties": 8445,
      " superior": 8446,
      " Imperial": 8447,
      " biography": 8448,
      " Emperor": 8449,
      " Player": 8450,
      " objects": 8451,
      " Queens": 8452,
      " intensified": 8453,
      " purchase": 8454,
      " carrying": 8455,
      " Korean": 8456,
      " vessels": 8457,
      " fixed": 8458,
      " Guardian": 8459,
      " batsman": 8460,
      " Cambodia": 8461,
      " global": 8462,
      " unsuccessful": 8463,
      " Stefani": 8464,
      " rhythm": 8465,
      "emetery": 8466,
      " García": 8467,
      "don": 8468,
      "mes": 8469,
      "rator": 8470,
      "wald": 8471,
      "yer": 8472,
      " tight": 8473,
      " fine": 8474,
      " fold": 8475,
      " blow": 8476,
      " bone": 8477,
      " pure": 8478,
      "icop": 8479,
      "icide": 8480,
      " AP": 8481,
      " Cult": 8482,
      " online": 8483,
      " Bang": 8484,
      " gro": 8485,
      " 'd": 8486,
      "terbury": 8487,
      " Hind": 8488,
      " Raff": 8489,
      " Furt": 8490,
      "chang": 8491,
      " hem": 8492,
      "resents": 8493,
      "iform": 8494,
      " exchange": 8495,
      " U2": 8496,
      " union": 8497,
      "ureau": 8498,
      " cloth": 8499,
      "overs": 8500,
      " commit": 8501,
      " committed": 8502,
      " 67": 8503,
      " 86": 8504,
      " amino": 8505,
      " concerts": 8506,
      " simultane": 8507,
      " Canterbury": 8508,
      "echism": 8509,
      " periods": 8510,
      " 1920s": 8511,
      " covers": 8512,
      "iterranean": 8513,
      " defeating": 8514,
      " influences": 8515,
      " divisions": 8516,
      " needs": 8517,
      " collaps": 8518,
      " Mediterranean": 8519,
      " narrative": 8520,
      " reveals": 8521,
      " escort": 8522,
      " Prior": 8523,
      " Enterprise": 8524,
      " accompany": 8525,
      " internal": 8526,
      " disappoint": 8527,
      " camera": 8528,
      " behaviour": 8529,
      " Palestine": 8530,
      " voiced": 8531,
      " Athletic": 8532,
      " preferred": 8533,
      " Aerith": 8534,
      " Phillies": 8535,
      " Grammy": 8536,
      " survivors": 8537,
      " resources": 8538,
      "species": 8539,
      "after": 8540,
      "burn": 8541,
      "boy": 8542,
      "math": 8543,
      "rich": 8544,
      "vements": 8545,
      "ár": 8546,
      " bor": 8547,
      " dens": 8548,
      " Sports": 8549,
      "elle": 8550,
      " Mir": 8551,
      " Mother": 8552,
      "urrent": 8553,
      " Hou": 8554,
      " Rugby": 8555,
      " Found": 8556,
      " Front": 8557,
      " rugby": 8558,
      " exit": 8559,
      " Ken": 8560,
      " Kann": 8561,
      " Krak": 8562,
      "iped": 8563,
      "ishment": 8564,
      " Along": 8565,
      "rene": 8566,
      " feed": 8567,
      " deck": 8568,
      " formally": 8569,
      " followers": 8570,
      " 09": 8571,
      " represents": 8572,
      " operating": 8573,
      " considers": 8574,
      " USD": 8575,
      " Prog": 8576,
      " classic": 8577,
      " refers": 8578,
      " McG": 8579,
      " covering": 8580,
      " else": 8581,
      " criticised": 8582,
      " doesn": 8583,
      " closer": 8584,
      " Championships": 8585,
      " Markgra": 8586,
      " tribut": 8587,
      " absence": 8588,
      " cruiser": 8589,
      " feelings": 8590,
      " visitors": 8591,
      " products": 8592,
      " normally": 8593,
      " hundreds": 8594,
      " Cathedral": 8595,
      " legislation": 8596,
      " deployed": 8597,
      " interpret": 8598,
      " panel": 8599,
      " arrested": 8600,
      " dialogue": 8601,
      " proposal": 8602,
      "inje": 8603,
      " astronom": 8604,
      " pupils": 8605,
      " municipal": 8606,
      " Fernand": 8607,
      " Colorado": 8608,
      " Raffles": 8609,
      " Furtado": 8610,
      " Markgraf": 8611,
      " ille": 8612,
      "CC": 8613,
      "OK": 8614,
      "ean": 8615,
      "iy": 8616,
      " tank": 8617,
      "hered": 8618,
      " aw": 8619,
      " fram": 8620,
      "ashed": 8621,
      " Satur": 8622,
      " liber": 8623,
      " Bell": 8624,
      " Bath": 8625,
      "otype": 8626,
      " Hud": 8627,
      " Hok": 8628,
      " stable": 8629,
      " Roc": 8630,
      "rage": 8631,
      " Ly": 8632,
      " Nar": 8633,
      " Nad": 8634,
      " Nichol": 8635,
      " deem": 8636,
      " choir": 8637,
      " orb": 8638,
      " Usta": 8639,
      "ishn": 8640,
      " Valky": 8641,
      " reconnaissance": 8642,
      " appropri": 8643,
      " manuscript": 8644,
      " outl": 8645,
      " tele": 8646,
      " Comb": 8647,
      " prerogative": 8648,
      " forming": 8649,
      " Sholay": 8650,
      " enth": 8651,
      " surpr": 8652,
      " 166": 8653,
      " extent": 8654,
      " infrast": 8655,
      "ullen": 8656,
      " annually": 8657,
      " 140": 8658,
      " trading": 8659,
      " convection": 8660,
      " skull": 8661,
      " biographer": 8662,
      " devot": 8663,
      " researchers": 8664,
      " poorly": 8665,
      " stationed": 8666,
      " check": 8667,
      " satisf": 8668,
      " ensure": 8669,
      " moments": 8670,
      " drums": 8671,
      " displays": 8672,
      "onomy": 8673,
      " Dominican": 8674,
      " NHL": 8675,
      " submarine": 8676,
      " reconstruction": 8677,
      "cribed": 8678,
      " DAG": 8679,
      " muscaria": 8680,
      " overwhel": 8681,
      " Ustaš": 8682,
      "DH": 8683,
      "friend": 8684,
      "life": 8685,
      "rants": 8686,
      "vati": 8687,
      "zac": 8688,
      "inian": 8689,
      " sunk": 8690,
      " saves": 8691,
      " wings": 8692,
      "ori": 8693,
      " creek": 8694,
      " brand": 8695,
      " dream": 8696,
      " dinosaur": 8697,
      "entional": 8698,
      " Cape": 8699,
      " lose": 8700,
      " loy": 8701,
      " lists": 8702,
      " nav": 8703,
      " Bat": 8704,
      " 'in": 8705,
      "owiec": 8706,
      " streets": 8707,
      " Rom": 8708,
      " Jenn": 8709,
      "ateau": 8710,
      " orbit": 8711,
      "anti": 8712,
      "ogy": 8713,
      " intense": 8714,
      " clock": 8715,
      " abund": 8716,
      " Alb": 8717,
      "ricted": 8718,
      " jun": 8719,
      " Show": 8720,
      " entitled": 8721,
      " transition": 8722,
      " 15th": 8723,
      " 1940s": 8724,
      " obst": 8725,
      " extension": 8726,
      " Who": 8727,
      " belt": 8728,
      " Blood": 8729,
      " useful": 8730,
      " phr": 8731,
      " modified": 8732,
      " driven": 8733,
      " Record": 8734,
      " posted": 8735,
      " influential": 8736,
      " divor": 8737,
      " Richmond": 8738,
      " Maggie": 8739,
      " steam": 8740,
      " Mexican": 8741,
      " injuries": 8742,
      " frame": 8743,
      " memory": 8744,
      " withdrew": 8745,
      " FIFA": 8746,
      " understanding": 8747,
      " dramatic": 8748,
      " bombard": 8749,
      " emerg": 8750,
      " purposes": 8751,
      " essential": 8752,
      " dynasty": 8753,
      " doubt": 8754,
      " util": 8755,
      "niowiec": 8756,
      " Wiś": 8757,
      "eared": 8758,
      "hist": 8759,
      "ker": 8760,
      "lie": 8761,
      "lock": 8762,
      "ng": 8763,
      "oom": 8764,
      "ugh": 8765,
      " tests": 8766,
      " saved": 8767,
      " chess": 8768,
      "arth": 8769,
      " bed": 8770,
      "rous": 8771,
      " diplom": 8772,
      " Sn": 8773,
      "ilst": 8774,
      " CBS": 8775,
      " Mun": 8776,
      " Mach": 8777,
      " Bow": 8778,
      " Bab": 8779,
      " Benn": 8780,
      " gard": 8781,
      " ash": 8782,
      " Rest": 8783,
      "andy": 8784,
      " Ele": 8785,
      " rated": 8786,
      " rates": 8787,
      " ridge": 8788,
      " plane": 8789,
      " shipping": 8790,
      "acks": 8791,
      " spoke": 8792,
      " VII": 8793,
      " ago": 8794,
      " otherwise": 8795,
      "teenth": 8796,
      " 78": 8797,
      " 900": 8798,
      "ugosl": 8799,
      " Ark": 8800,
      " writings": 8801,
      " actual": 8802,
      " formal": 8803,
      " subspecies": 8804,
      "inson": 8805,
      " ammun": 8806,
      " 101": 8807,
      " trail": 8808,
      " 123": 8809,
      " severely": 8810,
      " exposure": 8811,
      " 155": 8812,
      " 113": 8813,
      " originated": 8814,
      " installed": 8815,
      " generated": 8816,
      " helicop": 8817,
      " restrict": 8818,
      " Parvati": 8819,
      " listen": 8820,
      " parish": 8821,
      " 1928": 8822,
      " engines": 8823,
      " demand": 8824,
      " suggesting": 8825,
      " excess": 8826,
      " factors": 8827,
      " Federal": 8828,
      " watching": 8829,
      " interests": 8830,
      "restling": 8831,
      " Township": 8832,
      " crosses": 8833,
      " burned": 8834,
      " informed": 8835,
      " Moore": 8836,
      " kingdom": 8837,
      " materials": 8838,
      " persu": 8839,
      "itzer": 8840,
      " happened": 8841,
      " Portugal": 8842,
      " Israeli": 8843,
      " loan": 8844,
      " Norway": 8845,
      "criptions": 8846,
      " apparently": 8847,
      " Massachus": 8848,
      " journalist": 8849,
      " picture": 8850,
      " chairman": 8851,
      " Jacob": 8852,
      " jackrab": 8853,
      " Réunion": 8854,
      " circumstances": 8855,
      " Education": 8856,
      "ekāntav": 8857,
      " Barker": 8858,
      " Wiśniowiec": 8859,
      " ammunition": 8860,
      " Massachusetts": 8861,
      "western": 8862,
      "heera": 8863,
      " ori": 8864,
      " wine": 8865,
      " citing": 8866,
      " festival": 8867,
      " Sid": 8868,
      " Sab": 8869,
      "ilation": 8870,
      " Cec": 8871,
      "acter": 8872,
      "urse": 8873,
      " Baker": 8874,
      " Branch": 8875,
      " Hamp": 8876,
      " Having": 8877,
      " Prom": 8878,
      " Roth": 8879,
      " Dh": 8880,
      " Dig": 8881,
      " Gary": 8882,
      " Gwen": 8883,
      " Lith": 8884,
      " Lang": 8885,
      " Niel": 8886,
      " Eaton": 8887,
      " Eagle": 8888,
      "oren": 8889,
      " Intern": 8890,
      " Kim": 8891,
      "iang": 8892,
      " unlike": 8893,
      "oko": 8894,
      " climate": 8895,
      " resign": 8896,
      "ryce": 8897,
      " disaster": 8898,
      " partially": 8899,
      " Yugosl": 8900,
      " consc": 8901,
      " 92": 8902,
      " 84": 8903,
      " relie": 8904,
      "inder": 8905,
      " See": 8906,
      " movements": 8907,
      " 02": 8908,
      " impossible": 8909,
      " operate": 8910,
      " carved": 8911,
      " generals": 8912,
      " eleven": 8913,
      " Death": 8914,
      " Guide": 8915,
      " latex": 8916,
      " starlings": 8917,
      " paras": 8918,
      "urricanes": 8919,
      " 1927": 8920,
      " causes": 8921,
      " victories": 8922,
      " survive": 8923,
      " sky": 8924,
      " ready": 8925,
      " mixture": 8926,
      " predomin": 8927,
      " burning": 8928,
      " Minor": 8929,
      " Ministry": 8930,
      " Khand": 8931,
      " Wilson": 8932,
      " merch": 8933,
      "forced": 8934,
      " transportation": 8935,
      " memorial": 8936,
      "rorist": 8937,
      " layer": 8938,
      " cancer": 8939,
      " shells": 8940,
      " institution": 8941,
      " instruments": 8942,
      " thousand": 8943,
      " Silver": 8944,
      " behavior": 8945,
      " Historic": 8946,
      " departure": 8947,
      " RAAF": 8948,
      " Swedish": 8949,
      " substantial": 8950,
      " overseas": 8951,
      " resistance": 8952,
      " Kannada": 8953,
      " Ustaše": 8954,
      "ekāntavāda": 8955,
      "EC": 8956,
      "Hg": 8957,
      "cru": 8958,
      "de": 8959,
      "gov": 8960,
      "pan": 8961,
      "put": 8962,
      "pson": 8963,
      "piece": 8964,
      " tack": 8965,
      " turb": 8966,
      "inery": 8967,
      "err": 8968,
      " mamm": 8969,
      " dangerous": 8970,
      " Az": 8971,
      " Sans": 8972,
      " Sup": 8973,
      " Soon": 8974,
      " Celt": 8975,
      " eat": 8976,
      " wasn": 8977,
      " Midge": 8978,
      " Masters": 8979,
      " Már": 8980,
      "urst": 8981,
      " Budd": 8982,
      " Bureau": 8983,
      " bearing": 8984,
      " Ra": 8985,
      " Last": 8986,
      " heat": 8987,
      " spend": 8988,
      " spores": 8989,
      " resigned": 8990,
      " recur": 8991,
      " rooms": 8992,
      " afterwards": 8993,
      "weight": 8994,
      " commem": 8995,
      " tex": 8996,
      "obile": 8997,
      " Season": 8998,
      " subst": 8999,
      " amateur": 9000,
      " supporters": 9001,
      " 178": 9002,
      " instance": 9003,
      " musician": 9004,
      " advis": 9005,
      " models": 9006,
      " 1933": 9007,
      "onto": 9008,
      " restored": 9009,
      " marry": 9010,
      " listing": 9011,
      " windows": 9012,
      " Perfect": 9013,
      " temples": 9014,
      " electronic": 9015,
      "encing": 9016,
      " compete": 9017,
      " Simpson": 9018,
      " Police": 9019,
      " Glad": 9020,
      " interesting": 9021,
      " looks": 9022,
      " techniques": 9023,
      " squadron": 9024,
      " sequences": 9025,
      " copy": 9026,
      " engineers": 9027,
      " thinking": 9028,
      " tribute": 9029,
      " establishing": 9030,
      " documents": 9031,
      " autom": 9032,
      " Howe": 9033,
      " Veronica": 9034,
      "ASA": 9035,
      " safe": 9036,
      " interaction": 9037,
      " spiritual": 9038,
      " opportunities": 9039,
      " struggle": 9040,
      " premiered": 9041,
      " beautiful": 9042,
      " Stewart": 9043,
      " Gilbert": 9044,
      " Yanke": 9045,
      " congreg": 9046,
      " nickn": 9047,
      " Khandoba": 9048,
      " Márquez": 9049,
      " els": 9050,
      "mate": 9051,
      "ti": 9052,
      "uable": 9053,
      "za": 9054,
      " ty": 9055,
      "inate": 9056,
      " sale": 9057,
      "isler": 9058,
      " bord": 9059,
      " inHg": 9060,
      " pale": 9061,
      " toll": 9062,
      "roit": 9063,
      " mode": 9064,
      " Cob": 9065,
      "oma": 9066,
      "omura": 9067,
      " Then": 9068,
      " Ba": 9069,
      " Bah": 9070,
      " Ira": 9071,
      " forcing": 9072,
      " Pur": 9073,
      " Dak": 9074,
      " Fall": 9075,
      " FRE": 9076,
      "ulating": 9077,
      " Wag": 9078,
      " Wright": 9079,
      "opl": 9080,
      " prove": 9081,
      " vast": 9082,
      "udes": 9083,
      " notably": 9084,
      "apse": 9085,
      " Vul": 9086,
      " recru": 9087,
      " desert": 9088,
      " attrib": 9089,
      " remember": 9090,
      " consol": 9091,
      " conservation": 9092,
      "ologies": 9093,
      " regiment": 9094,
      " coins": 9095,
      " 165": 9096,
      " minimum": 9097,
      " reprodu": 9098,
      " poll": 9099,
      " artwork": 9100,
      " artificial": 9101,
      " designs": 9102,
      " offices": 9103,
      " 1957": 9104,
      " adventure": 9105,
      " helmet": 9106,
      " McL": 9107,
      " storms": 9108,
      " 21st": 9109,
      " criminal": 9110,
      " myst": 9111,
      " situated": 9112,
      " readers": 9113,
      " recognised": 9114,
      " achieve": 9115,
      " Toronto": 9116,
      " properties": 9117,
      " experiences": 9118,
      " Justice": 9119,
      " Miller": 9120,
      " weapon": 9121,
      " neighbor": 9122,
      " vessel": 9123,
      " Jurchen": 9124,
      " Girls": 9125,
      " Detroit": 9126,
      " Phoenix": 9127,
      "LIMO": 9128,
      " Mulder": 9129,
      " retirement": 9130,
      " Mozambique": 9131,
      " acknowled": 9132,
      " Saturday": 9133,
      " elsewhere": 9134,
      " FRELIMO": 9135,
      " rib": 9136,
      ".e": 9137,
      "book": 9138,
      "mit": 9139,
      "wick": 9140,
      "zo": 9141,
      " tiss": 9142,
      " tanks": 9143,
      "rees": 9144,
      " sad": 9145,
      " sons": 9146,
      " sung": 9147,
      " fant": 9148,
      " fountain": 9149,
      " bod": 9150,
      " bell": 9151,
      "asm": 9152,
      " horn": 9153,
      " Ara": 9154,
      " Such": 9155,
      " CP": 9156,
      " Cas": 9157,
      "lyn": 9158,
      " Imp": 9159,
      " giant": 9160,
      " PC": 9161,
      " Pot": 9162,
      " Ren": 9163,
      "uls": 9164,
      " alle": 9165,
      " Gray": 9166,
      " Network": 9167,
      " Esh": 9168,
      " selection": 9169,
      "arte": 9170,
      " Ky": 9171,
      " Kansas": 9172,
      " Vice": 9173,
      " agents": 9174,
      " enh": 9175,
      "phy": 9176,
      " Univers": 9177,
      "oyage": 9178,
      " format": 9179,
      " cooper": 9180,
      " founder": 9181,
      " surg": 9182,
      " trained": 9183,
      " Scully": 9184,
      " 163": 9185,
      " depending": 9186,
      "atherine": 9187,
      "yline": 9188,
      " Warren": 9189,
      " counties": 9190,
      " characterized": 9191,
      " Canal": 9192,
      " starred": 9193,
      " engage": 9194,
      " antic": 9195,
      " Management": 9196,
      " formerly": 9197,
      " Barry": 9198,
      " westward": 9199,
      " statistics": 9200,
      " programme": 9201,
      " grounds": 9202,
      " radiation": 9203,
      " Kevin": 9204,
      " fallen": 9205,
      " measured": 9206,
      " costs": 9207,
      " burial": 9208,
      " objective": 9209,
      " frig": 9210,
      " networks": 9211,
      " depicts": 9212,
      " Russia": 9213,
      " cleared": 9214,
      " biggest": 9215,
      " photograph": 9216,
      " holiday": 9217,
      " vehicle": 9218,
      " excavation": 9219,
      " remarked": 9220,
      "chell": 9221,
      " Journey": 9222,
      " Albums": 9223,
      " Memorial": 9224,
      " Coleman": 9225,
      " Bulls": 9226,
      " delayed": 9227,
      " citizens": 9228,
      " convinced": 9229,
      " Hudson": 9230,
      " infrastructure": 9231,
      " Wiśniowiecki": 9232,
      " id": 9233,
      "Ch": 9234,
      "iac": 9235,
      "night": 9236,
      "yo": 9237,
      " fert": 9238,
      "esh": 9239,
      "alley": 9240,
      "icit": 9241,
      "icul": 9242,
      " moon": 9243,
      " dwar": 9244,
      " Tu": 9245,
      " render": 9246,
      "ellect": 9247,
      "acec": 9248,
      " Much": 9249,
      " Bad": 9250,
      " 'M": 9251,
      "olen": 9252,
      " styles": 9253,
      " Pow": 9254,
      " Dave": 9255,
      "emies": 9256,
      " Gate": 9257,
      "osh": 9258,
      " Nob": 9259,
      "aints": 9260,
      " vul": 9261,
      " deleg": 9262,
      " rivers": 9263,
      " Kong": 9264,
      "acked": 9265,
      " Stal": 9266,
      " Stories": 9267,
      "ellar": 9268,
      " compound": 9269,
      "ruz": 9270,
      "rupted": 9271,
      "assador": 9272,
      " residence": 9273,
      " playoff": 9274,
      " Anzac": 9275,
      " feathers": 9276,
      " decides": 9277,
      " Arsenal": 9278,
      " flash": 9279,
      " 03": 9280,
      " describe": 9281,
      " inscription": 9282,
      " Plat": 9283,
      " restoration": 9284,
      " Beh": 9285,
      " differences": 9286,
      " 1926": 9287,
      " opponent": 9288,
      "shore": 9289,
      " claiming": 9290,
      " skills": 9291,
      " Davis": 9292,
      " funer": 9293,
      " Magdal": 9294,
      " steep": 9295,
      " predators": 9296,
      "amental": 9297,
      " condem": 9298,
      " audiences": 9299,
      " closest": 9300,
      " clearly": 9301,
      " Oscar": 9302,
      " housing": 9303,
      " railroad": 9304,
      " frust": 9305,
      " Republican": 9306,
      " determine": 9307,
      "avalry": 9308,
      " vote": 9309,
      " Peters": 9310,
      " Trek": 9311,
      " displayed": 9312,
      " Confeder": 9313,
      "iggs": 9314,
      " hunting": 9315,
      " ranging": 9316,
      " tunnel": 9317,
      " Originally": 9318,
      " Nevertheless": 9319,
      " benefit": 9320,
      " Persian": 9321,
      " reservoir": 9322,
      " reinforcements": 9323,
      " crake": 9324,
      " crops": 9325,
      " imprison": 9326,
      " predecessor": 9327,
      " Organization": 9328,
      " Initially": 9329,
      " Territory": 9330,
      " Profess": 9331,
      " Protestant": 9332,
      " Hokies": 9333,
      " dwarf": 9334,
      "gam": 9335,
      "mouth": 9336,
      "ta": 9337,
      "ön": 9338,
      "rep": 9339,
      "atically": 9340,
      " cyt": 9341,
      " bones": 9342,
      "icia": 9343,
      " myc": 9344,
      "oux": 9345,
      " Tal": 9346,
      " Category": 9347,
      "eld": 9348,
      " lake": 9349,
      " easy": 9350,
      "acles": 9351,
      " ISB": 9352,
      " grown": 9353,
      " Hay": 9354,
      " Hope": 9355,
      " Ple": 9356,
      " Wing": 9357,
      " Gro": 9358,
      " comed": 9359,
      " Chagas": 9360,
      "iao": 9361,
      " intellect": 9362,
      "uez": 9363,
      "ignment": 9364,
      " attained": 9365,
      " teen": 9366,
      " Until": 9367,
      " poison": 9368,
      " relation": 9369,
      " underw": 9370,
      " prime": 9371,
      " defending": 9372,
      " 01": 9373,
      " thereafter": 9374,
      " smooth": 9375,
      " install": 9376,
      " cargo": 9377,
      " anyone": 9378,
      "uthor": 9379,
      " Allen": 9380,
      " promised": 9381,
      " prompted": 9382,
      " restricted": 9383,
      " Paraly": 9384,
      " childhood": 9385,
      " slide": 9386,
      " breed": 9387,
      " commandment": 9388,
      " Abby": 9389,
      " temporary": 9390,
      " elections": 9391,
      " arrive": 9392,
      " representative": 9393,
      " Event": 9394,
      "sequently": 9395,
      " err": 9396,
      " 1905": 9397,
      " announce": 9398,
      " Magad": 9399,
      " priest": 9400,
      " ranking": 9401,
      " argues": 9402,
      " Rocky": 9403,
      " ruling": 9404,
      " perspective": 9405,
      " Turks": 9406,
      " adaptation": 9407,
      " aspect": 9408,
      " degrees": 9409,
      " badly": 9410,
      " Victorian": 9411,
      " magnitude": 9412,
      " corner": 9413,
      " Corb": 9414,
      " throne": 9415,
      " scientists": 9416,
      " Mathews": 9417,
      " Communist": 9418,
[...]
