{
  "version": "1.0",
  "truncation": null,
  "padding": null,
  "added_tokens": [
    {
      "id": 0,
      "content": "<UNK>",
      "single_word": false,
      "lstrip": false,
      "rstrip": false,
      "normalized": false,
      "special": true
    },
    {
      "id": 1,
      "content": "<CLS>",
      "single_word": false,
      "lstrip": false,
      "rstrip": false,
      "normalized": false,
      "special": true
    },
    {
      "id": 2,
      "content": "<SEP>",
      "single_word": false,
      "lstrip": false,
      "rstrip": false,
      "normalized": false,
      "special": true
    },
    {
      "id": 3,
      "content": "<EN>",
      "single_word": false,
      "lstrip": false,
      "rstrip": false,
      "normalized": false,
      "special": true
    },
    {
      "id": 4,
      "content": "</EN>",
      "single_word": false,
      "lstrip": false,
      "rstrip": false,
      "normalized": false,
      "special": true
    },
    {
      "id": 5,
      "content": "<ES>",
      "single_word": false,
      "lstrip": false,
      "rstrip": false,
      "normalized": false,
      "special": true
    },
    {
      "id": 6,
      "content": "</ES>",
      "single_word": false,
      "lstrip": false,
      "rstrip": false,
      "normalized": false,
      "special": true
    },
    {
      "id": 7,
      "content": "<ZH>",
      "single_word": false,
      "lstrip": false,
      "rstrip": false,
      "normalized": false,
      "special": true
    },
    {
      "id": 8,
      "content": "</ZH>",
      "single_word": false,
      "lstrip": false,
      "rstrip": false,
      "normalized": false,
      "special": true
    },
    {
      "id": 9,
      "content": "<HI>",
      "single_word": false,
      "lstrip": false,
      "rstrip": false,
      "normalized": false,
      "special": true
    },
    {
      "id": 10,
      "content": "</HI>",
      "single_word": false,
      "lstrip": false,
      "rstrip": false,
      "normalized": false,
      "special": true
    }
  ],
  "normalizer": null,
  "pre_tokenizer": {
    "type": "ByteLevel",
    "add_prefix_space": false,
    "trim_offsets": true,
    "use_regex": true
  },
  "post_processor": {
    "type": "ByteLevel",
    "add_prefix_space": true,
    "trim_offsets": false,
    "use_regex": true
  },
  "decoder": {
    "type": "ByteLevel",
    "add_prefix_space": true,
    "trim_offsets": true,
    "use_regex": true
  },
  "model": {
    "type": "BPE",
    "dropout": null,
    "unk_token": null,
    "continuing_subword_prefix": null,
    "end_of_word_suffix": null,
    "fuse_unk": false,
    "byte_fallback": false,
    "vocab": {
      "<UNK>": 0,
      "<CLS>": 1,
      "<SEP>": 2,
      "<EN>": 3,
      "</EN>": 4,
      "<ES>": 5,
      "</ES>": 6,
      "<ZH>": 7,
      "</ZH>": 8,
      "<HI>": 9,
      "</HI>": 10,
      "!": 11,
      "\"": 12,
      "#": 13,
      "$": 14,
      "%": 15,
      "&": 16,
      "'": 17,
      "(": 18,
      ")": 19,
      "*": 20,
      "+": 21,
      ",": 22,
      "-": 23,
      ".": 24,
      "/": 25,
      "0": 26,
      "1": 27,
      "2": 28,
      "3": 29,
      "4": 30,
      "5": 31,
      "6": 32,
      "7": 33,
      "8": 34,
      "9": 35,
      ":": 36,
      ";": 37,
      "<": 38,
      "=": 39,
      ">": 40,
      "?": 41,
      "@": 42,
      "A": 43,
      "B": 44,
      "C": 45,
      "D": 46,
      "E": 47,
      "F": 48,
      "G": 49,
      "H": 50,
      "I": 51,
      "J": 52,
      "K": 53,
      "L": 54,
      "M": 55,
      "N": 56,
      "O": 57,
      "P": 58,
      "Q": 59,
      "R": 60,
      "S": 61,
      "T": 62,
      "U": 63,
      "V": 64,
      "W": 65,
      "X": 66,
      "Y": 67,
      "Z": 68,
      "[": 69,
      "\\": 70,
      "]": 71,
      "^": 72,
      "_": 73,
      "`": 74,
      "a": 75,
      "b": 76,
      "c": 77,
      "d": 78,
      "e": 79,
      "f": 80,
      "g": 81,
      "h": 82,
      "i": 83,
      "j": 84,
      "k": 85,
      "l": 86,
      "m": 87,
      "n": 88,
      "o": 89,
      "p": 90,
      "q": 91,
      "r": 92,
      "s": 93,
      "t": 94,
      "u": 95,
      "v": 96,
      "w": 97,
      "x": 98,
      "y": 99,
      "z": 100,
      "{": 101,
      "|": 102,
      "}": 103,
      "~": 104,
      "¡": 105,
      "¢": 106,
      "£": 107,
      "¤": 108,
      "¥": 109,
      "¦": 110,
      "§": 111,
      "¨": 112,
      "©": 113,
      "ª": 114,
      "«": 115,
      "¬": 116,
      "®": 117,
      "¯": 118,
      "°": 119,
      "±": 120,
      "²": 121,
      "³": 122,
      "´": 123,
      "µ": 124,
      "¶": 125,
      "·": 126,
      "¸": 127,
      "¹": 128,
      "º": 129,
      "»": 130,
      "¼": 131,
      "½": 132,
      "¾": 133,
      "¿": 134,
      "À": 135,
      "Á": 136,
      "Â": 137,
      "Ã": 138,
      "Ä": 139,
      "Å": 140,
      "Æ": 141,
      "Ç": 142,
      "È": 143,
      "É": 144,
      "Ê": 145,
      "Ë": 146,
      "Ì": 147,
      "Í": 148,
      "Î": 149,
      "Ï": 150,
      "Ð": 151,
      "Ñ": 152,
      "Ò": 153,
      "Ó": 154,
      "Ô": 155,
      "Õ": 156,
      "Ö": 157,
      "×": 158,
      "Ø": 159,
      "Ù": 160,
      "Ú": 161,
      "Û": 162,
      "Ü": 163,
      "Ý": 164,
      "Þ": 165,
      "ß": 166,
      "à": 167,
      "á": 168,
      "â": 169,
      "ã": 170,
      "ä": 171,
      "å": 172,
      "æ": 173,
      "ç": 174,
      "è": 175,
      "é": 176,
      "ê": 177,
      "ë": 178,
      "ì": 179,
      "í": 180,
      "î": 181,
      "ï": 182,
      "ð": 183,
      "ñ": 184,
      "ò": 185,
      "ó": 186,
      "ô": 187,
      "õ": 188,
      "ö": 189,
      "÷": 190,
      "ø": 191,
      "ù": 192,
      "ú": 193,
      "û": 194,
      "ü": 195,
      "ý": 196,
      "þ": 197,
      "ÿ": 198,
      "Ā": 199,
      "ā": 200,
      "Ă": 201,
      "ă": 202,
      "Ą": 203,
      "ą": 204,
      "Ć": 205,
      "ć": 206,
      "Ĉ": 207,
      "ĉ": 208,
      "Ċ": 209,
      "ċ": 210,
      "Č": 211,
      "č": 212,
      "Ď": 213,
      "ď": 214,
      "Đ": 215,
      "đ": 216,
      "Ē": 217,
      "ē": 218,
      "Ĕ": 219,
      "ĕ": 220,
      "Ė": 221,
      "ė": 222,
      "Ę": 223,
      "ę": 224,
      "Ě": 225,
      "ě": 226,
      "Ĝ": 227,
      "ĝ": 228,
      "Ğ": 229,
      "ğ": 230,
      "Ġ": 231,
      "ġ": 232,
      "Ģ": 233,
      "ģ": 234,
      "Ĥ": 235,
      "ĥ": 236,
      "Ħ": 237,
      "ħ": 238,
      "Ĩ": 239,
      "ĩ": 240,
      "Ī": 241,
      "ī": 242,
      "Ĭ": 243,
      "ĭ": 244,
      "Į": 245,
      "į": 246,
      "İ": 247,
      "ı": 248,
      "Ĳ": 249,
      "ĳ": 250,
      "Ĵ": 251,
      "ĵ": 252,
      "Ķ": 253,
      "ķ": 254,
      "ĸ": 255,
      "Ĺ": 256,
      "ĺ": 257,
      "Ļ": 258,
      "ļ": 259,
      "Ľ": 260,
      "ľ": 261,
      "Ŀ": 262,
      "ŀ": 263,
      "Ł": 264,
      "ł": 265,
      "Ń": 266,
      "ãĢ": 267,
      "ä½": 268,
      "ï¼": 269,
      "ãĢĤ": 270,
      "ï¼Į": 271,
      "ä½¢": 272,
      "ĭå": 273,
      "å¥": 274,
      "åĺ": 275,
      "å¥½": 276,
      "åĴ": 277,
      "ä¸": 278,
      "æľ": 279,
      "ä½¢å": 280,
      "åĺħ": 281,
      "åĢ": 282,
      "åĻ": 283,
      "ä¸Ģ": 284,
      "åĲ": 285,
      "åļ": 286,
      "åĴĹ": 287,
      "åĸ": 288,
      "ä¿": 289,
      "Ī°": 290,
      "ä»": 291,
      "éĸ": 292,
      "å°": 293,
      "åĲĮ": 294,
      "åĢĭ": 295,
      "ä½¢åĵ": 296,
      "ä¿Ĥ": 297,
      "åı": 298,
      "å¤": 299,
      "æľī": 300,
      "åĻī": 301,
      "åĸº": 302,
      "æĪ": 303,
      "åº": 304,
      "åĻīåĻī": 305,
      "è¦": 306,
      "åĪ°": 307,
      "ĶĶ": 308,
      "å¾": 309,
      "åħ": 310,
      "åº¦": 311,
      "åķ": 312,
      "ª½": 313,
      "éĸĭå": 314,
      "è©": 315,
      "åĶĶ": 316,
      "ãĢĮ": 317,
      "ãĢį": 318,
      "äº": 319,
      "çİ": 320,
      "éļ": 321,
      "¿ĥ": 322,
      "çİ©": 323,
      "æĦ": 324,
      "æĪĳ": 325,
      "ä½¢åĵĭ": 326,
      "åĢĭå": 327,
      "è©±": 328,
      "éļ»": 329,
      "il": 330,
      "ĠL": 331,
      "æĹ": 332,
      "åª½": 333,
      "éĺ": 334,
      "İ»": 335,
      "åĴģ": 336,
      "ä½ı": 337,
      "ä»¥": 338,
      "æī": 339,
      "ä½ł": 340,
      "è·": 341,
      "ï¼ģ": 342,
      "åķ²": 343,
      "ily": 344,
      "éĺ¿": 345,
      "å°±": 346,
      "åľ": 347,
      "ç´": 348,
      "ĥ½": 349,
      "åļŁ": 350,
      "æĹ¥": 351,
      "ĠLily": 352,
      "éĸĭå¿ĥ": 353,
      "åĳ": 354,
      "æĦı": 355,
      "åİ»": 356,
      "éĥ½": 357,
      "æĥ": 358,
      "ï¼ļ": 359,
      "å®": 360,
      "çĶ": 361,
      "ĠT": 362,
      "è¿": 363,
      "åĻīåĻīåĻīåĻī": 364,
      "Ĩä¿Ĥ": 365,
      "éģ": 366,
      "ä½¢åĵĭå": 367,
      "åı¯": 368,
      "åĵ": 369,
      "ä½Ĩä¿Ĥ": 370,
      "åŃ": 371,
      "æĥ³": 372,
      "é£": 373,
      "å¤§": 374,
      "æķ": 375,
      "ĭåı": 376,
      "åĹ": 377,
      "ï¼ļãĢĮ": 378,
      "è¦ĭå": 379,
      "ç¬": 380,
      "è¦ĭåĪ°": 381,
      "å¥½é": 382,
      "į¾": 383,
      "èģ": 384,
      "æŀ": 385,
      "į¾æĦı": 386,
      "å¾Ĺ": 387,
      "ä¸Ģé": 388,
      "ç¬ĳ": 389,
      "æľĭåı": 390,
      "è¬": 391,
      "äºº": 392,
      "åļķ": 393,
      "åī": 394,
      "åļķåļķ": 395,
      "å·": 396,
      "çī": 397,
      "åı¯ä»¥": 398,
      "æľīä¸Ģ": 399,
      "æľĥ": 400,
      "èĩ": 401,
      "çĦ": 402,
      "å¤ļ": 403,
      "æĶ": 404,
      "ç´°": 405,
      "æ¨": 406,
      "åŁ": 407,
      "åĺ¢": 408,
      "èµ": 409,
      "éĽ": 410,
      "èĢ": 411,
      "éĿ": 412,
      "å¥½éĸĭå¿ĥ": 413,
      "æĻ": 414,
      "åĸºåº¦": 415,
      "½Ĭ": 416,
      "æĸ": 417,
      "æŃ": 418,
      "è¡": 419,
      "çĿ": 420,
      "èĩª": 421,
      "æ¯": 422,
      "èĪ": 423,
      "å°ı": 424,
      "çķ": 425,
      "ä¸Ģé½Ĭ": 426,
      "åīį": 427,
      "åĻ¹": 428,
      "ãĢĤãĢį": 429,
      "åĳĢ": 430,
      "im": 431,
      "åĻ¹åĻ¹": 432,
      "Ĭ±": 433,
      "è¿Ķ": 434,
      "åĨ": 435,
      "ä»Ķ": 436,
      "è¦ģ": 437,
      "å¹": 438,
      "çĪ": 439,
      "æĲ": 440,
      "å¾ŀ": 441,
      "ä¼": 442,
      "ãĢĤãĢĮ": 443,
      "ç·": 444,
      "æľĭåıĭ": 445,
      "åĲĵ": 446,
      "å±": 447,
      "éł": 448,
      "ĠTim": 449,
      "é£Ł": 450,
      "åĴģåĴģ": 451,
      "æ¢": 452,
      "ä¸Ĭ": 453,
      "çŁ": 454,
      "åģ": 455,
      "çĿĩ": 456,
      "å·±": 457,
      "èĩªå·±": 458,
      "åı«": 459,
      "æĭ": 460,
      "è¬Ľ": 461,
      "Ġï¼Į": 462,
      "çĦ¶": 463,
      "åĲĮåŁ": 464,
      "åĻīåĻīåĻīåĻīåĻīåĻīåĻīåĻī": 465,
      "åĪ": 466,
      "ä½¢åª½": 467,
      "æĪĳåĵ": 468,
      "ĠåĲĮ": 469,
      "çĻ": 470,
      "ç·Ĭ": 471,
      "æķ´": 472,
      "å¾Į": 473,
      "è»": 474,
      "å¸": 475,
      "ï¼ģãĢį": 476,
      "ĠB": 477,
      "¥½": 478,
      "é»": 479,
      "åĩ": 480,
      "éĿ¢": 481,
      "æľīä¸ĢæĹ¥": 482,
      "æĲµ": 483,
      "å¥³": 484,
      "çĤ": 485,
      "çĤº": 486,
      "ï¼Ł": 487,
      "å¾ŀåīį": 488,
      "æ°": 489,
      "æ³": 490,
      "om": 491,
      "åĽ": 492,
      "éį¾æĦı": 493,
      "æ¢Ŀ": 494,
      "éĸĵ": 495,
      "çı": 496,
      "æĻĤ": 497,
      "è»Ĭ": 498,
      "éĸĭå§": 499,
      "ĠTom": 500,
      "åĺħåĺħ": 501,
      "ãĢģ": 502,
      "my": 503,
      "çĻ¼": 504,
      "èī": 505,
      "ĠM": 506,
      "å¿": 507,
      "èĲ": 508,
      "éłŃ": 509,
      "åľĴ": 510,
      "èĲ½": 511,
      "ĠS": 512,
      "æľĽ": 513,
      "åľ°": 514,
      "ĸº": 515,
      "å¼": 516,
      "æīĭ": 517,
      "è²": 518,
      "çŁ¥": 519,
      "Ġ\"": 520,
      "éģİ": 521,
      "åĴª": 522,
      "ĠJ": 523,
      "ä½¢åĺħ": 524,
      "ä¸ĢåĢĭ": 525,
      "åĹ°": 526,
      "åħ¬": 527,
      "en": 528,
      "åŃ©": 529,
      "èģ½": 530,
      "é»ŀ": 531,
      "å¿ĥ": 532,
      "åĲĵåĲĵ": 533,
      "åĬ": 534,
      "åĩº": 535,
      "ä½¢å¥½": 536,
      "æİ": 537,
      "æŀ¶": 538,
      "å¥½å¤ļ": 539,
      "å°į": 540,
      "èī²": 541,
      "è¡Į": 542,
      "æ±": 543,
      "æ£": 544,
      "è·ĳ": 545,
      "åļķåļķåļķåļķ": 546,
      "å¹«": 547,
      "çĽ": 548,
      "çĭ": 549,
      "©ļ": 550,
      "éĺ¿åª½": 551,
      "çĶ¨": 552,
      "éĻ": 553,
      "å¾ŀåīįæľī": 554,
      "åĭ": 555,
      "å±ĭ": 556,
      "èµ°": 557,
      "å¥½éį¾æĦı": 558,
      "æīĢ": 559,
      "åħ¥": 560,
      "ĠTimmy": 561,
      "ä¸ĢåĢĭå": 562,
      "èģ²": 563,
      "åħ·": 564,
      "ä¿¾": 565,
      "è¦º": 566,
      "èĬ±": 567,
      "åŃĲ": 568,
      "è¨": 569,
      "Ġåĺħ": 570,
      "èµ·": 571,
      "åĸĩ": 572,
      "åģļ": 573,
      "ï¼ŁãĢį": 574,
      "çİ©åħ·": 575,
      "è·¯": 576,
      "æŃ£": 577,
      "å¿«": 578,
      "åĸºåĸº": 579,
      "åĳ¢": 580,
      "åķı": 581,
      "ä¼ģ": 582,
      "æľĢ": 583,
      "éĸĭå§ĭ": 584,
      "ĠBen": 585,
      "è·³": 586,
      "Ĺİ": 587,
      "ĺħ": 588,
      "ãĹİ": 589,
      "æĪĲ": 590,
      "çī©": 591,
      "åĻ¹åĻ¹åĻ¹åĻ¹": 592,
      "åĲĮåŁĭ": 593,
      "ä¸ĭ": 594,
      "ç¬ĳåĴĹ": 595,
      "åĹ¡": 596,
      "åĨį": 597,
      "åĤ": 598,
      "åĹ¡åĹ¡": 599,
      "çĪ¸": 600,
      "èĪĪ": 601,
      "æ°´": 602,
      "è«": 603,
      "å¥³åŃ©": 604,
      "å±ĭä¼ģ": 605,
      "åļ¤": 606,
      "æ¨¹": 607,
      "åļ¤åļ¤": 608,
      "å®¶": 609,
      "å®ļ": 610,
      "åĴģåĴģåĴģåĴģ": 611,
      "å¼µ": 612,
      "Ġå¥½": 613,
      "çı¾": 614,
      "è§": 615,
      "æĬ±": 616,
      "åķ¦": 617,
      "çĭĹ": 618,
      "çĶŁ": 619,
      "åĽł": 620,
      "åıĪ": 621,
      "åĴ©": 622,
      "æķ´æķ´": 623,
      "°ı": 624,
      "æĭī": 625,
      "çŃ": 626,
      "ä¹": 627,
      "æīĢä»¥": 628,
      "åĽłçĤº": 629,
      "æĦŁ": 630,
      "åĻĵ": 631,
      "æĽ": 632,
      "æĶ¾": 633,
      "åĻīåĻīåĻīåĻīåĻīåĻīåĻīåĻīåĻīåĻīåĻīåĻīåĻīåĻīåĻīåĻī": 634,
      "èĢģ": 635,
      "é£Ľ": 636,
      "ĠSa": 637,
      "æĸ°": 638,
      "æŃ£æŃ£": 639,
      "åħ¬åľĴ": 640,
      "æ»": 641,
      "èİ": 642,
      "æĪĳåĵĭ": 643,
      "ä½¢åª½åª½": 644,
      "ä»²": 645,
      "åĺħåĺ¢": 646,
      "ä½İ": 647,
      "çª": 648,
      "åį": 649,
      "å¸¶": 650,
      "åº¦åº¦": 651,
      "éĩ": 652,
      "å¤©": 653,
      "çķ¶": 654,
      "¤§": 655,
      "æ´": 656,
      "é«": 657,
      "åĢĻ": 658,
      "èŃ": 659,
      "æĵ": 660,
      "æĻĤåĢĻ": 661,
      "å¥®": 662,
      "èĪĪå¥®": 663,
      "Ġè©±": 664,
      "çľ": 665,
      "æ±º": 666,
      "æĺ": 667,
      "éŁ": 668,
      "°±": 669,
      "å¯": 670,
      "éĢ": 671,
      "ä½łåĵ": 672,
      "åĻĵåĻĵ": 673,
      "éĺ¿å": 674,
      "æ³¢": 675,
      "è¬Ŀ": 676,
      "è±": 677,
      "èĢĮ": 678,
      "è¿½": 679,
      "è©¦": 680,
      "æĴ": 681,
      "çĻ¼çı¾": 682,
      "ĠMa": 683,
      "åļ¡": 684,
      "æµ": 685,
      "ä½¢åĸº": 686,
      "åļ¡åļ¡": 687,
      "éģĵ": 688,
      "åĺħåĺħåĺħåĺħ": 689,
      "ç®": 690,
      "åĢĭå°ı": 691,
      "æ±ºå®ļ": 692,
      "åª½åª½": 693,
      "ä½¢è©±": 694,
      "ä»¶": 695,
      "ç´°è·¯": 696,
      "æ²": 697,
      "æ¯Ķ": 698,
      "å¥ĩ": 699,
      "çĶ·": 700,
      "æ¯ı": 701,
      "çĦ¶å¾Į": 702,
      "ä¾": 703,
      "ĠãĢĤ": 704,
      "åĲĮåŁĭå": 705,
      "æĶŀ": 706,
      "åĻł": 707,
      "ä½¢åķ": 708,
      "æīĵ": 709,
      "åĻłåĻł": 710,
      "æĿ": 711,
      "ç¹": 712,
      "å¡": 713,
      "åª½åĴª": 714,
      "åĭķ": 715,
      "çĲ": 716,
      "ĠJa": 717,
      "è¶": 718,
      "æ©": 719,
      "æŀľ": 720,
      "æĸ¹": 721,
      "å½": 722,
      "æĩ": 723,
      "è¦ºå¾Ĺ": 724,
      "æħ": 725,
      "ç¿": 726,
      "ä½¢å¥½éį¾æĦı": 727,
      "å®Į": 728,
      "âĢ": 729,
      "ĠâĢ": 730,
      "åĴĹåĢĭ": 731,
      "éľ": 732,
      "ĠSam": 733,
      "çĨ": 734,
      "åĲĵåĲĵåĲĵåĲĵ": 735,
      "çªģ": 736,
      "åļŁåļŁ": 737,
      "è£": 738,
      "å¤ª": 739,
      "Ġå°±": 740,
      "çªģçĦ¶": 741,
      "èĹ": 742,
      "åł": 743,
      "ç´°ç´°": 744,
      "åĺħæĻĤåĢĻ": 745,
      "æĮ": 746,
      "çī¹": 747,
      "é³": 748,
      "çģ": 749,
      "æĪ¿": 750,
      "åĴĹä¸Ģ": 751,
      "è«Ĺ": 752,
      "åļķåļķåļķåļķåļķåļķåļķåļķ": 753,
      "æı": 754,
      "é©ļ": 755,
      "æľĭåıĭå": 756,
      "é³¥": 757,
      "åĸºåº¦åĸºåº¦": 758,
      "éĤ": 759,
      "æ¬": 760,
      "éĸĭ": 761,
      "äº«": 762,
      "è¿½è¿½": 763,
      "åĪ¥": 764,
      "åľį": 765,
      "è·Ł": 766,
      "çķ«": 767,
      "æĲµåĪ°": 768,
      "ç¾": 769,
      "æĪĳåĵĭå": 770,
      "å¥½å¥½": 771,
      "èª": 772,
      "å¤ļè¬Ŀ": 773,
      "ä¸Ģé½Ĭçİ©": 774,
      "Ģĭ": 775,
      "æ¨Ĥ": 776,
      "åĶĶéĸĭå¿ĥ": 777,
      "ä½¢è¦ĭåĪ°": 778,
      "èģ½åĪ°": 779,
      "åĨĩ": 780,
      "çī¹åĪ¥": 781,
      "ĲĮ": 782,
      "äºĭ": 783,
      "å£": 784,
      "ç³": 785,
      "è·Łä½ı": 786,
      "è§£": 787,
      "å°ĩ": 788,
      "ĠMax": 789,
      "çµ": 790,
      "æ¸": 791,
      "å¥½é©ļ": 792,
      "é¡": 793,
      "ı«": 794,
      "éŁ³": 795,
      "įī": 796,
      "ç¶": 797,
      "èĽ": 798,
      "æĢ": 799,
      "çªģçĦ¶éĸĵ": 800,
      "ä½¢åĶĶ": 801,
      "æĬ": 802,
      "èİİ": 803,
      "çĦ¡": 804,
      "éŃ": 805,
      "åħī": 806,
      "ä¼¼": 807,
      "åĸºåĸºåĸºåĸº": 808,
      "å®ī": 809,
      "¨ľ": 810,
      "ä¸ĢæĹ¥": 811,
      "èİİæĭī": 812,
      "åĶĶå¥½": 813,
      "å»": 814,
      "ä½¢åª½åĴª": 815,
      "ç©": 816,
      "åĶĶåı¯ä»¥": 817,
      "ä¹ĭå": 818,
      "è¿Ķå±ĭä¼ģ": 819,
      "ä½¢æĥ³": 820,
      "äº®": 821,
      "åĻ´": 822,
      "æľīåĢĭ": 823,
      "æ¨£": 824,
      "è¨ĺ": 825,
      "è¢": 826,
      "åĻ¹åĻ¹åĻ¹åĻ¹åĻ¹åĻ¹åĻ¹åĻ¹": 827,
      "é¤": 828,
      "åĤ·": 829,
      "éĸĥ": 830,
      "ä½¢åĵĭåĺħ": 831,
      "æ·": 832,
      "åĶĶä¿Ĥ": 833,
      "æĬ±ä½ı": 834,
      "è²ĵ": 835,
      "ä½Ĺ": 836,
      "ck": 837,
      "ä¾Ĩ": 838,
      "é¼": 839,
      "åĴĹåķ²": 840,
      "åĹ¡åĹ¡åĹ¡åĹ¡": 841,
      "æ©Ł": 842,
      "º«": 843,
      "éĤĬ": 844,
      "åħĪ": 845,
      "çıŃ": 846,
      "çħ": 847,
      "ĠMi": 848,
      "æīĭå": 849,
      "åļ¤åļ¤åļ¤åļ¤": 850,
      "æ¯Ľ": 851,
      "åŃ¸": 852,
      "ç¢": 853,
      "¯ä»¥": 854,
      "å¤ĸ": 855,
      "¼ç": 856,
      "æĦĽ": 857,
      "ä»¤": 858,
      "ç´ħ": 859,
      "æ£µ": 860,
      "çĨĬ": 861,
      "çį": 862,
      "å¾ŀåīįæľīåĢĭå": 863,
      "åĴģåĴģåĴģåĴģåĴģåĴģåĴģåĴģ": 864,
      "çŁ³": 865,
      "èĬ±åľĴ": 866,
      "åĩºåļŁ": 867,
      "éĺ¿çĪ¸": 868,
      "åı£": 869,
      "åĢĭå°ıå¥³åŃ©": 870,
      "åĪĨ": 871,
      "éĽĢ": 872,
      "å°ıå¿ĥ": 873,
      "åĿ": 874,
      "¾Į": 875,
      "åħ¥éĿ¢": 876,
      "ºĮ": 877,
      "ĠJack": 878,
      "æľīåķ²": 879,
      "æĹ¥éĥ½": 880,
      "å¥½ä¼¼": 881,
      "æİ¢": 882,
      "éĺ¿å¨ľ": 883,
      "ç²": 884,
      "ç¹¼ç": 885,
      "ç¹¼çºĮ": 886,
      "ä½¢åĵĭå¥½": 887,
      "æµ·": 888,
      "ç®±": 889,
      "çİ©å¾Ĺ": 890,
      "ä½¢åķ²": 891,
      "æľĢå¾Į": 892,
      "åĢĭç´°è·¯": 893,
      "åļ¿": 894,
      "åĭķçī©": 895,
      "åĳ¢åĢĭ": 896,
      "ä¿Ŀ": 897,
      "æĤ": 898,
      "«åļ": 899,
      "RR": 900,
      "åĻīåĻīåĻīåĻīåĻīåĻīåĻīåĻīåĻīåĻīåĻīåĻīåĻīåĻīåĻīåĻīåĻīåĻīåĻīåĻīåĻīåĻīåĻīåĻīåĻīåĻīåĻīåĻīåĻīåĻīåĻīåĻī": 901,
      "«åļ«åļ": 902,
      "æķ´æķ´æķ´æķ´": 903,
      "åĬĽ": 904,
      "èŃĺ": 905,
      "åļ¿åļ¿": 906,
      "èľ": 907,
      "åĹ°æĹ¥": 908,
      "ll": 909,
      "æŀ¶æŀ¶": 910,
      "ä½łåĵĭ": 911,
      "å°ıå¥³åŃ©": 912,
      "æŃ£æŃ£æŃ£æŃ£": 913,
      "éļ»çĭĹ": 914,
      "ä»ĸ": 915,
      "ä¹ĭå¾Į": 916,
      "ä»Ķä»Ķ": 917,
      "æ°£": 918,
      "çĽ´": 919,
      "è®": 920,
      "å¥½éĿ": 921,
      "å¹«æīĭ": 922,
      "çŁ¥éģĵ": 923,
      "åĻ´åĻ´": 924,
      "èĥ½": 925,
      "åħ¶": 926,
      "åħ©": 927,
      "ä¸Ģéļ»": 928,
      "éĻ½": 929,
      "ĮæľĽ": 930,
      "ä¸»": 931,
      "åĻĹ": 932,
      "Ġå¥½éĸĭå¿ĥ": 933,
      "åĻĹåĻĹ": 934,
      "éĸĭå§ĭå": 935,
      "ĠMia": 936,
      "æĩī": 937,
      "è¦ĭ": 938,
      "åº¦åº¦åº¦åº¦": 939,
      "å¡Ĭ": 940,
      "é«ĺ": 941,
      "Ġåĸº": 942,
      "è·ĳåİ»": 943,
      "æĽ¸": 944,
      "çŃī": 945,
      "èģ²éŁ³": 946,
      "ä½¢å°±": 947,
      "æ¬¡": 948,
      "åħ¨": 949,
      "åĶĶåĪ°": 950,
      "è¿ĳ": 951,
      "ä½Ĩä¿Ĥä½¢": 952,
      "åĻĵåĻĵåĻĵåĻĵ": 953,
      "éº": 954,
      "åħĶ": 955,
      "å¥½å¤§": 956,
      "çĶ·äºº": 957,
      "åĶĶæĥ³": 958,
      "èħ": 959,
      "åıĹ": 960,
      "éĮ": 961,
      "èŁ": 962,
      "é»ŀè§£": 963,
      "éŃļ": 964,
      "çľ¼": 965,
      "æŀĹ": 966,
      "åĹħ": 967,
      "æķħ": 968,
      "¬²": 969,
      "ä¸į": 970,
      "æĺİ": 971,
      "åĢĭå¤§": 972,
      "åģľ": 973,
      "éĥ½æľĥ": 974,
      "éĨ": 975,
      "åļ¡åļ¡åļ¡åļ¡": 976,
      "ç´¢": 977,
      "åĲĮä½¢": 978,
      "åĺħåĺħåĺħåĺħåĺħåĺħåĺħåĺħ": 979,
      "æ»ĳ": 980,
      "éļª": 981,
      "çĲĥ": 982,
      "éĻ£": 983,
      "çļ": 984,
      "ä¸ĢåĢĭå¥½": 985,
      "ä»¥åīį": 986,
      "åĲĳ": 987,
      "å¥½éĿļ": 988,
      "è³": 989,
      "åİ»åĴĹ": 990,
      "æľ¨": 991,
      "é¦": 992,
      "çĪ¬": 993,
      "çĶ±": 994,
      "æļ": 995,
      "çģ«": 996,
      "æİ¢ç´¢": 997,
      "èĿ": 998,
      "æ£®": 999,
      "ä¸Ń": 1000,
      "¢¨": 1001,
      "èī²åĺħ": 1002,
      "éģł": 1003,
      "åĻłåĻłåĻłåĻł": 1004,
      "åĮ": 1005,
      "æĦŁåĪ°": 1006,
      "åĿĲ": 1007,
      "æ£®æŀĹ": 1008,
      "å°ıæľĭåıĭ": 1009,
      "æ¼": 1010,
      "æ»¿": 1011,
      "å¦": 1012,
      "åĴĹå¥½å¤ļ": 1013,
      "æĴ»": 1014,
      "ç¦": 1015,
      "è¶Ĭ": 1016,
      "ķ·": 1017,
      "èĥ": 1018,
      "ç³ķ": 1019,
      "ä½¢å°": 1020,
      "é¢¨": 1021,
      "èĻ": 1022,
      "éĽª": 1023,
      "ä½¢å¥½éĸĭå¿ĥ": 1024,
      "ä½ľ": 1025,
      "åı¯åĶĶåı¯ä»¥": 1026,
      "æľīå¥½å¤ļ": 1027,
      "å¥½åĺħ": 1028,
      "ä½¿": 1029,
      "ï¼ĮãĢį": 1030,
      "è¼": 1031,
      "ĴĹ": 1032,
      "åļ·": 1033,
      "ĠA": 1034,
      "åĶĶæľĥ": 1035,
      "åĽŀ": 1036,
      "çĿĩåĲĵ": 1037,
      "åĹħåĹħ": 1038,
      "åĲĵåĲĵåĲĵåĲĵåĲĵåĲĵåĲĵåĲĵ": 1039,
      "èĳ": 1040,
      "åı¯èĥ½": 1041,
      "çŀ": 1042,
      "ä½¢åĵĭåĸº": 1043,
      "å¬²": 1044,
      "ä½¤": 1045,
      "ä¸ĭå": 1046,
      "¥³": 1047,
      "æĴ»æĴ»": 1048,
      "åİ": 1049,
      "æľīä¸Ģéļ»": 1050,
      "ļŁ": 1051,
      "é¼ł": 1052,
      "çī¹åĪ¥åĺħ": 1053,
      "åļŁåļŁåļŁåļŁ": 1054,
      "éģĬ": 1055,
      "çİ©å¾Ĺå¥½éĸĭå¿ĥ": 1056,
      "ä¸ī": 1057,
      "èĢĮå®¶": 1058,
      "åĹ°éĻ£": 1059,
      "éĸĢ": 1060,
      "å¤ĸéĿ¢": 1061,
      "æĻļ": 1062,
      "éĩį": 1063,
      "åļ·åļ·": 1064,
      "èµ°åĴĹ": 1065,
      "åļķåļķåļķåļķåļķåļķåļķåļķåļķåļķåļķåļķåļķåļķåļķåļķ": 1066,
      "åķ²åĺ¢": 1067,
      "å¾ŀåīįæľīåĢĭåı«": 1068,
      "æŀ¶è»Ĭ": 1069,
      "ðł": 1070,
      "ä½Ĺä½Ĺ": 1071,
      "éĥ": 1072,
      "æģ": 1073,
      "æ¹": 1074,
      "åĸºåº¦åĸºåº¦åĸºåº¦åĸºåº¦": 1075,
      "æ³ķ": 1076,
      "çİ©ç·Ĭ": 1077,
      "åĪĨäº«": 1078,
      "æĪ²": 1079,
      "èĪ¹": 1080,
      "©Ĩ": 1081,
      "è¥": 1082,
      "åĸĬ": 1083,
      "åĶ": 1084,
      "è¿½è¿½è¿½è¿½": 1085,
      "éĽ»": 1086,
      "ç¨": 1087,
      "ðł®": 1088,
      "èĢĲ": 1089,
      "ä½łåĵĭå": 1090,
      "æĸ¼": 1091,
      "æľĽä½ı": 1092,
      "åĻı": 1093,
      "çŀĵ": 1094,
      "ðł®¨": 1095,
      "ç¤": 1096,
      "å¥½èĪĪå¥®": 1097,
      "åĻıåĻı": 1098,
      "èĩªå·±åĺħ": 1099,
      "åļ®": 1100,
      "lly": 1101,
      "åľ°æĸ¹": 1102,
      "èįī": 1103,
      "è²·": 1104,
      "éķ·": 1105,
      "Ļ£": 1106,
      "ä¸ĢéĻ£": 1107,
      "çł": 1108,
      "èĨ": 1109,
      "æŁ": 1110,
      "Ġä¿Ĥ": 1111,
      "æķ¢": 1112,
      "è±Ĩ": 1113,
      "èĹı": 1114,
      "ä½¢åı": 1115,
      "è¾": 1116,
      "åĻ¥": 1117,
      "Ġè¦ĭåĪ°": 1118,
      "çľŁ": 1119,
      "åĻ¥åĻ¥": 1120,
      "ç´Ļ": 1121,
      "å°įåĶĶ": 1122,
      "åħ¶ä»ĸ": 1123,
      "ä¸ĢåĢĭå¤§": 1124,
      "æ¡": 1125,
      "é»ŀéłŃ": 1126,
      "æĽ´": 1127,
      "æŃĮ": 1128,
      "äºĭå": 1129,
      "ä½¢åĲĮ": 1130,
      "è½": 1131,
      "çµĲ": 1132,
      "çĿĢ": 1133,
      "æ¿": 1134,
      "è½ī": 1135,
      "éĹ": 1136,
      "æĦŁè¦º": 1137,
      "èº«": 1138,
      "ä½¢åĢĭ": 1139,
      "çķĻ": 1140,
      "çĿĩä½ı": 1141,
      "èĺ": 1142,
      "çĽ¸": 1143,
      "èĽĭ": 1144,
      "åĢĭå¥½": 1145,
      "æįī": 1146,
      "ç´Ħ": 1147,
      "ny": 1148,
      "ä½¢åİ»": 1149,
      "æħ¢": 1150,
      "åĸºåĸºåĸºåĸºåĸºåĸºåĸºåĸº": 1151,
      "æĪĳåĺħ": 1152,
      "éļ»é³¥": 1153,
      "ĠâĢĿ": 1154,
      "ä½¢åĵĭè¦ĭåĪ°": 1155,
      "åİŁ": 1156,
      "è¥¿": 1157,
      "æĳ": 1158,
      "ä¿¡": 1159,
      "éľĢ": 1160,
      "åĭĩ": 1161,
      "ç«": 1162,
      "æĪĳåĵĭåı": 1163,
      "ĠâĢľ": 1164,
      "å½©": 1165,
      "å¤§å®¶": 1166,
      "éłĤ": 1167,
      "ä½¢åĵĭéį¾æĦı": 1168,
      "å¤ªéĻ½": 1169,
      "ä½¤ä½¤": 1170,
      "éľĢè¦ģ": 1171,
      "åĢĭå¥³": 1172,
      "ç¾İ": 1173,
      "æ²Ļ": 1174,
      "Ĺè©¦": 1175,
      "åħ¬ä»Ķ": 1176,
      "åĴĹä½¢": 1177,
      "éĢł": 1178,
      "º¦": 1179,
      "çĶ·åŃ©": 1180,
      "ç¿°": 1181,
      "ç´Ħç¿°": 1182,
      "æĮģ": 1183,
      "æĬĬ": 1184,
      "èŁ²": 1185,
      "åĻ¹åĻ¹åĻ¹åĻ¹åĻ¹åĻ¹åĻ¹åĻ¹åĻ¹åĻ¹åĻ¹åĻ¹åĻ¹åĻ¹åĻ¹åĻ¹": 1186,
      "è®Ĭ": 1187,
      "ç§": 1188,
      "ç¦®": 1189,
      "ç¥": 1190,
      "èªª": 1191,
      "ill": 1192,
      "åĶĶçŁ¥": 1193,
      "çĻ¼çĶŁ": 1194,
      "ä¿¾ä½¢": 1195,
      "å¹¾": 1196,
      "æ¢¯": 1197,
      "¨åľį": 1198,
      "ç¤º": 1199,
      "ob": 1200,
      "ĠJo": 1201,
      "å®īåħ¨": 1202,
      "èĢģè±Ĩ": 1203,
      "ðł®¨ðł®¨": 1204,
      "æº": 1205,
      "è£Ŀ": 1206,
      "èĲ½åļŁ": 1207,
      "åĢĭçĶ·äºº": 1208,
      "Ĵéļª": 1209,
      "åĹ°æĹ¥éĸĭå§ĭ": 1210,
      "æĵģ": 1211,
      "åŁĭ": 1212,
      "æĺŁ": 1213,
      "çŃĶ": 1214,
      "åļ¼": 1215,
      "åĹ¡åĹ¡åĹ¡åĹ¡åĹ¡åĹ¡åĹ¡åĹ¡": 1216,
      "è©²": 1217,
      "æ¸¸": 1218,
      "çĲĨ": 1219,
      "å§": 1220,
      "ç±": 1221,
      "èĹį": 1222,
      "åļ¤åļ¤åļ¤åļ¤åļ¤åļ¤åļ¤åļ¤": 1223,
      "æ¶": 1224,
      "åĸ®": 1225,
      "åĺĹè©¦": 1226,
      "éľ²": 1227,
      "çīĽ": 1228,
      "æ´ŀ": 1229,
      "æ£µæ¨¹": 1230,
      "é´": 1231,
      "æĶ¯": 1232,
      "åĸºåħ¬åľĴ": 1233,
      "å°±è©±": 1234,
      "æĢª": 1235,
      "å°±ä¿Ĥ": 1236,
      "å¤§åĺħ": 1237,
      "éĿļ": 1238,
      "èł": 1239,
      "ä½¢åķı": 1240,
      "åĴģåĴģåĴģåĴģåĴģåĴģåĴģåĴģåĴģåĴģåĴģåĴģåĴģåĴģåĴģåĴģ": 1241,
      "æĻĤéĸĵ": 1242,
      "çĪ¸çĪ¸": 1243,
      "æİ¨": 1244,
      "ä½¢éį¾æĦı": 1245,
      "æľ¬": 1246,
      "é¤Ĳ": 1247,
      "æĪĲæĹ¥éĥ½": 1248,
      "ç¿¼": 1249,
      "åľĸ": 1250,
      "åĬł": 1251,
      "ä½łå¥½": 1252,
      "æĩīè©²": 1253,
      "Ġåķı": 1254,
      "æīĢæľī": 1255,
      "æķĻ": 1256,
      "ĠSu": 1257,
      "è¿ĶåļŁ": 1258,
      "æ¸ħ": 1259,
      "»ä½": 1260,
      "Ľåľį": 1261,
      "éģĬæĪ²": 1262,
      "å¸ĮæľĽ": 1263,
      "å°įåĶĶä½ı": 1264,
      "åĨĴéļª": 1265,
      "å£«": 1266,
      "åĸľ": 1267,
      "èĽĭç³ķ": 1268,
      "æ´»": 1269,
      "åĭĩæķ¢": 1270,
      "åł´": 1271,
      "è¡Įç·Ĭ": 1272,
      "å±±": 1273,
      "èħ³": 1274,
      "è±ª": 1275,
      "åļı": 1276,
      "éĥ½ä¿Ĥ": 1277,
      "ä¸ĢçĽ´": 1278,
      "åĬ©": 1279,
      "å¤ļè¬Ŀä½ł": 1280,
      "éŀ": 1281,
      "åĴļ": 1282,
      "èĪŀ": 1283,
      "èĩªè±ª": 1284,
      "åĢĭæ³¢": 1285,
      "ä½¢åĵĭä¸Ģé½Ĭ": 1286,
      "ie": 1287,
      "é£²": 1288,
      "åĸ±": 1289,
      "éĽ¢": 1290,
      "æľį": 1291,
      "åĴĹå¥½": 1292,
      "èĤ": 1293,
      "åĴĹä¸ĢåĢĭ": 1294,
      "åļ¼åļ¼": 1295,
      "çĩ": 1296,
      "åĮħ": 1297,
      "ĠBob": 1298,
      "æĤ²": 1299,
      "éļ»è²ĵ": 1300,
      "RRRR": 1301,
      "å¤±": 1302,
      "åļŁåĪ°": 1303,
      "«åļ«åļ«åļ«åļ": 1304,
      "çħ§": 1305,
      "æķ´æķ´æķ´æķ´æķ´æķ´æķ´æķ´": 1306,
      "åį¡": 1307,
      "ç©º": 1308,
      "éĹľ": 1309,
      "éĥ½å¥½": 1310,
      "ä¸»æĦı": 1311,
      "å¾ŀåīįæľīåĢĭç´°è·¯": 1312,
      "çĹ": 1313,
      "åļ¿åļ¿åļ¿åļ¿": 1314,
      "åĽłçĤºä½¢": 1315,
      "åĻīåĻīåĻīåĻīåĻīåĻīåĻīåĻīåĻīåĻīåĻīåĻīåĻīåĻīåĻīåĻīåĻīåĻīåĻīåĻīåĻīåĻīåĻīåĻīåĻīåĻīåĻīåĻīåĻīåĻīåĻīåĻīåĻīåĻīåĻīåĻīåĻīåĻīåĻīåĻīåĻīåĻīåĻīåĻīåĻīåĻīåĻīåĻīåĻīåĻīåĻīåĻīåĻīåĻīåĻīåĻīåĻīåĻīåĻīåĻīåĻīåĻīåĻīåĻī": 1316,
      "æº«": 1317,
      "éĥ¨": 1318,
      "æĵº": 1319,
      "ç²ī": 1320,
      "ç¶ĵ": 1321,
      "ä»¥åīįæľī": 1322,
      "æŀ¶æŀ¶æŀ¶æŀ¶": 1323,
      "æĤ²åĤ·": 1324,
      "ä½¢æ±ºå®ļ": 1325,
      "æª": 1326,
      "ä½Ĥ": 1327,
      "åĩ³": 1328,
      "å¦Ĥ": 1329,
      "è¸": 1330,
      "åļıåļı": 1331,
      "ĠSp": 1332,
      "æŃ£æŃ£æŃ£æŃ£æŃ£æŃ£æŃ£æŃ£": 1333,
      "æį": 1334,
      "ç½": 1335,
      "æĪĲçĤº": 1336,
      "éĸĥéĸĥ": 1337,
      "å¿«æ¨Ĥ": 1338,
      "åĹĮ": 1339,
      "ç¬ĳä½ı": 1340,
      "åĸ±åĸ±": 1341,
      "ä½¢åĸºåº¦": 1342,
      "åĴļåĴļ": 1343,
      "ä½Ĥä½Ĥ": 1344,
      "æŃ¥": 1345,
      "å·¥": 1346,
      "Ġæĥ³": 1347,
      "æ±ł": 1348,
      "ä»Ķä»Ķä»Ķä»Ķ": 1349,
      "è¦ª": 1350,
      "æ¹¯": 1351,
      "ot": 1352,
      "åŁĭå": 1353,
      "åĻ´åĻ´åĻ´åĻ´": 1354,
      "Ń¸": 1355,
      "å¥½çİ©": 1356,
      "ä½¢åĵĭåĶĶ": 1357,
      "å£ŀ": 1358,
      "Īå¿«": 1359,
      "ä¸Ģæ¢Ŀ": 1360,
      "ç³ĸ": 1361,
      "åĺħäºº": 1362,
      "éĸĵæĪ¿": 1363,
      "è¢«": 1364,
      "æŀĿ": 1365,
      "æĪĳåĵĭåı¯ä»¥": 1366,
      "æĮĩ": 1367,
      "åĻĹåĻĹåĻĹåĻĹ": 1368,
      "åĹĮåĹĮ": 1369,
      "ç¬¬": 1370,
      "ķ²": 1371,
      "æľª": 1372,
      "åı¦": 1373,
      "çķĮ": 1374,
      "åļ¨": 1375,
      "åº¦åº¦åº¦åº¦åº¦åº¦åº¦åº¦": 1376,
      "æļĸ": 1377,
      "æĶ¶": 1378,
      "éľ²è¥¿": 1379,
      "åĻ²": 1380,
      "å¾Ĺå¥½": 1381,
      "åģľä½İ": 1382,
      "åĤĻ": 1383,
      "åĻ²åĻ²": 1384,
      "æı®": 1385,
      "ä¸ĸ": 1386,
      "Ġç¬ĳåĴĹ": 1387,
      "å¯¶": 1388,
      "åĹ°åĹ°": 1389,
      "ä¸Ģé½Ĭåİ»": 1390,
      "é¾": 1391,
      "ĠåĲĮéĺ¿": 1392,
      "åĶ±": 1393,
      "é»ŀæ¨£": 1394,
      "æķħäºĭå": 1395,
      "æķĳ": 1396,
      "çŁ³éłŃ": 1397,
      "ä½¢åĺħæľĭåıĭ": 1398,
      "åļ¨åļ¨": 1399,
      "ä½¢éļ»": 1400,
      "éı": 1401,
      "ĠSue": 1402,
      "çŃĨ": 1403,
      "éĽ¨": 1404,
      "åĻĵåĻĵåĻĵåĻĵåĻĵåĻĵåĻĵåĻĵ": 1405,
      "äº®åĺħ": 1406,
      "åĳ¨åľį": 1407,
      "æ½": 1408,
      "ä½¢å¸": 1409,
      "äº«åıĹ": 1410,
      "is": 1411,
      "è¿ĶåĪ°": 1412,
      "å¦Ĥæŀľ": 1413,
      "æ«": 1414,
      "ĠåĶĶ": 1415,
      "ä¸ĬéĿ¢": 1416,
      "åĤ²": 1417,
      "ne": 1418,
      "ĠSpot": 1419,
      "æŃ²": 1420,
      "ä½¢ä¿Ĥ": 1421,
      "ç©į": 1422,
      "©ķ": 1423,
      "ä¸ĸçķĮ": 1424,
      "å¥½å¥ĩ": 1425,
      "©ķåĤ²": 1426,
      "ĺè¨ĺ": 1427,
      "æĵģæĬ±": 1428,
      "è£Ļ": 1429,
      "çīĩ": 1430,
      "äºĮ": 1431,
      "èı": 1432,
      "åĲĮåŁĭå¥½": 1433,
      "æ¯ıæĹ¥éĥ½": 1434,
      "ĠD": 1435,
      "Ĩį": 1436,
      "ĠE": 1437,
      "ila": 1438,
      "Ķå¿ĥ": 1439,
      "è¡£": 1440,
      "ä½¢æľĥ": 1441,
      "éĸĭåĴĹ": 1442,
      "åĺħèģ²éŁ³": 1443,
      "çļĦ": 1444,
      "éĺ¿å©Ĩ": 1445,
      "æĩĤ": 1446,
      "æĪĳåı¯ä»¥": 1447,
      "çĶ±åĹ°æĹ¥éĸĭå§ĭ": 1448,
      "ä»Ĭ": 1449,
      "æĭį": 1450,
      "ä½ıåĢĭ": 1451,
      "ç·ļ": 1452,
      "åĢĭå°ıå¥³åŃ©åı«": 1453,
      "ä¿ĿæĮģ": 1454,
      "ä½łåĺħ": 1455,
      "è¡Ĺ": 1456,
      "åļ¡åļ¡åļ¡åļ¡åļ¡åļ¡åļ¡åļ¡": 1457,
      "è¿Ķåİ»": 1458,
      "å¥³ä»Ķ": 1459,
      "åľĪ": 1460,
      "Ġå¥½èĪĪå¥®": 1461,
      "åĺħåĺħåĺħåĺħåĺħåĺħåĺħåĺħåĺħåĺħåĺħåĺħåĺħåĺħåĺħåĺħ": 1462,
      "éĥ½å¥½éĸĭå¿ĥ": 1463,
      "åļŁãĹİ": 1464,
      "åļ®åļ®": 1465,
      "èĪĴ": 1466,
      "æºĸ": 1467,
      "çĻ½": 1468,
      "çķĢ": 1469,
      "å¥½åĶĶéĸĭå¿ĥ": 1470,
      "åıĸ": 1471,
      "ä½¢éĺ¿åª½": 1472,
      "ç¯": 1473,
      "åĲ¹": 1474,
      "éģİåİ»": 1475,
      "åĺħåľ°æĸ¹": 1476,
      "æĵĶå¿ĥ": 1477,
      "ģļ": 1478,
      "ä½Ĩ": 1479,
      "å°ıå¿ĥåķ²": 1480,
      "æ»ĳæ¢¯": 1481,
      "ä½¢å°ĩ": 1482,
      "ç©įæľ¨": 1483,
      "äºĤ": 1484,
      "å¼·": 1485,
      "å±ĭå": 1486,
      "é´¨": 1487,
      "ĸĬ": 1488,
      "ä½¢è¦ºå¾Ĺ": 1489,
      "èĪĬ": 1490,
      "ļæĪ¿": 1491,
      "èİī": 1492,
      "çĵ": 1493,
      "åıª": 1494,
      "é»ĳ": 1495,
      "åºĬ": 1496,
      "åĢĭé": 1497,
      "åĻłåĻłåĻłåĻłåĻłåĻłåĻłåĻł": 1498,
      "Ġåĺħå°ıå¥³åŃ©": 1499,
      "å°¾": 1500,
      "åĲį": 1501,
      "na": 1502,
      "å¥½å¥½é£Ł": 1503,
      "åį³": 1504,
      "åĺħäºĭ": 1505,
      "æºĸåĤĻ": 1506,
      "å¾Īå¿«": 1507,
      "è¶£": 1508,
      "åĶĶä½¿": 1509,
      "ä¸īæŃ²": 1510,
      "åĳ³": 1511,
      "çĮ": 1512,
      "é¦¬": 1513,
      "å¹³": 1514,
      "å¤§èģ²": 1515,
      "å¹«åĬ©": 1516,
      "åĪ°åĴĹ": 1517,
      "äº¤": 1518,
      "åĴĹä¸ĢéĻ£": 1519,
      "èĳī": 1520,
      "éļ»éĽĢ": 1521,
      "åĴ©åĳĢ": 1522,
      "èĿ¶": 1523,
      "æĪĳæľĥ": 1524,
      "å¿«åķ²": 1525,
      "ĠAn": 1526,
      "åļĩ": 1527,
      "è¨Ŀ": 1528,
      "éĻĦ": 1529,
      "è¡Ŀ": 1530,
      "åĸµ": 1531,
      "ä½¢æľī": 1532,
      "åº¦çİ©": 1533,
      "éĻĦè¿ĳ": 1534,
      "é¾į": 1535,
      "åĸºåĢĭ": 1536,
      "ä½¢åĵĭå°±": 1537,
      "æĴ¿": 1538,
      "ĠLila": 1539,
      "æ·¨": 1540,
      "ç¨®": 1541,
      "æĪ´": 1542,
      "å»ļæĪ¿": 1543,
      "æ¼Ĥ": 1544,
      "ä¿Ĥå¥½": 1545,
      "æĪĳæĥ³": 1546,
      "åĲĵåĲĵåĲĵåĲĵåĲĵåĲĵåĲĵåĲĵåĲĵåĲĵåĲĵåĲĵåĲĵåĲĵåĲĵåĲĵ": 1547,
      "çĶľ": 1548,
      "ªåĬĽ": 1549,
      "èĢģé¼ł": 1550,
      "´èĿ¶": 1551,
      "èĿ´èĿ¶": 1552,
      "ä½¢çĶ¨": 1553,
      "ĠJane": 1554,
      "åĴĹåİ»": 1555,
      "åĹħåĹħåĹħåĹħ": 1556,
      "æľĢéį¾æĦı": 1557,
      "ma": 1558,
      "åĴĹå¥½èĢĲ": 1559,
      "éĸĭå¿ĥåĺħ": 1560,
      "æĽ²": 1561,
      "Ġè¬Ľ": 1562,
      "ä¸Ĭåİ»": 1563,
      "æĴ»æĴ»æĴ»æĴ»": 1564,
      "dy": 1565,
      "éĨ«": 1566,
      "Ġå¥½åĶĶéĸĭå¿ĥ": 1567,
      "åļŁåļŁåļŁåļŁåļŁåļŁåļŁåļŁ": 1568,
      "ä¹¾": 1569,
      "ä½łè¦ģ": 1570,
      "çĹĽ": 1571,
      "ä½łåı¯ä»¥": 1572,
      "æĭ¿": 1573,
      "åĸºå¼µ": 1574,
      "ĠDa": 1575,
      "æĲĸ": 1576,
      "é«®": 1577,
      "è²¼": 1578,
      "æ¶Ī": 1579,
      "ä½¢æĶŀ": 1580,
      "ĠJoe": 1581,
      "åĸ³": 1582,
      "çĽ´åĪ°": 1583,
      "æĥħ": 1584,
      "å¯«": 1585,
      "èĻķ": 1586,
      "çł´": 1587,
      "éĺ¿çıŃ": 1588,
      "æŁĶ": 1589,
      "Ġå¥½é©ļ": 1590,
      "åļķåļķåļķåļķåļķåļķåļķåļķåļķåļķåļķåļķåļķåļķåļķåļķåļķåļķåļķåļķåļķåļķåļķåļķåļķåļķåļķåļķåļķåļķåļķåļķ": 1591,
      "éĥ½æĥ³": 1592,
      "åļ·åļ·åļ·åļ·": 1593,
      "ä½ıä½¢": 1594,
      "æ«ĥ": 1595,
      "åŃĹ": 1596,
      "é»ĥ": 1597,
      "åĸºåº¦åĸºåº¦åĸºåº¦åĸºåº¦åĸºåº¦åĸºåº¦åĸºåº¦åĸºåº¦": 1598,
      "éģĶ": 1599,
      "æĳ¸": 1600,
      "åĸ®è»Ĭ": 1601,
      "åĪ»": 1602,
      "æĭİ": 1603,
      "éĮ¢": 1604,
      "è¡«": 1605,
      "è¦ĭåĪ°ä¸Ģ": 1606,
      "è¢ĭ": 1607,
      "ä½¢åĵĭè©±": 1608,
      "è¿½è¿½è¿½è¿½è¿½è¿½è¿½è¿½": 1609,
      "éŃĶ": 1610,
      "åħĶä»Ķ": 1611,
      "æĿ¾": 1612,
      "å»º": 1613,
      "ç¶ł": 1614,
      "ä½¢å¥½èĪĪå¥®": 1615,
      "ç´°ç´°éļ»": 1616,
      "ä½łä¿Ĥ": 1617,
      "èĢħ": 1618,
      "ĠR": 1619,
      "æľµ": 1620,
      "æĪĸ": 1621,
      "æĥ¡": 1622,
      "å¸½": 1623,
      "ç¬¬äºĮ": 1624,
      "Lily": 1625,
      "é¡ı": 1626,
      "é¡Į": 1627,
      "ä½¢è«Ĺ": 1628,
      "å¤§åı«": 1629,
      "å¥½é«": 1630,
      "åĻıåĻıåĻıåĻı": 1631,
      "åł¡": 1632,
      "è§¸": 1633,
      "å¿ĺè¨ĺ": 1634,
      "æķħäºĭ": 1635,
      "çį¨": 1636,
      "ä½Ĺä½Ĺä½Ĺä½Ĺ": 1637,
      "Ģĭå": 1638,
      "çĶŁæ´»": 1639,
      "èŃ·": 1640,
      "ĳĢ": 1641,
      "æıĢ": 1642,
      "åĶĶå¾Ĺ": 1643,
      "èĮ": 1644,
      "å¥³åı«": 1645,
      "èĲ½åİ»": 1646,
      "äºĨ": 1647,
      "èľľ": 1648,
      "è¾²": 1649,
      "ä¿®": 1650,
      "åĪ°çİ©": 1651,
      "æĹħ": 1652,
      "åĬªåĬĽ": 1653,
      "è¢ĭå": 1654,
      "ç´ħèī²": 1655,
      "è§Ĵ": 1656,
      "Ġåĺħåª½åª½": 1657,
      "æ¯į": 1658,
      "åĵĭ": 1659,
      "æ®": 1660,
      "æĿ¿": 1661,
      "è¦ĭéģİ": 1662,
      "éļ»å¤§": 1663,
      "æł": 1664,
      "ä½¢å°į": 1665,
      "ç¥ŀ": 1666,
      "å¾ŀåīįæľīä¸Ģéļ»": 1667,
      "åĻ¥åĻ¥åĻ¥åĻ¥": 1668,
      "å¯¦": 1669,
      "ä½¢å¤": 1670,
      "åºķ": 1671,
      "åĪĩ": 1672,
      "åľ°ä¸Ĭ": 1673,
      "å°įæĸ¹": 1674,
      "éļ»å°ı": 1675,
      "æ¤": 1676,
      "ä½łæĥ³": 1677,
      "ħ©": 1678,
      "è¿ĶåĪ°å±ĭä¼ģ": 1679,
      "å¥½æĥ³": 1680,
      "æ´Ĺ": 1681,
      "æĩĤåĴĹ": 1682,
      "ä½¢åĵĭå¥½éĸĭå¿ĥ": 1683,
      "å¤ĸéĿ¢çİ©": 1684,
      "ä½¢åı¯ä»¥": 1685,
      "è¼ª": 1686,
      "å®¶äºº": 1687,
      "ä½¢åĵĭæĥ³": 1688,
      "èĽĻ": 1689,
      "äºĴ": 1690,
      "è»Ł": 1691,
      "æķ¸": 1692,
      "å¤©ä¸Ĭ": 1693,
      "ä½¢èģ½åĪ°": 1694,
      "olly": 1695,
      "çīĨ": 1696,
      "çªĹ": 1697,
      "éĩİ": 1698,
      "åģ·": 1699,
      "éĺ¿çĪ¸éĺ¿åª½": 1700,
      "å§Ĩ": 1701,
      "ħåŃĲ": 1702,
      "ä½¢çŁ¥": 1703,
      "æĲµåĶĶåĪ°": 1704,
      "è¨Ī": 1705,
      "ĠSally": 1706,
      "åĸİ": 1707,
      "æī¿": 1708,
      "éĿĴ": 1709,
      "ä¿Ĥä¸Ģ": 1710,
      "çĽĴ": 1711,
      "åĵ¡": 1712,
      "çĿĩä¸ĭ": 1713,
      "æıĲ": 1714,
      "²ç¶ĵ": 1715,
      "é¬": 1716,
      "åĳ¼": 1717,
      "æĸ°åĺħ": 1718,
      "åĸºåĸºåĸºåĸºåĸºåĸºåĸºåĸºåĸºåĸºåĸºåĸºåĸºåĸºåĸºåĸº": 1719,
      "Ġé»ŀéłŃ": 1720,
      "åº§": 1721,
      "èŃ¦": 1722,
      "è¨ĺå¾Ĺ": 1723,
      "ä½¢å¥½éį¾æĦıåĸº": 1724,
      "æŃ¡": 1725,
      "æ¿Ģ": 1726,
      "æĻĴ": 1727,
      "æ³¥": 1728,
      "éĿľ": 1729,
      "ä½¢å¥½æĥ³": 1730,
      "å°±åķı": 1731,
      "åį¡è»Ĭ": 1732,
      "ç´°ç´°éļ»åĺħ": 1733,
      "ä¾Ĩä¿Ĥ": 1734,
      "åİŁä¾Ĩä¿Ĥ": 1735,
      "å¤«": 1736,
      "æ½Ķ": 1737,
      "ä¼¸": 1738,
      "æĽ²å¥ĩ": 1739,
      "æ£į": 1740,
      "åĴĹåĢĭå": 1741,
      "çķ¶ä½¢": 1742,
      "åĲĪ": 1743,
      "åºĹ": 1744,
      "éºµ": 1745,
      "ä½¢åĵĭéĥ½": 1746,
      "éĲ": 1747,
      "ĠJim": 1748,
      "ï¼ĮãĢĮ": 1749,
      "é¡ıèī²": 1750,
      "è¦ºå¾Ĺå¥½": 1751,
      "çĪº": 1752,
      "çĨ±": 1753,
      "éĸĥéĸĥçĻ¼": 1754,
      "Ġåĸºåº¦": 1755,
      "æĶ¾åħ¥": 1756,
      "èĬ±åľĴåº¦": 1757,
      "é©ļåĸľ": 1758,
      "ĭæŀľ": 1759,
      "èĺĭæŀľ": 1760,
      "æĿ¯": 1761,
      "éļ»çĨĬ": 1762,
      "åĸ³åĸ³": 1763,
      "åĢĭäºº": 1764,
      "æ²¹": 1765,
      "çįħåŃĲ": 1766,
      "å°ıæľĭåıĭå": 1767,
      "è¬Ľåĺ¢": 1768,
      "æ³¡": 1769,
      "è¡¨": 1770,
      "å¸«": 1771,
      "åĴĹä¸Ģä»¶": 1772,
      "çķ¶çĦ¶": 1773,
      "ä»»ä½": 1774,
      "åĻ¹åĻ¹åĻ¹åĻ¹åĻ¹åĻ¹åĻ¹åĻ¹åĻ¹åĻ¹åĻ¹åĻ¹åĻ¹åĻ¹åĻ¹åĻ¹åĻ¹åĻ¹åĻ¹åĻ¹åĻ¹åĻ¹åĻ¹åĻ¹åĻ¹åĻ¹åĻ¹åĻ¹åĻ¹åĻ¹åĻ¹åĻ¹": 1775,
      "ä»»ä½ķ": 1776,
      "ĠBenny": 1777,
      "ħ¬": 1778,
      "æ°¸": 1779,
      "åħĶåŃĲ": 1780,
      "°ĩ": 1781,
      "®¶": 1782,
      "åĸµåĸµ": 1783,
      "åĲĮçıŃ": 1784,
      "éĽĻ": 1785,
      "ç¦®çī©": 1786,
      "æŀ±": 1787,
      "çĶ©": 1788,
      "åĬŁ": 1789,
      "ç¢º": 1790,
      "è±¡": 1791,
      "å¤§å®¶éĥ½": 1792,
      "ðł®¨ðł®¨ðł®¨ðł®¨": 1793,
      "éĮ¯": 1794,
      "æĶª": 1795,
      "ĥı": 1796,
      "æ¸ħæ½Ķ": 1797,
      "æĪĲæĹ¥": 1798,
      "åİ»åĪ°": 1799,
      "å®¹": 1800,
      "ĠP": 1801,
      "¿«": 1802,
      "æľīåĴ©": 1803,
      "ĠEm": 1804,
      "æ¯ıå¤©": 1805,
      "ä¸Ģèģ²": 1806,
      "åĵģ": 1807,
      "å½¢": 1808,
      "éĨĴ": 1809,
      "éģĩ": 1810,
      "ä½¢åķ²æľĭåıĭ": 1811,
      "ç¬ĳåĴĹç¬ĳ": 1812,
      "ä»ĬæĹ¥": 1813,
      "åĢĴ": 1814,
      "¹«": 1815,
      "é§": 1816,
      "åĸ¼": 1817,
      "æĬ±ä½ıä½¢": 1818,
      "èĳĹ": 1819,
      "åĹ¡åĹ¡åĹ¡åĹ¡åĹ¡åĹ¡åĹ¡åĹ¡åĹ¡åĹ¡åĹ¡åĹ¡åĹ¡åĹ¡åĹ¡åĹ¡": 1820,
      "åĢĭç®±": 1821,
      "æį½": 1822,
      "è·Į": 1823,
      "ä½į": 1824,
      "è³½": 1825,
      "ä»į": 1826,
      "è¼ķ": 1827,
      "æ°¸éģł": 1828,
      "ä½¤ä½¤ä½¤ä½¤": 1829,
      "åĭģ": 1830,
      "ç¢Ĺ": 1831,
      "éŃĶæ³ķ": 1832,
      "åļ¤åļ¤åļ¤åļ¤åļ¤åļ¤åļ¤åļ¤åļ¤åļ¤åļ¤åļ¤åļ¤åļ¤åļ¤åļ¤": 1833,
      "ä»įçĦ¶": 1834,
      "æ³¢æ³¢": 1835,
      "éŁ¿": 1836,
      "æģ¯": 1837,
      "åĽĽåľį": 1838,
      "åĺĢ": 1839,
      "éĩįè¦ģ": 1840,
      "èģ°": 1841,
      "åĨįè¦ĭ": 1842,
      "åķıé¡Į": 1843,
      "èģ°æĺİ": 1844,
      "æīĶ": 1845,
      "æĸ°æľĭåıĭ": 1846,
      "åĳ¢åĢĭä¿Ĥ": 1847,
      "å¤ļåķ²": 1848,
      "èıľ": 1849,
      "éİ": 1850,
      "éĻ½åħī": 1851,
      "å¾ĮéĿ¢": 1852,
      "åĶĶåĲĮ": 1853,
      "æľ¬æĽ¸": 1854,
      "ä½¢å¾": 1855,
      "èªªè©±": 1856,
      "èĪĴæľį": 1857,
      "æĴ¿èµ·": 1858,
      "è©¦éģİ": 1859,
      "æĪ¿éĸĵ": 1860,
      "èī²å½©": 1861,
      "èº": 1862,
      "å¥½é«ĺ": 1863,
      "åĢĭå¥³ä»Ķ": 1864,
      "åĪ©": 1865,
      "å·¥ä½ľ": 1866,
      "ä½¢éĥ½": 1867,
      "ĠJen": 1868,
      "é£¯": 1869,
      "ä¸¦": 1870,
      "å°±åĴģ": 1871,
      "è·³åİ»": 1872,
      "ĸĦ": 1873,
      "åŀ": 1874,
      "åīĿ": 1875,
      "æĴŀ": 1876,
      "Ġéį¾æĦı": 1877,
      "èľĤ": 1878,
      "ä½§": 1879,
      "æ¡¶": 1880,
      "åıĭå": 1881,
      "æľĢå¥½åĺħ": 1882,
      "å©Ĩ": 1883,
      "åĴģåĴģåĴģåĴģåĴģåĴģåĴģåĴģåĴģåĴģåĴģåĴģåĴģåĴģåĴģåĴģåĴģåĴģåĴģåĴģåĴģåĴģåĴģåĴģåĴģåĴģåĴģåĴģåĴģåĴģåĴģåĴģ": 1884,
      "éĿĴèĽĻ": 1885,
      "åĶ±æŃĮ": 1886,
      "ĬĢ": 1887,
      "æ¯Ľæ¯Ľ": 1888,
      "åĻīè¬Ľ": 1889,
      "æľŁ": 1890,
      "å¥½å¬²": 1891,
      "éĺ¿å§": 1892,
      "éºĹ": 1893,
      "ä½¢èĢģè±Ĩ": 1894,
      "å¥½æľĭåıĭ": 1895,
      "ĪĨ": 1896,
      "é©ķåĤ²": 1897,
      "Ġå¥½éį¾æĦı": 1898,
      "åķ±": 1899,
      "å¾Īå¿«å°±": 1900,
      "åĸºä¸Ģ": 1901,
      "ĠâĢĶ": 1902,
      "åĲĮä½¢è¬Ľ": 1903,
      "æ¹¯å§Ĩ": 1904,
      "å¥½éĿļåĺħ": 1905,
      "æĶ°": 1906,
      "ç²Ĵ": 1907,
      "æĸ°åĺ¢": 1908,
      "é¨": 1909,
      "ra": 1910,
      "ļè¬Ŀ": 1911,
      "è¿·": 1912,
      "çµĤ": 1913,
      "ĠH": 1914,
      "åĺĢåĺĢ": 1915,
      "ç§ĺ": 1916,
      "ä½¢çĻ¼çı¾": 1917,
      "isy": 1918,
      "åĲĮæĦı": 1919,
      "åºŃ": 1920,
      "åģĩ": 1921,
      "ä½¢åķ²çİ©åħ·": 1922,
      "èŃĺåĪ°": 1923,
      "æ¿ķ": 1924,
      "æĹ©": 1925,
      "é¦Ļ": 1926,
      "åĹ°æĹ¥èµ·": 1927,
      "é£Łçī©": 1928,
      "éł¸": 1929,
      "å¸¶ä½ı": 1930,
      "ä½¢åĵĭæ±ºå®ļ": 1931,
      "èĩªå·±åı¯ä»¥": 1932,
      "æĿ¾é¼ł": 1933,
      "å¥½åĳĢ": 1934,
      "éĽĢä»Ķ": 1935,
      "ĠF": 1936,
      "å¥½å¤§åĺħ": 1937,
      "æľĢéį¾æĦıåĺħ": 1938,
      "åĴĶ": 1939,
      "ĠDaisy": 1940,
      "æ»¾": 1941,
      "çģĺ": 1942,
      "å¥½å¤ļå¥½å¤ļ": 1943,
      "å·¾": 1944,
      "åĸºä½¢": 1945,
      "ä¿ĤåĳĢ": 1946,
      "åļĢ": 1947,
      "åıªä¿Ĥ": 1948,
      "éĽªç³ķ": 1949,
      "äºĴçĽ¸": 1950,
      "æ¯ıæĹ¥": 1951,
      "ĠAnna": 1952,
      "å¥½æľī": 1953,
      "ä½¢åĵĭåİ»": 1954,
      "åĺŃ": 1955,
      "åļĢåļĢ": 1956,
      "å·²ç¶ĵ": 1957,
      "ä»²æľī": 1958,
      "å¤¢": 1959,
      "åīĿåīĿ": 1960,
      "ä¸Ģå®ļ": 1961,
      "ĠLu": 1962,
      "æİ¥": 1963,
      "çłµ": 1964,
      "æŃī": 1965,
      "æħ°": 1966,
      "çķ¶çĦ¶åı¯ä»¥": 1967,
      "ĽĽåľį": 1968,
      "çłµçłµ": 1969,
      "ä»¤åĪ°": 1970,
      "RRRRRRRR": 1971,
      "å¡ĺ": 1972,
      "åļ¼åļ¼åļ¼åļ¼": 1973,
      "åĩºçı¾": 1974,
      "ä½¢è¬Ľ": 1975,
      "èĪĪèĪĪ": 1976,
      "æ°£çĲĥ": 1977,
      "åİ»åħ¬åľĴ": 1978,
      "éŀ¦": 1979,
      "«åļ«åļ«åļ«åļ«åļ«åļ«åļ«åļ": 1980,
      "åĲĮçĪ¸çĪ¸": 1981,
      "æ·±": 1982,
      "éĺ¿åª½è©±": 1983,
      "æķ´æķ´æķ´æķ´æķ´æķ´æķ´æķ´æķ´æķ´æķ´æķ´æķ´æķ´æķ´æķ´": 1984,
      "ä½¢åĵĭåı": 1985,
      "å¾ŀåīįæľīåĢĭ": 1986,
      "å½Ī": 1987,
      "īį": 1988,
      "ĠMolly": 1989,
      "īåļ": 1990,
      "éħ": 1991,
      "īåļīåļ": 1992,
      "åļ¿åļ¿åļ¿åļ¿åļ¿åļ¿åļ¿åļ¿": 1993,
      "èĬ": 1994,
      "ĸçĦ¶": 1995,
      "éĽĸçĦ¶": 1996,
      "å¾ħ": 1997,
      "ç´°ç´°ç´°ç´°": 1998,
      "åĴĩ": 1999,
      "æĪĳåĵĭåĺħ": 2000,
      "éĸĭåĢĭ": 2001,
      "ä¸ĬåļŁ": 2002,
      "æĪĸèĢħ": 2003,
      "ä½¢åĵĭæľĥ": 2004,
      "çĪ¶": 2005,
      "åĸ¼åĸ¼": 2006,
      "æį½æį½": 2007,
      "çľŁä¿Ĥ": 2008,
      "åĵ¥": 2009,
      "æŀ¶æŀ¶æŀ¶æŀ¶æŀ¶æŀ¶æŀ¶æŀ¶": 2010,
      "tt": 2011,
      "åĸºåľ°": 2012,
      "åĺħå°ı": 2013,
      "ä½¢åĵĭåª½": 2014,
      "å¥½åķ¦": 2015,
      "åĶĶéį¾æĦı": 2016,
      "ä¸įåĲĮ": 2017,
      "èĥİ": 2018,
      "åļıåļıåļıåļı": 2019,
      "æŃ£æŃ£æŃ£æŃ£æŃ£æŃ£æŃ£æŃ£æŃ£æŃ£æŃ£æŃ£æŃ£æŃ£æŃ£æŃ£": 2020,
      "å¥½åĴĹ": 2021,
      "æĪĲåĬŁ": 2022,
      "é¨İ": 2023,
      "éĢģ": 2024,
      "æµģ": 2025,
      "ä»Ļ": 2026,
      "ĠJill": 2027,
      "ĠMar": 2028,
      "çĻ¼çĶŁåĴĹ": 2029,
      "ä½¢åı«": 2030,
      "æĶ¾èĲ½": 2031,
      "æĦıèŃĺåĪ°": 2032,
      "æķ£": 2033,
      "ļåĻ": 2034,
      "æ²³": 2035,
      "æ£®æŀĹåº¦": 2036,
      "çķĻä½İ": 2037,
      "å¸ĥ": 2038,
      "å»³": 2039,
      "ļåĻļåĻ": 2040,
      "çµ²": 2041,
      "åĻīåĻīåĻīåĻīåĻīåĻīåĻīåĻīåĻīåĻīåĻīåĻīåĻīåĻīåĻīåĻīåĻīåĻīåĻīåĻīåĻīåĻīåĻīåĻīåĻīåĻīåĻīåĻīåĻīåĻīåĻīåĻīåĻīåĻīåĻīåĻīåĻīåĻīåĻīåĻīåĻīåĻīåĻīåĻīåĻīåĻīåĻīåĻīåĻīåĻīåĻīåĻīåĻīåĻīåĻīåĻīåĻīåĻīåĻīåĻīåĻīåĻīåĻīåĻīåĻīåĻīåĻīåĻīåĻīåĻīåĻīåĻīåĻīåĻīåĻīåĻīåĻīåĻīåĻīåĻīåĻīåĻīåĻīåĻīåĻīåĻīåĻīåĻīåĻīåĻīåĻīåĻīåĻīåĻīåĻīåĻīåĻīåĻīåĻīåĻīåĻīåĻīåĻīåĻīåĻīåĻīåĻīåĻīåĻīåĻīåĻīåĻīåĻīåĻīåĻīåĻīåĻīåĻīåĻīåĻīåĻīåĻīåĻīåĻīåĻīåĻīåĻīåĻī": 2042,
      "è©¦åĲĵ": 2043,
      "æľīæĻĤ": 2044,
      "åĴĩåĴĩ": 2045,
      "åĺŃåĺŃ": 2046,
      "åħ¥åİ»": 2047,
      "ä»Ķä»Ķä»Ķä»Ķä»Ķä»Ķä»Ķä»Ķ": 2048,
      "æİĮ": 2049,
      "åłĨ": 2050,
      "½ç´": 2051,
      "çģ«è»Ĭ": 2052,
      "ç¹½ç´": 2053,
      "ä½Ĥä½Ĥä½Ĥä½Ĥ": 2054,
      "éģĩåĪ°": 2055,
      "ç¹½ç´Ľ": 2056,
      "æħ¢æħ¢": 2057,
      "ä½¢å¸ĮæľĽ": 2058,
      "åĩ³åĩ³": 2059,
      "å¥½åĻī": 2060,
      "åĴĹéļ»": 2061,
      "ĩį": 2062,
      "åĻ´åĻ´åĻ´åĻ´åĻ´åĻ´åĻ´åĻ´": 2063,
      "±éļª": 2064,
      "é½Ĭ": 2065,
      "ĪĨäº«": 2066,
      "å¿Ļ": 2067,
      "ĠW": 2068,
      "èł¢": 2069,
      "åĸ±åĸ±åĸ±åĸ±": 2070,
      "çĪĨ": 2071,
      "åĴĶåĴĶ": 2072,
      "åĻīå°±": 2073,
      "åŁİ": 2074,
      "å®³": 2075,
      "illy": 2076,
      "ed": 2077,
      "çĴ": 2078,
      "ĠK": 2079,
      "ä½§ä½§": 2080,
      "å°ĸ": 2081,
      "åħ¬åľĴåº¦": 2082,
      "ç¢ºä¿Ŀ": 2083,
      "åĴ©äºĭ": 2084,
      "å¥½é£Ł": 2085,
      "æīĢä»¥ä½¢": 2086,
      "ħ¥": 2087,
      "å¾Ĺå¥½éĸĭå¿ĥ": 2088,
      "å±¬": 2089,
      "èī²å½©ç¹½ç´Ľ": 2090,
      "å¥½åķ²": 2091,
      "å¾ŀåīįæľīä¸Ģ": 2092,
      "ç´°ç´°åĺħ": 2093,
      "ä¹ĭåīį": 2094,
      "åĻĹåĻĹåĻĹåĻĹåĻĹåĻĹåĻĹåĻĹ": 2095,
      "ĠAmy": 2096,
      "åĹĮåĹĮåĹĮåĹĮ": 2097,
      "å¡Ķ": 2098,
      "åĨĩäºº": 2099,
      "åĩį": 2100,
      "»ä½»ä½": 2101,
      "éĸĭå§ĭåĸĬ": 2102,
      "åº¦åº¦åº¦åº¦åº¦åº¦åº¦åº¦åº¦åº¦åº¦åº¦åº¦åº¦åº¦åº¦": 2103,
      "èłŁ": 2104,
      "ä½ıå°į": 2105,
      "Ĳĳ": 2106,
      "ä½¢çŁ¥éģĵ": 2107,
      "æ·»": 2108,
      "èĭ": 2109,
      "å¾ŀåīįæľīåĢĭç´°è·¯å¥³åı«": 2110,
      "åĻ²åĻ²åĻ²åĻ²": 2111,
      "ħæ»¿": 2112,
      "åı¯æĦĽ": 2113,
      "åĴļåĴļåĴļåĴļ": 2114,
      "æ±ģ": 2115,
      "éıĪ": 2116,
      "éŁ³æ¨Ĥ": 2117,
      "æĢĿ": 2118,
      "åĶĶä¿Ĥå¥½": 2119,
      "ç¾Ĭ": 2120,
      "åį±éļª": 2121,
      "åĹ°åĹ°åĹ°åĹ°": 2122,
      "éģ©": 2123,
      "å¹«åĪ°": 2124,
      "å¹«ä½ł": 2125,
      "å®īæħ°": 2126,
      "åĢĭåľ": 2127,
      "é¤ħ": 2128,
      "Ĩĩ": 2129,
      "ä½¢å¥½é©ļ": 2130,
      "éĽ²": 2131,
      "åĴ¬": 2132,
      "å¤§æ¨¹": 2133,
      "éµ": 2134,
      "æĸ¹æ³ķ": 2135,
      "å¥½éĩį": 2136,
      "æĪĳåĵĭè¦ģ": 2137,
      "çķ¶ä½¢åĵĭ": 2138,
      "æĿŁ": 2139,
      "Ġè«Ĺ": 2140,
      "åļ¨åļ¨åļ¨åļ¨": 2141,
      "åĺħæľĭåıĭ": 2142,
      "æĢ¥": 2143,
      "ä½¢åĵĭåħ©": 2144,
      "æº«æļĸ": 2145,
      "åłħ": 2146,
      "æĤĶ": 2147,
      "åĻĵåĻĵåĻĵåĻĵåĻĵåĻĵåĻĵåĻĵåĻĵåĻĵåĻĵåĻĵåĻĵåĻĵåĻĵåĻĵ": 2148,
      "éľĩ": 2149,
      "Ġéĥ½": 2150,
      "éĸĭå¿ĥåĴģ": 2151,
      "çİ©åħ·è»Ĭ": 2152,
      "åĶĶçŁ¥é»ŀ": 2153,
      "åĳĬ": 2154,
      "çĪ¬ä¸Ĭ": 2155,
      "è¨ĵ": 2156,
      "é¹": 2157,
      "åıĸç¬ĳ": 2158,
      "ĿĲ": 2159,
      "ä½¢åĶĶæĥ³": 2160,
      "æĦĽä½ł": 2161,
      "éĽ»è©±": 2162,
      "ç¬¬äºĮæĹ¥": 2163,
      "éŀ¦éŁ": 2164,
      "ä½¢è·ĳ": 2165,
      "cy": 2166,
      "ä½¢ç¬ĳåĴĹ": 2167,
      "éŀ¦éŁĨ": 2168,
      "ke": 2169,
      "èĪī": 2170,
      "éģİåĴĹ": 2171,
      "ä½¢åļŁ": 2172,
      "æĭľ": 2173,
      "çĭ¸": 2174,
      "æ¹ĸ": 2175,
      "çĳ": 2176,
      "ç«Ļ": 2177,
      "åĿĲä½İ": 2178,
      "å®¢": 2179,
      "é¡§": 2180,
      "æ¶Īå¤±": 2181,
      "éĢļ": 2182,
      "åļŁè¶Ĭ": 2183,
      "çĽ¡": 2184,
      "æķĻè¨ĵ": 2185,
      "åĻ¤": 2186,
      "è¶ĬåļŁè¶Ĭ": 2187,
      "ow": 2188,
      "åĲĮä½¢åĺħ": 2189,
      "æĦŁè¦ºåĪ°": 2190,
      "èĨł": 2191,
      "ä½¢åĵĭå¸": 2192,
      "è²Į": 2193,
      "çĭĲ": 2194,
      "ĠBB": 2195,
      "Ġèģ½åĪ°": 2196,
      "çµĲæĿŁ": 2197,
      "çİĭå": 2198,
      "æ´¾": 2199,
      "è³ŀ": 2200,
      "Ġï¼ģ": 2201,
      "et": 2202,
      "åĵĭå": 2203,
      "åīµ": 2204,
      "èģ½å®Į": 2205,
      "çĭĲçĭ¸": 2206,
      "ä½¢æĬ±ä½ı": 2207,
      "ä¼ĳ": 2208,
      "å°±åĸº": 2209,
      "ä½¬": 2210,
      "è²¨": 2211,
      "è¸¢": 2212,
      "æ§": 2213,
      "éĨ«çĶŁ": 2214,
      "å¾ŀåīįæľīåĢĭå°ıå¥³åŃ©åı«": 2215,
      "èĢĢ": 2216,
      "è´": 2217,
      "çļ®": 2218,
      "ä»¥åīįæľīåĢĭå°ıå¥³åŃ©åı«": 2219,
      "æķħäºĭåĺħ": 2220,
      "æĪĳåĵĭåİ»": 2221,
      "åļ¡åļ¡åļ¡åļ¡åļ¡åļ¡åļ¡åļ¡åļ¡åļ¡åļ¡åļ¡åļ¡åļ¡åļ¡åļ¡": 2222,
      "¨ĥ": 2223,
      "ä¿ĤåĴ©": 2224,
      "ç¿¼ç¿¼": 2225,
      "æ¬£": 2226,
      "ĸºåº¦": 2227,
      "ä½ıå°įä½ıå°į": 2228,
      "ä¼ĳæģ¯": 2229,
      "è´ı": 2230,
      "æ¬£è³ŀ": 2231,
      "åĺħåĺħåĺħåĺħåĺħåĺħåĺħåĺħåĺħåĺħåĺħåĺħåĺħåĺħåĺħåĺħåĺħåĺħåĺħåĺħåĺħåĺħåĺħåĺħåĺħåĺħåĺħåĺħåĺħåĺħåĺħåĺħ": 2232,
      "éĤĬåº¦": 2233,
      "ä½¢åĵĭä¸Ģé½Ĭçİ©": 2234,
      "ä¸ĭæ¬¡": 2235,
      "æĭįæīĭ": 2236,
      "æµ·åº¦": 2237,
      "å¹¸": 2238,
      "é£Ľæ©Ł": 2239,
      "éĩĳ": 2240,
      "æ±łå¡ĺ": 2241,
      "å¯Ĩ": 2242,
      "æĮī": 2243,
      "åļ®åļ®åļ®åļ®": 2244,
      "éĿļåĺħ": 2245,
      "åıĸç¬ĳåıĸç¬ĳ": 2246,
      "ç±ĥ": 2247,
      "æ£Ĵ": 2248,
      "çĶ©çĶ©": 2249,
      "èĦ": 2250,
      "åĢĭèĢģ": 2251,
      "æĶ¾åĸº": 2252,
      "æĪĳåĵĭåĶĶ": 2253,
      "ä¼¯": 2254,
      "ä½¢å¸¶": 2255,
      "åĻ¤åĻ¤": 2256,
      "ä½¢åŃ¸": 2257,
      "ĠLucy": 2258,
      "æ¯Ķè³½": 2259,
      "åŁĭä¸Ģé½Ĭ": 2260,
      "å¥½å¿«": 2261,
      "ç¬ĳç¬ĳ": 2262,
      "å¾ŀåīįæľīéļ»": 2263,
      "èĹįèī²": 2264,
      "å½±": 2265,
      "çħ§é¡§": 2266,
      "éĺ¿å§Ĳ": 2267,
      "ç¬ĳå®¹": 2268,
      "å¨ľ": 2269,
      "è¦ģå°ıå¿ĥåķ²": 2270,
      "å¥ĩæĢª": 2271,
      "ç¢°": 2272,
      "éļ»æīĭ": 2273,
      "åĵĩ": 2274,
      "æ¼Ĥäº®åĺħ": 2275,
      "çŀĵè¦º": 2276,
      "ä½¢éĥ½æľĥ": 2277,
      "çĪ¶æ¯į": 2278,
      "æķħäºĭåĺħéģĵ": 2279,
      "èµ·èº«": 2280,
      "ä½¢æľĽ": 2281,
      "åħ©åĢĭ": 2282,
      "èľľèľĤ": 2283,
      "åĴĹæ¢Ŀ": 2284,
      "çĪĲ": 2285,
      "åĳ¢åĢĭå": 2286,
      "çİ©å¾Ĺéĸĭå¿ĥ": 2287,
      "é«Ģ": 2288,
      "åīª": 2289,
      "é«Ģé«Ģ": 2290,
      "ıåĻĵ": 2291,
      "ç¦®è²Į": 2292,
      "é«Ĵ": 2293,
      "é·": 2294,
      "æĹ¥åŃĲ": 2295,
      "èŀ": 2296,
      "å¸¸": 2297,
      "ä¸ĢåĢĭå°ı": 2298,
      "åĻłåĻłåĻłåĻłåĻłåĻłåĻłåĻłåĻłåĻłåĻłåĻłåĻłåĻłåĻłåĻł": 2299,
      "åĸĦ": 2300,
      "äººåĺħ": 2301,
      "éĹľæĸ¼": 2302,
      "ä¸Ĭå¤©": 2303,
      "éłŃé«®": 2304,
      "ç¿Ĵ": 2305,
      "åį³ä½¿": 2306,
      "çĭĢ": 2307,
      "èįīåľ°ä¸Ĭ": 2308,
      "èĺ¿": 2309,
      "åŃ¤": 2310,
      "æĭ¼": 2311,
      "ä½Ĩä¿Ĥéĥ½": 2312,
      "å£¯": 2313,
      "è¨ĺä½ı": 2314,
      "å¾ŀåīįæľīåĢĭç´°è·¯åı«": 2315,
      "ä½¢è·³": 2316,
      "è¾²å¤«": 2317,
      "ä½¢åĵĭåŃ¸": 2318,
      "åĢĭåĺħ": 2319,
      "Ġè¦ºå¾Ĺ": 2320,
      "ä½¢åĵĭåĲĮ": 2321,
      "Ġåĺħåª½åĴª": 2322,
      "çĵ¶": 2323,
      "åĻ¨": 2324,
      "ä»½": 2325,
      "èĥŀ": 2326,
      "ä½¢åĨį": 2327,
      "ĠæĪĳ": 2328,
      "ä½¢åĶĶçŁ¥": 2329,
      "å¥¶": 2330,
      "ä¿ĤæĪĳåĺħ": 2331,
      "æ¨Ļ": 2332,
      "è«ĸ": 2333,
      "°į": 2334,
      "åĶıåĻĵ": 2335,
      "åĪĢ": 2336,
      "ĠO": 2337,
      "çĩĪ": 2338,
      "åŁĭåļŁ": 2339,
      "åĺĪ": 2340,
      "åįĪ": 2341,
      "ä»¥åīįæľīåĢĭ": 2342,
      "è§£éĩ": 2343,
      "æĩīæī¿": 2344,
      "éĲĺ": 2345,
      "ä¸Ģä»¶": 2346,
      "å¸Ĥ": 2347,
      "éĭ": 2348,
      "çħ©": 2349,
      "éºµåĮħ": 2350,
      "è«ĭ": 2351,
      "åĴĭ": 2352,
      "æĻ®": 2353,
      "åļŁè·³åİ»": 2354,
      "è¾£": 2355,
      "èĵ": 2356,
      "èĶĶ": 2357,
      "éĬĢ": 2358,
      "èĺ¿èĶĶ": 2359,
      "åħħæ»¿": 2360,
      "éĩı": 2361,
      "æ±Ĥ": 2362,
      "ç°": 2363,
      "å®īå¨ľ": 2364,
      "éĺ¿å¨ľåĲĮ": 2365,
      "è§¸ç¢°": 2366,
      "ĠC": 2367,
      "ç¹©": 2368,
      "æ¼Ķ": 2369,
      "Ġä¸Ģé½Ĭ": 2370,
      "è¦ĭåĪ°åĢĭ": 2371,
      "æ¨ĵ": 2372,
      "æīĵéĸĭ": 2373,
      "ä¸Ģæ¬¡": 2374,
      "çīĻ": 2375,
      "çĿ¡": 2376,
      "å¥½èĩªè±ª": 2377,
      "ä½¢å¥½åĶĶéĸĭå¿ĥ": 2378,
      "é·¹": 2379,
      "ç¸": 2380,
      "å±ķ": 2381,
      "çįİ": 2382,
      "ä½¢åĵĭå°ĩ": 2383,
      "èµ·ä¸ĬåļŁ": 2384,
      "ä¸Ģæ¨£": 2385,
      "ä¸ĢåĢĭåı«": 2386,
      "åĲĵåĲĵåĲĵåĲĵåĲĵåĲĵåĲĵåĲĵåĲĵåĲĵåĲĵåĲĵåĲĵåĲĵåĲĵåĲĵåĲĵåĲĵåĲĵåĲĵåĲĵåĲĵåĲĵåĲĵåĲĵåĲĵåĲĵåĲĵåĲĵåĲĵåĲĵåĲĵ": 2387,
      "åŁİåł¡": 2388,
      "æĨ": 2389,
      "éĪ": 2390,
      "åħīäº®": 2391,
      "å§Ĳ": 2392,
      "å¾ĮæĤĶ": 2393,
      "åĨ°": 2394,
      "åĸĤ": 2395,
      "åĲĮä½ł": 2396,
      "åĹħåĹħåĹħåĹħåĹħåĹħåĹħåĹħ": 2397,
      "èĢģå¸«": 2398,
      "ä½¢åª½åª½è©±": 2399,
      "å±¬æĸ¼": 2400,
      "éº¥": 2401,
      "æ¯¯": 2402,
      "ä½İåĴĹ": 2403,
      "æ²»": 2404,
      "çŃīç·Ĭ": 2405,
      "æĴ»æĴ»æĴ»æĴ»æĴ»æĴ»æĴ»æĴ»": 2406,
      "æ©Ļ": 2407,
      "è¬ĽåĨįè¦ĭ": 2408,
      "èĥŀèĥİ": 2409,
      "éĽĻèĥŀèĥİ": 2410,
      "åļŁåļŁåļŁåļŁåļŁåļŁåļŁåļŁåļŁåļŁåļŁåļŁåļŁåļŁåļŁåļŁ": 2411,
      "Ġæ±ºå®ļ": 2412,
      "ãĹİåĸĩ": 2413,
      "æĢªçī©": 2414,
      "èģ½è©±": 2415,
      "éĳ": 2416,
      "éĻ¢": 2417,
      "èŃĺåĴĹ": 2418,
      "å¹£": 2419,
      "ç´ħèī²åĺħ": 2420,
      "è®ĵ": 2421,
      "æĤ¶": 2422,
      "æľīåĢĭå": 2423,
      "æľīåĢĭå¤§": 2424,
      "ĠBilly": 2425,
      "è·³åļŁè·³åİ»": 2426,
      "åĥı": 2427,
      "ä½łæĥ³åĶĶæĥ³": 2428,
      "è¦ĭåĪ°éļ»": 2429,
      "çĿĢåĴĹ": 2430,
      "åĴĮ": 2431,
      "ä¸Ģæ£µ": 2432,
      "±ĭ": 2433,
      "ä½¢åĢĭå": 2434,
      "åħ¬ä¸»": 2435,
      "èİİæĭīåĲĮçıŃ": 2436,
      "é¼»": 2437,
      "é¼ĵ": 2438,
      "Ī°éģĶ": 2439,
      "åĺħå°ıæľĭåıĭ": 2440,
      "èµ·åļŁ": 2441,
      "æĬ¹": 2442,
      "åĶĶåĨį": 2443,
      "åĢĭå°ıæľĭåıĭ": 2444,
      "Ġå°±è©±": 2445,
      "çĿĩåĪ°": 2446,
      "è¿ĳåķ²": 2447,
      "åļ·åļ·åļ·åļ·åļ·åļ·åļ·åļ·": 2448,
      "æ´¾å°į": 2449,
      "å¾ŀåīįæľīåĢĭå¥½": 2450,
      "æķħäºĭå°±": 2451,
      "é¡ĺ": 2452,
      "è¦ĸ": 2453,
      "æ¨¹èĳī": 2454,
      "çħ®": 2455,
      "åģ¥": 2456,
      "Ġj": 2457,
      "ç®Ĺ": 2458,
      "å°ĩåķ²": 2459,
      "æŁ¥": 2460,
      "å¸¶ä½¢åİ»": 2461,
      "æ¸¸æ°´": 2462,
      "åļķåļķåļķåļķåļķåļķåļķåļķåļķåļķåļķåļķåļķåļķåļķåļķåļķåļķåļķåļķåļķåļķåļķåļķåļķåļķåļķåļķåļķåļķåļķåļķåļķåļķåļķåļķåļķåļķåļķåļķåļķåļķåļķåļķåļķåļķåļķåļķåļķåļķåļķåļķåļķåļķåļķåļķåļķåļķåļķåļķåļķåļķåļķåļķ": 2463,
      "åĸºåº¦åĸºåº¦åĸºåº¦åĸºåº¦åĸºåº¦åĸºåº¦åĸºåº¦åĸºåº¦åĸºåº¦åĸºåº¦åĸºåº¦åĸºåº¦åĸºåº¦åĸºåº¦åĸºåº¦åĸºåº¦": 2464,
      "æĸĩ": 2465,
      "åĩºè¡Ĺ": 2466,
      "ãĢĤãĢįãĢĮ": 2467,
      "çĮ´": 2468,
      "æı®æīĭå": 2469,
      "Ĵģ": 2470,
      "åĺħèªªè©±": 2471,
      "åĴĹåĺħ": 2472,
      "ç½Ĳ": 2473,
      "è¿½è¿½è¿½è¿½è¿½è¿½è¿½è¿½è¿½è¿½è¿½è¿½è¿½è¿½è¿½è¿½": 2474,
      "Ġåĺħç´°è·¯": 2475,
      "åį³åĪ»": 2476,
      "å®ĮæĪĲ": 2477,
      "å»ºéĢł": 2478,
      "ä½¢æĲµåĪ°": 2479,
      "éĽ¶": 2480,
      "è¦ĭåĪ°ä¸ĢåĢĭ": 2481,
      "æ§į": 2482,
      "åĲĮæĪĳ": 2483,
      "åľĵ": 2484,
      "ç¶¿": 2485,
      "æı®æīĭ": 2486,
      "åĢĭå°ıçĶ·åŃ©": 2487,
      "æ¯ıæ¬¡": 2488,
      "æ£ķ": 2489,
      "ä½¢å¤§": 2490,
      "æ¡Ī": 2491,
      "åĺħå¤§": 2492,
      "åİ»æĲµ": 2493,
      "æĦŁåĪ°é©ķåĤ²": 2494,
      "ãĢįãĢĤ": 2495,
      "æīĢä»¥å°±": 2496,
      "ç®¡": 2497,
      "å¥½é©ļè¨Ŀ": 2498,
      "ä½¢åģļ": 2499,
      "å¥½é©ķåĤ²": 2500,
      "æĻ¯": 2501,
      "èīĺ": 2502,
      "æİ¹": 2503,
      "è¶ħ": 2504,
      "ä½¢è·ĳåİ»": 2505,
      "è¦ĭåĪ°å¥½å¤ļ": 2506,
      "åĬłåħ¥": 2507,
      "åĻıåĻıåĻıåĻıåĻıåĻıåĻıåĻı": 2508,
      "·«": 2509,
      "Ġma": 2510,
      "åŃ¸æĩĤåĴĹ": 2511,
      "çĵľ": 2512,
      "ell": 2513,
      "æĪĳå¥½": 2514,
      "ä¿Ĥä¸ĢåĢĭ": 2515,
      "ä¿¾ä½¢åĵĭ": 2516,
      "æİī": 2517,
      "åĮĻ": 2518,
      "çīĮ": 2519,
      "æ·¨ä¿Ĥ": 2520,
      "¯åĶĶåı¯ä»¥": 2521,
      "çł´å£ŀ": 2522,
      "ãĢįï¼Į": 2523,
      "çĪŃ": 2524,
      "ä½Ĺä½Ĺä½Ĺä½Ĺä½Ĺä½Ĺä½Ĺä½Ĺ": 2525,
      "åĴĹå¼µ": 2526,
      "æĶŀä½ı": 2527,
      "åª½åĴªè©±": 2528,
      "æµ·çģĺ": 2529,
      "åĴĹåĩºåļŁ": 2530,
      "æİĽ": 2531,
      "ĠEmma": 2532,
      "ä½¢åĽĽåľį": 2533,
      "åħĪåı¯ä»¥": 2534,
      "ä½¢æľīä¸Ģ": 2535,
      "ä½¢ä»²": 2536,
      "ç¿¼ç¿¼åĴģ": 2537,
      "ä¸»äºº": 2538,
      "ç¨ĭ": 2539,
      "ä½¢å¤ļè¬Ŀ": 2540,
      "è¡Įè·¯": 2541,
      "å·®": 2542,
      "èłŁçŃĨ": 2543,
      "çİ©åĪ°": 2544,
      "æģĲ": 2545,
      "æĦŁæ¿Ģ": 2546,
      "å°ĩåĢĭ": 2547,
      "ç®Ń": 2548,
      "å®Įä¹ĭå¾Į": 2549,
      "ä½¢åģ": 2550,
      "æ¨¹æŀĿ": 2551,
      "ä½¢åĵĭåķ²": 2552,
      "éĿ¢åīį": 2553,
      "æĪĳéĥ½": 2554,
      "å®¤": 2555,
      "æº«æŁĶ": 2556,
      "é«Ķ": 2557,
      "®ī": 2558,
      "åĨ·": 2559,
      "å¦¹": 2560,
      "çĮ´åŃĲ": 2561,
      "åĲĮä½¢åª½åª½": 2562,
      "éĢŁ": 2563,
      "åĲįåı«": 2564,
      "åĻ¥åĻ¥åĻ¥åĻ¥åĻ¥åĻ¥åĻ¥åĻ¥": 2565,
      "é£ŁåĴĹ": 2566,
      "ä½¢åĵĭçİ©å¾Ĺå¥½éĸĭå¿ĥ": 2567,
      "å¤©æ°£": 2568,
      "éĤĦ": 2569,
      "æµ´": 2570,
      "åĸºåħ¬åľĴåº¦": 2571,
      "çķ«çķ«": 2572,
      "ĩº": 2573,
      "æ¼Ĥäº®": 2574,
      "èĩ³": 2575,
      "éĽ£": 2576,
      "çħĻ": 2577,
      "è·³èĲ½": 2578,
      "æĭīä½ı": 2579,
      "åĽ°": 2580,
      "æīĵäº¤": 2581,
      "æ¤į": 2582,
      "å¾ŀåĹ°æĹ¥èµ·": 2583,
      "éİĸ": 2584,
      "ã·«": 2585,
      "çģ°": 2586,
      "æµª": 2587,
      "å¼·å£¯": 2588,
      "ã·«ã·«": 2589,
      "Ġmam": 2590,
      "å®¢å»³": 2591,
      "åĲ¸": 2592,
      "é£¾": 2593,
      "æľīè¶£": 2594,
      "èİĵ": 2595,
      "ķ¦": 2596,
      "å¥½æĤ²åĤ·": 2597,
      "¼µ": 2598,
      "çĶ°": 2599,
      "åıĭåĸĦ": 2600,
      "èĩªå·±å¥½": 2601,
      "çĭĹçĭĹ": 2602,
      "ä½¢åª½åĴªè©±": 2603,
      "è¦ĭåĴĹ": 2604,
      "è«Ĵ": 2605,
      "yu": 2606,
      "ä¸Ģç¬ĳ": 2607,
      "Ġjyu": 2608,
      "ä½¢åİ»åĴĹ": 2609,
      "±ĭä¼ģ": 2610,
      "æĸ¯": 2611,
      "æ¶Īå¤±åĴĹ": 2612,
      "åı¤": 2613,
      "ä¿ĿèŃ·": 2614,
      "å¥½æŃ£": 2615,
      "çī¹åĪ¥åĺħåĺ¢": 2616,
      "éĥµ": 2617,
      "æ²ĻçĻ¼": 2618,
      "ç±³": 2619,
      "ç¥ŀå¥ĩ": 2620,
      "çĸ": 2621,
      "æŃ¢": 2622,
      "ä¿¾ä½ł": 2623,
      "æĽ´åĬł": 2624,
      "åĴĹåĢĭå¤§": 2625,
      "åŃ¤çį¨": 2626,
      "è¿İ": 2627,
      "é¦ĸ": 2628,
      "ä½¢åĵĭå¸ĮæľĽ": 2629,
      "ä»¥åīįæľīåĢĭç´°è·¯": 2630,
      "åĢĭåħ¬": 2631,
      "æļĹ": 2632,
      "è©¦ä¸ĭ": 2633,
      "æ¤įçī©": 2634,
      "æľīåķ²åĺ¢": 2635,
      "çģĮ": 2636,
      "èļ": 2637,
      "è«ĭå": 2638,
      "è¶³": 2639,
      "èī²å½©ç¹½ç´Ľåĺħ": 2640,
      "è·³è·³": 2641,
      "æīĵéĸĭåĢĭ": 2642,
      "èĹ¥": 2643,
      "å°ĳ": 2644,
      "ķı": 2645,
      "æĭĽ": 2646,
      "ä½¢åĵĭèģ½åĪ°": 2647,
      "åĴģåģļ": 2648,
      "èŃ°": 2649,
      "åĺħå°ıå¥³åŃ©": 2650,
      "ä½¢å¥½éį¾æĦıçİ©": 2651,
      "ç´°ç´°åĢĭåĺħ": 2652,
      "åĸºåĸºåĸºåĸºåĸºåĸºåĸºåĸºåĸºåĸºåĸºåĸºåĸºåĸºåĸºåĸºåĸºåĸºåĸºåĸºåĸºåĸºåĸºåĸºåĸºåĸºåĸºåĸºåĸºåĸºåĸºåĸº": 2653,
      "éĽŀ": 2654,
      "æľĿ": 2655,
      "ä½¢åĵĭçĶ¨": 2656,
      "èµ·ä¾Ĩ": 2657,
      "ä½¢æĪĲæĹ¥éĥ½": 2658,
      "çķ¶ä½¢åĵĭå": 2659,
      "å¤ł": 2660,
      "æľīåĨĩ": 2661,
      "çµĤæĸ¼": 2662,
      "ç´°ä½¬": 2663,
      "èĩªå·±åģļ": 2664,
      "çĻ¼çĶŁåĴĹåĴ©äºĭ": 2665,
      "è§£éĩĭ": 2666,
      "èĲ½åľ°": 2667,
      "çĻ¼çı¾åĴĹä¸Ģ": 2668,
      "æºĸåĤĻå¥½": 2669,
      "çģĮæľ¨": 2670,
      "ä½łåĸºåº¦": 2671,
      "å¯Ł": 2672,
      "åķ²äºº": 2673,
      "å¯¶èĹı": 2674,
      "æľŁå¾ħ": 2675,
      "ĺèĽ": 2676,
      "èľĺèĽ": 2677,
      "éı¡": 2678,
      "åŁĭåļŁåŁĭåļŁ": 2679,
      "èľĺèĽĽ": 2680,
      "éĽĨ": 2681,
      "å±ħ": 2682,
      "æĸ·": 2683,
      "åı«ä½¢": 2684,
      "è¸©": 2685,
      "å°±éĸĭå§ĭ": 2686,
      "èªį": 2687,
      "å¾Ĺå¤ª": 2688,
      "åı¸": 2689,
      "ä½¢éĸĭå§ĭ": 2690,
      "ç§ĺå¯Ĩ": 2691,
      "éĺ¿å¨ľåĲĮéĺ¿çıŃ": 2692,
      "çĻ¼åĩº": 2693,
      "èĬ±åľĴåĪ°": 2694,
      "è²´": 2695,
      "åĬĥ": 2696,
      "åıĹåĤ·": 2697,
      "æ¾": 2698,
      "¡¬": 2699,
      "åĢĭåı": 2700,
      "ç¡¬": 2701,
      "å¾ŀåĹ°æĹ¥éĸĭå§ĭ": 2702,
      "å½¢çĭĢ": 2703,
      "ä½¢è¡Į": 2704,
      "åĲĮéļ»": 2705,
      "åĪ°åĢĭ": 2706,
      "åĳ¢åº¦": 2707,
      "çĿĢä½ı": 2708,
      "éµĿ": 2709,
      "èĻ¹": 2710,
      "an": 2711,
      "åĸºå¤©ä¸Ĭ": 2712,
      "ä¸Ģå¡Ĭ": 2713,
      "ĠMary": 2714,
      "ar": 2715,
      "è¦ĭåĪ°ä½¢": 2716,
      "åĻīåĺħ": 2717,
      "æĢķ": 2718,
      "èĥĮ": 2719,
      "æ±½": 2720,
      "åĸºå±ĭä¼ģ": 2721,
      "ç®±åŃĲ": 2722,
      "er": 2723,
      "çĥ": 2724,
      "æĮĸ": 2725,
      "è¨ĪåĬĥ": 2726,
      "çĻ¼çı¾åĴĹ": 2727,
      "æ¯Ķä½¢": 2728,
      "è®ĬåĴĹ": 2729,
      "é¹¿": 2730,
      "å¼µåºĬ": 2731,
      "å¿ĺè¨ĺåĴĹ": 2732,
      "¼å¾Ĺ": 2733,
      "å¹«æīĭå": 2734,
      "å¤§ç¬ĳ": 2735,
      "å¼Ł": 2736,
      "èĪĸ": 2737,
      "ä½¢åıĪ": 2738,
      "åĢĭå°ıæľĭåıĭå": 2739,
      "ç²¾": 2740,
      "ä½¢å¾ŀ": 2741,
      "ä½łåĵĭè¦ģ": 2742,
      "éŀĭ": 2743,
      "åĴĹåļŁ": 2744,
      "æĺĨ": 2745,
      "in": 2746,
      "æľªè¦ĭéģİ": 2747,
      "å¥Ĺ": 2748,
      "åĻ¹åĻ¹åĻ¹åĻ¹åĻ¹åĻ¹åĻ¹åĻ¹åĻ¹åĻ¹åĻ¹åĻ¹åĻ¹åĻ¹åĻ¹åĻ¹åĻ¹åĻ¹åĻ¹åĻ¹åĻ¹åĻ¹åĻ¹åĻ¹åĻ¹åĻ¹åĻ¹åĻ¹åĻ¹åĻ¹åĻ¹åĻ¹åĻ¹åĻ¹åĻ¹åĻ¹åĻ¹åĻ¹åĻ¹åĻ¹åĻ¹åĻ¹åĻ¹åĻ¹åĻ¹åĻ¹åĻ¹åĻ¹åĻ¹åĻ¹åĻ¹åĻ¹åĻ¹åĻ¹åĻ¹åĻ¹åĻ¹åĻ¹åĻ¹åĻ¹åĻ¹åĻ¹åĻ¹åĻ¹": 2749,
      "ä½¢åĵĭåª½åĴª": 2750,
      "å°±æľĥ": 2751,
      "æĻº": 2752,
      "ç·Ĭç·Ĭ": 2753,
      "åĢĭå¥³åŃ©": 2754,
      "è¦ĭåĪ°ä¸Ģéļ»": 2755,
      "èİīèİī": 2756,
      "é¬Ĩ": 2757,
      "è©±ä½¢": 2758,
      "åķ²çİ©åħ·": 2759,
      "æĪĳåĵĭæľĥ": 2760,
      "æĲµç·Ĭ": 2761,
      "åģĩè£Ŀ": 2762,
      "æ¢ĿéŃļ": 2763,
      "ä¹¾æ·¨": 2764,
      "åĳ½": 2765,
      "ðł®¨ðł®¨ðł®¨ðł®¨ðł®¨ðł®¨ðł®¨ðł®¨": 2766,
      "ĭåı¯ä»¥": 2767,
      "å¼ķ": 2768,
      "åĢĭç´°è·¯å¥³": 2769,
      "Ġåİ»åĴĹ": 2770,
      "ä¿Ĥä½¢": 2771,
      "æĺĨèŁ²": 2772,
      "åħĭ": 2773,
      "æīĭåº¦": 2774,
      "å¾Ĺå¥½å¿«": 2775,
      "å¥½éĩįè¦ģ": 2776,
      "å¾®": 2777,
      "èĪĸéłŃ": 2778,
      "ĳ¨åľį": 2779,
      "ĠåĶĶæĥ³": 2780,
      "åĲł": 2781,
      "åķ²æ°´": 2782,
      "çĤºåĴĹ": 2783,
      "éĺ²": 2784,
      "å½©èĻ¹": 2785,
      "æķ´é½Ĭ": 2786,
      "å¥½éĽ": 2787,
      "ä¸ĺ": 2788,
      "åĸºä¸ĢåĢĭ": 2789,
      "æĺĵ": 2790,
      "éĸī": 2791,
      "æŁĶè»Ł": 2792,
      "æŃ¡è¿İ": 2793,
      "ä¿ĤåĴģ": 2794,
      "å¹«æĪĳ": 2795,
      "°ıå¿ĥ": 2796,
      "ä½¢åĵĭåĸºåº¦": 2797,
      "åļŁçİ©": 2798,
      "å¥½é¤": 2799,
      "éĨ¬": 2800,
      "åĲĮåĢĭ": 2801,
      "å¼µæŀ±": 2802,
      "ç¬ĳç¬ĳåı£": 2803,
      "ï¼ŁãĢįãĢĮ": 2804,
      "ç®Ĺå¥½": 2805,
      "ä½¢åĵĭä¿Ĥ": 2806,
      "éļ»èĿ´èĿ¶": 2807,
      "å¾ŀä¾Ĩ": 2808,
      "æ®¼": 2809,
      "åķ²åĭķçī©": 2810,
      "å¾ĹæĽ´": 2811,
      "æª¸": 2812,
      "éģİåļŁ": 2813,
      "æ³¨": 2814,
      "æ®µ": 2815,
      "åĴĹèµ°": 2816,
      "åº·": 2817,
      "æ£Ħ": 2818,
      "ç¶²": 2819,
      "å¥½é¤ĵ": 2820,
      "å¾ŀåīįæľīåĢĭå°ıå¥³åŃ©": 2821,
      "ĠWow": 2822,
      "éĦ": 2823,
      "Ġå°į": 2824,
      "éĥ½åĶĶæľĥ": 2825,
      "åĹ¡åĹ¡åĹ¡åĹ¡åĹ¡åĹ¡åĹ¡åĹ¡åĹ¡åĹ¡åĹ¡åĹ¡åĹ¡åĹ¡åĹ¡åĹ¡åĹ¡åĹ¡åĹ¡åĹ¡åĹ¡åĹ¡åĹ¡åĹ¡åĹ¡åĹ¡åĹ¡åĹ¡åĹ¡åĹ¡åĹ¡åĹ¡": 2826,
      "åĴĹæĪĲæĹ¥": 2827,
      "è·³èĪŀ": 2828,
      "è¤": 2829,
      "ä½¢ä¸īæŃ²": 2830,
      "æĲŀ": 2831,
      "èªŀ": 2832,
      "åĻīæ¨£": 2833,
      "çĶ·ä»Ķ": 2834,
      "ĠSammy": 2835,
      "ç½®": 2836,
      "è¡¨æ¼Ķ": 2837,
      "åĤ·å®³": 2838,
      "ĠçŁ¥éģĵ": 2839,
      "çĶŁæĹ¥": 2840,
      "ĸĩ": 2841,
      "åľĺ": 2842,
      "åļ¤åļ¤åļ¤åļ¤åļ¤åļ¤åļ¤åļ¤åļ¤åļ¤åļ¤åļ¤åļ¤åļ¤åļ¤åļ¤åļ¤åļ¤åļ¤åļ¤åļ¤åļ¤åļ¤åļ¤åļ¤åļ¤åļ¤åļ¤åļ¤åļ¤åļ¤åļ¤": 2843,
      "ä¸ĢçĽ´éĥ½": 2844,
      "èĮ¶": 2845,
      "å°±è·ĳ": 2846,
      "ŃĲ": 2847,
      "å¥½éĸĭå¿ĥåĴģ": 2848,
      "éļ»èĪ¹": 2849,
      "ĿéłŃ": 2850,
      "åĢĭçİ©åħ·": 2851,
      "æĶ¾æ£Ħ": 2852,
      "ĠOK": 2853,
      "æ¢Ŀç·ļ": 2854,
      "éłĤå¸½": 2855,
      "è¦Ĩ": 2856,
      "è²Ŀ": 2857,
      "æ¶¼": 2858,
      "nny": 2859,
      "èĲ½å±±": 2860,
      "åĲĮä½¢åķ²æľĭåıĭ": 2861,
      "ä½¢åĶĶéį¾æĦı": 2862,
      "æ±½è»Ĭ": 2863,
      "å±ķç¤º": 2864,
      "çķ¶æĻļ": 2865,
      "æĭ¼åľĸ": 2866,
      "è«¾": 2867,
      "ç¹¼çºĮçİ©": 2868,
      "®¶åºŃ": 2869,
      "ex": 2870,
      "ĤĬ": 2871,
      "ä¸ĢéĤĬ": 2872,
      "åı»": 2873,
      "éĭª": 2874,
      "ĠåĢĭ": 2875,
      "è¨±": 2876,
      "åºķä¸ĭ": 2877,
      "ä½¢å¥½å¥ĩ": 2878,
      "è«Ĺä½ı": 2879,
      "æ£®æŀĹåħ¥éĿ¢": 2880,
      "èĸ": 2881,
      "ä¸ĢåĪĩ": 2882,
      "éģĵæŃī": 2883,
      "èĩªå·±ä¿Ĥ": 2884,
      "å¥½éħ": 2885,
      "ä¸ĭåĢĭ": 2886,
      "ĠåĲĮä½¢åª½åª½": 2887,
      "æľīéļ»": 2888,
      "ç§»": 2889,
      "ä½¢åĵĭçİ©": 2890,
      "ä¹ĭ": 2891,
      "ä½¢å¹«": 2892,
      "ç¢Ł": 2893,
      "é©": 2894,
      "æĻļé¤Ĳ": 2895,
      "è¿ª": 2896,
      "æ¯ıæĹ¥éĥ½æľĥ": 2897,
      "ç·´": 2898,
      "æĶ¾è¿Ķ": 2899,
      "æł¹": 2900,
      "ĠBu": 2901,
      "è¨´": 2902,
      "çĪºçĪº": 2903,
      "èµ°éĸĭ": 2904,
      "éĽ¢éĸĭ": 2905,
      "ç£": 2906,
      "å·´": 2907,
      "æĶ¾ä½İ": 2908,
      "æĭĽåĳ¼": 2909,
      "åĽŀçŃĶ": 2910,
      "ĭķ": 2911,
      "éģ²": 2912,
      "èĶ": 2913,
      "ħĪ": 2914,
      "į³": 2915,
      "çİ©æ¨Ĥ": 2916,
      "åĢĭæ´ŀ": 2917,
      "åĴģåĴģåĴģåĴģåĴģåĴģåĴģåĴģåĴģåĴģåĴģåĴģåĴģåĴģåĴģåĴģåĴģåĴģåĴģåĴģåĴģåĴģåĴģåĴģåĴģåĴģåĴģåĴģåĴģåĴģåĴģåĴģåĴģåĴģåĴģåĴģåĴģåĴģåĴģåĴģåĴģåĴģåĴģåĴģåĴģåĴģåĴģåĴģåĴģåĴģåĴģåĴģåĴģåĴģåĴģåĴģåĴģåĴģåĴģåĴģåĴģåĴģåĴģåĴģ": 2918,
      "éĽªäºº": 2919,
      "ĠG": 2920,
      "ä¸Ģé½Ĭåĸº": 2921,
      "æįīåĪ°": 2922,
      "å¹ħ": 2923,
      "æ¨£åŃĲ": 2924,
      "çĦ¡äºĭ": 2925,
      "é£Łå®Į": 2926,
      "æĦŁåıĹ": 2927,
      "åĪ°ä¸ĢåĢĭ": 2928,
      "ä½¢åĵĭè¬Ľ": 2929,
      "ä»Ļå¥³": 2930,
      "ç¢İ": 2931,
      "æľīåĢĭå¥½": 2932,
      "éª": 2933,
      "ç´«": 2934,
      "ç®ı": 2935,
      "ä½¢åĵĭåı¯ä»¥": 2936,
      "æĳĺ": 2937,
      "æĭ¿ä½ı": 2938,
      "éĽľ": 2939,
      "æįīä½ı": 2940,
      "çĶŁçī©": 2941,
      "åĢĭç´°è·¯ä»Ķ": 2942,
      "éĸĥéĸĥçĻ¼äº®åĺħ": 2943,
      "èĬĿ": 2944,
      "é¢¨ç®ı": 2945,
      "éĽªæ«ĥ": 2946,
      "è·³ä¸Ĭ": 2947,
      "èĬĿå£«": 2948,
      "éĽ¶é£Ł": 2949,
      "æĦıæĢĿ": 2950,
      "æł¡": 2951,
      "Ġåª½åĴª": 2952,
      "åĢĭå¤": 2953,
      "ä»¤ä½¢": 2954,
      "éĿł": 2955,
      "ä¸įåĲĮåĺħ": 2956,
      "æĪĳåĸºåº¦": 2957,
      "æ¢Ŀè·¯": 2958,
      "å¥½éĽ£": 2959,
      "ä½łåģļ": 2960,
      "åĪº": 2961,
      "è·Łä½ıå°±": 2962,
      "æĹħè¡Į": 2963,
      "æķ£æŃ¥": 2964,
      "èĽĩ": 2965,
      "Ħå¼Ł": 2966,
      "åĢĭèģ²éŁ³": 2967,
      "æª¢": 2968,
      "æľµèĬ±": 2969,
      "ä½įç½®": 2970,
      "è¡Įåİ»": 2971,
      "æħ§": 2972,
      "æ¬Ħ": 2973,
      "åħĪçĶŁ": 2974,
      "æ°´æ¡¶": 2975,
      "åħ¶ä¸Ń": 2976,
      "æķ´å¥½": 2977,
      "å¤ľ": 2978,
      "æļ´": 2979,
      "åļ¯": 2980,
      "æĻºæħ§": 2981,
      "èºº": 2982,
      "åļ¯åļ®": 2983,
      "åļ¯åļ®åļ¯åļ®": 2984,
      "çĤºä½¢": 2985,
      "åĿĲåĸº": 2986,
      "èįīåľ°": 2987,
      "op": 2988,
      "æŀķ": 2989,
      "å¼µç´Ļ": 2990,
      "æĪĳåĵĭä¸Ģé½Ĭ": 2991,
      "éĽ»è¦ĸ": 2992,
      "èĮ¸": 2993,
      "æľīæ¢Ŀ": 2994,
      "åļŁåķ¦": 2995,
      "éģİåĴĹä¸ĢéĻ£": 2996,
      "æľĭåıĭåĸº": 2997,
      "çĴ°": 2998,
      "ä¿ĤæĻĤåĢĻ": 2999,
      "éĪķ": 3000,
      "åģ¥åº·": 3001,
      "æĲĸéłŃ": 3002,
      "åĺĢåĺĢåĺĢåĺĢ": 3003,
      "åļĢåļĢåļĢåļĢ": 3004,
      "æĪĳä¿Ĥ": 3005,
      "çıį": 3006,
      "ç¬ĳä½ıè©±": 3007,
      "èĪīèµ·": 3008,
      "å¼±": 3009,
      "æŀķéłŃ": 3010,
      "æŀľæ±ģ": 3011,
      "ĠJoh": 3012,
      "æª¬": 3013,
      "å°Ħ": 3014,
      "åīĿåīĿåīĿåīĿ": 3015,
      "®Į": 3016,
      "åĪ°èĻķ": 3017,
      "åĩºåİ»": 3018,
      "æª¸æª¬": 3019,
      "ä½Ĩä¿Ĥæľīä¸ĢæĹ¥": 3020,
      "åĸºåħ¬åľĴåĪ°çİ©": 3021,
      "çłµçłµçłµçłµ": 3022,
      "ĭåĺħ": 3023,
      "ä½¢åĵĭåħ©åĢĭ": 3024,
      "å¥½å¤ļå¥½å¤ļå¥½å¤ļå¥½å¤ļ": 3025,
      "RRRRRRRRRRRRRRRR": 3026,
      "åİŁè«Ĵ": 3027,
      "éĮ¯åĴĹ": 3028,
      "åļ¼åļ¼åļ¼åļ¼åļ¼åļ¼åļ¼åļ¼": 3029,
      "åı¥": 3030,
      "åľ¨": 3031,
      "è½īåľĪ": 3032,
      "å¨ĥ": 3033,
      "åħĴ": 3034,
      "åħ¥å±ĭ": 3035,
      "èĪĪèĪĪèĪĪèĪĪ": 3036,
      "å¥½å¥½å¥ĩ": 3037,
      "åįĪé¤Ĳ": 3038,
      "åĴĹä½¢åĵĭ": 3039,
      "è¦ģå°ıå¿ĥ": 3040,
      "ä½Ĺåĵĭ": 3041,
      "«åļ«åļ«åļ«åļ«åļ«åļ«åļ«åļ«åļ«åļ«åļ«åļ«åļ«åļ«åļ«åļ": 3042,
      "æĽ´å¤ļ": 3043,
      "è¿Ķå±ĭä¼ģåĸĩ": 3044,
      "æķ´æķ´æķ´æķ´æķ´æķ´æķ´æķ´æķ´æķ´æķ´æķ´æķ´æķ´æķ´æķ´æķ´æķ´æķ´æķ´æķ´æķ´æķ´æķ´æķ´æķ´æķ´æķ´æķ´æķ´æķ´æķ´": 3045,
      "ä½¢åĺĹè©¦": 3046,
      "èĵĭ": 3047,
      "åı¸æ©Ł": 3048,
      "æª¢æŁ¥": 3049,
      "æľĪ": 3050,
      "å¥½éĿļåĳĢ": 3051,
      "åį°": 3052,
      "è¼ªæµģ": 3053,
      "īåļīåļīåļīåļ": 3054,
      "Ġt": 3055,
      "åĴĹèĲ½åļŁ": 3056,
      "èĻİ": 3057,
      "æĪ´ä½ı": 3058,
      "åļ¿åļ¿åļ¿åļ¿åļ¿åļ¿åļ¿åļ¿åļ¿åļ¿åļ¿åļ¿åļ¿åļ¿åļ¿åļ¿": 3059,
      "°å±ħ": 3060,
      "éļĬ": 3061,
      "åļ®æµ·åº¦": 3062,
      "ç´°ç´°ç´°ç´°ç´°ç´°ç´°ç´°": 3063,
      "å°įåĶĶèµ·": 3064,
      "ç¶łèī²": 3065,
      "åļ®æµ·åº¦åļ®æµ·åº¦": 3066,
      "ç©´": 3067,
      "å¸ĮæľĽåı¯ä»¥": 3068,
      "éĩįè¦ģåĺħ": 3069,
      "®īåħ¨": 3070,
      "é§Ľ": 3071,
      "æĴŀåĪ°": 3072,
      "æŀ¶æŀ¶æŀ¶æŀ¶æŀ¶æŀ¶æŀ¶æŀ¶æŀ¶æŀ¶æŀ¶æŀ¶æŀ¶æŀ¶æŀ¶æŀ¶": 3073,
      "åĺħè©±": 3074,
      "æŀ¶å¤§": 3075,
      "æĿĳ": 3076,
      "æĪĳåĵĭåı¯åĶĶåı¯ä»¥": 3077,
      "åĸ³åĸ³åĸ³åĸ³": 3078,
      "èķ": 3079,
      "å¥½è¿Ķ": 3080,
      "å·¨": 3081,
      "åª½åª½è©±": 3082,
      "åĸµåĸµåĸµåĸµ": 3083,
      "å¤©ç©º": 3084,
      "çķ«åĩºåļŁ": 3085,
      "åŃ¸åĪ°": 3086,
      "è²¨è»Ĭ": 3087,
      "Ġï¼ģãĢį": 3088,
      "ä½¢èµ°": 3089,
      "ĠJenny": 3090,
      "åļıåļıåļıåļıåļıåļıåļıåļı": 3091,
      "è³£": 3092,
      "æŃ£æŃ£æŃ£æŃ£æŃ£æŃ£æŃ£æŃ£æŃ£æŃ£æŃ£æŃ£æŃ£æŃ£æŃ£æŃ£æŃ£æŃ£æŃ£æŃ£æŃ£æŃ£æŃ£æŃ£æŃ£æŃ£æŃ£æŃ£æŃ£æŃ£æŃ£æŃ£": 3093,
      "ç²īç´ħèī²": 3094,
      "é¯": 3095,
      "ä½¢åĸĬ": 3096,
      "ä½¢éĺ¿çĪ¸": 3097,
      "æĹģ": 3098,
      "ä¸īæĸĩ": 3099,
      "æīĢæľīäºº": 3100,
      "ä½łåĶĶ": 3101,
      "å°±åĸºåº¦": 3102,
      "åĹ°åº¦": 3103,
      "çīĽå¥¶": 3104,
      "ļåĻļåĻļåĻļåĻ": 3105,
      "at": 3106,
      "by": 3107,
      "åĨįçİ©": 3108,
      "èª²": 3109,
      "ç¯Ħ": 3110,
      "ä¸īæĸĩæ²»": 3111,
      "Ġåĺħæľĭåıĭ": 3112,
      "èĹįèī²åĺħ": 3113,
      "æĸĻ": 3114,
      "å·¢": 3115,
      "éį¾": 3116,
      "åģļåķ²": 3117,
      "ä»Ķä»Ķä»Ķä»Ķä»Ķä»Ķä»Ķä»Ķä»Ķä»Ķä»Ķä»Ķä»Ķä»Ķä»Ķä»Ķ": 3118,
      "Ġèģ½å®Į": 3119,
      "éĻĦè¿ĳåĺħ": 3120,
      "ä½Ĥä½Ĥä½Ĥä½Ĥä½Ĥä½Ĥä½Ĥä½Ĥ": 3121,
      "ĥåľ": 3122,
      "ä½¢é£Ľ": 3123,
      "æī®": 3124,
      "æ³¡æ³¡": 3125,
      "æ³¨æĦı": 3126,
      "ĥåľ¾": 3127,
      "å°ģ": 3128,
      "æį½æį½æį½æį½": 3129,
      "Ġá": 3130,
      "åĩ³åĩ³åĩ³åĩ³": 3131,
      "ä¸Ģåı£": 3132,
      "åĸºæ¨¹": 3133,
      "æĺŁæĺŁ": 3134,
      "åĸ¼åĸ¼åĸ¼åĸ¼": 3135,
      "·å°": 3136,
      "æ¥": 3137,
      "åĲĮä½¢åĺħæľĭåıĭ": 3138,
      "å®¶åºŃ": 3139,
      "åĻ´åĻ´åĻ´åĻ´åĻ´åĻ´åĻ´åĻ´åĻ´åĻ´åĻ´åĻ´åĻ´åĻ´åĻ´åĻ´": 3140,
      "·å°¬": 3141,
      "åĦ": 3142,
      "æĲµåķ²": 3143,
      "æľĽä¸ĭ": 3144,
      "æ¶Īéĺ²": 3145,
      "åĢĭç´°": 3146,
      "æĥľ": 3147,
      "tty": 3148,
      "åĴĩåĴĩåĴĩåĴĩ": 3149,
      "éĥ½åĨĩ": 3150,
      "è£½": 3151,
      "è¢ĭåº¦": 3152,
      "ä½¢åĲĳ": 3153,
      "æı®æīĭåĨį": 3154,
      "éī": 3155,
      "é¢¨åĲ¹": 3156,
      "çĪ¬ä¸Ĭåİ»": 3157,
      "Ĩåĵ": 3158,
      "ä½Ĩä¿Ĥä½¢åĶĶ": 3159,
      "ä¿¾æĪĳ": 3160,
      "èĤļ": 3161,
      "Ĩåĵ®": 3162,
      "æ··": 3163,
      "æģ©": 3164,
      "é»ĥèī²": 3165,
      "åĸ±åĸ±åĸ±åĸ±åĸ±åĸ±åĸ±åĸ±": 3166,
      "åĴĶåĴĶåĴĶåĴĶ": 3167,
      "æĹħç¨ĭ": 3168,
      "æ©ŁåĻ¨": 3169,
      "æ¡ĥ": 3170,
      "ç·´ç¿Ĵ": 3171,
      "ĠçĿĩ": 3172,
      "åĺħçİ©åħ·": 3173,
      "æīŃ": 3174,
      "æī¿è«¾": 3175,
      "ç¤ºæĦı": 3176,
      "å¥½éħ·": 3177,
      "çĽ®": 3178,
      "ĠåıĪ": 3179,
      "å°ıé³¥": 3180,
      "åħ©éļ»": 3181,
      "å¤§è±¡": 3182,
      "å¤§åĺħè§Ĵ": 3183,
      "å¤§åĺħè§Ĵå¤§åĺħè§Ĵ": 3184,
      "ä½¢åĨĩ": 3185,
      "ä½łåı¯åĶĶåı¯ä»¥": 3186,
      "çķª": 3187,
      "æĭįæīĭæİĮ": 3188,
      "ä½Ĩä¿ĤæĪĳ": 3189,
      "Ġåĸºåħ¬åľĴåº¦": 3190,
      "çĩĴ": 3191,
      "æıĲéĨĴ": 3192,
      "åĻĹåĻĹåĻĹåĻĹåĻĹåĻĹåĻĹåĻĹåĻĹåĻĹåĻĹåĻĹåĻĹåĻĹåĻĹåĻĹ": 3193,
      "çĹħ": 3194,
      "éł¸éıĪ": 3195,
      "åĹĮåĹĮåĹĮåĹĮåĹĮåĹĮåĹĮåĹĮ": 3196,
      "æĹģéĤĬ": 3197,
      "åĴģå¤§èģ²": 3198,
      "»ä½»ä½»ä½»ä½": 3199,
      "åĭµ": 3200,
      "ä½§ä½§ä½§ä½§": 3201,
      "ķé§Ľ": 3202,
      "çİĭ": 3203,
      "èĲ½åĴĹ": 3204,
      "åº¦åº¦åº¦åº¦åº¦åº¦åº¦åº¦åº¦åº¦åº¦åº¦åº¦åº¦åº¦åº¦åº¦åº¦åº¦åº¦åº¦åº¦åº¦åº¦åº¦åº¦åº¦åº¦åº¦åº¦åº¦åº¦": 3205,
      "æ¢Ŀç¹©": 3206,
      "åĹ°åĢĭ": 3207,
      "åĶĶæľĥåĨį": 3208,
      "ä»Ĭæ¬¡": 3209,
      "åĻ²åĻ²åĻ²åĻ²åĻ²åĻ²åĻ²åĻ²": 3210,
      "ç¬ĳåĺħ": 3211,
      "åŃ¸æł¡": 3212,
      "åľŁ": 3213,
      "åİ»æİ¢ç´¢": 3214,
      "åĽŀè¦Ĩ": 3215,
      "åĴĹä½¢åĺħ": 3216,
      "åĸĺ": 3217,
      "åĺŃåĺŃåĺŃåĺŃ": 3218,
      "å°·å°¬": 3219,
      "æ»¿æĦı": 3220,
      "æ®µæĻĤéĸĵ": 3221,
      "çķ«åĩºåļŁçķ«åĩºåļŁ": 3222,
      "ä½¢åĵĭå¤": 3223,
      "éº»": 3224,
      "ä½¢åĵĭéį¾æĦıåĸº": 3225,
      "åĴļåĴļåĴļåĴļåĴļåĴļåĴļåĴļ": 3226,
      "æķħäºĭåĺħéģĵçĲĨ": 3227,
      "å°ıçĶ·åŃ©": 3228,
      "ç¤ºç¯Ħ": 3229,
      "ä½¢å¿«": 3230,
      "ä¸Ģå°į": 3231,
      "æ³ģ": 3232,
      "ĠSara": 3233,
      "åĹ°åĹ°åĹ°åĹ°åĹ°åĹ°åĹ°åĹ°": 3234,
      "ä½¢åĵĭåĺħçİ©åħ·": 3235,
      "åĶĶä½¿é©ļ": 3236,
      "ä¿¾äºº": 3237,
      "eddy": 3238,
      "es": 3239,
      "é§ķé§Ľ": 3240,
      "lu": 3241,
      "è¡ĵ": 3242,
      "ä½¤ä½¤ä½¤ä½¤ä½¤ä½¤ä½¤ä½¤": 3243,
      "ä¸Ģé¡": 3244,
      "éĺ¿åª½åĲĮ": 3245,
      "åķıä½¢": 3246,
      "åĻīåĻīåĻīåĻīåĻīåĻīåĻīåĻīåĻīåĻīåĻīåĻīåĻīåĻīåĻīåĻīåĻīåĻīåĻīåĻīåĻīåĻīåĻīåĻīåĻīåĻīåĻīåĻīåĻīåĻīåĻīåĻīåĻīåĻīåĻīåĻīåĻīåĻīåĻīåĻīåĻīåĻīåĻīåĻīåĻīåĻīåĻīåĻīåĻīåĻīåĻīåĻīåĻīåĻīåĻīåĻīåĻīåĻīåĻīåĻīåĻīåĻīåĻīåĻīåĻīåĻīåĻīåĻīåĻīåĻīåĻīåĻīåĻīåĻīåĻīåĻīåĻīåĻīåĻīåĻīåĻīåĻīåĻīåĻīåĻīåĻīåĻīåĻīåĻīåĻīåĻīåĻīåĻīåĻīåĻīåĻīåĻīåĻīåĻīåĻīåĻīåĻīåĻīåĻīåĻīåĻīåĻīåĻīåĻīåĻīåĻīåĻīåĻīåĻīåĻīåĻīåĻīåĻīåĻīåĻīåĻīåĻīåĻīåĻīåĻīåĻīåĻīåĻīåĻīåĻīåĻīåĻīåĻīåĻīåĻīåĻīåĻīåĻīåĻīåĻīåĻīåĻīåĻīåĻīåĻīåĻīåĻīåĻīåĻīåĻīåĻīåĻīåĻīåĻīåĻīåĻīåĻīåĻīåĻīåĻīåĻīåĻīåĻīåĻīåĻīåĻīåĻīåĻīåĻīåĻīåĻīåĻīåĻīåĻīåĻīåĻīåĻīåĻīåĻīåĻīåĻīåĻīåĻīåĻīåĻīåĻīåĻīåĻīåĻīåĻīåĻīåĻīåĻīåĻīåĻīåĻīåĻīåĻīåĻīåĻīåĻīåĻīåĻīåĻīåĻīåĻīåĻīåĻīåĻīåĻīåĻīåĻīåĻīåĻīåĻīåĻīåĻīåĻīåĻīåĻīåĻīåĻīåĻīåĻīåĻīåĻīåĻīåĻīåĻīåĻīåĻīåĻīåĻīåĻīåĻīåĻīåĻīåĻīåĻīåĻīåĻīåĻīåĻīåĻīåĻīåĻīåĻīåĻīåĻīåĻīåĻīåĻīåĻīåĻīåĻīåĻī": 3247,
      "ä½łåĸºåº¦åģļ": 3248,
      "ä»ĸäºº": 3249,
      "éİ®": 3250,
      "ç¥Ŀ": 3251,
      "ç¯Ģ": 3252,
      "éĦ°å±ħ": 3253,
      "èĩĤ": 3254,
      "ä¸Ģé¡Ĩ": 3255,
      "éĸĵå±ĭ": 3256,
      "èĥ¡": 3257,
      "åĳ¢åķ²": 3258,
      "åĴĹåķ²åĺ¢": 3259,
      "æĶ¶éĽĨ": 3260,
      "åļ¨åļ¨åļ¨åļ¨åļ¨åļ¨åļ¨åļ¨": 3261,
      "å¼µåĩ³": 3262,
      "ä½Ĩä¿ĤåĢĭ": 3263,
      "çĽª": 3264,
      "æ´ĭå": 3265,
      "èĪĴéģ©": 3266,
      "å¥½ç´°": 3267,
      "èĢ³": 3268,
      "åģľä½İåĴĹ": 3269,
      "åħħæ»¿åĴĹ": 3270,
      "è±¬": 3271,
      "å¤ªéģ²": 3272,
      "ä½¢åģľ": 3273,
      "®®": 3274,
      "ª½åª½": 3275,
      "åĳ³åĺħ": 3276,
      "åĭĻ": 3277,
      "ç¶ģ": 3278,
      "æ´ŀç©´": 3279,
      "ç²īç´ħèī²åĺħ": 3280,
      "è²¼ç´Ļ": 3281,
      "åĻĵåĻĵåĻĵåĻĵåĻĵåĻĵåĻĵåĻĵåĻĵåĻĵåĻĵåĻĵåĻĵåĻĵåĻĵåĻĵåĻĵåĻĵåĻĵåĻĵåĻĵåĻĵåĻĵåĻĵåĻĵåĻĵåĻĵåĻĵåĻĵåĻĵåĻĵåĻĵ": 3282,
      "è¦ĭåĪ°åķ²": 3283,
      "ç¬ĳå¾Ĺå¥½éĸĭå¿ĥ": 3284,
      "çĶ¨ä½¢åĺħ": 3285,
      "é¤ĵ": 3286,
      "ä¸Ģé½Ĭåİ»åħ¬åľĴ": 3287,
      "æĥħæ³ģ": 3288,
      "èĭ¦": 3289,
      "ä½¢ç¹¼çºĮ": 3290,
      "æ¯ĶåĪ©": 3291,
      "ç¾½": 3292,
      "æ£µå¤§æ¨¹": 3293,
      "æı®æīĭåĨįè¦ĭ": 3294,
      "ä»£": 3295,
      "ç¬ĳè©±": 3296,
      "çĻ¼çĶŁåĴĹä¸Ģä»¶": 3297,
      "åĻ¢": 3298,
      "çĦ¶å¾Įå°±": 3299,
      "å¹«ä½¢": 3300,
      "è¿½ä½ı": 3301,
      "æĺİçĻ½": 3302,
      "ç¾½æ¯Ľ": 3303,
      "ç·Ĭå¼µ": 3304,
      "å¸¶åļŁ": 3305,
      "æ¨ĤæĦı": 3306,
      "ç«ĭå": 3307,
      "çªĹå¤ĸ": 3308,
      "éĢ£": 3309,
      "éĸĥéĸĥçĻ¼äº®": 3310,
      "ä½¢åĵĭè·ĳåİ»": 3311,
      "èĲ½éĽ¨": 3312,
      "çľŁä¿Ĥå¥½": 3313,
      "éĥ½åı¯ä»¥": 3314,
      "ä½łåĵĭå¥½": 3315,
      "ªä¿Ĥ": 3316,
      "åħĦå¼Ł": 3317,
      "èĩŃ": 3318,
      "æĪĳçŁ¥": 3319,
      "èĭ±": 3320,
      "åı°": 3321,
      "ç´ļ": 3322,
      "éĺ¿å¨ľè©±": 3323,
      "éĩĿ": 3324,
      "ä»²æľĥ": 3325,
      "èĻŁ": 3326,
      "å¾ŀåīįæľīéļ»å°ı": 3327,
      "ħ¥éĿ¢": 3328,
      "åĲĮæĻĤ": 3329,
      "ä¿Ĥä¸ĢåĢĭå¥½": 3330,
      "æĥ³é£Ł": 3331,
      "é©ļè¨Ŀ": 3332,
      "å¤±æľĽ": 3333,
      "çĦĹ": 3334,
      "éĢ²": 3335,
      "å¥½é£Łåĺħ": 3336,
      "æĬ±æŃī": 3337,
      "ĠåĸĬ": 3338,
      "åĴĨåĵ®": 3339,
      "æľīäºº": 3340,
      "å¿«æīĭ": 3341,
      "è¡£æ«ĥ": 3342,
      "Ĭéĩį": 3343,
      "åģļåĪ°": 3344,
      "ç¾¹": 3345,
      "ff": 3346,
      "»çĴ": 3347,
      "ä¸ĢæĬĬ": 3348,
      "çİ»çĴ": 3349,
      "çİ»çĴĥ": 3350,
      "å°¼": 3351,
      "å®Įç¾İ": 3352,
      "æĪĳéį¾æĦı": 3353,
      "ªéŁ³": 3354,
      "çķ¶ä½¢å": 3355,
      "åħ©åĢĭæľĭåıĭ": 3356,
      "åĢĭå·": 3357,
      "å¯¶çŁ³": 3358,
      "è·ĳæŃ¥": 3359,
      "å¥½å¥½çİ©": 3360,
      "Ĺ°": 3361,
      "ä½Ĩä¿Ĥä½¢åĵĭ": 3362,
      "å¾ĹåĪ°": 3363,
      "æħ¶": 3364,
      "åĴĹåķ²åĴ©": 3365,
      "å¥½å¤§èģ²": 3366,
      "ĠæľĽä½ı": 3367,
      "çķĻæĦı": 3368,
      "çķ¶çĦ¶åı¯ä»¥åĸĩ": 3369,
      "æķħäºĭåĺħéģĵçĲĨå°±ä¿Ĥ": 3370,
      "åĺħåĭķçī©": 3371,
      "å¥½å¤ļåĺ¢": 3372,
      "è·ĳåĲĮ": 3373,
      "ĠEmily": 3374,
      "çĥı": 3375,
      "æ°´åº¦": 3376,
      "æĬķ": 3377,
      "å©Ĩå©Ĩ": 3378,
      "isa": 3379,
      "Ĺçĵľ": 3380,
      "åĸºåº¦åĸº": 3381,
      "æĸ°çİ©åħ·": 3382,
      "çģ«ç®Ń": 3383,
      "åļ¡åļ¡åļ¡åļ¡åļ¡åļ¡åļ¡åļ¡åļ¡åļ¡åļ¡åļ¡åļ¡åļ¡åļ¡åļ¡åļ¡åļ¡åļ¡åļ¡åļ¡åļ¡åļ¡åļ¡åļ¡åļ¡åļ¡åļ¡åļ¡åļ¡åļ¡åļ¡": 3384,
      "ä½ıå°įä½ıå°įä½ıå°įä½ıå°į": 3385,
      "sie": 3386,
      "æģ¤": 3387,
      "æĪĳåĶĶ": 3388,
      "å¯«ä½ı": 3389,
      "Ġéĸĭå§ĭ": 3390,
      "åıĭ": 3391,
      "å¥½éģł": 3392,
      "ä»¶è£Ļ": 3393,
      "çŃīåĪ°": 3394,
      "ĭĩ": 3395,
      "åĺħæĦŁè¦º": 3396,
      "åľįå·¾": 3397,
      "ç¥ŀç§ĺ": 3398,
      "åĲĪä½ľ": 3399,
      "åĤ·å¿ĥ": 3400,
      "èħ¦": 3401,
      "åºĬåº¦": 3402,
      "åĢĭèĽĭç³ķ": 3403,
      "çį¸": 3404,
      "ĠRo": 3405,
      "åıĸç¬ĳåıĸç¬ĳåıĸç¬ĳåıĸç¬ĳ": 3406,
      "we": 3407,
      "åļ®åļ®åļ®åļ®åļ®åļ®åļ®åļ®": 3408,
      "ä¿Ĥä¸Ģéļ»": 3409,
      "ä¹ħ": 3410,
      "èŃ¦å¯Ł": 3411,
      "åĢĭåı«": 3412,
      "æĵģæľī": 3413,
      "Ĳį": 3414,
      "ä¸ĬåĴĹ": 3415,
      "èĢĢçľ¼": 3416,
      "ä»¥åīįæľīåĢĭç´°è·¯å¥³åı«": 3417,
      "ĠSarah": 3418,
      "ä½¢æŀ¶": 3419,
      "åĴģå¤ļ": 3420,
      "åľ°æ¯¯": 3421,
      "ä½Ĺåĵĭå": 3422,
      "Tom": 3423,
      "åĺħæĻĤéĸĵ": 3424,
      "æ³°": 3425,
      "åĺħåĺħåĺħåĺħåĺħåĺħåĺħåĺħåĺħåĺħåĺħåĺħåĺħåĺħåĺħåĺħåĺħåĺħåĺħåĺħåĺħåĺħåĺħåĺħåĺħåĺħåĺħåĺħåĺħåĺħåĺħåĺħåĺħåĺħåĺħåĺħåĺħåĺħåĺħåĺħåĺħåĺħåĺħåĺħåĺħåĺħåĺħåĺħåĺħåĺħåĺħåĺħåĺħåĺħåĺħåĺħåĺħåĺħåĺħåĺħåĺħåĺħåĺħåĺħ": 3426,
      "å¥½åĩį": 3427,
      "æĪĳå¥½éį¾æĦı": 3428,
      "çĿĩä¸ĭå": 3429,
      "åĸºåħ¬åľĴåĪ°": 3430,
      "ä¼¸æīĭå": 3431,
      "ens": 3432,
      "éĢĥ": 3433,
      "ä½łåĵĭåĶĶ": 3434,
      "çīĽæ²¹": 3435,
      "ĠEll": 3436,
      "ä½¢æľĽä½ı": 3437,
      "ä½¢å°ıå¿ĥ": 3438,
      "æĴ«": 3439,
      "åĶĶçŁ¥é»ŀç®Ĺå¥½": 3440,
      "æ³°è¿ª": 3441,
      "ä½¢æľĢéį¾æĦıåĺħ": 3442,
      "åĸºåº¦çİ©": 3443,
      "æµ·è±": 3444,
      "zz": 3445,
      "ĠMitt": 3446,
      "éĽĢé³¥": 3447,
      "éĩİé¤Ĳ": 3448,
      "ĠMittens": 3449,
      "è®ĬåĴĹåģļ": 3450,
      "éª¨": 3451,
      "åĺħè·¯": 3452,
      "èĨĿéłŃ": 3453,
      "çĶ©çĶ©çĶ©çĶ©": 3454,
      "é¤¨": 3455,
      "çĶ°éĩİ": 3456,
      "éĽĦ": 3457,
      "ä½łæľĥ": 3458,
      "ä»»ä½ķåĺ¢": 3459,
      "èķī": 3460,
      "weet": 3461,
      "åĴķ": 3462,
      "åĩºçĻ¼": 3463,
      "åĳ¢éļ»": 3464,
      "åĲĮä½¢çİ©": 3465,
      "è¿·è·¯": 3466,
      "æŃ·": 3467,
      "Ġå¥½å¥ĩ": 3468,
      "ä½¢å¥½å¬²": 3469,
      "Ġå¥½æĤ²åĤ·": 3470,
      "é£Ľåİ»": 3471,
      "åĶĶä½¿æĵĶå¿ĥ": 3472,
      "è¼ķè¼ķ": 3473,
      "éĹľå¿ĥ": 3474,
      "æĮĩåĲĳ": 3475,
      "åĲĮæĦıåĴĹ": 3476,
      "åº¦éģİ": 3477,
      "ä½ıåĴĹ": 3478,
      "ä»²ä¿Ĥ": 3479,
      "èİİæĭīåĲĮ": 3480,
      "åĻ¤åĻ¤åĻ¤åĻ¤": 3481,
      "ä½¢è¦ģ": 3482,
      "æĶ¹": 3483,
      "èĪª": 3484,
      "é«Ģé«Ģé«Ģé«Ģ": 3485,
      "å¢": 3486,
      "æĪĳè¦ģ": 3487,
      "ĠTweet": 3488,
      "å¥½åı¯æĦĽ": 3489,
      "¥Ĺ": 3490,
      "ä½¢é£Ł": 3491,
      "åĴŃ": 3492,
      "ä½¢åĵĭåĢĭ": 3493,
      "æīĭæİ¨": 3494,
      "è¡ĮåŁĭä¸Ģé½Ĭ": 3495,
      "ä½łåĵĭåĺħ": 3496,
      "æĪĲçĤºåĴĹ": 3497,
      "ä½¢åĵĭæľī": 3498,
      "åİ»åĨĴéļª": 3499,
      "ä¸ĢåĢĭäºº": 3500,
      "çĽ¤": 3501,
      "éĺ¿å¨ľåĲĮçıŃ": 3502,
      "ç¾İéºĹ": 3503,
      "ä½¢è«Ĺä½ı": 3504,
      "è¡ĮåŁĭä¸Ģé½Ĭè¡ĮåŁĭä¸Ģé½Ĭ": 3505,
      "¤ĸ": 3506,
      "å¾ĮèĬ±åľĴ": 3507,
      "é¦Ļèķī": 3508,
      "äºĴçĽ¸æĵģæĬ±": 3509,
      "he": 3510,
      "éĸĭå¿ĥè¿Ķ": 3511,
      "åĹ°æĻĤ": 3512,
      "åĻłåĻłåĻłåĻłåĻłåĻłåĻłåĻłåĻłåĻłåĻłåĻłåĻłåĻłåĻłåĻłåĻłåĻłåĻłåĻłåĻłåĻłåĻłåĻłåĻłåĻłåĻłåĻłåĻłåĻłåĻłåĻł": 3513,
      "æ³°è¿ªçĨĬ": 3514,
      "åĢŁ": 3515,
      "æħķ": 3516,
      "å¦Ĥæŀľä½ł": 3517,
      "åĺħå¥³ä»Ķ": 3518,
      "åĽº": 3519,
      "æĩ¶": 3520,
      "éĸĭéĸĢ": 3521,
      "ä½¢éĸĵæĪ¿": 3522,
      "èī¯": 3523,
      "åĴĹä¸Ģèģ²": 3524,
      "å»ļæĪ¿åº¦": 3525,
      "ĠçĻ¼çı¾": 3526,
      "ä¸ĢæľĽ": 3527,
      "éģĭ": 3528,
      "å¥½éķ·": 3529,
      "ç©ºæ°£": 3530,
      "ä½Ĩä¿ĤåıĪ": 3531,
      "ä½Ĩä¿Ĥä½¢éĥ½": 3532,
      "ç¯ī": 3533,
      "åĺħçĶ·äºº": 3534,
      "èĤ¥": 3535,
      "çĳª": 3536,
      "ç¾¨": 3537,
      "éħ¸": 3538,
      "é±": 3539,
      "å¥½åħīäº®": 3540,
      "åĺ¢é£Ł": 3541,
      "èĲ½åĢĭ": 3542,
      "ç¾¨æħķ": 3543,
      "çĶ±åĹ°æĹ¥èµ·": 3544,
      "ç±ł": 3545,
      "ä¸ĢåĢĭå°ıå¥³åŃ©": 3546,
      "ndy": 3547,
      "¿ĺè¨ĺ": 3548,
      "æīĭå¥Ĺ": 3549,
      "åı¦ä¸Ģ": 3550,
      "ä¸Ķ": 3551,
      "åĲĮæľĭåıĭ": 3552,
      "ello": 3553,
      "ä½¢åĽĽåľįæľĽ": 3554,
      "æħ¶ç¥Ŀ": 3555,
      "åĸºåº¦åĸºåĸºåº¦åĸº": 3556,
      "åĸºæ£®æŀĹåº¦": 3557,
      "éĽ·": 3558,
      "åİ»åĴĹåħ¬åľĴ": 3559,
      "ç¼": 3560,
      "ĠLisa": 3561,
      "åĵĪ": 3562,
      "èªł": 3563,
      "é®®": 3564,
      "ä½¢åĳ¨åľį": 3565,
      "éļ»é´¨": 3566,
      "æ©¡": 3567,
      "ä½¢åĵĭåİ»åĴĹ": 3568,
      "æģ¤è¡«": 3569,
      "æľ±": 3570,
      "éļ±": 3571,
      "ä½¢åĵĭéĸĭå§ĭ": 3572,
      "èĢĮä¸Ķ": 3573,
      "åĲĮåŁĭå¬²": 3574,
      "æĪĳæĦĽä½ł": 3575,
      "ä½¢åĺħå®¶äºº": 3576,
      "åĶĶå¥½åĨį": 3577,
      "å·¥åħ·": 3578,
      "åĺħä¸ĸçķĮ": 3579,
      "æľĭåıĭå°±": 3580,
      "å¥½å¥½é£ŁåĳĢ": 3581,
      "çĸ²": 3582,
      "èĥ¡èĺ¿èĶĶ": 3583,
      "çķĢåĴĹ": 3584,
      "å¥½çĨ±": 3585,
      "ç¬Ľ": 3586,
      "æľīåĢĭä¸»æĦı": 3587,
      "ä½¢å¾ŀä¾Ĩ": 3588,
      "äººå®¶": 3589,
      "å¹´": 3590,
      "æ¯ıåĢĭäºº": 3591,
      "åĿĳ": 3592,
      "èĦĨ": 3593,
      "åĲĮåķ²": 3594,
      "ä¸ĢåĢĭå¥½å¤§åĺħ": 3595,
      "ç¾¤": 3596,
      "æİ¥è¿ĳ": 3597,
      "è¿ĶåĴĹ": 3598,
      "åļĩè¦ª": 3599,
      "åı¢": 3600,
      "éģ¿": 3601,
      "æīĢä»¥ä½¢å°±": 3602,
      "å½¼å¾Ĺ": 3603,
      "çł´åĴĹ": 3604,
      "è¶ħç´ļ": 3605,
      "åĻªéŁ³": 3606,
      "çİĭåŃĲ": 3607,
      "éº»çħ©": 3608,
      "æīĭæİ¨è»Ĭ": 3609,
      "ä½¢è©¦éģİ": 3610,
      "å¾Ĺå¥½å¥½": 3611,
      "åĢĭå®¶åºŃ": 3612,
      "ä½¢å¼µ": 3613,
      "åļŁé£Ł": 3614,
      "èĭ±éĽĦ": 3615,
      "ä½Ĩä¿ĤæĲµåĶĶåĪ°": 3616,
      "æĥ³çİ©": 3617,
      "çĻ½èī²": 3618,
      "ä½¢åĿĲ": 3619,
      "åĲĮéĸĭå¿ĥ": 3620,
      "èŁ»": 3621,
      "ĠJake": 3622,
      "åŃ¸èŃĺåĴĹ": 3623,
      "å°Ĭéĩį": 3624,
      "å°±é£Ľ": 3625,
      "åıĶ": 3626,
      "ä½¢åŃ¸æĩĤåĴĹ": 3627,
      "éĺ¿åĵ¥": 3628,
      "éłŃé·¹": 3629,
      "è¡ĮåĪ°": 3630,
      "çŁ¥éģĵèĩªå·±": 3631,
      "ç³ĸæŀľ": 3632,
      "åĲĮä½¢åķ²": 3633,
      "è§Ģ": 3634,
      "çķ¶ä½¢åĵĭåĪ°éģĶ": 3635,
      "æ¨Ĥè¶£": 3636,
      "ħī": 3637,
      "è¡Įç·ĬåĺħæĻĤåĢĻ": 3638,
      "åĪ°éģĶ": 3639,
      "å¥½éĸĭå¿ĥåı¯ä»¥": 3640,
      "è£ľ": 3641,
      "å±±ä¸ĺ": 3642,
      "æŃ»": 3643,
      "æ¢³": 3644,
      "ä¿¾åĢĭ": 3645,
      "ä½łåĵĭåı¯ä»¥": 3646,
      "åħ¶å¯¦": 3647,
      "ç¾İå¥½åĺħ": 3648,
      "åı¦ä¸ĢéĤĬ": 3649,
      "åıĭå¥½": 3650,
      "å¥½åĻīæ¨£åŃĲ": 3651,
      "æķħäºĭå°±ä¿ĤåĴģ": 3652,
      "ħ¶": 3653,
      "Ġåĺħå¥³ä»Ķ": 3654,
      "åİŁä¾Ĩ": 3655,
      "Ġéĺ¿åª½": 3656,
      "åĸºèįīåľ°ä¸Ĭ": 3657,
      "æ¸´": 3658,
      "åĪĨéĲĺ": 3659,
      "Ġå¥½éĸĭå¿ĥåı¯ä»¥": 3660,
      "ĭĩæķ¢": 3661,
      "å¥½åĻīæ¨£åŃĲå¥½åĻīæ¨£åŃĲ": 3662,
      "å°ıå¿ĥç¿¼ç¿¼åĴģ": 3663,
      "æ»¿åĴĹ": 3664,
      "åĢ¦": 3665,
      "ä»»": 3666,
      "ç´®": 3667,
      "å®īæħ°ä½¢": 3668,
      "åĲĵåĲĵåĲĵåĲĵåĲĵåĲĵåĲĵåĲĵåĲĵåĲĵåĲĵåĲĵåĲĵåĲĵåĲĵåĲĵåĲĵåĲĵåĲĵåĲĵåĲĵåĲĵåĲĵåĲĵåĲĵåĲĵåĲĵåĲĵåĲĵåĲĵåĲĵåĲĵåĲĵåĲĵåĲĵåĲĵåĲĵåĲĵåĲĵåĲĵåĲĵåĲĵåĲĵåĲĵåĲĵåĲĵåĲĵåĲĵåĲĵåĲĵåĲĵåĲĵåĲĵåĲĵåĲĵåĲĵåĲĵåĲĵåĲĵåĲĵåĲĵåĲĵåĲĵåĲĵ": 3669,
      "ï¼ģãĢįãĢĮ": 3670,
      "åĹħåĹħåĹħåĹħåĹħåĹħåĹħåĹħåĹħåĹħåĹħåĹħåĹħåĹħåĹħåĹħ": 3671,
      "Ġè«ĹåĴĹä¸ĢéĻ£": 3672,
      "la": 3673,
      "ä½¢åĵĭæĵģæĬ±": 3674,
      "çĪª": 3675,
      "ä½¢è¦ĭåĪ°ä¸Ģ": 3676,
      "ve": 3677,
      "æİ£": 3678,
      "å¥½éį¾æĦıçİ©": 3679,
      "èĤ¯": 3680,
      "åĩºçı¾åĴĹ": 3681,
      "éļ»ç´°": 3682,
      "æĶŀèµ·": 3683,
      "ä¸įä¹ħ": 3684,
      "ç§ģ": 3685,
      "æĴ»æĴ»æĴ»æĴ»æĴ»æĴ»æĴ»æĴ»æĴ»æĴ»æĴ»æĴ»æĴ»æĴ»æĴ»æĴ»": 3686,
      "èººä½İ": 3687,
      "å°ĩä½¢": 3688,
      "ä½¢åĵĭå¥½éį¾æĦı": 3689,
      "åı¤åĬĽ": 3690,
      "æľ±åı¤åĬĽ": 3691,
      "åįĩ": 3692,
      "åŀĥåľ¾": 3693,
      "éļ»èĢģé¼ł": 3694,
      "è¦ĭåĪ°ä¸ĢåĢĭå¤§": 3695,
      "ä½¢åª½åª½å°±": 3696,
      "ç¦ı": 3697,
      "è£Ŀé£¾": 3698,
      "åĸľæŃ¡": 3699,
      "åĨįåĨĩ": 3700,
      "æĶŀè¿Ķ": 3701,
      "åļŁåļŁåļŁåļŁåļŁåļŁåļŁåļŁåļŁåļŁåļŁåļŁåļŁåļŁåļŁåļŁåļŁåļŁåļŁåļŁåļŁåļŁåļŁåļŁåļŁåļŁåļŁåļŁåļŁåļŁåļŁåļŁ": 3702,
      "ä½¢æĲµ": 3703,
      "ĠTommy": 3704,
      "èŁ¹": 3705,
      "ä½¢åĵĭè·ĳ": 3706,
      "åĲĮä½¢å": 3707,
      "ç¿ħ": 3708,
      "è·Łä½ıä½¢": 3709,
      "åīµæĦı": 3710,
      "çĽľ": 3711,
      "åĽĽåľįæľĽ": 3712,
      "°æĸ¹": 3713,
      "åĺħçĭĹ": 3714,
      "æĦŁè¬Ŀ": 3715,
      "æĻļé£¯": 3716,
      "å¥½åį±éļª": 3717,
      "åĺħéģĬæĪ²": 3718,
      "è¨Ń": 3719,
      "æīĵæĭĽåĳ¼": 3720,
      "ç«¯": 3721,
      "åŀĭ": 3722,
      "åĴģéĸĭå¿ĥ": 3723,
      "é¤µ": 3724,
      "ä¸ĢæŃ¥": 3725,
      "Ġåı¯ä»¥": 3726,
      "åĺħæ¨¹": 3727,
      "èĩªçĶ±": 3728,
      "æĪĳåĵĭå¥½": 3729,
      "Ġåĺħå°ıæľĭåıĭ": 3730,
      "æĢ§": 3731,
      "åĭķçī©åľĴ": 3732,
      "çĸ²åĢ¦": 3733,
      "åķĬ": 3734,
      "æĪ°": 3735,
      "Ķ±": 3736,
      "åĶĶæĺİ": 3737,
      "æĲµåĪ°åķ²": 3738,
      "æĪĳåĳĢ": 3739,
      "åĸºåº¦è¡Įç·Ĭ": 3740,
      "éĸĭè»Ĭ": 3741,
      "è§£æ±º": 3742,
      "å¥½çī¹åĪ¥": 3743,
      "åĺħåĨĴéļª": 3744,
      "åħ©åĢĭäºº": 3745,
      "éĸĭå§ĭåĸº": 3746,
      "èĨĢ": 3747,
      "Ġä¿Ĥæľĭåıĭ": 3748,
      "éĻ½åħīæĻ®": 3749,
      "ç¸½": 3750,
      "ç¿ħèĨĢ": 3751,
      "éĻ½åħīæĻ®çħ§": 3752,
      "ä½¢æĦıèŃĺåĪ°": 3753,
      "åħ¥éĿ¢æľīåĴ©": 3754,
      "çĿĩä½ıä½¢": 3755,
      "åļ·åļ·åļ·åļ·åļ·åļ·åļ·åļ·åļ·åļ·åļ·åļ·åļ·åļ·åļ·åļ·": 3756,
      "Ġèģ½": 3757,
      "æĦıå¤ĸ": 3758,
      "æĭİèµ·": 3759,
      "ä½Ĩä¿Ĥä½łè¦ģ": 3760,
      "ä¸Ĭåĺħ": 3761,
      "çĿĩæĽ¸": 3762,
      "åħ¶ä»ĸåĭķçī©": 3763,
      "æĦĽåĺħ": 3764,
      "ç«ĭåį³": 3765,
      "åĴĹå¹¾": 3766,
      "æĪĳåı¯åĶĶåı¯ä»¥": 3767,
      "çĲĨä¿Ĥ": 3768,
      "è®Ģ": 3769,
      "æ±łåº¦": 3770,
      "ä¸Ģå®ļæľĥ": 3771,
      "ç¼¸": 3772,
      "ä½¢æĴ¿èµ·": 3773,
      "åĺħæĹ¥åŃĲ": 3774,
      "åĹ°æĻĤéĸĭå§ĭ": 3775,
      "å¸¶åĴĹ": 3776,
      "ä¸įå°ıå¿ĥ": 3777,
      "æĪ´ä¸Ĭ": 3778,
      "çŃĴ": 3779,
      "æµ®": 3780,
      "ä½¢å¥½éį¾æĦıé£Ł": 3781,
      "æĮĩä½ı": 3782,
      "¯¶": 3783,
      "åĢĳ": 3784,
      "å¥½å¥½åĺħæľĭåıĭ": 3785,
      "è¿½è¿½è¿½è¿½è¿½è¿½è¿½è¿½è¿½è¿½è¿½è¿½è¿½è¿½è¿½è¿½è¿½è¿½è¿½è¿½è¿½è¿½è¿½è¿½è¿½è¿½è¿½è¿½è¿½è¿½è¿½è¿½": 3786,
      "æĪĳåİ»": 3787,
      "åĸºåº¦åĸºåº¦åĸºåº¦åĸºåº¦åĸºåº¦åĸºåº¦åĸºåº¦åĸºåº¦åĸºåº¦åĸºåº¦åĸºåº¦åĸºåº¦åĸºåº¦åĸºåº¦åĸºåº¦åĸºåº¦åĸºåº¦åĸºåº¦åĸºåº¦åĸºåº¦åĸºåº¦åĸºåº¦åĸºåº¦åĸºåº¦åĸºåº¦åĸºåº¦åĸºåº¦åĸºåº¦åĸºåº¦åĸºåº¦åĸºåº¦åĸºåº¦": 3788,
      "ĠãĢĤãĢĮ": 3789,
      "èĩªç§ģ": 3790,
      "åĢĭçĶ·åŃ©": 3791,
      "åĢĭå¸": 3792,
      "å¹«å¿Ļ": 3793,
      "åįģ": 3794,
      "æĲµåĪ°ä¸Ģ": 3795,
      "ä¾Ĩè·ĳåİ»": 3796,
      "è§ĴèĲ½": 3797,
      "ĠHello": 3798,
      "æ²Ļçģĺ": 3799,
      "æ²ĸ": 3800,
      "¨ĥå¨ĥ": 3801,
      "æ£ķèī²": 3802,
      "éīĽ": 3803,
      "ä½¢åĵĭè¦ģ": 3804,
      "æĲµè¿Ķ": 3805,
      "ä½¢ä¸īæŃ²å¤§": 3806,
      "ia": 3807,
      "ĠåŃ¸æĩĤåĴĹ": 3808,
      "åĺĨ": 3809,
      "åĺŁ": 3810,
      "ä¸ĢåĢĭçī¹åĪ¥åĺħ": 3811,
      "ä½¢åĵĭåĶĶçŁ¥": 3812,
      "åĲ»": 3813,
      "èĪĲ": 3814,
      "ä¸ĭä½¢": 3815,
      "æķħäºĭåĺħéģĵçĲĨä¿Ĥ": 3816,
      "Ġåº¦": 3817,
      "æĥ³åĲĮ": 3818,
      "Ġçİ©": 3819,
      "Ġåı«": 3820,
      "åĢĭåį": 3821,
      "è¡ĮçĤº": 3822,
      "åĴĹä¸Ģæ®µæĻĤéĸĵ": 3823,
      "Ġb": 3824,
      "åŃ¸èŃĺ": 3825,
      "äºĭåĳĢ": 3826,
      "åļķåļķåļķåļķåļķåļķåļķåļķåļķåļķåļķåļķåļķåļķåļķåļķåļķåļķåļķåļķåļķåļķåļķåļķåļķåļķåļķåļķåļķåļķåļķåļķåļķåļķåļķåļķåļķåļķåļķåļķåļķåļķåļķåļķåļķåļķåļķåļķåļķåļķåļķåļķåļķåļķåļķåļķåļķåļķåļķåļķåļķåļķåļķåļķåļķåļķåļķåļķåļķåļķåļķåļķåļķåļķåļķåļķåļķåļķåļķåļķåļķåļķåļķåļķåļķåļķåļķåļķåļķåļķåļķåļķåļķåļķåļķåļķåļķåļķåļķåļķåļķåļķåļķåļķåļķåļķåļķåļķåļķåļķåļķåļķåļķåļķåļķåļķåļķåļķåļķåļķåļķåļķåļķåļķåļķåļķåļķåļķ": 3827,
      "åĽĽ": 3828,
      "çĦĹçĪĲ": 3829,
      "åĲµ": 3830,
      "åħ¥éĿ¢æľīå¥½å¤ļ": 3831,
      "çĮ©": 3832,
      "èŃ¦åĳĬ": 3833,
      "çµĲæĿŁåĴĹ": 3834,
      "ä½¢å±ĭä¼ģ": 3835,
      "åĺħè²ĵ": 3836,
      "æĪĳåı«": 3837,
      "èµ°åİ»": 3838,
      "çľ¼çĿ": 3839,
      "åĢĭåħ¬ä»Ķ": 3840,
      "éļ±èĹı": 3841,
      "æī¾": 3842,
      "çĪ¾": 3843,
      "ç´°è·¯ä»Ķ": 3844,
      "Ġä¿Ĥä¸Ģå°į": 3845,
      "ä½¢å¤§åı«": 3846,
      "åĻıåĻıåĻıåĻıåĻıåĻıåĻıåĻıåĻıåĻıåĻıåĻıåĻıåĻıåĻıåĻı": 3847,
      "ä¼¸æīĭ": 3848,
      "åĸĦèī¯": 3849,
      "ç§»åĭķ": 3850,
      "ĠTeddy": 3851,
      "è½īåľĪåľĪ": 3852,
      "æĪĳåĶĶæĥ³": 3853,
      "åħ¥åļŁ": 3854,
      "åł±": 3855,
      "æľīåķ²é©ļ": 3856,
      "æĭľæĭľ": 3857,
      "èĨĬ": 3858,
      "è°": 3859,
      "è·ĳä¾Ĩè·ĳåİ»": 3860,
      "åĺħåľĸ": 3861,
      "éĸĢåı£": 3862,
      "ä½Ĺä½Ĺä½Ĺä½Ĺä½Ĺä½Ĺä½Ĺä½Ĺä½Ĺä½Ĺä½Ĺä½Ĺä½Ĺä½Ĺä½Ĺä½Ĺ": 3863,
      "æ¥ļ": 3864,
      "åıŃ": 3865,
      "ç¬ĳåĴĹä¸Ģç¬ĳ": 3866,
      "è¡¡": 3867,
      "çĤºèĩªå·±": 3868,
      "èĢģé·¹": 3869,
      "ç©¿": 3870,
      "ĮçĶŁ": 3871,
      "èģĬ": 3872,
      "çľĭ": 3873,
      "ç¹¼çºĮè¡Į": 3874,
      "å¡ĬçŁ³éłŃ": 3875,
      "æķ¸åŃĹ": 3876,
      "å¥½åĺ¢": 3877,
      "æıĽ": 3878,
      "åĮĸ": 3879,
      "çľ¼çĿĽ": 3880,
      "åĲ¸å¼ķ": 3881,
      "Ġè·ĳ": 3882,
      "æĦŁè¦ºå¥½": 3883,
      "ĠFr": 3884,
      "åıĥ": 3885,
      "æ¼Ĩ": 3886,
      "æ¶Īéĺ²åĵ¡": 3887,
      "è°·": 3888,
      "ä½łåĶĶåı¯ä»¥": 3889,
      "åĹİ": 3890,
      "è¦ºå¾Ĺèĩªå·±": 3891,
      "èĺĩ": 3892,
      "åĳĬè¨´": 3893,
      "æİĴ": 3894,
      "éĻį": 3895,
      "åļĩäºº": 3896,
      "åķ²èĬ±": 3897,
      "å¡ĬçŁ³": 3898,
      "å±ĭå¤ĸ": 3899,
      "åº¦åĳĢ": 3900,
      "éģ¸": 3901,
      "åĨĩåĴĹ": 3902,
      "ä¸Ģä¸ĭ": 3903,
      "ä½¢åĺħæľĭåıĭå": 3904,
      "éĻĮçĶŁ": 3905,
      "ĠRex": 3906,
      "éºĹçµ²": 3907,
      "Ġmammy": 3908,
      "°åĮĻ": 3909,
      "ĠæľĽ": 3910,
      "åĽŀåĴĹ": 3911,
      "éģ©åĲĪ": 3912,
      "éīĽçŃĨ": 3913,
      "Ġéļ»": 3914,
      "æĴ«æĳ¸": 3915,
      "ä½¢åĵĭåģ": 3916,
      "åĬĽéĩı": 3917,
      "åĻ¥åĻ¥åĻ¥åĻ¥åĻ¥åĻ¥åĻ¥åĻ¥åĻ¥åĻ¥åĻ¥åĻ¥åĻ¥åĻ¥åĻ¥åĻ¥": 3918,
      "ä¸ĳ": 3919,
      "åĺħæ°´": 3920,
      "æĥ³åĥı": 3921,
      "æ³³": 3922,
      "å¸¶è¿Ķå±ĭä¼ģ": 3923,
      "å¿«æīĭå": 3924,
      "èİİæĭīè©±": 3925,
      "Ġn": 3926,
      "ä½¢åĵĭåĿĲ": 3927,
      "çĪ¸åª½": 3928,
      "è½īéłŃ": 3929,
      "å¥½å¥½é£Łåĺħ": 3930,
      "åĸºèĬ±åľĴåº¦": 3931,
      "è¬ĽåĴĹ": 3932,
      "çĤºèĩªå·±åĺħ": 3933,
      "åľ°éĿ¢": 3934,
      "Ben": 3935,
      "Ġä¸Ģé½Ĭçİ©": 3936,
      "æĦ§": 3937,
      "éĺ»": 3938,
      "é»ŀè§£æľĥ": 3939,
      "åĸºå¤ĸéĿ¢çİ©": 3940,
      "éĻ°": 3941,
      "çĪ¬åĪ°": 3942,
      "ã·«ã·«ã·«ã·«": 3943,
      "å¥½åĭĩæķ¢": 3944,
      "åĲĮå¿«æ¨Ĥ": 3945,
      "æĦıç²ī": 3946,
      "éĤĢ": 3947,
      "¥³ä»Ķ": 3948,
      "éģĬæ¨Ĥ": 3949,
      "è¾²åł´": 3950,
      "åħ¥éĿ¢æľī": 3951,
      "é¢¨æļ´": 3952,
      "çµĲæŀľ": 3953,
      "æķĳåĳ½": 3954,
      "å¥½å¿ĥ": 3955,
      "æĪĳåĶĶçŁ¥": 3956,
      "éĿŀ": 3957,
      "çĶ¨åķ²": 3958,
      "åģļæľĭåıĭ": 3959,
      "Ġåİ»": 3960,
      "ä½¢å¤ª": 3961,
      "ç¬ĳåĲĮ": 3962,
      "æķ´è¿Ķ": 3963,
      "çŀĵçĿĢåĴĹ": 3964,
      "æĳº": 3965,
      "æĵºçĽª": 3966,
      "é±·": 3967,
      "å©ļ": 3968,
      "æĲŃ": 3969,
      "ä»¥åīįæľīåĢĭåı«": 3970,
      "éĸĭåĴĹåĢĭ": 3971,
      "éļ»å°ıçĭĹ": 3972,
      "æĹ©ä¸Ĭ": 3973,
      "æµ·çĽľ": 3974,
      "åłħæĮģ": 3975,
      "ĠJohnny": 3976,
      "åĢĭåĢĭ": 3977,
      "ä½Ĩä¿Ĥè¦ģå°ıå¿ĥåķ²": 3978,
      "é´¿": 3979,
      "è·ĳåļŁ": 3980,
      "éģłèĻķ": 3981,
      "ä½¢åİ»åĪ°": 3982,
      "ģæīĢ": 3983,
      "èĬ±çĵ¶": 3984,
      "æīĢä»¥æ±ºå®ļ": 3985,
      "éľ§": 3986,
      "ĠKi": 3987,
      "å¥½éĿľ": 3988,
      "éĹĨ": 3989,
      "çīĨåº¦": 3990,
      "µçī©": 3991,
      "æľĢçµĤ": 3992,
      "æ²ī": 3993,
      "éĤĬåĳĢ": 3994,
      "å±ĭåº¦": 3995,
      "æģĲé¾į": 3996,
      "é±·éŃļ": 3997,
      "ĠÑ": 3998,
      "åİļ": 3999,
      "åĶĶåĲĮåĺħ": 4000,
      "åīªåĪĢ": 4001,
      "å²": 4002,
      "ä½¢æıĢ": 4003,
      "éģĭå": 4004,
      "éĤĬåĢĭ": 4005,
      "éĨ«éĻ¢": 4006,
      "ç¶¿ç¶¿": 4007,
      "èīĺèĪ¹": 4008,
      "ä¸Ģå¤©": 4009,
      "éĳ°åĮĻ": 4010,
      "æ£®æŀĹåĪ°": 4011,
      "ä½¢åĵĭéį¾æĦıçİ©": 4012,
      "åĲĮé©ļ": 4013,
      "è¿ħ": 4014,
      "çĲ´": 4015,
      "æĪĳåĢĭ": 4016,
      "å°ıå¿ĥåĴģ": 4017,
      "ä½¢åĵĭåĶĶæĥ³": 4018,
      "ä½ıåĸºä¸Ģ": 4019,
      "çĶļ": 4020,
      "è®ļ": 4021,
      "ç«ĭ": 4022,
      "èĸ©": 4023,
      "è¿ħéĢŁ": 4024,
      "æĹĹ": 4025,
      "å°±ç¬ĳåĴĹ": 4026,
      "çĽ¸ä¿¡": 4027,
      "æ¯Ľå·¾": 4028,
      "æĪĲçĤºå¥½æľĭåıĭ": 4029,
      "çĶļèĩ³": 4030,
      "åĺħä¿Ĥ": 4031,
      "å¾ŀåīįæľīåħ©": 4032,
      "å¹³è¡¡": 4033,
      "ä½¢æľīå¥½å¤ļ": 4034,
      "æ´ĭ": 4035,
      "çıŃè©±": 4036,
      "è²Ŀæ®¼": 4037,
      "æįīè¿·": 4038,
      "è»Łç¶¿ç¶¿": 4039,
      "é£Łåķ²": 4040,
      "åĶĶèģ½": 4041,
      "é¸": 4042,
      "éļ¨": 4043,
      "å°±å¥½ä¼¼": 4044,
      "éĥ½ç¬ĳåĴĹ": 4045,
      "è·Įä½İ": 4046,
      "æįīè¿·èĹı": 4047,
      "åĴĹä¹ĭå¾Į": 4048,
      "ä½Ĩä¿Ĥè¦ģ": 4049,
      "è«ĹåĴĹä¸ĢéĻ£": 4050,
      "ä½¢åĵĭåĺħæľĭåıĭ": 4051,
      "ä½¢æĶŀèµ·": 4052,
      "nie": 4053,
      "åļŁçĿĩ": 4054,
      "æĶ¬": 4055,
      "ĠãĢģ": 4056,
      "åıį": 4057,
      "ä½ľåĵģ": 4058,
      "éļ»éĽĢä»Ķ": 4059,
      "åĴĮå¹³": 4060,
      "åı¯éĿł": 4061,
      "å¥½å¥½åĺħ": 4062,
      "èªĮ": 4063,
      "ä½¢åĵĭéĸĭå¿ĥ": 4064,
      "ä½Ĩä¿Ĥä½¢å¥½": 4065,
      "æīĭèĩĤ": 4066,
      "æĶŀåĴĹ": 4067,
      "ç¶ĵæŃ·": 4068,
      "ç¶łèī²åĺħ": 4069,
      "åĸºåĸºåĸºåĸºåĸºåĸºåĸºåĸºåĸºåĸºåĸºåĸºåĸºåĸºåĸºåĸºåĸºåĸºåĸºåĸºåĸºåĸºåĸºåĸºåĸºåĸºåĸºåĸºåĸºåĸºåĸºåĸºåĸºåĸºåĸºåĸºåĸºåĸºåĸºåĸºåĸºåĸºåĸºåĸºåĸºåĸºåĸºåĸºåĸºåĸºåĸºåĸºåĸºåĸºåĸºåĸºåĸºåĸºåĸºåĸºåĸºåĸºåĸºåĸº": 4070,
      "ĠãĢĤãĢį": 4071,
      "å¤§åıĪ": 4072,
      "éĢĢ": 4073,
      "åŁĭåļŁåŁĭåļŁåŁĭåļŁåŁĭåļŁ": 4074,
      "ĠKitty": 4075,
      "ĠN": 4076,
      "Ġåª½åª½": 4077,
      "éĸĺ": 4078,
      "åĪ°ä½¢": 4079,
      "å¹¸ç¦ı": 4080,
      "é£Ľèµ°": 4081,
      "è£ı": 4082,
      "ç¾ħ": 4083,
      "æĦŁåĪ°èĩªè±ª": 4084,
      "æķħäºĭå°±åĴģ": 4085,
      "ä½¢åĵĭç¬ĳåĴĹ": 4086,
      "æĶ¾é¬Ĩ": 4087,
      "Ġá»": 4088,
      "åģļåĴ©": 4089,
      "çŃĶæĩī": 4090,
      "ä¿ĤåĴ©åļŁãĹİ": 4091,
      "å¥½æ¼Ĥäº®": 4092,
      "å¾©": 4093,
      "æĭĸ": 4094,
      "ä½¢åª½è©±": 4095,
      "å£ģ": 4096,
      "æ´ĭå¨ĥå¨ĥ": 4097,
      "åĸĶ": 4098,
      "åº«": 4099,
      "æĥ³çŁ¥": 4100,
      "åĸºåº¦åĺħ": 4101,
      "æºª": 4102,
      "åĢĭéĲ": 4103,
      "å¸Ĥåł´": 4104,
      "ä½¢åĵĭå¤ļè¬Ŀ": 4105,
      "ä½¢åĵĭé£Ł": 4106,
      "æĸĳ": 4107,
      "äºĤåĻī": 4108,
      "ä½¢å¸ĮæľĽèĩªå·±": 4109,
      "åĶĶä½ı": 4110,
      "åļŁæķ´": 4111,
      "åħ¬å¹³": 4112,
      "æĻ®éĢļ": 4113,
      "ffy": 4114,
      "åĩºä¾Ĩ": 4115,
      "è¾¦": 4116,
      "åļŁæİ¢": 4117,
      "æŀ¶çİ©åħ·è»Ĭ": 4118,
      "å°±å¥½": 4119,
      "èģŀ": 4120,
      "ä½¢è¦ĭåĪ°ä¸ĢåĢĭ": 4121,
      "å°ĸåı«": 4122,
      "åĶĶè¦ĭåĴĹ": 4123,
      "æīĢä»¥ä½¢æ±ºå®ļ": 4124,
      "å¤©éµĿ": 4125,
      "é¡ŀ": 4126,
      "çĦ¡æĦı": 4127,
      "çĦ¡åķıé¡Į": 4128,
      "åħ¶ä»ĸäºº": 4129,
      "åģ·åģ·": 4130,
      "åĪºæ¿Ģ": 4131,
      "éį": 4132,
      "æĪĳæľī": 4133,
      "æĻĤåħī": 4134,
      "å°įå¾ħ": 4135,
      "éĽľè²¨": 4136,
      "éĥ½éį¾æĦı": 4137,
      "è»Ĭåº«": 4138,
      "ç¦±": 4139,
      "è¢ĭåĪ°": 4140,
      "éª¨éłŃ": 4141,
      "åĴĹåĢĭå¥½": 4142,
      "æķ²": 4143,
      "æĿĲ": 4144,
      "æľĭåıĭåļŁ": 4145,
      "æ¤Ĵ": 4146,
      "çĪĨåĴĹ": 4147,
      "ĥ¨": 4148,
      "ä½¢è¨ĺå¾Ĺ": 4149,
      "åĲĮä½¢åª½åĴª": 4150,
      "åħ¬åľĴåĪ°": 4151,
      "éģĬæ¨Ĥåł´": 4152,
      "åĺħåĺ¢åĺħåĺ¢": 4153,
      "ä½¢æľīä¸Ģéļ»": 4154,
      "å¥½çĹĽ": 4155,
      "Ī°åĴĹ": 4156,
      "åĵ¨": 4157,
      "æĲ¶": 4158,
      "èĢģéĹĨ": 4159,
      "å¯µçī©": 4160,
      "åĲĮåŁĭåķ²": 4161,
      "æľĭåıĭåĪĨäº«": 4162,
      "éļ»ç´°ç´°éļ»åĺħ": 4163,
      "æ¨½": 4164,
      "ĠJimmy": 4165,
      "ç´«èī²": 4166,
      "ŀèŁ»": 4167,
      "å¡«": 4168,
      "é«ĺèĪĪ": 4169,
      "åĩ³åº¦": 4170,
      "èŀŀèŁ»": 4171,
      "é¸ļ": 4172,
      "çĺ": 4173,
      "ä¸Ģå¼µ": 4174,
      "æĶ¾å¿ĥ": 4175,
      "åħ©äºº": 4176,
      "å¾®ç¬ĳ": 4177,
      "èªłå¯¦": 4178,
      "å¥½æŁĶè»Ł": 4179,
      "åĴĹä¸Ģåı£": 4180,
      "è·ĳåİ»æĲµ": 4181,
      "éļ»å¤§çĭĹ": 4182,
      "am": 4183,
      "ĠZ": 4184,
      "åĺŀ": 4185,
      "æĪĳå¥½éĸĭå¿ĥ": 4186,
      "åı¦ä¸ĢåĢĭ": 4187,
      "åĸºå¼µæŀ±": 4188,
      "åĢĭéłŃ": 4189,
      "ä»Ķç´°": 4190,
      "Ġè¦ºå¾Ĺå¥½": 4191,
      "ä½¢åĵĭæĬ±ä½ı": 4192,
      "æĸľ": 4193,
      "é»ŀåģļ": 4194,
      "å¹¾åĴģ": 4195,
      "å¥½æĶ°": 4196,
      "æ°¸éģłéĥ½åĶĶæľĥ": 4197,
      "åĢĭæ°´": 4198,
      "çĭ¼": 4199,
      "æĶ¾åĴĹ": 4200,
      "ä¼¸æīĭåİ»": 4201,
      "æĦŁæģ©": 4202,
      "æĵĩ": 4203,
      "éĻ¤": 4204,
      "ç¥Ī": 4205,
      "æĶ¯æ£į": 4206,
      "éĽ¢éĸĭå": 4207,
      "å·´å£«": 4208,
      "éļ»èħ³": 4209,
      "çł´å£ŀåĴĹ": 4210,
      "ä»²åı¯ä»¥": 4211,
      "Ġå¤ļè¬Ŀ": 4212,
      "ä¸įè«ĸ": 4213,
      "éµ¡": 4214,
      "éģ¸æĵĩ": 4215,
      "å»ģæīĢ": 4216,
      "åĸºå¼µåºĬåº¦": 4217,
      "åĴ©äºĭåĳĢ": 4218,
      "ä¹İ": 4219,
      "åĳ¢åĢĭæĻĤåĢĻ": 4220,
      "ðł®¨ðł®¨ðł®¨ðł®¨ðł®¨ðł®¨ðł®¨ðł®¨ðł®¨ðł®¨ðł®¨ðł®¨ðł®¨ðł®¨ðł®¨ðł®¨": 4221,
      "ä½¢æ¢Ŀ": 4222,
      "å¥½èĢĲ": 4223,
      "å¼ĵ": 4224,
      "åĨįåĶĶæľĥ": 4225,
      "å£ŀåĴĹ": 4226,
      "åĢĭåª½åª½": 4227,
      "æ¨¡": 4228,
      "çİ©ç·ĬåĺħæĻĤåĢĻ": 4229,
      "è¸ı": 4230,
      "é¡ĺæľĽ": 4231,
      "åĸª": 4232,
      "åħ§": 4233,
      "ä¸Ģéĥ¨": 4234,
      "ä¸ĢåĢĭèģ²éŁ³": 4235,
      "ä»ĭ": 4236,
      "åļŁåģļ": 4237,
      "®åĸª": 4238,
      "ä½³": 4239,
      "ä½ıåĸº": 4240,
      "æ²®åĸª": 4241,
      "æ·ļ": 4242,
      "éĿŀå¸¸": 4243,
      "īµ": 4244,
      "æĪ³": 4245,
      "ä½¢åĵĭåĨĩ": 4246,
      "èŃĺå¾Ĺ": 4247,
      "çļº": 4248,
      "é´¿åŃĲ": 4249,
      "ä¿ĤæĪĳ": 4250,
      "éģ®": 4251,
      "ä½¢å¥½èĩªè±ª": 4252,
      "çļĩ": 4253,
      "ä½¢å¥½éĸĭå¿ĥåı¯ä»¥": 4254,
      "å¤§å®¶éĥ½å¥½éĸĭå¿ĥ": 4255,
      "ĠåĶĶéį¾æĦı": 4256,
      "åĸºåľ°åĪ°": 4257,
      "éĳ½": 4258,
      "èĶ¬": 4259,
      "ä¸Ģåº§": 4260,
      "å¼ı": 4261,
      "åģľåĴĹ": 4262,
      "å»ºèŃ°": 4263,
      "åĻ¹åĻ¹åĻ¹åĻ¹åĻ¹åĻ¹åĻ¹åĻ¹åĻ¹åĻ¹åĻ¹åĻ¹åĻ¹åĻ¹åĻ¹åĻ¹åĻ¹åĻ¹åĻ¹åĻ¹åĻ¹åĻ¹åĻ¹åĻ¹åĻ¹åĻ¹åĻ¹åĻ¹åĻ¹åĻ¹åĻ¹åĻ¹åĻ¹åĻ¹åĻ¹åĻ¹åĻ¹åĻ¹åĻ¹åĻ¹åĻ¹åĻ¹åĻ¹åĻ¹åĻ¹åĻ¹åĻ¹åĻ¹åĻ¹åĻ¹åĻ¹åĻ¹åĻ¹åĻ¹åĻ¹åĻ¹åĻ¹åĻ¹åĻ¹åĻ¹åĻ¹åĻ¹åĻ¹åĻ¹åĻ¹åĻ¹åĻ¹åĻ¹åĻ¹åĻ¹åĻ¹åĻ¹åĻ¹åĻ¹åĻ¹åĻ¹åĻ¹åĻ¹åĻ¹åĻ¹åĻ¹åĻ¹åĻ¹åĻ¹åĻ¹åĻ¹åĻ¹åĻ¹åĻ¹åĻ¹åĻ¹åĻ¹åĻ¹åĻ¹åĻ¹åĻ¹åĻ¹åĻ¹åĻ¹åĻ¹åĻ¹åĻ¹åĻ¹åĻ¹åĻ¹åĻ¹åĻ¹åĻ¹åĻ¹åĻ¹åĻ¹åĻ¹åĻ¹åĻ¹åĻ¹åĻ¹åĻ¹åĻ¹åĻ¹åĻ¹åĻ¹åĻ¹åĻ¹åĻ¹åĻ¹åĻ¹åĻ¹åĻ¹": 4264,
      "å¤¾": 4265,
      "é¡¯": 4266,
      "èĤī": 4267,
      "ĠFlu": 4268,
      "ĠTweety": 4269,
      "Ġï¼ĮãĢį": 4270,
      "æľĢä½³": 4271,
      "éĺ¿åª½åĲĮéĺ¿çĪ¸": 4272,
      "çīĢ": 4273,
      "ç¯·": 4274,
      "æ¯ıå¤©éĥ½": 4275,
      "åĲĮæ¢Ŀ": 4276,
      "èĢĲå¿ĥ": 4277,
      "å¹¾å¤ļ": 4278,
      "çķĻæĦıåĪ°": 4279,
      "èĶ¬èıľ": 4280,
      "eo": 4281,
      "æ°ĳ": 4282,
      "py": 4283,
      "è¦ģåİ»": 4284,
      "å±Ģ": 4285,
      "æĪĲåĢĭ": 4286,
      "§éģĵ": 4287,
      "éļ§éģĵ": 4288,
      "éłĺ": 4289,
      "èĪĪå¥®åľ°": 4290,
      "ĠAl": 4291,
      "å¥½é«Ĵ": 4292,
      "éĭªéłŃ": 4293,
      "ĸ¼": 4294,
      "ä½¢åĩº": 4295,
      "éĽħ": 4296,
      "æį£": 4297,
      "åĢĭéĲĺ": 4298,
      "Ġä½ł": 4299,
      "ä¿®å¥½": 4300,
      "ĠMark": 4301,
      "æľīéĮ¢": 4302,
      "æĲ¬": 4303,
      "ĠåĲĮä½¢åª½": 4304,
      "è·ĳéģİåİ»": 4305,
      "é£Ľèµ°åĴĹ": 4306,
      "çľ¼æ·ļ": 4307,
      "åħ¶ä»ĸåĺ¢": 4308,
      "é¾ľ": 4309,
      "é»ĥèī²åĺħ": 4310,
      "ç¬¨": 4311,
      "æ¯Ĵ": 4312,
      "çĪ½": 4313,
      "è£Ĥ": 4314,
      "åĢĭå¤©": 4315,
      "åĲĮä½¢åĵĭ": 4316,
      "æ¯ĶæĪĳ": 4317,
      "æ£µæ¨¹åĪ°": 4318,
      "ä½łå¥½åĳĢ": 4319,
      "åľ°åľĸ": 4320,
      "æ©Łæľĥ": 4321,
      "ä¿Ĥä¸Ģä»¶": 4322,
      "åĹ¡åĹ¡åĹ¡åĹ¡åĹ¡åĹ¡åĹ¡åĹ¡åĹ¡åĹ¡åĹ¡åĹ¡åĹ¡åĹ¡åĹ¡åĹ¡åĹ¡åĹ¡åĹ¡åĹ¡åĹ¡åĹ¡åĹ¡åĹ¡åĹ¡åĹ¡åĹ¡åĹ¡åĹ¡åĹ¡åĹ¡åĹ¡åĹ¡åĹ¡åĹ¡åĹ¡åĹ¡åĹ¡åĹ¡åĹ¡åĹ¡åĹ¡åĹ¡åĹ¡åĹ¡åĹ¡åĹ¡åĹ¡åĹ¡åĹ¡åĹ¡åĹ¡åĹ¡åĹ¡åĹ¡åĹ¡åĹ¡åĹ¡åĹ¡åĹ¡åĹ¡åĹ¡åĹ¡åĹ¡": 4323,
      "¿ĺè¨ĺåĴĹ": 4324,
      "åĺħæŃĮ": 4325,
      "ä¸Ģé½Ĭçİ©åĳĢ": 4326,
      "åĶĶå¥½åĴģ": 4327,
      "çĿ¡è¦º": 4328,
      "åº¦çĶŁæ´»": 4329,
      "éļ»èŁ²": 4330,
      "åįĬ": 4331,
      "åĴĹä¸ĢåĢĭä¸»æĦı": 4332,
      "çĶľåĵģ": 4333,
      "ä¸Ģæ£µå¤§æ¨¹": 4334,
      "åļ¤åļ¤åļ¤åļ¤åļ¤åļ¤åļ¤åļ¤åļ¤åļ¤åļ¤åļ¤åļ¤åļ¤åļ¤åļ¤åļ¤åļ¤åļ¤åļ¤åļ¤åļ¤åļ¤åļ¤åļ¤åļ¤åļ¤åļ¤åļ¤åļ¤åļ¤åļ¤åļ¤åļ¤åļ¤åļ¤åļ¤åļ¤åļ¤åļ¤åļ¤åļ¤åļ¤åļ¤åļ¤åļ¤åļ¤åļ¤åļ¤åļ¤åļ¤åļ¤åļ¤åļ¤åļ¤åļ¤åļ¤åļ¤åļ¤åļ¤åļ¤åļ¤åļ¤åļ¤": 4335,
      "éĻĮçĶŁäºº": 4336,
      "ä½¢æĦŁè¦ºåĪ°": 4337,
      "éļ»éĿĴèĽĻ": 4338,
      "çī¹åĪ¥åĺ¢": 4339,
      "æļĪ": 4340,
      "ä¸ĢæĶ¯": 4341,
      "é£Ľä¸Ĭå¤©": 4342,
      "ä¿Ĥå¥½æľĭåıĭ": 4343,
      "å¥½èĪĴæľį": 4344,
      "åº¦çİ©ç·Ĭ": 4345,
      "éļ»åħĶä»Ķ": 4346,
      "ä½¢åıªä¿Ĥ": 4347,
      "ä½¢çĪ¸çĪ¸": 4348,
      "å¥½çĶľ": 4349,
      "åļ´": 4350,
      "åĢĭæ°£çĲĥ": 4351,
      "åı¯æĥľ": 4352,
      "æ°´åĪ°": 4353,
      "æĭīéıĪ": 4354,
      "çĦ¡æĦıä¸Ń": 4355,
      "ĠFluffy": 4356,
      "³ç¯·": 4357,
      "ĩè£Ŀ": 4358,
      "ä¸Ģéĸĵ": 4359,
      "ä¸ĢåĢĭåı": 4360,
      "éĽ»åĸ®è»Ĭ": 4361,
      "èĳĹä¸Ĭ": 4362,
      "ina": 4363,
      "ä½¢åĺħåª½åª½": 4364,
      "æ¨¹åĪ°": 4365,
      "å¥½èĪĪå¥®åĴģ": 4366,
      "ä¸Ģå¤§": 4367,
      "ä¸Ģé½ĬåĪĨäº«": 4368,
      "åħ¥åĴĹ": 4369,
      "ä½¢åĵĭéį¾æĦıåĸºåħ¬åľĴåĪ°çİ©": 4370,
      "è·Įä½İåĴĹ": 4371,
      "ä½łåĸºåº¦åģļåĴ©åĳĢ": 4372,
      "»º": 4373,
      "åĺħä½įç½®": 4374,
      "ç·Ĭä½¢": 4375,
      "ä»²è¦ģ": 4376,
      "Ġç¬ĳåĴĹç¬ĳ": 4377,
      "åĲĮåŁĭåĢĭ": 4378,
      "æĬĸ": 4379,
      "åĿ¡": 4380,
      "èªįèŃĺ": 4381,
      "è¤²": 4382,
      "æį£äºĤ": 4383,
      "éļ»çĭĹçĭĹ": 4384,
      "ry": 4385,
      "é£Łç·Ĭ": 4386,
      "ä½¢å¥½æĤ²åĤ·": 4387,
      "çĩŃ": 4388,
      "ç¥Īç¦±": 4389,
      "åļŁç·Ĭ": 4390,
      "åĨł": 4391,
      "è·ĳè¿Ķå±ĭä¼ģ": 4392,
      "çĶ¨æīĭ": 4393,
      "çľ¨": 4394,
      "æ¯ıæĻļ": 4395,
      "åħµ": 4396,
      "ä½¢åĵĭä»²": 4397,
      "å°±å¾Ĺ": 4398,
      "Ġå¥½å¬²": 4399,
      "æ¯Ķä½ł": 4400,
      "åľįæ¬Ħ": 4401,
      "åħ¶ä»ĸå°ıæľĭåıĭ": 4402,
      "ä½¢å¥½éį¾æĦıåĸºå¤ĸéĿ¢çİ©": 4403,
      "ä½¢éĥ½æĥ³": 4404,
      "å¤§åĸĬ": 4405,
      "æľīä¸ĢæĻļ": 4406,
      "ä¸Ģé½Ĭåİ»åĴĹ": 4407,
      "çĽĴåŃĲ": 4408,
      "Ġåª½": 4409,
      "æĲµåĪ°åĢĭ": 4410,
      "å¥½æľīè¶£": 4411,
      "æµ·è±ļ": 4412,
      "é¸ļéµ¡": 4413,
      "Ġ.": 4414,
      "ä¿¾åķ²": 4415,
      "æŀľéĨ¬": 4416,
      "çķ«ä½ľ": 4417,
      "ĭå¸": 4418,
      "åĸºå¤ĸéĿ¢": 4419,
      "åĸºå¤ªéĻ½": 4420,
      "èīĩ": 4421,
      "æİĥ": 4422,
      "é¤Ĭ": 4423,
      "è¡Ĺåº¦": 4424,
      "åīµéĢł": 4425,
      "è¿·è·¯åĴĹ": 4426,
      "åĢĭä»Ķ": 4427,
      "ç¬ĳåĪ°": 4428,
      "æ¢ĿèĽĩ": 4429,
      "æĿĲæĸĻ": 4430,
      "ĭåı«": 4431,
      "ä½¢åĵĭåĺħçĪ¶æ¯į": 4432,
      "æ¸ħæ¥ļ": 4433,
      "æİ¥åıĹ": 4434,
      "è´ıåĴĹ": 4435,
      "éĽľè²¨åºĹ": 4436,
      "åĪ°èĩªå·±": 4437,
      "åĬį": 4438,
      "æīĭåĲĮ": 4439,
      "ç´ħèĺ¿èĶĶ": 4440,
      "éĬĢå¹£": 4441,
      "Ľŀ": 4442,
      "å°ıçĭĹ": 4443,
      "èĬ±çĶŁ": 4444,
      "æľĢå¤§åĺħ": 4445,
      "æ£ķèī²åĺħ": 4446,
      "ä½¢è¡Ŀ": 4447,
      "å¥½æŃ£åĳĢ": 4448,
      "åĲĮåŁĭåĲĮ": 4449,
      "å¥ı": 4450,
      "åĪ¶": 4451,
      "è·³è·³ç´®": 4452,
      "ħ¶ä»ĸ": 4453,
      "éĳ½çŁ³": 4454,
      "ç°¡": 4455,
      "æĪĳåİ»ç·Ĭ": 4456,
      "ĭåº¦": 4457,
      "æĪĳè«Ĺ": 4458,
      "åķ²åĴ©": 4459,
      "å¾Ĺåķ±": 4460,
      "çĻ¼åħī": 4461,
      "ä½¢å°±åķı": 4462,
      "åĺħå°¾": 4463,
      "æ¢Ŀæ²³": 4464,
      "å¤ļè¬Ŀä½¢": 4465,
      "èĦĨå¼±": 4466,
      "Ġc": 4467,
      "åĴģå¤§": 4468,
      "æĵºåĭķ": 4469,
      "è§¸æĳ¸": 4470,
      "è§£éĩĭè©±": 4471,
      "å³": 4472,
      "Ġæľī": 4473,
      "ä½¢åĵĭåĨį": 4474,
      "è¿Ķåħ¥å±ĭ": 4475,
      "æ¿ķåĴĹ": 4476,
      "åĸºå¤©ä¸Ĭé£Ľ": 4477,
      "ĭå¥½": 4478,
      "ä½¢åĵĭæľīå¥½å¤ļ": 4479,
      "èĪĪè¶£": 4480,
      "ä½¢æĥ³åĲĮ": 4481,
      "é©¢": 4482,
      "å¥½å½©": 4483,
      "ä½¢å·": 4484,
      "å¾ŀåīįæľīåĢĭå¥³ä»Ķ": 4485,
      "é¨İå£«": 4486,
      "Ġåĸºåħ¬åľĴåº¦çİ©ç·Ĭ": 4487,
      "èĴ": 4488,
      "ĠçŃĶ": 4489,
      "æĹ¥éłŃ": 4490,
      "éĥ½åĶĶ": 4491,
      "å¤ļè¬ĿåĴĹ": 4492,
      "æ¸¬": 4493,
      "æĦŁè¦ºå¥½åķ²": 4494,
      "æľĢå¥½åĺħæľĭåıĭ": 4495,
      "åĴģåĴģåĴģåĴģåĴģåĴģåĴģåĴģåĴģåĴģåĴģåĴģåĴģåĴģåĴģåĴģåĴģåĴģåĴģåĴģåĴģåĴģåĴģåĴģåĴģåĴģåĴģåĴģåĴģåĴģåĴģåĴģåĴģåĴģåĴģåĴģåĴģåĴģåĴģåĴģåĴģåĴģåĴģåĴģåĴģåĴģåĴģåĴģåĴģåĴģåĴģåĴģåĴģåĴģåĴģåĴģåĴģåĴģåĴģåĴģåĴģåĴģåĴģåĴģåĴģåĴģåĴģåĴģåĴģåĴģåĴģåĴģåĴģåĴģåĴģåĴģåĴģåĴģåĴģåĴģåĴģåĴģåĴģåĴģåĴģåĴģåĴģåĴģåĴģåĴģåĴģåĴģåĴģåĴģåĴģåĴģåĴģåĴģåĴģåĴģåĴģåĴģåĴģåĴģåĴģåĴģåĴģåĴģåĴģåĴģåĴģåĴģåĴģåĴģåĴģåĴģåĴģåĴģåĴģåĴģåĴģåĴģåĴģåĴģåĴģåĴģåĴģåĴģ": 4496,
      "æĸľåĿ¡": 4497,
      "æĪĳåİ»ç·Ĭåº¦åĳĢ": 4498,
      "ä½¢å¥½ä¼¼": 4499,
      "æīĵéĸĭåĴĹ": 4500,
      "éĮĦ": 4501,
      "é»ŀè§£è¦ģ": 4502,
      "æİ¢ç´¢ä¸ĸçķĮ": 4503,
      "ĠæĬ±ä½ı": 4504,
      "æľĢå¥½": 4505,
      "æľĭåıĭåĺħ": 4506,
      "çĻ¼çı¾åĴĹä¸Ģä»¶": 4507,
      "ä¹ĭå¾Įå°±": 4508,
      "å®īåħ¨åĴĹ": 4509,
      "æĹ©é¤Ĳ": 4510,
      "ä½¢çĿĩ": 4511,
      "åļŁåĺħ": 4512,
      "æ¯ĶåĢĭ": 4513,
      "æľīåĢĭèģ²éŁ³": 4514,
      "æµ´ç¼¸": 4515,
      "èĩªå·±åģļéĮ¯åĴĹ": 4516,
      "åĺħå±ĭä¼ģ": 4517,
      "æĴĲ": 4518,
      "è¡£æľį": 4519,
      "¤åħ¶": 4520,
      "ĠåĲĮä½¢éĺ¿åª½": 4521,
      "æ¢Ŀéł¸éıĪ": 4522,
      "çŁ³çīĨ": 4523,
      "è¥ª": 4524,
      "åĸĬç·Ĭ": 4525,
      "éĺ¿å§¨": 4526,
      "åļ¯åļ®åļ¯åļ®åļ¯åļ®åļ¯åļ®": 4527,
      "Ġå¤§åı«": 4528,
      "ä½Ĩä¿ĤåĨĩäºº": 4529,
      "æŃ£å¸¸": 4530,
      "åĲĮåŁĭåĶĶ": 4531,
      "æ¯ĽèĮ¸": 4532,
      "æĽ¸é¤¨": 4533,
      "Ļī": 4534,
      "ä½łéį¾æĦı": 4535,
      "é£Łé£¯": 4536,
      "ä½¢åĶĶä¿Ĥ": 4537,
      "ä»»åĭĻ": 4538,
      "ä½¢éĸĭå¿ĥ": 4539,
      "ä½¢åº¦": 4540,
      "åĶĶåĪĩ": 4541,
      "æľīåĢĭäºº": 4542,
      "åİ»åħ¬åľĴçİ©": 4543,
      "åĺĢåĺĢåĺĢåĺĢåĺĢåĺĢåĺĢåĺĢ": 4544,
      "æ¯ĽèĮ¸èĮ¸": 4545,
      "æĪĳæĲµåĪ°": 4546,
      "åļŁå¹«æīĭ": 4547,
      "åļĢåļĢåļĢåļĢåļĢåļĢåļĢåļĢ": 4548,
      "Ġç¹¼çºĮ": 4549,
      "å°¤åħ¶": 4550,
      "æľīä¸Ģæ¢Ŀ": 4551,
      "èİ«": 4552,
      "èº²": 4553,
      "åĢĭåľ°æĸ¹": 4554,
      "çį¸éĨ«": 4555,
      "å¥½åĶıåĻĵ": 4556,
      "çĦ¡èģĬ": 4557,
      "çŁ³ä»Ķ": 4558,
      "é¡ıèī²åĲĮ": 4559,
      "åīĿåīĿåīĿåīĿåīĿåīĿåīĿåīĿ": 4560,
      "Ġéĥ½æľĥ": 4561,
      "éļ»çįħåŃĲ": 4562,
      "æķ´å¥½åĴĹ": 4563,
      "å¤©èī²": 4564,
      "åħ¥éĿ¢åĺħ": 4565,
      "æ©Ļèī²": 4566,
      "æĹ¥è¨ĺ": 4567,
      "è¦ĭåĪ°ä½¢åĵĭ": 4568,
      "ä½¢è¦ĭåĪ°ä¸Ģéļ»": 4569,
      "çłµçłµçłµçłµçłµçłµçłµçłµ": 4570,
      "ä½łåĢĭ": 4571,
      "åİ»çİ©": 4572,
      "é»ŀçŁ¥": 4573,
      "ä½łåĵĭæĥ³": 4574,
      "æĺŁæľŁ": 4575,
      "æ³¥åľŁ": 4576,
      "èĦ«": 4577,
      "é¼ĵåĭµ": 4578,
      "RRRRRRRRRRRRRRRRRRRRRRRRRRRRRRRR": 4579,
      "ä½¢å°ıå¿ĥç¿¼ç¿¼åĴģ": 4580,
      "ce": 4581,
      "æ°´ç®¡": 4582,
      "æľĭåıĭå¥½": 4583,
      "å¥½å¤ļå¥½å¤ļå¥½å¤ļå¥½å¤ļå¥½å¤ļå¥½å¤ļå¥½å¤ļå¥½å¤ļ": 4584,
      "£ŀ": 4585,
      "ä½¢å¥½æľī": 4586,
      "åļ¼åļ¼åļ¼åļ¼åļ¼åļ¼åļ¼åļ¼åļ¼åļ¼åļ¼åļ¼åļ¼åļ¼åļ¼åļ¼": 4587,
      "èĪĪèĪĪèĪĪèĪĪèĪĪèĪĪèĪĪèĪĪ": 4588,
      "åĦª": 4589,
      "ä½¢åģľä½İ": 4590,
      "åĺħçĨĬ": 4591,
      "åĲĥ": 4592,
      "åĲĮæĥħ": 4593,
      "ä»¥å¾Į": 4594,
      "è¦ĭåĪ°ä¸Ģæ¢Ŀ": 4595,
      "åĴĹå¥½æľĭåıĭ": 4596,
      "®¶äºº": 4597,
      "èŀį": 4598,
      "¯èĥ½": 4599,
      "ä½¢çİ©å¾Ĺå¥½éĸĭå¿ĥ": 4600,
      "ä½¢åĵĭè¡Į": 4601,
      "åĢĭåı£": 4602,
      "ç¡¬å¹£": 4603,
      "Ġå°ĩ": 4604,
      "åĪ°åķ²": 4605,
      "éļ»åħĶåŃĲ": 4606,
      "å¾ŀåīįæľīåĢĭå°ıçĶ·åŃ©": 4607,
      "æīĭåĪ°": 4608,
      "åĳ¼åĲ¸": 4609,
      "å¥ĩæĢªåĺħäºĭ": 4610,
      "ä¸Ģç²Ĵ": 4611,
      "å®®": 4612,
      "æŀľåŃĲ": 4613,
      "éĤĬåĢĭå": 4614,
      "çŃīæĪĳ": 4615,
      "ä½łä¿Ĥä¸ĢåĢĭå¥½": 4616,
      "ä½¢å¾Ĺ": 4617,
      "ç£ģ": 4618,
      "«åļ«åļ«åļ«åļ«åļ«åļ«åļ«åļ«åļ«åļ«åļ«åļ«åļ«åļ«åļ«åļ«åļ«åļ«åļ«åļ«åļ«åļ«åļ«åļ«åļ«åļ«åļ«åļ«åļ«åļ«åļ«åļ": 4619,
      "īåļīåļīåļīåļīåļīåļīåļīåļ": 4620,
      "é¯Ĭ": 4621,
      "åĢĭç´°å¥³": 4622,
      "ĠElla": 4623,
      "Łİ": 4624,
      "åĴĹèĲ½": 4625,
      "å°±åı¯ä»¥": 4626,
      "åı«èģ²": 4627,
      "ĠåĲĮæĦı": 4628,
      "åłĤ": 4629,
      "ç²ĺ": 4630,
      "åħ¨éĥ¨": 4631,
      "æĪĲçĤºåĴĹå¥½æľĭåıĭ": 4632,
      "åĢĭéİ": 4633,
      "å¥½æĵĶå¿ĥ": 4634,
      "éĺ¿åħ¬": 4635,
      "è»į": 4636,
      "å¿ł": 4637,
      "æķ´æķ´æķ´æķ´æķ´æķ´æķ´æķ´æķ´æķ´æķ´æķ´æķ´æķ´æķ´æķ´æķ´æķ´æķ´æķ´æķ´æķ´æķ´æķ´æķ´æķ´æķ´æķ´æķ´æķ´æķ´æķ´æķ´æķ´æķ´æķ´æķ´æķ´æķ´æķ´æķ´æķ´æķ´æķ´æķ´æķ´æķ´æķ´æķ´æķ´æķ´æķ´æķ´æķ´æķ´æķ´æķ´æķ´æķ´æķ´æķ´æķ´æķ´æķ´": 4638,
      "ç´°ç´°ç´°ç´°ç´°ç´°ç´°ç´°ç´°ç´°ç´°ç´°ç´°ç´°ç´°ç´°": 4639,
      "èİİæĭīåĲĮæ¹¯å§Ĩ": 4640,
      "è£ıéĿ¢": 4641,
      "ä½¢åĲ": 4642,
      "æ£Ł": 4643,
      "å§Ĳå§Ĳ": 4644,
      "åļ®æµ·åº¦åļ®æµ·åº¦åļ®æµ·åº¦åļ®æµ·åº¦": 4645,
      "æ©ŁåĻ¨äºº": 4646,
      "ç»": 4647,
      "æīĵéĽ»è©±": 4648,
      "ĠåĶĶèģ½": 4649,
      "éĸĥéĸĥçĻ¼åħī": 4650,
      "ä¼¯ä¼¯": 4651,
      "åļ¿åļ¿åļ¿åļ¿åļ¿åļ¿åļ¿åļ¿åļ¿åļ¿åļ¿åļ¿åļ¿åļ¿åļ¿åļ¿åļ¿åļ¿åļ¿åļ¿åļ¿åļ¿åļ¿åļ¿åļ¿åļ¿åļ¿åļ¿åļ¿åļ¿åļ¿åļ¿": 4652,
      "åĸºåº¦åĺħçŁ³çīĨ": 4653,
      "ĸåķ": 4654,
      "åĴĹèĩªå·±": 4655,
      "æĪĳéļ»": 4656,
      "ä½¢åĵĭåĲĳ": 4657,
      "ä½¢åĵĭå°į": 4658,
      "é¡Ĩ": 4659,
      "çµĲå©ļ": 4660,
      "éº¥æĸ¯": 4661,
      "åĺħæīĭ": 4662,
      "æŀ¶é£Ľæ©Ł": 4663,
      "è®Ĭå¾Ĺ": 4664,
      "æŀ¶æŀ¶æŀ¶æŀ¶æŀ¶æŀ¶æŀ¶æŀ¶æŀ¶æŀ¶æŀ¶æŀ¶æŀ¶æŀ¶æŀ¶æŀ¶æŀ¶æŀ¶æŀ¶æŀ¶æŀ¶æŀ¶æŀ¶æŀ¶æŀ¶æŀ¶æŀ¶æŀ¶æŀ¶æŀ¶æŀ¶æŀ¶": 4665,
      "èĢį": 4666,
      "ç·ĬåĺħæĻĤåĢĻ": 4667,
      "å¸¶ä½¢": 4668,
      "éĸĭçľ¼": 4669,
      "é¾įéłŃ": 4670,
      "ĠPet": 4671,
      "è¿ĳåķ²çĿĩ": 4672,
      "åĢĭå±": 4673,
      "åı¯ä»¥ãĹİ": 4674,
      "åĤ»": 4675,
      "èĢĮä¿Ĥ": 4676,
      "å¥½å¥½å¿ĥ": 4677,
      "è¶Ĭé«ĺ": 4678,
      "é´ī": 4679,
      "ä½¢éļ»æīĭ": 4680,
      "èĨłæ°´": 4681,
      "åĸµåĸµåĸµåĸµåĸµåĸµåĸµåĸµ": 4682,
      "åĺħæķĻè¨ĵ": 4683,
      "æĥ±": 4684,
      "èĢģèĻİ": 4685,
      "æĵ¦": 4686,
      "æĬĢ": 4687,
      "åĳ¢åĢĭæķħäºĭåĺħéģĵçĲĨå°±ä¿Ĥ": 4688,
      "æĪĳåĺħæľĭåıĭ": 4689,
      "çĮľ": 4690,
      "ella": 4691,
      "éģĭåĭķ": 4692,
      "è¦ı": 4693,
      "å°±è·ĳåİ»": 4694,
      "åı¯ä»¥åĨį": 4695,
      "èĢģäººå®¶": 4696,
      "åħ¬åľĴçİ©": 4697,
      "é«ĺé«ĺ": 4698,
      "èĬ±åľĴåº¦çİ©ç·Ĭ": 4699,
      "åļıåļıåļıåļıåļıåļıåļıåļıåļıåļıåļıåļıåļıåļıåļıåļı": 4700,
      "ä¸Ģåı£æ°£": 4701,
      "æ°¸éģłéĥ½åĶĶæľĥå¿ĺè¨ĺ": 4702,
      "Ġè¦ģ": 4703,
      "ä½¢çİ©": 4704,
      "ĠMr": 4705,
      "åĻ´æ°´": 4706,
      "éİ®ä¸Ĭ": 4707,
      "éĬ": 4708,
      "åĲĲ": 4709,
      "åĶĶå¥½é©ļ": 4710,
      "æĬ«": 4711,
      "ç®±åº¦": 4712,
      "ä½¢è¦ºå¾Ĺå¥½": 4713,
      "ç·Ĭç·ĬåĴģ": 4714,
      "æŃ£æŃ£æŃ£æŃ£æŃ£æŃ£æŃ£æŃ£æŃ£æŃ£æŃ£æŃ£æŃ£æŃ£æŃ£æŃ£æŃ£æŃ£æŃ£æŃ£æŃ£æŃ£æŃ£æŃ£æŃ£æŃ£æŃ£æŃ£æŃ£æŃ£æŃ£æŃ£æŃ£æŃ£æŃ£æŃ£æŃ£æŃ£æŃ£æŃ£æŃ£æŃ£æŃ£æŃ£æŃ£æŃ£æŃ£æŃ£æŃ£æŃ£æŃ£æŃ£æŃ£æŃ£æŃ£æŃ£æŃ£æŃ£æŃ£æŃ£æŃ£æŃ£æŃ£æŃ£": 4715,
      "Ġä½Ĩä¿Ĥ": 4716,
      "Ġåģļ": 4717,
      "ä¸Ģåł´": 4718,
      "ä¿Ĥå¥½éĩįè¦ģ": 4719,
      "åļŁèĩª": 4720,
      "åĶĶå¥½åķ¦": 4721,
      "çįµ": 4722,
      "è²·åķ²": 4723,
      "åĢĭæ³¢æ³¢": 4724,
      "¹«æīĭ": 4725,
      "èĤ¯å®ļ": 4726,
      "ä½¢éĸĭå§ĭå": 4727,
      "åĢĭæĸ°": 4728,
      "è¬Ľå°įåĶĶèµ·": 4729,
      "ļåĻļåĻļåĻļåĻļåĻļåĻļåĻļåĻ": 4730,
      "ddy": 4731,
      "åĶĶæĩīè©²": 4732,
      "éĥ½æľī": 4733,
      "è¦ĭåĪ°æľī": 4734,
      "åīĩ": 4735,
      "å¯Ħ": 4736,
      "ä½¢åķıä½¢åª½åĴª": 4737,
      "ĸåķ¡": 4738,
      "Ġs": 4739,
      "ĠåĴģ": 4740,
      "éļ»çĭĲçĭ¸": 4741,
      "èģ½æĹ¥": 4742,
      "éĻª": 4743,
      "è£¡": 4744,
      "æĻĴåķ²": 4745,
      "å¼µæŀ±åº¦": 4746,
      "åĸ³åĸ³åĸ³åĸ³åĸ³åĸ³åĸ³åĸ³": 4747,
      "Ġï¼ļãĢĮ": 4748,
      "åĸºèĬ±åľĴ": 4749,
      "åĶĶèµ·": 4750,
      "ä»¥èĩ³": 4751,
      "å¾Ĺå¥½é«ĺ": 4752,
      "å°įä½¢è¬Ľ": 4753,
      "è¬Ľç·Ĭ": 4754,
      "æľĽä¸ĢæľĽ": 4755,
      "åĸĩåıŃ": 4756,
      "æĤħ": 4757,
      "ä¸ĸçķĮä¸Ĭ": 4758,
      "ä»Ķä»Ķä»Ķä»Ķä»Ķä»Ķä»Ķä»Ķä»Ķä»Ķä»Ķä»Ķä»Ķä»Ķä»Ķä»Ķä»Ķä»Ķä»Ķä»Ķä»Ķä»Ķä»Ķä»Ķä»Ķä»Ķä»Ķä»Ķä»Ķä»Ķä»Ķä»Ķ": 4759,
      "èĸĦ": 4760,
      "ĭåĲĮ": 4761,
      "ä»²æľīå¥½å¤ļ": 4762,
      "æ©ĭ": 4763,
      "è²ĵéłŃé·¹": 4764,
      "ä½¢å¥½éĸĭå¿ĥèĩªå·±": 4765,
      "çĽ¸æ©Ł": 4766,
      "ĠHi": 4767,
      "ä½¢åĶĶçŁ¥é»ŀ": 4768,
      "ä½Ĥä½Ĥä½Ĥä½Ĥä½Ĥä½Ĥä½Ĥä½Ĥä½Ĥä½Ĥä½Ĥä½Ĥä½Ĥä½Ĥä½Ĥä½Ĥ": 4769,
      "æį½æį½æį½æį½æį½æį½æį½æį½": 4770,
      "ä»¥èĩ³æĸ¼": 4771,
      "å¥½åĭģ": 4772,
      "çľī": 4773,
      "ä»¶çİ©åħ·": 4774,
      "ä½¢è¦ĭåĪ°åĢĭ": 4775,
      "ç®±åĪ°": 4776,
      "åľĸæĽ¸é¤¨": 4777,
      "ä¸Ģå®ļè¦ģ": 4778,
      "å°ĳå°ĳ": 4779,
      "åĩ³åĩ³åĩ³åĩ³åĩ³åĩ³åĩ³åĩ³": 4780,
      "è¨Ńè¨Ī": 4781,
      "ĥ¹": 4782,
      "çĦ¡ç¦®è²Į": 4783,
      "å¡Ĭå¤§": 4784,
      "åĻ´åĻ´åĻ´åĻ´åĻ´åĻ´åĻ´åĻ´åĻ´åĻ´åĻ´åĻ´åĻ´åĻ´åĻ´åĻ´åĻ´åĻ´åĻ´åĻ´åĻ´åĻ´åĻ´åĻ´åĻ´åĻ´åĻ´åĻ´åĻ´åĻ´åĻ´åĻ´": 4785,
      "ĠçĶ¨": 4786,
      "ä½¢éĺ¿çĪ¸éĺ¿åª½": 4787,
      "åĸ¬": 4788,
      "æŃ¤": 4789,
      "éĿ¢å¸¶": 4790,
      "åĴĹåĢĭæķĻè¨ĵ": 4791,
      "æĻļä¸Ĭ": 4792,
      "ä½łåĵĭåģļ": 4793,
      "®ĮæĪĲ": 4794,
      "åĸ¼åĸ¼åĸ¼åĸ¼åĸ¼åĸ¼åĸ¼åĸ¼": 4795,
      "ä½¢é»ŀæ¨£": 4796,
      "åļŁè¬Ľ": 4797,
      "ä½Ĩä¿Ĥéĺ¿": 4798,
      "æĪĳåĵĭçİ©": 4799,
      "åįĹçĵľ": 4800,
      "æªĶ": 4801,
      "ĠKat": 4802,
      "åĴĩåĴĩåĴĩåĴĩåĴĩåĴĩåĴĩåĴĩ": 4803,
      "åľ°åĪ°": 4804,
      "èµ°åļŁ": 4805,
      "ä½¢åĲĮä½¢åª½åª½": 4806,
      "Ġå¥½é©ļè¨Ŀ": 4807,
      "åĵ¥åĵ¥": 4808,
      "¹¾": 4809,
      "å°Ī": 4810,
      "ä½¢åĵĭæĲµåĪ°": 4811,
      "éĿĪ": 4812,
      "è¼ī": 4813,
      "éķ·å¤§": 4814,
      "æ´ŀåº¦": 4815,
      "æ»ĳèĲ½åļŁ": 4816,
      "ä½łåĵĭåħ©": 4817,
      "çľŁåĺħ": 4818,
      "åĴĶåĴĶåĴĶåĴĶåĴĶåĴĶåĴĶåĴĶ": 4819,
      "it": 4820,
      "å¥½éį¾æĦıé£Ł": 4821,
      "çİ©åħ·åĲĮ": 4822,
      "ä¸ĢåĢĭå¥½éĸĭå¿ĥåĺħ": 4823,
      "æ²Ļåł¡": 4824,
      "è¼ªèĥİ": 4825,
      "æ²¹æ¼Ĩ": 4826,
      "åĸ±åĸ±åĸ±åĸ±åĸ±åĸ±åĸ±åĸ±åĸ±åĸ±åĸ±åĸ±åĸ±åĸ±åĸ±åĸ±": 4827,
      "ç£ģçŁ³": 4828,
      "ĳ¢": 4829,
      "ä½¢åĵĭçŁ¥": 4830,
      "ä»¤äºº": 4831,
      "åĢĭç®±åŃĲ": 4832,
      "é¯¨": 4833,
      "è»ĬåĲĮ": 4834,
      "æĪĳåĵĭæĩīè©²": 4835,
      "å¡µ": 4836,
      "çļĤ": 4837,
      "å¸½åŃĲ": 4838,
      "æľīè¶£åĺħåĺ¢": 4839,
      "è¶ħç´ļå¸Ĥåł´": 4840,
      "åĲĦ": 4841,
      "æĿ±": 4842,
      "éĺ¿çĪ¸è©±": 4843,
      "Īå¿«å°±": 4844,
      "éĻ½åħīä¸ĭ": 4845,
      "å¤§åĺħè§Ĵå¤§åĺħè§Ĵå¤§åĺħè§Ĵå¤§åĺħè§Ĵ": 4846,
      "çĥıé´ī": 4847,
      "ĠFred": 4848,
      "ä½¢ä¿¾": 4849,
      "ä½łæĩīè©²": 4850,
      "åĬ£": 4851,
      "åĴ©åĲį": 4852,
      "æ¬¾": 4853,
      "Ġé£Ł": 4854,
      "ä½¢æĦŁåĪ°": 4855,
      "èĩªçĦ¶": 4856,
      "æĬ±ä½ıä½¢åĵĭ": 4857,
      "è³ĵ": 4858,
      "èĨ½": 4859,
      "æĥ¡åĬ£": 4860,
      "ä½¢åĵĭå¸ĮæľĽèĩªå·±": 4861,
      "Ġæľĥ": 4862,
      "åĸºå¤§": 4863,
      "çĦ¡äºĭå": 4864,
      "æľĢå¾Įéĥ½": 4865,
      "åĹĮåĹĮåĹĮåĹĮåĹĮåĹĮåĹĮåĹĮåĹĮåĹĮåĹĮåĹĮåĹĮåĹĮåĹĮåĹĮ": 4866,
      "»ä½»ä½»ä½»ä½»ä½»ä½»ä½»ä½": 4867,
      "ä½¢æķ´": 4868,
      "å¥½æĦŁæ¿Ģ": 4869,
      "åĲĮèĬ±": 4870,
      "ĶĶåĪ°": 4871,
      "å¯Į": 4872,
      "éĮĺ": 4873,
      "éĥģ": 4874,
      "åĢĭå¥½æľĭåıĭ": 4875,
      "åĻĹåĻĹåĻĹåĻĹåĻĹåĻĹåĻĹåĻĹåĻĹåĻĹåĻĹåĻĹåĻĹåĻĹåĻĹåĻĹåĻĹåĻĹåĻĹåĻĹåĻĹåĻĹåĻĹåĻĹåĻĹåĻĹåĻĹåĻĹåĻĹåĻĹåĻĹåĻĹ": 4876,
      "ĠLeo": 4877,
      "éĿ´": 4878,
      "æĪĳåĵĭæĥ³": 4879,
      "é¯ĬéŃļ": 4880,
      "éĥ½æĲµåĶĶåĪ°": 4881,
      "æĬĵ": 4882,
      "åı£åĵ¨": 4883,
      "ä½¢åĵĭå¸¶": 4884,
      "åº¦åº¦åº¦åº¦åº¦åº¦åº¦åº¦åº¦åº¦åº¦åº¦åº¦åº¦åº¦åº¦åº¦åº¦åº¦åº¦åº¦åº¦åº¦åº¦åº¦åº¦åº¦åº¦åº¦åº¦åº¦åº¦åº¦åº¦åº¦åº¦åº¦åº¦åº¦åº¦åº¦åº¦åº¦åº¦åº¦åº¦åº¦åº¦åº¦åº¦åº¦åº¦åº¦åº¦åº¦åº¦åº¦åº¦åº¦åº¦åº¦åº¦åº¦åº¦": 4885,
      "åĻ²åĻ²åĻ²åĻ²åĻ²åĻ²åĻ²åĻ²åĻ²åĻ²åĻ²åĻ²åĻ²åĻ²åĻ²åĻ²": 4886,
      "·æħ": 4887,
      "åķ«": 4888,
      "è²¬": 4889,
      "æħ·æħ": 4890,
      "é¨İåĸ®è»Ĭ": 4891,
      "ä½§ä½§ä½§ä½§ä½§ä½§ä½§ä½§": 4892,
      "åĺŃåĺŃåĺŃåĺŃåĺŃåĺŃåĺŃåĺŃ": 4893,
      "æħ·æħ¨": 4894,
      "ä½¢è·Łä½ı": 4895,
      "èĩªå·±æľĥ": 4896,
      "çĻ¼çı¾èĩªå·±": 4897,
      "çĻ¼çĶŁåĴ©äºĭ": 4898,
      "ä»»ä½ķäºº": 4899,
      "įĪ": 4900,
      "ĺĹè©¦": 4901,
      "è·ª": 4902,
      "å®Ī": 4903,
      "å·«": 4904,
      "åıĭåĸĦåĺħ": 4905,
      "çķ«åĩºåļŁçķ«åĩºåļŁçķ«åĩºåļŁçķ«åĩºåļŁ": 4906,
      "åĴļåĴļåĴļåĴļåĴļåĴļåĴļåĴļåĴļåĴļåĴļåĴļåĴļåĴļåĴļåĴļ": 4907,
      "Ġ!": 4908,
      "åļŁéĢł": 4909,
      "åı¦ä¸Ģéļ»": 4910,
      "¿«èħ³": 4911,
      "å¤¢æĥ³": 4912,
      "åĹ°åĹ°åĹ°åĹ°åĹ°åĹ°åĹ°åĹ°åĹ°åĹ°åĹ°åĹ°åĹ°åĹ°åĹ°åĹ°": 4913,
      "el": 4914,
      "ç´°å¦¹": 4915,
      "æ£µæ¨¹åº¦": 4916,
      "æĭİä½ı": 4917,
      "éļ»ç¾Ĭ": 4918,
      "å°±å¥½éĸĭå¿ĥ": 4919,
      "æĹ¥èĳ": 4920,
      "åľ°æĿ¿": 4921,
      "éıŁ": 4922,
      "ä½¢æĶŀä½ı": 4923,
      "è·³ä¸Ĭè·³èĲ½": 4924,
      "ä½¤ä½¤ä½¤ä½¤ä½¤ä½¤ä½¤ä½¤ä½¤ä½¤ä½¤ä½¤ä½¤ä½¤ä½¤ä½¤": 4925,
      "æĹ¥èĳµ": 4926,
      "åĶĶèĢĲ": 4927,
      "ä¸Ģé½Ĭé£Ł": 4928,
      "åª½åª½åĲĮçĪ¸çĪ¸": 4929,
      "æľ¨éłŃ": 4930,
      "æīĢæľīåĭķçī©": 4931,
      "å¿ĥæĥħ": 4932,
      "æĪĲå°±": 4933,
      "Ġä¿Ĥä¸ĢåĢĭå¥½": 4934,
      "æºĸåĤĻå¥½åĴĹ": 4935,
      "éĲ²": 4936,
      "çĪ¬ä¸Ĭæ¨¹": 4937,
      "Ġå¸¶": 4938,
      "ä½¢åĵĭç¹¼çºĮ": 4939,
      "ä½łçŁ¥": 4940,
      "é£ĽåĴĹèµ°": 4941,
      "æĵł": 4942,
      "on": 4943,
      "æľīåķ²æĻĤåĢĻ": 4944,
      "æľĽä½ıä½¢": 4945,
      "çľīéłŃ": 4946,
      "åĸĥ": 4947,
      "è«Ĺç·Ĭ": 4948,
      "èº«éĤĬ": 4949,
      "äºĨä¸ĢåĢĭ": 4950,
      "ä½¢å¥½éį¾æĦıçİ©ä½¢åķ²çİ©åħ·": 4951,
      "åļ¨åļ¨åļ¨åļ¨åļ¨åļ¨åļ¨åļ¨åļ¨åļ¨åļ¨åļ¨åļ¨åļ¨åļ¨åļ¨": 4952,
      "åĢĭå¸½": 4953,
      "çļĩåĨł": 4954,
      "ä½¢æİ¨": 4955,
      "ä½Ĩä¿Ĥä¹ĭå¾Į": 4956,
      "çµĲä»ĸ": 4957,
      "ä¸ĬéĿ¢æľī": 4958,
      "å¹¸éģĭ": 4959,
      "åĺħæĽ¸": 4960,
      "æľīçĶ¨": 4961,
      "ä½Ĩä¿ĤçªģçĦ¶éĸĵ": 4962,
      "å¿µ": 4963,
      "çĶ¨ä½¢åļŁ": 4964,
      "åĸľæĤħ": 4965,
      "ä½¢éľĢè¦ģ": 4966,
      "åİ»æİ¢": 4967,
      "æĬ±åĴĹ": 4968,
      "æīĵéĸĭå": 4969,
      "æķħæĦı": 4970,
      "ç¨®åŃĲ": 4971,
      "è¦ĭåĪ°ä¸Ģä»¶": 4972,
      "è¸¢æ³¢": 4973,
      "æĸ·åĴĹ": 4974,
      "ä½¢æ¯ıæĹ¥éĥ½": 4975,
      "ä½¢åĵĭåı«": 4976,
      "æ°´åĿĳ": 4977,
      "ä½¢åĵĭåıĪ": 4978,
      "åĶĶèĪĴæľį": 4979,
      "é£Ľéģİ": 4980,
      "æĺ¯": 4981,
      "æĿİ": 4982,
      "æŃ¡åĳ¼": 4983,
      "ĠCh": 4984,
      "Ġå¤ļè¬Ŀä½ł": 4985,
      "åĺ¶": 4986,
      "å¥½åħī": 4987,
      "éĺ¿åª½å°±": 4988,
      "èģ²éŁ¿": 4989,
      "è¿Ķå±ĭä¼ģåĺħæĻĤåĢĻ": 4990,
      "åĭĩæ°£": 4991,
      "åĢĭåħ¬åľĴ": 4992,
      "å¤ªéģ²åĸĩ": 4993,
      "éĺ»æŃ¢": 4994,
      "ĠPete": 4995,
      "åĢĭåĺ": 4996,
      "ä½łéļ»": 4997,
      "å¤§éļ»": 4998,
      "ä½¢åĺħçİ©åħ·": 4999,
      "èµ°åħ¥": 5000,
      "åĽłçĤºåı¯ä»¥": 5001,
      "çķĢåĴĹåĢĭ": 5002,
      "è£½éĢł": 5003,
      "īç±³": 5004,
      "è·ĳè¿Ķåİ»": 5005,
      "èµ°åĩºåļŁ": 5006,
      "ç¾ŀ": 5007,
      "å¤ĸå¥Ĺ": 5008,
      "æ»ĳæ¢¯åº¦": 5009,
      "èĮĦ": 5010,
      "çķªèĮĦ": 5011,
      "gg": 5012,
      "Ġp": 5013,
      "Įħ": 5014,
      "æĹ¥èĲ½": 5015,
      "æĥĳ": 5016,
      "èĢĥ": 5017,
      "èģ½å¾ŀ": 5018,
      "æĪĳåĵĭåļŁ": 5019,
      "ç¶ĵéģİ": 5020,
      "éĲµ": 5021,
      "åĻĵåĻĵåĻĵåĻĵåĻĵåĻĵåĻĵåĻĵåĻĵåĻĵåĻĵåĻĵåĻĵåĻĵåĻĵåĻĵåĻĵåĻĵåĻĵåĻĵåĻĵåĻĵåĻĵåĻĵåĻĵåĻĵåĻĵåĻĵåĻĵåĻĵåĻĵåĻĵåĻĵåĻĵåĻĵåĻĵåĻĵåĻĵåĻĵåĻĵåĻĵåĻĵåĻĵåĻĵåĻĵåĻĵåĻĵåĻĵåĻĵåĻĵåĻĵåĻĵåĻĵåĻĵåĻĵåĻĵåĻĵåĻĵåĻĵåĻĵåĻĵåĻĵåĻĵåĻĵ": 5022,
      "ä½¢çĿĩä½ı": 5023,
      "æľĹ": 5024,
      "ä½¢åĵĭè¦ºå¾Ĺ": 5025,
      "çĽĨ": 5026,
      "èµ°åĩº": 5027,
      "æĪĲçĤºæľĭåıĭ": 5028,
      "ä¿®çĲĨ": 5029,
      "é©Ĺ": 5030,
      "¦Ĥ": 5031,
      "èģ½åĪ°ä¸Ģèģ²": 5032,
      "é»ŀè§£ä½ł": 5033,
      "è¦ªåĪĩ": 5034,
      "é´¨ä»Ķ": 5035,
      "éħĴ": 5036,
      "éĤĦè¿Ķ": 5037,
      "ķıé¡Į": 5038,
      "ä¹ĭæĹħ": 5039,
      "Ġéĺ¿": 5040,
      "éĸĵèĪĸéłŃ": 5041,
      "æľĢéį¾": 5042,
      "éĸĥèĢĢ": 5043,
      "çŃĶæ¡Ī": 5044,
      "ä½¢åĵĭåŃ¸æĩĤåĴĹ": 5045,
      "é¯¨éŃļ": 5046,
      "éĽķ": 5047,
      "èĬ±åĲĮ": 5048,
      "èª¤": 5049,
      "è²·åĴĹ": 5050,
      "å®īåħ¨åĴģ": 5051,
      "æĶ¶å¥½": 5052,
      "éĸĥéĸĥçĻ¼äº®åĺħåĺ¢": 5053,
      "Ġè·ĳåİ»": 5054,
      "Ĥ·": 5055,
      "ä¿ĤåĴª": 5056,
      "å¥½é¦": 5057,
      "åı¯èĥ½æľĥ": 5058,
      "çĽ¡åĬĽ": 5059,
      "Ġä¿Ĥä¸Ģå°įéĽĻèĥŀèĥİ": 5060,
      "ä½¢æľīåĢĭ": 5061,
      "åİ»çĿĩ": 5062,
      "ĠBella": 5063,
      "çĽĶ": 5064,
      "ä¸ĭéĿ¢": 5065,
      "åĽłçĤºä½¢åı¯ä»¥": 5066,
      "ĠMandy": 5067,
      "æĨ¶": 5068,
      "åĪ°ä¸ĢåĢĭä¸»æĦı": 5069,
      "å°¼èİ«": 5070,
      "åĢĭçĶ·ä»Ķ": 5071,
      "åĶĶéģİ": 5072,
      "å°±éĸĭå§ĭå": 5073,
      "æľīä¸Ģæŀ¶": 5074,
      "å¸Ĩ": 5075,
      "èģ½åĶĶåĪ°": 5076,
      "Ġä¿Ĥå¥½æľĭåıĭ": 5077,
      "èłŁçĩŃ": 5078,
      "åĥ¹": 5079,
      "å°ıé£Ł": 5080,
      "åĩºçªĹå¤ĸ": 5081,
      "Ġåĺħä»Ķ": 5082,
      "åĶĶå¥½æĦıæĢĿ": 5083,
      "ç¬ĳä½ıè¬Ľ": 5084,
      "çĻ½èī²åĺħ": 5085,
      "åĶĶçŁ¥é»ŀå¥½": 5086,
      "åĹ¨": 5087,
      "çıł": 5088,
      "èĢģçĪºçĪº": 5089,
      "çĦ¡è«ĸ": 5090,
      "åĲĳä½¢": 5091,
      "ĨĴéļª": 5092,
      "åĴĸåķ¡": 5093,
      "ä¸Ģç¨®": 5094,
      "ä¿Ĥæľĭåıĭ": 5095,
      "éĸĵå±ĭå": 5096,
      "ç¾İéºĹåĺħ": 5097,
      "åıī": 5098,
      "è¿ĶåĴĹåİ»": 5099,
      "ĠSt": 5100,
      "éĺ¿åª½è¬Ľ": 5101,
      "èµ°éĸĭå": 5102,
      "åħīç·ļ": 5103,
      "åĲĳæĹ¥èĳµ": 5104,
      "éģĬè¡Į": 5105,
      "ä¿¡å°ģ": 5106,
      "ä½¢è¦ºå¾Ĺèĩªå·±": 5107,
      "çŃĶæĩīåĴĹ": 5108,
      "ç°¡åĸ®": 5109,
      "å¥½é¦Ļ": 5110,
      "¯«": 5111,
      "è©±åı¯ä»¥": 5112,
      "åı¯èĥ½æĪĳåĵĭåı¯ä»¥": 5113,
      "éĪ´": 5114,
      "ç¸½ä¿Ĥ": 5115,
      "æ¢¨": 5116,
      "é»ĳèī²": 5117,
      "éºµç²ī": 5118,
      "æĲŀç¬ĳ": 5119,
      "ä½¢ä¸Ģ": 5120,
      "Ġå¥½èĩªè±ª": 5121,
      "ä½¢åĶĶåĨį": 5122,
      "ç¸«": 5123,
      "ä½¢åĵĭäºĴçĽ¸æĵģæĬ±": 5124,
      "ä½¢åĵĭåķı": 5125,
      "çĶ¨åĬĽ": 5126,
      "Ġå¥½æĥ³": 5127,
      "æľīåķ²äºº": 5128,
      "éĽ»èħ¦": 5129,
      "åľĸçķ«": 5130,
      "éħį": 5131,
      "ä½ıå°įä½ıå°įä½ıå°įä½ıå°įä½ıå°įä½ıå°įä½ıå°įä½ıå°į": 5132,
      "åĺħæķħäºĭ": 5133,
      "é£ŁåĪ°": 5134,
      "åı¯èĥ½ä¿Ĥ": 5135,
      "å®¹æĺĵ": 5136,
      "ä½¢åĵĭåļŁ": 5137,
      "å·§": 5138,
      "èĩī": 5139,
      "ä½¢è¦ĭåĪ°éļ»": 5140,
      "æ¶²": 5141,
      "å°±ä¿ĤåĴģ": 5142,
      "æıĲèŃ°": 5143,
      "±ķ": 5144,
      "ä½¢æľĭåıĭ": 5145,
      "å¤ļä¸Ģæ¬¡": 5146,
      "éĸĵæĪ¿åº¦": 5147,
      "æİĽä½ı": 5148,
      "å²¸": 5149,
      "ĭå®¶": 5150,
      "åŃĶ": 5151,
      "ä½¢åª½åª½å°±è©±": 5152,
      "éĽ»çŃĴ": 5153,
      "æįīä½ıä½¢": 5154,
      "åĬªåĬĽåĴģ": 5155,
      "åļ¡åļ¡åļ¡åļ¡åļ¡åļ¡åļ¡åļ¡åļ¡åļ¡åļ¡åļ¡åļ¡åļ¡åļ¡åļ¡åļ¡åļ¡åļ¡åļ¡åļ¡åļ¡åļ¡åļ¡åļ¡åļ¡åļ¡åļ¡åļ¡åļ¡åļ¡åļ¡åļ¡åļ¡åļ¡åļ¡åļ¡åļ¡åļ¡åļ¡åļ¡åļ¡åļ¡åļ¡åļ¡åļ¡åļ¡åļ¡åļ¡åļ¡åļ¡åļ¡åļ¡åļ¡åļ¡åļ¡åļ¡åļ¡åļ¡åļ¡åļ¡åļ¡åļ¡åļ¡": 5156,
      "ä½Ĩä¿Ĥå·²ç¶ĵ": 5157,
      "è¨ª": 5158,
      "ç¹ŀ": 5159,
      "ç¥¨": 5160,
      "å¥½çİ©åĪ°": 5161,
      "åıĸç¬ĳåıĸç¬ĳåıĸç¬ĳåıĸç¬ĳåıĸç¬ĳåıĸç¬ĳåıĸç¬ĳåıĸç¬ĳ": 5162,
      "åĸºå¼µæŀ±åº¦": 5163,
      "æĻ¶": 5164,
      "æĩ¼": 5165,
      "éĸĥéĸĥçĶŁ": 5166,
      "èĪĬåĺħ": 5167,
      "Ĺ°éĻ£": 5168,
      "åļ®åļ®åļ®åļ®åļ®åļ®åļ®åļ®åļ®åļ®åļ®åļ®åļ®åļ®åļ®åļ®": 5169,
      "æķħäºĭå°±åĴģçµĲæĿŁåĴĹ": 5170,
      "ip": 5171,
      "¦¹": 5172,
      "åĸºèĬ±åľĴåĪ°": 5173,
      "å°±åı«": 5174,
      "åħĪå¾Ĺ": 5175,
      "éĮ¶": 5176,
      "åĸĬèµ·ä¸ĬåļŁ": 5177,
      "é¬¼": 5178,
      "åĶĶåĲĮåĺħåĺ¢": 5179,
      "æĻ¯èī²": 5180,
      "å¢ĥ": 5181,
      "æī¯": 5182,
      "æĭĴ": 5183,
      "èħ¿": 5184,
      "æ½ĳ": 5185,
      "Ġå¥½èĪĪå¥®åı¯ä»¥": 5186,
      "åĢĭèģ²": 5187,
      "ä½¢åĵĭæĶŀ": 5188,
      "åĢĭåº¦": 5189,
      "åĤ³": 5190,
      "åĢĭçĶ·äººè©±": 5191,
      "å¸ĮæľĽèĩªå·±": 5192,
      "åıªè¦ģ": 5193,
      "å°ıæľĭåıĭå¥½": 5194,
      "ĠæĦŁåĪ°": 5195,
      "ĳĬ": 5196,
      "æ¢°": 5197,
      "ĠåĲĮä½¢åª½åĴª": 5198,
      "è©¦ä¸ĭå": 5199,
      "æ©Łæ¢°": 5200,
      "éķ·éł¸": 5201,
      "ĠDave": 5202,
      "ħ¬ä»Ķ": 5203,
      "çįİåĭµ": 5204,
      "ä½¢è¦ĭåĪ°å¥½å¤ļ": 5205,
      "æ¯Ľåħ¬ä»Ķ": 5206,
      "åĢĭéĪ": 5207,
      "åĸºå»ļæĪ¿åº¦": 5208,
      "å°ıåħĶ": 5209,
      "æ¢ĿèŁ²": 5210,
      "çµķ": 5211,
      "èµ°åĴĹåİ»": 5212,
      "å¥½çİ©åĺħ": 5213,
      "çĶ©çĶ©çĶ©çĶ©çĶ©çĶ©çĶ©çĶ©": 5214,
      "ä½¢éĸĭå§ĭåĸĬ": 5215,
      "åĺħå¹«åĬ©": 5216,
      "æľīçĦ¡": 5217,
      "åĶĶå±¬æĸ¼": 5218,
      "ç¬ĳè¿Ķ": 5219,
      "æķ´æĹ¥": 5220,
      "è¡Įéģİ": 5221,
      "çĭĤ": 5222,
      "è¨Ģ": 5223,
      "ĠåĺħçĪ¸çĪ¸": 5224,
      "åĲĮåŁĭè¦ģ": 5225,
      "æĮĩç¤º": 5226,
      "çĪŃåĲµ": 5227,
      "éĩĺ": 5228,
      "åĨĩåĴ©": 5229,
      "ç«Ļèµ·ä¾Ĩ": 5230,
      "da": 5231,
      "å¿ĥåĺħ": 5232,
      "å¥½é£Łåĺħåĺ¢": 5233,
      "å®īæħ°ä½¢è©±": 5234,
      "çĥĺ": 5235,
      "ir": 5236,
      "ä¸Ģå®¶äºº": 5237,
      "æīĩ": 5238,
      "äººæİĮ": 5239,
      "åĽłçĤºä½¢å¥½": 5240,
      "ä½¢å¥½éį¾æĦıåĲĮ": 5241,
      "çĨĦ": 5242,
      "èįīèİĵ": 5243,
      "ä»ĻäººæİĮ": 5244,
      "èĸ¯": 5245,
      "éļ¨æĻĤ": 5246,
      "¸¶": 5247,
      "å°º": 5248,
      "åĴĹåĢĭä¸»æĦı": 5249,
      "å°±åķıä½¢": 5250,
      "¿«æ¨Ĥ": 5251,
      "æ²ĻçĻ¼åº¦": 5252,
      "ä½¢éģĩåĪ°": 5253,
      "åĴ³": 5254,
      "åĺħç¾İ": 5255,
      "ä½¢åĵĭåº¦": 5256,
      "æľĥåĨį": 5257,
      "Ġå°±åĴģ": 5258,
      "èħ°": 5259,
      "æķĳåĴĹ": 5260,
      "ä¿®è£ľ": 5261,
      "ä»½ç¦®çī©": 5262,
      "ç°¿": 5263,
      "åĻ¤åĻ¤åĻ¤åĻ¤åĻ¤åĻ¤åĻ¤åĻ¤": 5264,
      "ä½¢çķ«": 5265,
      "å¥½æ»¿æĦı": 5266,
      "å°±æ±ºå®ļ": 5267,
      "ä¸Ģé½ĬçĿĩ": 5268,
      "æ¢Ŀå¤§": 5269,
      "çĽŀ": 5270,
      "å¤ªå¤§": 5271,
      "éĨľ": 5272,
      "æĵģæĬ±åĴĹ": 5273,
      "çķ¶çĦ¶åı¯ä»¥åķ¦": 5274,
      "åĺħåĺħåĺħåĺħåĺħåĺħåĺħåĺħåĺħåĺħåĺħåĺħåĺħåĺħåĺħåĺħåĺħåĺħåĺħåĺħåĺħåĺħåĺħåĺħåĺħåĺħåĺħåĺħåĺħåĺħåĺħåĺħåĺħåĺħåĺħåĺħåĺħåĺħåĺħåĺħåĺħåĺħåĺħåĺħåĺħåĺħåĺħåĺħåĺħåĺħåĺħåĺħåĺħåĺħåĺħåĺħåĺħåĺħåĺħåĺħåĺħåĺħåĺħåĺħåĺħåĺħåĺħåĺħåĺħåĺħåĺħåĺħåĺħåĺħåĺħåĺħåĺħåĺħåĺħåĺħåĺħåĺħåĺħåĺħåĺħåĺħåĺħåĺħåĺħåĺħåĺħåĺħåĺħåĺħåĺħåĺħåĺħåĺħåĺħåĺħåĺħåĺħåĺħåĺħåĺħåĺħåĺħåĺħåĺħåĺħåĺħåĺħåĺħåĺħåĺħåĺħåĺħåĺħåĺħåĺħåĺħåĺħåĺħåĺħåĺħåĺħåĺħåĺħ": 5275,
      "é«Ģé«Ģé«Ģé«Ģé«Ģé«Ģé«Ģé«Ģ": 5276,
      "ä½¢åĵĭåĪĨäº«": 5277,
      "å®īéĿľ": 5278,
      "ä»ĻåŃĲ": 5279,
      "åĻīåĻīåĻīåĻīåĻīåĻīåĻīåĻīåĻīåĻīåĻīåĻīåĻīåĻīåĻīåĻīåĻīåĻīåĻīåĻīåĻīåĻīåĻīåĻīåĻīåĻīåĻīåĻīåĻīåĻīåĻīåĻīåĻīåĻīåĻīåĻīåĻīåĻīåĻīåĻīåĻīåĻīåĻīåĻīåĻīåĻīåĻīåĻīåĻīåĻīåĻīåĻīåĻīåĻīåĻīåĻīåĻīåĻīåĻīåĻīåĻīåĻīåĻīåĻīåĻīåĻīåĻīåĻīåĻīåĻīåĻīåĻīåĻīåĻīåĻīåĻīåĻīåĻīåĻīåĻīåĻīåĻīåĻīåĻīåĻīåĻīåĻīåĻīåĻīåĻīåĻīåĻīåĻīåĻīåĻīåĻīåĻīåĻīåĻīåĻīåĻīåĻīåĻīåĻīåĻīåĻīåĻīåĻīåĻīåĻīåĻīåĻīåĻīåĻīåĻīåĻīåĻīåĻīåĻīåĻīåĻīåĻīåĻīåĻīåĻīåĻīåĻīåĻīåĻīåĻīåĻīåĻīåĻīåĻīåĻīåĻīåĻīåĻīåĻīåĻīåĻīåĻīåĻīåĻīåĻīåĻīåĻīåĻīåĻīåĻīåĻīåĻīåĻīåĻīåĻīåĻīåĻīåĻīåĻīåĻīåĻīåĻīåĻīåĻīåĻīåĻīåĻīåĻīåĻīåĻīåĻīåĻīåĻīåĻīåĻīåĻīåĻīåĻīåĻīåĻīåĻīåĻīåĻīåĻīåĻīåĻīåĻīåĻīåĻīåĻīåĻīåĻīåĻīåĻīåĻīåĻīåĻīåĻīåĻīåĻīåĻīåĻīåĻīåĻīåĻīåĻīåĻīåĻīåĻīåĻīåĻīåĻīåĻīåĻīåĻīåĻīåĻīåĻīåĻīåĻīåĻīåĻīåĻīåĻīåĻīåĻīåĻīåĻīåĻīåĻīåĻīåĻīåĻīåĻīåĻīåĻīåĻīåĻīåĻīåĻīåĻīåĻīåĻīåĻīåĻīåĻīåĻīåĻīåĻīåĻīåĻīåĻīåĻīåĻīåĻīåĻīåĻīåĻīåĻīåĻīåĻīåĻīåĻīåĻīåĻīåĻīåĻīåĻīåĻīåĻīåĻīåĻīåĻīåĻīåĻīåĻīåĻīåĻīåĻīåĻīåĻīåĻīåĻīåĻīåĻīåĻīåĻīåĻīåĻīåĻīåĻīåĻīåĻīåĻīåĻīåĻīåĻīåĻīåĻīåĻīåĻīåĻīåĻīåĻīåĻīåĻīåĻīåĻīåĻīåĻīåĻīåĻīåĻīåĻīåĻīåĻīåĻīåĻīåĻīåĻīåĻīåĻīåĻīåĻīåĻīåĻīåĻīåĻīåĻīåĻīåĻīåĻīåĻīåĻīåĻīåĻīåĻīåĻīåĻīåĻīåĻīåĻīåĻīåĻīåĻīåĻīåĻīåĻīåĻīåĻīåĻīåĻīåĻīåĻīåĻīåĻīåĻīåĻīåĻīåĻīåĻīåĻīåĻīåĻīåĻīåĻīåĻīåĻīåĻīåĻīåĻīåĻīåĻīåĻīåĻīåĻīåĻīåĻīåĻīåĻīåĻīåĻīåĻīåĻīåĻīåĻīåĻīåĻīåĻīåĻīåĻīåĻīåĻīåĻīåĻīåĻīåĻīåĻīåĻīåĻīåĻīåĻīåĻīåĻīåĻīåĻīåĻīåĻīåĻīåĻīåĻīåĻīåĻīåĻīåĻīåĻīåĻīåĻīåĻīåĻīåĻīåĻīåĻīåĻīåĻīåĻīåĻīåĻīåĻīåĻīåĻīåĻīåĻīåĻīåĻīåĻīåĻīåĻīåĻīåĻīåĻīåĻīåĻīåĻīåĻīåĻīåĻīåĻīåĻīåĻīåĻīåĻīåĻīåĻīåĻīåĻīåĻīåĻīåĻīåĻīåĻīåĻīåĻīåĻīåĻīåĻīåĻīåĻīåĻīåĻīåĻīåĻīåĻīåĻīåĻīåĻīåĻīåĻīåĻīåĻīåĻīåĻīåĻīåĻīåĻīåĻīåĻīåĻīåĻīåĻīåĻīåĻīåĻīåĻīåĻīåĻīåĻīåĻīåĻīåĻīåĻīåĻīåĻīåĻīåĻīåĻīåĻīåĻīåĻīåĻīåĻīåĻī": 5280,
      "ä½¢æ¯Ķ": 5281,
      "å°ĭ": 5282,
      "åľ°ä¸ĭ": 5283,
      "çĽĥ": 5284,
      "èĥĸ": 5285,
      "æ´»åĭķ": 5286,
      "ĠRu": 5287,
      "ä½Ĩä¿Ĥéĥ½æĲµåĶĶåĪ°": 5288,
      "çįİçĽĥ": 5289,
      "åĢĭå°ıæľĭåıĭå¥½": 5290,
      "å¡«æ»¿": 5291,
      "ey": 5292,
      "å¥½èģ°æĺİ": 5293,
      "ä¿Ĥå±¬æĸ¼": 5294,
      "äº¦": 5295,
      "å°±åİ»": 5296,
      "åŃĺ": 5297,
      "æĬ½": 5298,
      "æľªè©¦éģİ": 5299,
      "å°ĸåĺħ": 5300,
      "è¡ĮåŁĭä¸Ģé½Ĭè¡ĮåŁĭä¸Ģé½Ĭè¡ĮåŁĭä¸Ģé½Ĭè¡ĮåŁĭä¸Ģé½Ĭ": 5301,
      "æ²Ļåº¦": 5302,
      "ç½©": 5303,
      "æ¾¡": 5304,
      "æĦŁåıĹåĪ°": 5305,
      "ä½¢åĵĭåģļ": 5306,
      "äººåĵĭ": 5307,
      "ä¸Ńéĸĵ": 5308,
      "å¤ªéĻ½èĲ½å±±": 5309,
      "æĶ¾èĲ½åĢĭ": 5310,
      "ç®¡çĲĨ": 5311,
      "ĠAlex": 5312,
      "Ļ´": 5313,
      "å¥½ç¥ŀå¥ĩ": 5314,
      "éĺ¿åıĶ": 5315,
      "ä¸Ģéł": 5316,
      "æĪĲéķ·": 5317,
      "å¡Ĭå¸ĥ": 5318,
      "çķĢåĴĹåķ²": 5319,
      "è¢ĭé¼ł": 5320,
      "å°¤åħ¶ä¿Ĥ": 5321,
      "æĥ³åİ»": 5322,
      "ç·ĬåĴ©åĳĢ": 5323,
      "èµ°è¿ĳ": 5324,
      "çħİ": 5325,
      "ä½¢å¹«æīĭ": 5326,
      "åĲĮä½¢åĪĨäº«": 5327,
      "Sam": 5328,
      "ä½¢åĵĭè¼ªæµģ": 5329,
      "ĠLi": 5330,
      "å¾ŀåĳ¢": 5331,
      "æĪ¿åº¦": 5332,
      "æĶ¹è®Ĭ": 5333,
      "åĻłåĻłåĻłåĻłåĻłåĻłåĻłåĻłåĻłåĻłåĻłåĻłåĻłåĻłåĻłåĻłåĻłåĻłåĻłåĻłåĻłåĻłåĻłåĻłåĻłåĻłåĻłåĻłåĻłåĻłåĻłåĻłåĻłåĻłåĻłåĻłåĻłåĻłåĻłåĻłåĻłåĻłåĻłåĻłåĻłåĻłåĻłåĻłåĻłåĻłåĻłåĻłåĻłåĻłåĻłåĻłåĻłåĻłåĻłåĻłåĻłåĻłåĻłåĻł": 5334,
      "èĨĬéłŃ": 5335,
      "Lila": 5336,
      "se": 5337,
      "å¥½çī¹åĪ¥åĺħ": 5338,
      "æĪĴ": 5339,
      "æĶ¤": 5340,
      "åĴ©åļŁãĹİ": 5341,
      "åĲĮåŁĭåĸº": 5342,
      "æĪĳåĵĭåģļ": 5343,
      "è½īèº«": 5344,
      "éĥ¨éĽ»è©±": 5345,
      "ä½¢å°ĩåĢĭ": 5346,
      "è²¼åĸº": 5347,
      "çĪĨè°·": 5348,
      "å°İ": 5349,
      "éļ»æĿ¾é¼ł": 5350,
      "é£Ľç·Ĭ": 5351,
      "æĲµåĪ°ä¸ĢåĢĭ": 5352,
      "å¥½çİ©åĺħåĺ¢": 5353,
      "å¥½å¥ĩæĢª": 5354,
      "åłħæŀľ": 5355,
      "Ġä½¢": 5356,
      "ĢĴ": 5357,
      "èª¼": 5358,
      "å¹¾åĪĨéĲĺ": 5359,
      "åĸºåħ¬åľĴçİ©": 5360,
      "çĥĪ": 5361,
      "åĸºåº¦åĸºåĸºåº¦åĸºåĸºåº¦åĸºåĸºåº¦åĸº": 5362,
      "åĦªéĽħ": 5363,
      "ĠæĪĳåĵĭ": 5364,
      "ĠåĻīè¬Ľ": 5365,
      "å¥½ç¬ĳ": 5366,
      "è©±è¦ģ": 5367,
      "æĹ¥æĹ¥éĥ½": 5368,
      "éĺ¿åª½ç¬ĳåĴĹ": 5369,
      "éĻ·": 5370,
      "åĲĮåŁĭæľī": 5371,
      "åıĪåı¯ä»¥": 5372,
      "çķ¶æĹ¥": 5373,
      "æ±ºå¿ĥ": 5374,
      "Ġå°±åķı": 5375,
      "æı¡": 5376,
      "ä½¢å°±åĴģ": 5377,
      "ä¸ĭåĺħ": 5378,
      "é¤Ĳå»³": 5379,
      "è¡Ĺå¸Ĥ": 5380,
      "å¹«åĪ°ä½ł": 5381,
      "ä»Ķç´°åĴģ": 5382,
      "è¹": 5383,
      "éĥ½çĦ¡": 5384,
      "æķ´åĪ°": 5385,
      "æ³ī": 5386,
      "æĵĬ": 5387,
      "å®Įåħ¨": 5388,
      "èĹ¤": 5389,
      "Ġéĥ½å¥½éĸĭå¿ĥ": 5390,
      "ä½¢æħ¢æħ¢": 5391,
      "æĪĳå°±": 5392,
      "æľĥä»¤": 5393,
      "æĻı": 5394,
      "çª®": 5395,
      "æĴķ": 5396,
      "è¦ºå¾Ĺèĩªå·±å¥½": 5397,
      "ä½łåĵĭåĸºåº¦": 5398,
      "ä¿¡å¾Ĺ": 5399,
      "åĽłçĤºä½¢çŁ¥": 5400,
      "éĤĢè«ĭ": 5401,
      "Ġw": 5402,
      "åĴĹå¥½å¤ļåĺ¢": 5403,
      "Ġä¿Ĥä¸ĢåĢĭ": 5404,
      "èĹįèİĵ": 5405,
      "èŀº": 5406,
      "åĲĮæİ¢ç´¢": 5407,
      "ä½¢å¥½åĭĩæķ¢": 5408,
      "è¡Įä¸ĭ": 5409,
      "é£ĽåĪ°": 5410,
      "ä½¢å¥½éį¾æĦıåĲĮä½¢åĺħ": 5411,
      "åĳ¢åĢĭæķħäºĭåĺħéģĵçĲĨä¿Ĥ": 5412,
      "åĸºåľ°ä¸ĭ": 5413,
      "ĠKim": 5414,
      "åĢĭèĢģçĪºçĪº": 5415,
      "±ķç¤º": 5416,
      "¦ĸ": 5417,
      "ĠåĨį": 5418,
      "åĢĭèĺĭæŀľ": 5419,
      "çİ©éģĬæĪ²": 5420,
      "è©±ä½¢çŁ¥": 5421,
      "éļ»çīĽ": 5422,
      "å¥½éĸĭå¿ĥåĳĢ": 5423,
      "æ¢Ŀé¾į": 5424,
      "æĦĽä½łåĵĭ": 5425,
      "çĶ±åĹ°æĻĤéĸĭå§ĭ": 5426,
      "æŁ´": 5427,
      "éłĤç«¯": 5428,
      "åıĸåĽŀ": 5429,
      "ä½¢åĵĭåħ©åĢĭéĥ½": 5430,
      "Ĭł": 5431,
      "ä½łè¬Ľ": 5432,
      "ä¸Ģé¦ĸ": 5433,
      "åĩºåĴĹåİ»": 5434,
      "æ¨£åĺ¢": 5435,
      "éľĢè¦ģå¹«åĬ©": 5436,
      "éĥ¨æ©Ł": 5437,
      "éĺ¿çıŃè©±": 5438,
      "æŀ¶å¤§åį¡è»Ĭ": 5439,
      "åıĥåĬł": 5440,
      "å£ģèĻİ": 5441,
      "ĭå¸«": 5442,
      "æĪĴæĮĩ": 5443,
      "Ġéĸĭå¿ĥ": 5444,
      "ĠçĿĩä½ı": 5445,
      "æĥ³æ³ķ": 5446,
      "ä½¢åª½å°±": 5447,
      "èĪĪå¥®åĴģ": 5448,
      "å¥½å¥½åĴģ": 5449,
      "è²ĵè²ĵ": 5450,
      "èŃ·å£«": 5451,
      "æ´Ĺæīĭ": 5452,
      "ç±ĥåŃĲ": 5453,
      "è«ĭåĳĢ": 5454,
      "æĪĳåĶĶä¿Ĥ": 5455,
      "éļ»èľĺèĽĽ": 5456,
      "æīĵæ°£": 5457,
      "æľĭåıĭåĲĮ": 5458,
      "åĤ·åĴĹ": 5459,
      "å¦Ļ": 5460,
      "åĵĭåĺħ": 5461,
      "çħ©æĥ±": 5462,
      "è»Łç¶¿ç¶¿åĺħ": 5463,
      "æĬ«èĸ©": 5464,
      "å¥½åĶĶå¥½": 5465,
      "å¥½åıĭå¥½": 5466,
      "åĸºéĤĬåº¦": 5467,
      "å¥½éį¾æĦıæİ¢ç´¢": 5468,
      "éĢĶ": 5469,
      "è¿Ķå±ĭä¼ģåĺħæĻĤéĸĵ": 5470,
      "èĿ¦": 5471,
      "é¦Ļåĳ³": 5472,
      "è¾£æ¤Ĵ": 5473,
      "çĹħåĴĹ": 5474,
      "è¿ĶåĴĹå±ĭä¼ģ": 5475,
      "ä¿ĤæľĢ": 5476,
      "æ¯ıåĢĭ": 5477,
      "å¼·å¤§": 5478,
      "çİīç±³": 5479,
      "åĴĹä¸Ģè·³": 5480,
      "ĠMike": 5481,
      "çįº": 5482,
      "æ¨ĵæ¢¯": 5483,
      "oppy": 5484,
      "¼æŃ¤": 5485,
      "Ġè·Łä½ı": 5486,
      "åĺħä¸Ģ": 5487,
      "åħĭå": 5488,
      "æīĭéĲ²": 5489,
      "æĮĳ": 5490,
      "ä½¢æ±ºå®ļåİ»": 5491,
      "åķĨ": 5492,
      "æŃ£çķ¶": 5493,
      "æĶŀåķ²": 5494,
      "æľĽä½ıåĢĭ": 5495,
      "®Įç¾İ": 5496,
      "Ġé©ļ": 5497,
      "ä¿Ĥä¸ĢåĢĭå": 5498,
      "è¡Ģ": 5499,
      "è¡Įéģİåİ»": 5500,
      "åĲįåŃĹ": 5501,
      "ç´ħèī²çļĦ": 5502,
      "ä½łæĥ³åĶĶæĥ³åĲĮæĪĳ": 5503,
      "å¥½èĢĢçľ¼": 5504,
      "éĺ±": 5505,
      "çŁŃ": 5506,
      "èµ°åķ¦": 5507,
      "è¨ĺèµ·": 5508,
      "é»ŀè§£åĶĶ": 5509,
      "ä¸ĢåĢĭå¥½å¥½åĺħ": 5510,
      "æĶ¯æĮģ": 5511,
      "æİ¨ä½ı": 5512,
      "äºĨè§£": 5513,
      "ħ¬åľĴ": 5514,
      "çĿĢä½ıä»¶": 5515,
      "åĴģå¤§èģ²åĺħ": 5516,
      "ä½¢æıĢåĴĹåĢĭ": 5517,
      "è·ªä½İ": 5518,
      "éĽķåĥı": 5519,
      "éĻ·éĺ±": 5520,
      "«çĳ": 5521,
      "åıĬ": 5522,
      "çİ«çĳ": 5523,
      "ä½¢å¥½æľĭåıĭ": 5524,
      "åĬªåĬĽå·¥ä½ľ": 5525,
      "æ·±åĳ¼åĲ¸": 5526,
      "çİ«çĳ°": 5527,
      "å¥Ķ": 5528,
      "äºĶ": 5529,
      "å±ľ": 5530,
      "ä¼¼ä¹İ": 5531,
      "æĦĽéºĹçµ²": 5532,
      "èº«é«Ķ": 5533,
      "åľĸçīĩ": 5534,
      "åļĩåĪ°": 5535,
      "å¥½åĻīæ¨£åŃĲå¥½åĻīæ¨£åŃĲå¥½åĻīæ¨£åŃĲå¥½åĻīæ¨£åŃĲ": 5536,
      "æĬ½å±ľ": 5537,
      "¥ĩ": 5538,
      "éĸĭåĸ¼": 5539,
      "çİ©åĳĢ": 5540,
      "çĻ¢": 5541,
      "æŀ¶åį¡è»Ĭ": 5542,
      "æ°´é¾įéłŃ": 5543,
      "ä½¢åª½åª½åı¯åĶĶåı¯ä»¥": 5544,
      "ç¢¼": 5545,
      "æĦĽä½¢": 5546,
      "éĹĬ": 5547,
      "èĶ¥": 5548,
      "ĠGra": 5549,
      "ä½¢åĵĭçĻ¼çı¾": 5550,
      "ä¸Ģé½Ĭç¬ĳ": 5551,
      "è»Ĭåº¦": 5552,
      "ä¾Ĩè·³åİ»": 5553,
      "æĵºå°¾": 5554,
      "å®ĮæĪĲåĴĹ": 5555,
      "è¶³çĲĥ": 5556,
      "çįµäºº": 5557,
      "æĥ³å¹«æīĭ": 5558,
      "åĲĮåŁĭåħ¶ä»ĸ": 5559,
      "èµ°åĴĹåħ¥": 5560,
      "çķĻåĸº": 5561,
      "ä¸Ģæ¢Ŀå¤§": 5562,
      "ĠRa": 5563,
      "åĽ°éĽ£": 5564,
      "åĲĮä½¢åª½": 5565,
      "åı²": 5566,
      "äºŀ": 5567,
      "æĪĳåļŁ": 5568,
      "åĳµ": 5569,
      "éĸĵå¤§": 5570,
      "å¼µå¤§": 5571,
      "é«ĺå¡Ķ": 5572,
      "èĨļ": 5573,
      "æ¸¸åİ»": 5574,
      "èı¯": 5575,
      "çĥ¤": 5576,
      "åĹħåĹħåĹħåĹħåĹħåĹħåĹħåĹħåĹħåĹħåĹħåĹħåĹħåĹħåĹħåĹħåĹħåĹħåĹħåĹħåĹħåĹħåĹħåĹħåĹħåĹħåĹħåĹħåĹħåĹħåĹħåĹħ": 5577,
      "åı«åĴ©åĲį": 5578,
      "éĿ¢å°į": 5579,
      "åŃ¸æĩĤ": 5580,
      "èĢĲæĢ§": 5581,
      "åĳ³éģĵ": 5582,
      "æº«æļĸåĺħ": 5583,
      "ç²¾ç¥ŀ": 5584,
      "åĲĵåĲĵåĲĵåĲĵåĲĵåĲĵåĲĵåĲĵåĲĵåĲĵåĲĵåĲĵåĲĵåĲĵåĲĵåĲĵåĲĵåĲĵåĲĵåĲĵåĲĵåĲĵåĲĵåĲĵåĲĵåĲĵåĲĵåĲĵåĲĵåĲĵåĲĵåĲĵåĲĵåĲĵåĲĵåĲĵåĲĵåĲĵåĲĵåĲĵåĲĵåĲĵåĲĵåĲĵåĲĵåĲĵåĲĵåĲĵåĲĵåĲĵåĲĵåĲĵåĲĵåĲĵåĲĵåĲĵåĲĵåĲĵåĲĵåĲĵåĲĵåĲĵåĲĵåĲĵåĲĵåĲĵåĲĵåĲĵåĲĵåĲĵåĲĵåĲĵåĲĵåĲĵåĲĵåĲĵåĲĵåĲĵåĲĵåĲĵåĲĵåĲĵåĲĵåĲĵåĲĵåĲĵåĲĵåĲĵåĲĵåĲĵåĲĵåĲĵåĲĵåĲĵåĲĵåĲĵåĲĵåĲĵåĲĵåĲĵåĲĵåĲĵåĲĵåĲĵåĲĵåĲĵåĲĵåĲĵåĲĵåĲĵåĲĵåĲĵåĲĵåĲĵåĲĵåĲĵåĲĵåĲĵåĲĵåĲĵåĲĵåĲĵåĲĵåĲĵåĲĵåĲĵåĲĵåĲĵ": 5585,
      "å¨": 5586,
      "éļ»åĭķçī©": 5587,
      "æĶ¾éĸĭ": 5588,
      "æĵ¾": 5589,
      "ä½¢åĵĭè¦ĭåĪ°å¥½å¤ļ": 5590,
      "ä½¢ä¿Ĥä¸Ģéļ»": 5591,
      "æĭİåĩºåļŁ": 5592,
      "ĠJohn": 5593,
      "æĴ»æĴ»æĴ»æĴ»æĴ»æĴ»æĴ»æĴ»æĴ»æĴ»æĴ»æĴ»æĴ»æĴ»æĴ»æĴ»æĴ»æĴ»æĴ»æĴ»æĴ»æĴ»æĴ»æĴ»æĴ»æĴ»æĴ»æĴ»æĴ»æĴ»æĴ»æĴ»": 5594,
      "è£¡éĿ¢": 5595,
      "å¥½åĺĪ": 5596,
      "ä½¢åħ¥": 5597,
      "ä½¢åĵĭè«Ĺ": 5598,
      "è¿ĶåĢĭ": 5599,
      "èŃī": 5600,
      "åª½åĴªåĲĮçĪ¸çĪ¸": 5601,
      "ç¿»": 5602,
      "ä½¢åĵĭåĺħåª½åª½": 5603,
      "éĽ¢éĸĭåĴĹ": 5604,
      "èĻķçĲĨ": 5605,
      "æĻ¯è±¡": 5606,
      "åģĩè£Ŀèĩªå·±ä¿Ĥ": 5607,
      "è¦ıåīĩ": 5608,
      "ä¿Ĥå¥½éĩįè¦ģåĺħ": 5609,
      "åĴĹä¸ĢåĢĭå": 5610,
      "æĪĳåĸº": 5611,
      "ä¸Ģé½Ĭè¡Į": 5612,
      "ä¾ĭå": 5613,
      "æĪ²éĻ¢": 5614,
      "ä½¢åĵĭåĶĶéį¾æĦı": 5615,
      "æİīèĲ½åļŁ": 5616,
      "æ³³æ±ł": 5617,
      "åģļå¾Ĺå¥½": 5618,
      "åĴĹä¸Ģå¤§": 5619,
      "åŃ¸ç¿Ĵ": 5620,
      "ĠBobby": 5621,
      "Ġåģľä½İ": 5622,
      "ä½¢åĳĢ": 5623,
      "è¬Ľå°įåĶĶä½ı": 5624,
      "ĠBr": 5625,
      "èĬ±æĿ¿": 5626,
      "åĳ¢ç¨®": 5627,
      "æĸ°é®®": 5628,
      "ä½Ĺåľ°": 5629,
      "ä½Ĩä¿Ĥä½¢çŁ¥": 5630,
      "çģĮæľ¨åı¢": 5631,
      "åļŁåļŁåļŁåļŁåļŁåļŁåļŁåļŁåļŁåļŁåļŁåļŁåļŁåļŁåļŁåļŁåļŁåļŁåļŁåļŁåļŁåļŁåļŁåļŁåļŁåļŁåļŁåļŁåļŁåļŁåļŁåļŁåļŁåļŁåļŁåļŁåļŁåļŁåļŁåļŁåļŁåļŁåļŁåļŁåļŁåļŁåļŁåļŁåļŁåļŁåļŁåļŁåļŁåļŁåļŁåļŁåļŁåļŁåļŁåļŁåļŁåļŁåļŁåļŁ": 5632,
      "åĢ¼å¾Ĺ": 5633,
      "ä¸Ģæŀ¶": 5634,
      "å¹ķ": 5635,
      "æĸ°åľ°æĸ¹": 5636,
      "æĺİåĺħ": 5637,
      "èŁ²èŁ²": 5638,
      "åĪ»éĸĭå§ĭ": 5639,
      "éĸĭå§ĭåĸĬèµ·ä¾Ĩ": 5640,
      "åĢĭåľį": 5641,
      "Ġbu": 5642,
      "å¥½èĪĬ": 5643,
      "åĢĭæ¹ĸ": 5644,
      "åĸºä½¢åĵĭ": 5645,
      "æīİ": 5646,
      "ä¸Ģé½ĬåĲĪä½ľ": 5647,
      "éĩ£": 5648,
      "å¤©ä½¿": 5649,
      "æĵİ": 5650,
      "æĶŀä½ıåĢĭ": 5651,
      "è£¹": 5652,
      "èľ·": 5653,
      "çģ«å±±": 5654,
      "åĪĨäº«ä½¢åĺħ": 5655,
      "ç¾İåĳ³åĺħ": 5656,
      "ç´«èī²åĺħ": 5657,
      "è·³ä¾Ĩè·³åİ»": 5658,
      "ä¸ĭåįĪ": 5659,
      "å¹¾æĹ¥": 5660,
      "ç©ºä¸Ń": 5661,
      "åŁĭåİ»": 5662,
      "è¡Ŀåİ»": 5663,
      "åĢĭç®±åº¦": 5664,
      "çļ®èĨļ": 5665,
      "Ġðł®¨": 5666,
      "ķéº¥": 5667,
      "ä½¢åĵĭåĽĽåľį": 5668,
      "æ¢Ŀåľįå·¾": 5669,
      "æīĭéĽ»çŃĴ": 5670,
      "çĩŁ": 5671,
      "ä½¢å°ĩåķ²": 5672,
      "äº¤ä¿¾": 5673,
      "å¹ħçķ«": 5674,
      "çĴ°å¢ĥ": 5675,
      "çķ¶ä½¢åĪ°éģĶ": 5676,
      "è·ĳåĲĮè·³": 5677,
      "åĴĹä»¶": 5678,
      "æ©Ħ": 5679,
      "çĿĩä½ıä½¢åĵĭ": 5680,
      "æĥ¡æ¯Ĵ": 5681,
      "ĭķçī©": 5682,
      "¾ŀ": 5683,
      "åĲĮçİ©åħ·": 5684,
      "æ¢Ŀè£Ļ": 5685,
      "èŁĢ": 5686,
      "ä½¢åĲĮä½¢åª½": 5687,
      "è¨ĺä½ıè¦ģ": 5688,
      "ä½¢åĵĭåŃ¸èŃĺåĴĹ": 5689,
      "æĲŀç¬ĳåĺħ": 5690,
      "åĽŀåĴĹåı¥": 5691,
      "Ġh": 5692,
      "ĠåļŁåĪ°": 5693,
      "ĭèŁĢ": 5694,
      "ĭåĴĹ": 5695,
      "ä¿Ĥå¥½åĺħ": 5696,
      "çİ©åĸĩ": 5697,
      "èŁĭèŁĢ": 5698,
      "éĽ»å½±": 5699,
      "çµĲå°¾": 5700,
      "illie": 5701,
      "çĩķéº¥": 5702,
      "æĪĳåı¯ä»¥å¹«ä½ł": 5703,
      "é»ĳå¤ľ": 5704,
      "æ¨¹æŀĿåĪ°": 5705,
      "éİĸåĮĻ": 5706,
      "ä¸ĢåĪĩéĥ½": 5707,
      "Ġá»ĵ": 5708,
      "ä½¢å¾Ĺä¸īæŃ²": 5709,
      "æľĭåıĭä¸Ģé½Ĭçİ©": 5710,
      "åŁĭåķ²": 5711,
      "èľľç³ĸ": 5712,
      "æĨĲ": 5713,
      "åļ·åļ·åļ·åļ·åļ·åļ·åļ·åļ·åļ·åļ·åļ·åļ·åļ·åļ·åļ·åļ·åļ·åļ·åļ·åļ·åļ·åļ·åļ·åļ·åļ·åļ·åļ·åļ·åļ·åļ·åļ·åļ·": 5714,
      "éķ·éł¸é¹¿": 5715,
      "åľĭ": 5716,
      "æ°´æĻ¶": 5717,
      "æıĲåŃĲ": 5718,
      "åłħåĽº": 5719,
      "éĬħ": 5720,
      "ä½¢åĵĭçİ©å¾Ĺéĸĭå¿ĥ": 5721,
      "Ġå¥½åĶıåĻĵ": 5722,
      "æĿĸ": 5723,
      "ç²Ĺ": 5724,
      "æĶ¶èµ·": 5725,
      "ĠAnn": 5726,
      "æ¿Ģåħī": 5727,
      "éĩĳå±¬": 5728,
      "éļ»æīĭæĮĩ": 5729,
      "æĪĳéĥ½æĦĽä½ł": 5730,
      "·¥": 5731,
      "åĺħä¸ĢæĹ¥": 5732,
      "æĪĳåĶĶéį¾æĦı": 5733,
      "åĽłçĤºä½¢æĥ³": 5734,
      "å°ĩéļ»": 5735,
      "ä¸ĢåĢĭå¥½éĿļåĺħ": 5736,
      "çģ«æŁ´": 5737,
      "ä¸īè§Ĵ": 5738,
      "éĥ½å¥½åĶĶéĸĭå¿ĥ": 5739,
      "ä½¢åĵĭç¬ĳ": 5740,
      "è·Ŀ": 5741,
      "çĽ¾": 5742,
      "ç¬ĳåĴĹåĩºåļŁ": 5743,
      "åıĪå¤§åıĪ": 5744,
      "åħĪåģľ": 5745,
      "çĨĬä»Ķ": 5746,
      "åı£åº¦": 5747,
      "ä½¢èģ½åĪ°ä¸Ģèģ²": 5748,
      "çĥıé¾ľ": 5749,
      "è¿½è¿½è¿½è¿½è¿½è¿½è¿½è¿½è¿½è¿½è¿½è¿½è¿½è¿½è¿½è¿½è¿½è¿½è¿½è¿½è¿½è¿½è¿½è¿½è¿½è¿½è¿½è¿½è¿½è¿½è¿½è¿½è¿½è¿½è¿½è¿½è¿½è¿½è¿½è¿½è¿½è¿½è¿½è¿½è¿½è¿½è¿½è¿½è¿½è¿½è¿½è¿½è¿½è¿½è¿½è¿½è¿½è¿½è¿½è¿½è¿½è¿½è¿½è¿½": 5750,
      "åĺħçŁ³éłŃ": 5751,
      "æĪ¶": 5752,
      "ĠJu": 5753,
      "è±¹": 5754,
      "æı¾": 5755,
      "çµĲåĴĹ": 5756,
      "é¬ļ": 5757,
      "éĨĴåĴĹåļŁ": 5758,
      "æĻıè¦º": 5759,
      "åĴģå¤§èģ²åĺħåĴģå¤§èģ²": 5760,
      "ä½¢æıĢåĴĹåĢĭæľĢå¤§åĺħ": 5761,
      "le": 5762,
      "ä½¢æ¯ıæĹ¥éĥ½æľĥ": 5763,
      "åĺ´": 5764,
      "è¦ģæ±Ĥ": 5765,
      "ä½¢åª½åĴªå°±": 5766,
      "æľīåĢĭçĶ·äºº": 5767,
      "æ¯Ľè¡£": 5768,
      "oby": 5769,
      "æĭ¿èµ°": 5770,
      "è¡¨çı¾": 5771,
      "éĽĻæīĭ": 5772,
      "éľĩéľĩ": 5773,
      "æ¡ĥåŃĲ": 5774,
      "åıĭèª¼": 5775,
      "ħ§": 5776,
      "ä½Ĩä¿Ĥå¥½": 5777,
      "ä½Ĩä¿Ĥä½¢åĵĭéĥ½": 5778,
      "å¥½çİ©ãĹİ": 5779,
      "åĸºå¼µåĩ³åº¦": 5780,
      "ä½¢çŁ¥éģĵèĩªå·±": 5781,
      "è·ĿéĽ¢": 5782,
      "ĠÐ": 5783,
      "æĪĳå¹«ä½ł": 5784,
      "ä½łéľĢè¦ģ": 5785,
      "æĭĮ": 5786,
      "åļ´éĩį": 5787,
      "ĳèı": 5788,
      "ä½Ĩä¿Ĥä½¢å¤ª": 5789,
      "åĹ°éļ»": 5790,
      "Ġä¿ĤåĳĢ": 5791,
      "èĺĳèı": 5792,
      "åĳ¢åĢĭä¿ĤåĴ©åĳĢ": 5793,
      "æīĵéĸĭåĢĭç®±": 5794,
      "åĸºåº¦åĸºåº¦åĸºåº¦åĸºåº¦åĸºåº¦åĸºåº¦åĸºåº¦åĸºåº¦åĸºåº¦åĸºåº¦åĸºåº¦åĸºåº¦åĸºåº¦åĸºåº¦åĸºåº¦åĸºåº¦åĸºåº¦åĸºåº¦åĸºåº¦åĸºåº¦åĸºåº¦åĸºåº¦åĸºåº¦åĸºåº¦åĸºåº¦åĸºåº¦åĸºåº¦åĸºåº¦åĸºåº¦åĸºåº¦åĸºåº¦åĸºåº¦åĸºåº¦åĸºåº¦åĸºåº¦åĸºåº¦åĸºåº¦åĸºåº¦åĸºåº¦åĸºåº¦åĸºåº¦åĸºåº¦åĸºåº¦åĸºåº¦åĸºåº¦åĸºåº¦åĸºåº¦åĸºåº¦åĸºåº¦åĸºåº¦åĸºåº¦åĸºåº¦åĸºåº¦åĸºåº¦åĸºåº¦åĸºåº¦åĸºåº¦åĸºåº¦åĸºåº¦åĸºåº¦åĸºåº¦åĸºåº¦åĸºåº¦åĸºåº¦": 5795,
      "çĮ©çĮ©": 5796,
      "èĺĳèıĩ": 5797,
      "è¿Ķåķ²": 5798,
      "ä¾Ĩé£Ľåİ»": 5799,
      "é»ŀè§£åĴģ": 5800,
      "ç«¶": 5801,
      "æ´Ĺç¢Ĺ": 5802,
      "éĢŁåº¦": 5803,
      "èĪªè¡Į": 5804,
      "ĠçĿĩåĲĵ": 5805,
      "ä½¢éĺ¿å©Ĩ": 5806,
      "çİ©åķ¦": 5807,
      "ä½Ĩä¿ĤæĪĳåĵĭè¦ģ": 5808,
      "å¸¶ä½ıåĢĭ": 5809,
      "ä¾Ľ": 5810,
      "åĴĹåĢĭæ³¢": 5811,
      "å¥½å¥½äºº": 5812,
      "è¢ĭåħ¥éĿ¢": 5813,
      "æ¤ħ": 5814,
      "æķ¸åŃ¸": 5815,
      "ä½¢å¥½é©ļè¨Ŀ": 5816,
      "ä½¢åĵĭåħ©åĢĭäºº": 5817,
      "ç²¾å½©": 5818,
      "æĮĳæĪ°": 5819,
      "å¾ŀåīįæľīåħ©åĢĭæľĭåıĭ": 5820,
      "æĪĳåĵĭéį¾æĦı": 5821,
      "ä½¢åķ¦": 5822,
      "è¿Ķå±ĭä¼ģåĹ°éĻ£": 5823,
      "ç´ħç´ħ": 5824,
      "æĻļå®ī": 5825,
      "ç¤¦": 5826,
      "ä½łåĺħæľĭåıĭ": 5827,
      "ĬĢçīĽ": 5828,
      "ç¢ºä¿Ŀèĩªå·±": 5829,
      "¥ĩæĢª": 5830,
      "åħ«": 5831,
      "ä½¢åĵĭæľĽ": 5832,
      "çĶ¨ä½¢": 5833,
      "åĲĮåŁĭä¸Ģ": 5834,
      "åĽłçĤºä½¢åĶĶ": 5835,
      "ä½¢åĸºåħ¬åľĴåº¦": 5836,
      "é³¥åħĴ": 5837,
      "å£º": 5838,
      "è¿Ķå±ĭä¼ģåķ¦": 5839,
      "åĿĲåĸºåº¦": 5840,
      "å¯¶è²Ŀ": 5841,
      "é¦Ļç³ĸ": 5842,
      "åĢĭåľĪ": 5843,
      "çĿĢåĴĹä»¶": 5844,
      "åĢĭå·¢": 5845,
      "åĻıåĻıåĻıåĻıåĻıåĻıåĻıåĻıåĻıåĻıåĻıåĻıåĻıåĻıåĻıåĻıåĻıåĻıåĻıåĻıåĻıåĻıåĻıåĻıåĻıåĻıåĻıåĻıåĻıåĻıåĻıåĻı": 5846,
      "ä½¢å·²ç¶ĵ": 5847,
      "ä¾ĭå¦Ĥ": 5848,
      "çĬĢçīĽ": 5849,
      "åĺħèĬ±": 5850,
      "æĪĳæ·¨ä¿Ĥ": 5851,
      "è¦ĭåĪ°åķ²åĺ¢": 5852,
      "ĠMom": 5853,
      "åĲĮä½¢ä¸Ģé½Ĭçİ©": 5854,
      "æĪĲæĹ¥éĥ½æĥ³": 5855,
      "åĲĮåŁĭå¥½å¤ļ": 5856,
      "æĭīä½ıæīĭ": 5857,
      "èļĬ": 5858,
      "Ġf": 5859,
      "ä½¢ä¸ĢçĽ´": 5860,
      "å¥½æļĸ": 5861,
      "åĺħç´°è·¯": 5862,
      "åĺħæ¨Ĥè¶£": 5863,
      "ĠToby": 5864,
      "æİ§": 5865,
      "åĿĬ": 5866,
      "ä¿¾ä½¢èģ½": 5867,
      "æ±łå¡ĺåº¦": 5868,
      "ç®¡çĲĨåĵ¡": 5869,
      "å¥½åĸĩ": 5870,
      "åĪ°åĺħ": 5871,
      "æī£": 5872,
      "å°ıé´¨": 5873,
      "å¹¹": 5874,
      "çĪĽ": 5875,
      "æķ´åķ²": 5876,
      "å®ļä¿Ĥ": 5877,
      "æ»¿æ»¿": 5878,
      "ä½¢åĵĭè¦ĭåĪ°ä¸ĢåĢĭ": 5879,
      "ä½¢åĵĭè¦ĭåĪ°ä¸ĢåĢĭå¤§": 5880,
      "æįı": 5881,
      "çĸļ": 5882,
      "ĠRose": 5883,
      "æ²ĸæ¶¼": 5884,
      "lo": 5885,
      "åĲĮçİ©": 5886,
      "åĲĮæ°´": 5887,
      "ä½¢åĵĭæĲµ": 5888,
      "åĢĭåĲį": 5889,
      "åļŁåĴĹ": 5890,
      "çĦ¡åĬ©": 5891,
      "èĹıèµ·åļŁ": 5892,
      "ä½¢åĢĭçİ©åħ·": 5893,
      "ç¬¬äºĮæľĿ": 5894,
      "çīĽæ²¹æŀľ": 5895,
      "Ķ±æŃĮ": 5896,
      "ä½Ĺä½Ĺä½Ĺä½Ĺä½Ĺä½Ĺä½Ĺä½Ĺä½Ĺä½Ĺä½Ĺä½Ĺä½Ĺä½Ĺä½Ĺä½Ĺä½Ĺä½Ĺä½Ĺä½Ĺä½Ĺä½Ĺä½Ĺä½Ĺä½Ĺä½Ĺä½Ĺä½Ĺä½Ĺä½Ĺä½Ĺä½Ĺ": 5897,
      "¨äºº": 5898,
      "ļĩ": 5899,
      "ï¼Ľ": 5900,
      "ç¬¦": 5901,
      "å¼µåľ°æ¯¯": 5902,
      "æħĮ": 5903,
      "æ¡¿": 5904,
      "åľĸæ¡Ī": 5905,
      "é¹½": 5906,
      "åħ¶ä¸Ńä¸ĢåĢĭ": 5907,
      "è§Ģå¯Ł": 5908,
      "ĳåĽº": 5909,
      "å¾Ĺè¶ĬåļŁè¶Ĭ": 5910,
      "æĻĥ": 5911,
      "æĸ§": 5912,
      "è·¯ä¸Ĭ": 5913,
      "çı¾ä»£": 5914,
      "çµ¨": 5915,
      "åĳ¢åĢĭä¸»æĦı": 5916,
      "å¥½å¤§å¥½": 5917,
      "çŀĵç·Ĭ": 5918,
      "ç©ºæ°£ä¸Ń": 5919,
      "æĸĳé¦¬": 5920,
      "Ġåİ»åĪ°": 5921,
      "ä½¢æĭī": 5922,
      "ä½łåĶĶä¿Ĥ": 5923,
      "ä½Ĩä¿Ĥè·Łä½ı": 5924,
      "çıĬ": 5925,
      "è²»": 5926,
      "çĶ¨åļŁ": 5927,
      "ä¿¾ä½łåĵĭ": 5928,
      "åĸºåľ°éĿ¢": 5929,
      "ç¥ŀå¥ĩåĺħ": 5930,
      "oph": 5931,
      "ĠåĶĶä¿Ĥ": 5932,
      "åĸºä½¢åĺħ": 5933,
      "åĢĭåħī": 5934,
      "ĠSoph": 5935,
      "èµ·åĢĭ": 5936,
      "æ±ºå®ļåİ»": 5937,
      "å°įåĶĶä½ıåĳĢ": 5938,
      "å¤±åĴĹ": 5939,
      "é´¨åŃĲ": 5940,
      "ç·Ĭç·Ĭåľ°": 5941,
      "æ©¡çļ®": 5942,
      "ĠÑĩ": 5943,
      "çĢ": 5944,
      "ä½¢èĩªå·±": 5945,
      "åĴĹä½¢åª½åª½": 5946,
      "ä½¢åĵĭéĥ½æľĥ": 5947,
      "åĢĭå»": 5948,
      "éĸĭå¿ĥåĲĮ": 5949,
      "ĠSandy": 5950,
      "çĻ¼çı¾åĴĹä¸ĢåĢĭ": 5951,
      "äº®åĴĹ": 5952,
      "ä½¢åĵĭå¥½å¥ĩ": 5953,
      "åĳ¢åĢĭæĥħæ³ģ": 5954,
      "ä½¢åķıä½¢åª½": 5955,
      "æĲĸæĲĸ": 5956,
      "æĿ¾æŀľ": 5957,
      "å¥½æĥ³å¿«åķ²": 5958,
      "Ġéĥ½æĥ³": 5959,
      "åĺħé¡ıèī²": 5960,
      "ä½¢åĵĭçĿĩ": 5961,
      "èĩªå·±åĺħåĺ¢": 5962,
      "åĽŀæĨ¶": 5963,
      "ĠåĶĶä½¿": 5964,
      "æĩīæī¿æľĥ": 5965,
      "į³åĪ»": 5966,
      "èĺĩçµ²": 5967,
      "åº¦åĺħ": 5968,
      "å°±åİ»åĴĹ": 5969,
      "è¬Ļ": 5970,
      "éĸĭå§ĭèĲ½å±±": 5971,
      "æīĢä»¥ä½¢åĵĭå°±": 5972,
      "èª¿": 5973,
      "æ¼ı": 5974,
      "æ²Ļå¾": 5975,
      "æīĢæľīåĺ¢": 5976,
      "çŃĨè¨ĺ": 5977,
      "åļĩäººåĺħ": 5978,
      "ä½¢å¸¶ä½ı": 5979,
      "èµ°éĸĭåķ¦": 5980,
      "Ġåķ²": 5981,
      "éļ»åħ¬ä»Ķ": 5982,
      "ä½Ĩä¿Ĥçķ¶": 5983,
      "èĩªå·±éĸĵæĪ¿": 5984,
      "éį¾æĦıçİ©": 5985,
      "éģİåĴĹä¸ĢåĢĭ": 5986,
      "åķıéģİ": 5987,
      "ä¸įæĸ·": 5988,
      "ç¾Ĭæ¯Ľ": 5989,
      "åļķåļķåļķåļķåļķåļķåļķåļķåļķåļķåļķåļķåļķåļķåļķåļķåļķåļķåļķåļķåļķåļķåļķåļķåļķåļķåļķåļķåļķåļķåļķåļķåļķåļķåļķåļķåļķåļķåļķåļķåļķåļķåļķåļķåļķåļķåļķåļķåļķåļķåļķåļķåļķåļķåļķåļķåļķåļķåļķåļķåļķåļķåļķåļķåļķåļķåļķåļķåļķåļķåļķåļķåļķåļķåļķåļķåļķåļķåļķåļķåļķåļķåļķåļķåļķåļķåļķåļķåļķåļķåļķåļķåļķåļķåļķåļķåļķåļķåļķåļķåļķåļķåļķåļķåļķåļķåļķåļķåļķåļķåļķåļķåļķåļķåļķåļķåļķåļķåļķåļķåļķåļķåļķåļķåļķåļķåļķåļķåļķåļķåļķåļķåļķåļķåļķåļķåļķåļķåļķåļķåļķåļķåļķåļķåļķåļķåļķåļķåļķåļķåļķåļķåļķåļķåļķåļķåļķåļķåļķåļķåļķåļķåļķåļķåļķåļķåļķåļķåļķåļķåļķåļķåļķåļķåļķåļķåļķåļķåļķåļķåļķåļķåļķåļķåļķåļķåļķåļķåļķåļķåļķåļķåļķåļķåļķåļķåļķåļķåļķåļķåļķåļķåļķåļķåļķåļķåļķåļķåļķåļķåļķåļķåļķåļķåļķåļķåļķåļķåļķåļķåļķåļķåļķåļķåļķåļķåļķåļķåļķåļķåļķåļķåļķåļķåļķåļķåļķåļķåļķåļķåļķåļķåļķåļķåļķåļķåļķåļķåļķåļķåļķåļķåļķåļķåļķåļķ": 5990,
      "åĻ¥åĻ¥åĻ¥åĻ¥åĻ¥åĻ¥åĻ¥åĻ¥åĻ¥åĻ¥åĻ¥åĻ¥åĻ¥åĻ¥åĻ¥åĻ¥åĻ¥åĻ¥åĻ¥åĻ¥åĻ¥åĻ¥åĻ¥åĻ¥åĻ¥åĻ¥åĻ¥åĻ¥åĻ¥åĻ¥åĻ¥åĻ¥": 5991,
      "Łİåł¡": 5992,
      "ä½¢åĵĭçŁ¥éģĵ": 5993,
      "æ£ī": 5994,
      "å¼µçĽ¸": 5995,
      "ç¿Ķ": 5996,
      "åĤ·åĪ°": 5997,
      "ĠSusie": 5998,
      "ä»ĭæĦı": 5999,
      "ä½¢ç´°ä½¬": 6000,
      "åĺħåª½åª½": 6001,
      "ä½¢åĵĭåĸĬ": 6002,
      "åı¯åı¯": 6003,
      "ä½Ĩä¿ĤæľīæĻĤ": 6004,
      "åı¯ä»¥åĸº": 6005,
      "ç·ĬåĴ©": 6006,
      "ä»¶æģ¤è¡«": 6007,
      "å¥½ä¼¼å¥½": 6008,
      "æĶªæĭĮ": 6009,
      "ä½¢å¾Īå¿«å°±": 6010,
      "éħ·": 6011,
      "ã·«ã·«ã·«ã·«ã·«ã·«ã·«ã·«": 6012,
      "çĬ": 6013,
      "ĠæĲĸéłŃ": 6014,
      "éĸĭå¿ĥåĴĹ": 6015,
      "éĥ½è¦ģ": 6016,
      "çĶ¨æ¢Ŀ": 6017,
      "åħ¥åĴĹåİ»": 6018,
      "ä¸Ģé½Ĭçİ©å¾Ĺå¥½éĸĭå¿ĥ": 6019,
      "æµ·åĵ¡": 6020,
      "ä½Ĩä¿Ĥä½¢çŁ¥éģĵ": 6021,
      "çľ¼éı¡": 6022,
      "å¤§èģ²åĺħ": 6023,
      "ç´°ç´°éļ»åĺħéĽĢä»Ķ": 6024,
      "çģ°èī²": 6025,
      "Ġáº": 6026,
      "ĠåĶĶçŁ¥": 6027,
      "éļ»å¥½": 6028,
      "ç´Ĺ": 6029,
      "åİ»çŀĵè¦º": 6030,
      "è«ĹåĪ°": 6031,
      "çħ§èĢĢ": 6032,
      "æĶ¶åĪ°": 6033,
      "æ¯ıæĹ¥éĥ½ä¸Ģé½Ĭçİ©": 6034,
      "æ¯Ľæ¯Ľåĺħ": 6035,
      "åĢĭæ´ŀåº¦": 6036,
      "ä¿ĤæľĢå¥½åĺħ": 6037,
      "æľīå¿ĥ": 6038,
      "éļ»é¦¬": 6039,
      "å¾ŀåĹ°æĻĤéĸĭå§ĭ": 6040,
      "åĶĶæĥ³åĨį": 6041,
      "è¥¿çĵľ": 6042,
      "å°ģä¿¡": 6043,
      "ļæĦ§": 6044,
      "åĢĭéģĬæĪ²": 6045,
      "åĴģè©±": 6046,
      "ä½Ĩä¿Ĥè¦ģå°ıå¿ĥ": 6047,
      "å¾ĹåĴģ": 6048,
      "ç¬ĳä¸Ģç¬ĳ": 6049,
      "é£ŁæĻļé£¯": 6050,
      "ĠMillie": 6051,
      "éłŃçĽĶ": 6052,
      "æħļæĦ§": 6053,
      "åģľåĶĶåĪ°": 6054,
      "ä½¢éį¾æĦıåĸº": 6055,
      "éĮ¯èª¤": 6056,
      "ç£¨": 6057,
      "æ¸´æľĽ": 6058,
      "ä½łåĵĭæĥ³åĶĶæĥ³": 6059,
      "æĸ§éłŃ": 6060,
      "ä¿ĤåĴ©åĳĢ": 6061,
      "å¾Ĺä¸īæŃ²": 6062,
      "å¥½éį¾æĦıåĸº": 6063,
      "éĺ¿å¦¹": 6064,
      "çķ«å®¶": 6065,
      "ä¾Ĩèĩª": 6066,
      "æħ¢è·ĳ": 6067,
      "ä¿®å¾©": 6068,
      "æĪĲåĬŁåĴĹ": 6069,
      "ĠZo": 6070,
      "æªĶæ¡Ī": 6071,
      "éļ»åħĶ": 6072,
      "å¤§è¡£": 6073,
      "ä½łåĵĭæĩīè©²": 6074,
      "Ġä¿ĤéĽĻèĥŀèĥİ": 6075,
      "ç±¤": 6076,
      "åĭĩæķ¢åĲĮ": 6077,
      "åİŁä¾Ĩä¿Ĥä¸Ģéļ»": 6078,
      "åĴķåĴķ": 6079,
      "æ´ĭèĶ¥": 6080,
      "Ġè¿ĶåĪ°å±ĭä¼ģ": 6081,
      "è¦ĭåĪ°éļ»å¤§": 6082,
      "æ¯Ģ": 6083,
      "ä¼ģéµĿ": 6084,
      "æĸ¹åĲĳ": 6085,
      "çĿĩä½ıåķ²": 6086,
      "å¯¶å¯¶": 6087,
      "ä½¢åĵĭåİ»åĪ°": 6088,
      "æ±ĤåĬ©": 6089,
      "èĥĮå¿ĥ": 6090,
      "ŃĹ": 6091,
      "å¥½å¿Ļ": 6092,
      "åĢĭæ»ĳæ¢¯": 6093,
      "æľīç¦®è²Į": 6094,
      "ä½Ĩä¿Ĥä½łåĵĭè¦ģ": 6095,
      "éĿ¢åŃĶ": 6096,
      "æĲµä½¢": 6097,
      "çĻ¼åĴĹ": 6098,
      "çĻ¼èģ²": 6099,
      "ä½¢åĺħä¸»äºº": 6100,
      "åĤĳ": 6101,
      "ä»¶è¡«": 6102,
      "æĪĳåĵĭåĸº": 6103,
      "åħīäº®åĺħ": 6104,
      "æ¾Ĩ": 6105,
      "ç¥ŀç§ĺåĺħ": 6106,
      "ç¶Ń": 6107,
      "æµ·éĤĬ": 6108,
      "èħĨ": 6109,
      "çĪ¬æ¨¹": 6110,
      "æŁ±": 6111,
      "æĪĳæľĥå¹«ä½ł": 6112,
      "çµ²å¸¶": 6113,
      "åĸºå¤ªéĻ½ä¸ĭ": 6114,
      "åĢĭå±±": 6115,
      "ç«¶çĪŃ": 6116,
      "ĠæĦıèŃĺåĪ°": 6117,
      "ä½¢æĭ¿": 6118,
      "ä¸Ģæ£µæ¨¹": 6119,
      "åĴĹèĲ½åľ°": 6120,
      "æīĺ": 6121,
      "æĲµåķ²åĺ¢": 6122,
      "åľ°åķı": 6123,
      "æ±ºå®ļè¦ģ": 6124,
      "åı£é¦Ļç³ĸ": 6125,
      "æ´»æ½ĳ": 6126,
      "ç½°": 6127,
      "ĠAndy": 6128,
      "ä½łåı¯åĶĶåı¯ä»¥å¹«æĪĳ": 6129,
      "ee": 6130,
      "¤©": 6131,
      "ħħæ»¿": 6132,
      "ï¼ģãĢĮ": 6133,
      "ç´°åĢĭ": 6134,
      "çĿĩç·Ĭ": 6135,
      "èĹĿ": 6136,
      "æ¯ĽèŁ²": 6137,
      "ä½¢åķ²åħ¬ä»Ķ": 6138,
      "æĺİé»ŀè§£": 6139,
      "è³´": 6140,
      "ä½¢åĽĽåľįæĲµ": 6141,
      "èĪĴéģ©åĺħ": 6142,
      "çľĭèĲ½": 6143,
      "ĭåĸĦ": 6144,
      "èģļ": 6145,
      "æ¨¹åº¦": 6146,
      "èĪĪå¥®åĪ°": 6147,
      "åĴĹä¸ĢæĹ¥": 6148,
      "éģłéĽ¢": 6149,
      "æįīåĶĶåĪ°": 6150,
      "èĪŀèĢħ": 6151,
      "åĢĭé¬": 6152,
      "æ¨Ļç±¤": 6153,
      "ç°¾": 6154,
      "ä¸īè§Ĵå½¢": 6155,
      "åĲĮç¬ĳ": 6156,
      "åĲĮåŁĭä¸ĢåĢĭ": 6157,
      "èº«ä¸Ĭ": 6158,
      "åĻīåĺħåĺ¢": 6159,
      "ä½¢åĵĭæķ´": 6160,
      "ä½¢åĵĭæľĽä½ı": 6161,
      "ä½¢åĵĭäºĴçĽ¸": 6162,
      "æŃ£ç¢º": 6163,
      "çľ¼ç": 6164,
      "ä¿Ŀç¾ħ": 6165,
      "æľįé£¾": 6166,
      "åº§å¤§": 6167,
      "åĬŁèª²": 6168,
      "æ£ĴçĲĥ": 6169,
      "ä»¥åīįæľīåĢĭç´°è·¯åı«": 6170,
      "ä½¢å¿«æīĭ": 6171,
      "·åģ·": 6172,
      "ĬªåĬĽ": 6173,
      "æĪĳéĥ½ä¿Ĥ": 6174,
      "åı¯ä»¥ä»¤": 6175,
      "æĲį": 6176,
      "èĩªå·±åĸº": 6177,
      "èĢģå©Ĩå©Ĩ": 6178,
      "é£Ľä¾Ĩé£Ľåİ»": 6179,
      "èĢĮæĦŁåĪ°é©ķåĤ²": 6180,
      "éĸĥéĽ»": 6181,
      "åĴĹåķ²åĴ©åĳĢ": 6182,
      "æµ·æµª": 6183,
      "éķ·åĺħ": 6184,
      "æĳ¸ä¸ĭ": 6185,
      "é¡ıèī²åĺħ": 6186,
      "éģİåĴĹä¸ĢåĢĭå¥½éĸĭå¿ĥåĺħ": 6187,
      "ĠåĺĹè©¦": 6188,
      "åĲĮå¥½": 6189,
      "åº¦æĲµåĪ°": 6190,
      "ä½Ĩä¿Ĥçķ¶ä½¢": 6191,
      "åĢĭå°ıå¥³åŃ©å¥½éĸĭå¿ĥ": 6192,
      "éĸĭå§ĭåĴĹ": 6193,
      "åĲĮä½¢ä¸Ģé½Ĭ": 6194,
      "æĢ¥æĢ¥": 6195,
      "ä¸Ģæľµ": 6196,
      "çİ©åĴĹæĪĲæĹ¥": 6197,
      "å¤§çĨĬ": 6198,
      "å¼µåľ°åľĸ": 6199,
      "åįļ": 6200,
      "æĬĬåĪĢ": 6201,
      "ä½¢æľĽä¸ĭ": 6202,
      "ç¸®": 6203,
      "ä½łçŁ¥åĶĶçŁ¥": 6204,
      "ä½¢åĵĭåĺĹè©¦": 6205,
      "é£Łåĺħ": 6206,
      "å¸³ç¯·": 6207,
      "ä½¢åĸºåĢĭ": 6208,
      "æĺİåĶĶæĺİ": 6209,
      "çį¨çī¹": 6210,
      "å¸ĥæľĹ": 6211,
      "åŁİå¸Ĥ": 6212,
      "æ£Ĵæ£Ĵ": 6213,
      "åŁĭåļŁåŁĭåļŁåŁĭåļŁåŁĭåļŁåŁĭåļŁåŁĭåļŁåŁĭåļŁåŁĭåļŁ": 6214,
      "è¡Ľ": 6215,
      "æ¯ıçķ¶": 6216,
      "æķĳèŃ·": 6217,
      "åĳ¨åľįåĺħä¸ĸçķĮ": 6218,
      "åĲ¹åı£åĵ¨": 6219,
      "éĽľèªĮ": 6220,
      "æŃ»åĴĹ": 6221,
      "ä½¢åĵĭæĵģæĬ±åĴĹ": 6222,
      "è·ĳåļŁè·ĳåİ»": 6223,
      "æĿ±è¥¿": 6224,
      "ĵĭ": 6225,
      "ä½¢åħĪ": 6226,
      "è·³èĲ½åİ»": 6227,
      "æ¯Ķåķ²": 6228,
      "æĢĸ": 6229,
      "ä¿¡åĶĶéģİ": 6230,
      "å¥½çİ©åĳĢ": 6231,
      "è¢«è¢«": 6232,
      "éŃĶè¡ĵ": 6233,
      "æģĲæĢĸ": 6234,
      "éĥµç¥¨": 6235,
      "æ£Ĵæ£Ĵç³ĸ": 6236,
      "İŁ": 6237,
      "åĢ¼": 6238,
      "åĢĭè¢ĭ": 6239,
      "éį¾æĦıåĸº": 6240,
      "ä¸ĢåĢĭåľ": 6241,
      "è¿½ä½ıä½¢": 6242,
      "éĸĭéĹľ": 6243,
      "ä½¢åĢĭæ³¢": 6244,
      "æĴ¿èµ·ä½¢": 6245,
      "èºį": 6246,
      "çħ§é¡§ä½¢": 6247,
      "æ¨ĻèªĮ": 6248,
      "æīĢæľīäººéĥ½": 6249,
      "ĠEllie": 6250,
      "ĠGrace": 6251,
      "½Ī": 6252,
      "èį": 6253,
      "ĹæĺŁ": 6254,
      "ä½¢é©ļ": 6255,
      "äºķ": 6256,
      "å°±æĥ³": 6257,
      "è·ĳåĪ°": 6258,
      "åĳ¢ä»¶": 6259,
      "èĬ±åľĴåĪ°çİ©": 6260,
      "è·ĮèĲ½åļŁ": 6261,
      "é¦ĸæŃĮ": 6262,
      "çĪ¬åĪ°éłĤ": 6263,
      "çĽŀçĩĪ": 6264,
      "st": 6265,
      "åĲĮä½¢åĵĭè¬Ľ": 6266,
      "åĢĭçĽĴ": 6267,
      "èī·": 6268,
      "é»ŀåĳĢ": 6269,
      "å°įäºº": 6270,
      "æĪĳåĵĭåĸºåº¦": 6271,
      "æĦĽå¿ĥ": 6272,
      "è¡Ŀéģİåİ»": 6273,
      "åĽĽåľįèµ°": 6274,
      "æ²³é¦¬": 6275,
      "åĦ²": 6276,
      "»ºéĢł": 6277,
      "åĸ¬æ²»": 6278,
      "ç¬¦èĻŁ": 6279,
      "ou": 6280,
      "sh": 6281,
      "ä½¢ç¬ĳä½ı": 6282,
      "åĴģåķı": 6283,
      "å°±å°ĩ": 6284,
      "éĥ½åĸºåº¦": 6285,
      "å¥½éł": 6286,
      "è¬Ľåĺħ": 6287,
      "è»Į": 6288,
      "åģļåĺ¢": 6289,
      "Ġå¥½åĳĢ": 6290,
      "ä½¢åª½åª½ç¬ĳåĴĹ": 6291,
      "å¤ªç©º": 6292,
      "ä½¢è¦ĭåĪ°åķ²": 6293,
      "ĠåĸºèĬ±åľĴåº¦çİ©ç·Ĭ": 6294,
      "åĭĩæķ¢åĺħ": 6295,
      "å¥½å¥ĩåĺħ": 6296,
      "æĭįä¸ĭ": 6297,
      "éĮ¢è²·": 6298,
      "çİ©åĪ°å¥½éĸĭå¿ĥ": 6299,
      "ä½¢å¿«æīĭå": 6300,
      "éĢĥéĽ¢": 6301,
      "æĶ¬ä½ı": 6302,
      "åĺľ": 6303,
      "åİ»æĹħè¡Į": 6304,
      "å¾Ĺéĸĭå¿ĥ": 6305,
      "çŁ¥åĪ°": 6306,
      "åĽłçĤºä½¢åĵĭ": 6307,
      "é©ļåĸĩ": 6308,
      "èĪŀåĭķ": 6309,
      "æ½Ľ": 6310,
      "åīµä½ľ": 6311,
      "éĬĢåĮħ": 6312,
      "åĸºåĸºåĸºåĸºåĸºåĸºåĸºåĸºåĸºåĸºåĸºåĸºåĸºåĸºåĸºåĸºåĸºåĸºåĸºåĸºåĸºåĸºåĸºåĸºåĸºåĸºåĸºåĸºåĸºåĸºåĸºåĸºåĸºåĸºåĸºåĸºåĸºåĸºåĸºåĸºåĸºåĸºåĸºåĸºåĸºåĸºåĸºåĸºåĸºåĸºåĸºåĸºåĸºåĸºåĸºåĸºåĸºåĸºåĸºåĸºåĸºåĸºåĸºåĸºåĸºåĸºåĸºåĸºåĸºåĸºåĸºåĸºåĸºåĸºåĸºåĸºåĸºåĸºåĸºåĸºåĸºåĸºåĸºåĸºåĸºåĸºåĸºåĸºåĸºåĸºåĸºåĸºåĸºåĸºåĸºåĸºåĸºåĸºåĸºåĸºåĸºåĸºåĸºåĸºåĸºåĸºåĸºåĸºåĸºåĸºåĸºåĸºåĸºåĸºåĸºåĸºåĸºåĸºåĸºåĸºåĸºåĸºåĸºåĸºåĸºåĸºåĸºåĸº": 6313,
      "åĴĹåĸº": 6314,
      "éĿ¢ç´Ĺ": 6315,
      "å¥³çİĭ": 6316,
      "åĹ°åķ²": 6317,
      "æŃ£åĺħ": 6318,
      "é£ĽåļŁ": 6319,
      "ä»²æľīåĢĭ": 6320,
      "çĨĬè²ĵ": 6321,
      "ä¸ĭåķ²": 6322,
      "éļ»å¤§è±¡": 6323,
      "ç¢Ĺåº¦": 6324,
      "èĬĴ": 6325,
      "è¶³å¤ł": 6326,
      "åĸĺæ°£": 6327,
      "åĢī": 6328,
      "èĪĩ": 6329,
      "åĩºèģ²": 6330,
      "æ°´åĲĮ": 6331,
      "é£ĽåĴĹ": 6332,
      "åĲĮåŁĭå°į": 6333,
      "éĥ¨åĪĨ": 6334,
      "å±ĭåħ§": 6335,
      "çĻ¼çĶŁåĴĹåĴ©äºĭåĳĢ": 6336,
      "æ¼Ĥäº®åĺħèĬ±": 6337,
      "çıįæĥľ": 6338,
      "ä½¢çĪ¬ä¸Ĭ": 6339,
      "ä½¢åĵĭæĭī": 6340,
      "è¬Ľéģİ": 6341,
      "éį¾æĦıé£Ł": 6342,
      "ä½¢å¥½å¥½å¥ĩ": 6343,
      "å¤ªå¤ª": 6344,
      "æĽ¸æŀ¶": 6345,
      "ä½¢éļ»èħ³": 6346,
      "ä½¢åļŁè¬Ľ": 6347,
      "åŃ¤åĸ®": 6348,
      "ĠBuddy": 6349,
      "æ¯ıåĢĭäººéĥ½": 6350,
      "åĺŁåĺŁ": 6351,
      "åĲĮèĪĪå¥®": 6352,
      "ä½łæľī": 6353,
      "ä½Ĩä¿Ĥå¤ª": 6354,
      "æıĲä¾Ľ": 6355,
      "åĬłåħ¥ä½¢åĵĭ": 6356,
      "åĢĭåįĹçĵľ": 6357,
      "éĿ¢å¸¶å¾®ç¬ĳ": 6358,
      "ıå¹ķ": 6359,
      "ä»ĺ": 6360,
      "åĸºä¸ĢåĢĭå¤§": 6361,
      "ä½Ĩä¿ĤçĦ¡": 6362,
      "éĸĵç´°ç´°åĺħ": 6363,
      "å¥½å¤ļäºº": 6364,
      "åģļåĺħåĺ¢": 6365,
      "é¤ĺ": 6366,
      "çĲĥåł´": 6367,
      "åĴĹä¸ĢåĢĭæķĻè¨ĵ": 6368,
      "çİ©å¾Ĺéĸĭå¿ĥåķ²": 6369,
      "æĭĴçµķ": 6370,
      "Ġä¸Ģ": 6371,
      "ä½¢å¥½é©ķåĤ²": 6372,
      "å¥¹": 6373,
      "è©©": 6374,
      "ä½łåı«åĴ©åĲį": 6375,
      "é£ŁåįĪé¤Ĳ": 6376,
      "å¼µæ²ĻçĻ¼": 6377,
      "æĬ±å¯¦": 6378,
      "è¶ķ": 6379,
      "å¤ªéĻ½éĸĭå§ĭèĲ½å±±": 6380,
      "è£Ŀä½ľ": 6381,
      "é»ĳæļĹ": 6382,
      "å¤©ä¸Ĭåĺħ": 6383,
      "åĺħåĺ¢åĺħåĺ¢åĺħåĺ¢åĺħåĺ¢": 6384,
      "ä½łåĶĶå¥½": 6385,
      "åķ²åĺħ": 6386,
      "å®ĥ": 6387,
      "å¾Ĺè¶Ĭ": 6388,
      "è·ĳèµ°": 6389,
      "æĶŀåĴĹåĢĭ": 6390,
      "æĶŀåĴĹåķ²": 6391,
      "åĢĭå¥³äºº": 6392,
      "è®Ĭåģļ": 6393,
      "åį¡éĢļ": 6394,
      "é¤ħä¹¾": 6395,
      "è¶ĬåļŁè¶Ĭå¤§": 6396,
      "é¡¯ç¤º": 6397,
      "å¥½äºĤ": 6398,
      "åĸºæ¢Ŀ": 6399,
      "è¬Ľæķħäºĭ": 6400,
      "è²§": 6401,
      "æŀ¶åĸ®è»Ĭ": 6402,
      "ä¿¾ä½¢åª½åª½": 6403,
      "ĺħæĻĤåĢĻ": 6404,
      "å¼µåĴŃ": 6405,
      "èĢĮæīĵäº¤": 6406,
      "æĶŀåĩºåļŁ": 6407,
      "æĸ¹å¼ı": 6408,
      "çĦ¡å®³": 6409,
      "çİ©ç·Ĭåĺ¢": 6410,
      "åĳ¢åĢĭå°±": 6411,
      "çįİåĵģ": 6412,
      "ä½¢åģľä½İåĴĹ": 6413,
      "è¼ķè¼ķåĴģ": 6414,
      "æĪĲçĤºåĴĹå¥½å¥½åĺħæľĭåıĭ": 6415,
      "ä½¢åĵĭåģĩè£Ŀ": 6416,
      "ä½¢åį³åĪ»": 6417,
      "åĲĮä½¢åĵĭåĺħ": 6418,
      "ä½¢åĵĭéĥ½å¥½éĸĭå¿ĥ": 6419,
      "ä»¥çĤº": 6420,
      "è¿Ķè¿Ķ": 6421,
      "æĲµåĪ°ä½¢": 6422,
      "ç©Ģ": 6423,
      "åĲĮä½¢èĢģè±Ĩ": 6424,
      "èĳīåŃĲ": 6425,
      "çĪ¶è¦ª": 6426,
      "§éĿľ": 6427,
      "ĠåĨĩ": 6428,
      "å¥½åŃ¤çį¨": 6429,
      "èģ¾": 6430,
      "éĺ¿åª½éĺ¿çĪ¸": 6431,
      "çĶ¨ç©įæľ¨": 6432,
      "Ġå¥½åķ¦": 6433,
      "ä»¶å¤¾": 6434,
      "é«ĺå¤§åĺħ": 6435,
      "åĸºåľ°æĿ¿": 6436,
      "éĩįè¦ģåĺħæķĻè¨ĵ": 6437,
      "ä½łåĶĶæĩīè©²": 6438,
      "æĶ¾å¿ĥåĴĹ": 6439,
      "ä½¢è¿ĶåĪ°å±ĭä¼ģ": 6440,
      "çİ©åĺħæĻĤåĢĻ": 6441,
      "æķ´èĽĭç³ķ": 6442,
      "æķ´äºĤ": 6443,
      "çİ©åħ·åĲĮåŁĭ": 6444,
      "çī©é¤¨": 6445,
      "åľįçīĨ": 6446,
      "¾ĮæĤĶ": 6447,
      "ç¨į": 6448,
      "èĪŀåı°": 6449,
      "æĭįæīĭåĲĮ": 6450,
      "æ¯ıå¤©æĹ©ä¸Ĭ": 6451,
      "èľĤå·¢": 6452,
      "ç±ĥçĲĥ": 6453,
      "æµ·è±¹": 6454,
      "æľīéĮ¢äºº": 6455,
      "æľ«": 6456,
      "åĺħæ¨£": 6457,
      "åĴģè¡Į": 6458,
      "è¦ģèµ°": 6459,
      "å¿ĥéĩį": 6460,
      "ä¸ĬéĿ¢å¯«ä½ı": 6461,
      "ä¿®å¥½åĴĹ": 6462,
      "çĳļ": 6463,
      "Ġthe": 6464,
      "æ¨ĤæĦıå¹«æīĭ": 6465,
      "çĪ¾å¤«": 6466,
      "åĢĭåľįæ¬Ħ": 6467,
      "ĠÐ´": 6468,
      "çıĬçĳļ": 6469,
      "å¥½æľŁå¾ħ": 6470,
      "ä¿Ĥæ¯Ķ": 6471,
      "éļ»é¾į": 6472,
      "éĺ¿éºĹçµ²": 6473,
      "åı¯ä»¥åĳĢ": 6474,
      "æ°´å¡ĺ": 6475,
      "å®īå¿ĥ": 6476,
      "ĠAb": 6477,
      "çĽ¸çīĩ": 6478,
      "æŀĿæ£į": 6479,
      "éļ»å°ıé³¥": 6480,
      "å°ıæľĭåıĭåĸº": 6481,
      "æ©Ļèī²åĺħ": 6482,
      "åĸºåħ¬åľĴåº¦è¡Įç·Ĭ": 6483,
      "ä½¢åĵĭèģ½åĪ°ä¸Ģèģ²": 6484,
      "Ġ3": 6485,
      "å¥½ç¬ĳåĺħ": 6486,
      "åĢĭéĸĢ": 6487,
      "åĸºåľ°ä¸Ĭ": 6488,
      "éĺ¿è³ĵ": 6489,
      "ä½Ĩä¿Ĥå°±": 6490,
      "é£Ħ": 6491,
      "è¦ĭåĶĶåĪ°": 6492,
      "ç´°å¥³": 6493,
      "å°įä½¢åļŁè¬Ľ": 6494,
      "æĸ°åĺħåĺ¢": 6495,
      "æĿ°": 6496,
      "æ¬¢": 6497,
      "é«ĺåĺħ": 6498,
      "åĢĭéĬĢ": 6499,
      "é»ŀè§£æľĥåĴģ": 6500,
      "ĠÑĥ": 6501,
      "æĻ®éĢļåĺħ": 6502,
      "å´": 6503,
      "ä½¢å¿ĺè¨ĺåĴĹ": 6504,
      "æĸĹ": 6505,
      "æ¨¹éłĤ": 6506,
      "æĪĳåĵĭå°į": 6507,
      "åĤ·åĴĹéļ»": 6508,
      "ä½¢å°±è©±": 6509,
      "å¿«åķ²è¿ĶåļŁ": 6510,
      "ä½¢åĵĭåª½åª½": 6511,
      "å¥½å¿«å°±": 6512,
      "ä½¢åĵĭåĿĲä½İ": 6513,
      "ðł®¨ðł®¨ðł®¨ðł®¨ðł®¨ðł®¨ðł®¨ðł®¨ðł®¨ðł®¨ðł®¨ðł®¨ðł®¨ðł®¨ðł®¨ðł®¨ðł®¨ðł®¨ðł®¨ðł®¨ðł®¨ðł®¨ðł®¨ðł®¨ðł®¨ðł®¨ðł®¨ðł®¨ðł®¨ðł®¨ðł®¨ðł®¨": 6514,
      "æ£Łå¤§": 6515,
      "å¬": 6516,
      "Ġä½¢åĵĭ": 6517,
      "åĺ°": 6518,
      "æĪĳåĶĶæľĥ": 6519,
      "äººå¹«æīĭ": 6520,
      "è¿Ķåħ¥": 6521,
      "ĠåĲĮä½¢èĢģè±Ĩ": 6522,
      "çĻ¾": 6523,
      "ä½¢åĶĶå¥½": 6524,
      "æ·¡": 6525,
      "ä½¢åĵĭå¥½é©ļ": 6526,
      "èħ¸": 6527,
      "çģ«éĽŀ": 6528,
      "æĳ©": 6529,
      "æ¸¸ç·Ĭ": 6530,
      "å¿«æ¨Ĥåĺħ": 6531,
      "èĳĹå¥½": 6532,
      "å¥ĩæĢªåĺħ": 6533,
      "åĲĮä½¢åķ²æľĭåıĭä¸Ģé½Ĭçİ©": 6534,
      "ç¯ĢçĽ®": 6535,
      "é£½": 6536,
      "è·³åĴĹ": 6537,
      "ä»¶å¤ĸå¥Ĺ": 6538,
      "æ½®": 6539,
      "åľĪåľĪ": 6540,
      "å¤§èģ²åĺħèģ²éŁ³": 6541,
      "æµ´å®¤": 6542,
      "å¼ķæĵİ": 6543,
      "ç¢İçīĩ": 6544,
      "èį·": 6545,
      "Ġå°įåĶĶä½ı": 6546,
      "å¥½æĤ¶": 6547,
      "åĲĮéĺ¿çĪ¸": 6548,
      "æĪĳåĵĭéľĢè¦ģ": 6549,
      "éĢĹ": 6550,
      "çĻ¼çı¾åĢĭ": 6551,
      "æ¬ł": 6552,
      "åĻ´å°Ħ": 6553,
      "æ©Łåł´": 6554,
      "çħ²": 6555,
      "å¦Ŀ": 6556,
      "æ«»": 6557,
      "æıĲçĲ´": 6558,
      "ä½¢è·ĳéģİåİ»": 6559,
      "çīĮåŃĲ": 6560,
      "é¬Ĩé¤ħ": 6561,
      "çĽ®æ¨Ļ": 6562,
      "ç»ı": 6563,
      "èĸ¯ä»Ķ": 6564,
      "èŀºçµ²": 6565,
      "ä½¢ä»įçĦ¶": 6566,
      "Ġå¥½å¾ĮæĤĶ": 6567,
      "çĨŁ": 6568,
      "è¼Ľ": 6569,
      "ç§¤": 6570,
      "ç©ºåĺħ": 6571,
      "åº§å¡Ķ": 6572,
      "ä½¢åĵĭåķ²çİ©åħ·": 6573,
      "æľĪäº®": 6574,
      "çĺĭ": 6575,
      "å¾ŀåīįæľīåĢĭå°ıçĶ·åŃ©åı«": 6576,
      "å¥½åĳ³åĺħ": 6577,
      "åĢĭæ¨£": 6578,
      "åĢĭéĺ¿å§Ĳ": 6579,
      "å¿«å¿«": 6580,
      "çĶŁåĳ½": 6581,
      "åĴĹä¸Ģæ¢Ŀ": 6582,
      "åħīèĬĴ": 6583,
      "æµ·æ´ĭå": 6584,
      "ç¦®æĭľ": 6585,
      "èŃ¦è¦º": 6586,
      "åĸºå¼µåºĬåº¦è·³åļŁè·³åİ»": 6587,
      "ĠåĳĢ": 6588,
      "ä½¢æĭ¿ä½ı": 6589,
      "ä½¢å®īåħ¨": 6590,
      "åĽī": 6591,
      "æ¨¹ä¸Ĭ": 6592,
      "ä½łåĵĭåı": 6593,
      "ç¹ª": 6594,
      "çģĳ": 6595,
      "åĶĶä¿Ĥçİ©åħ·": 6596,
      "é«ĺçĪ¾å¤«": 6597,
      "çŃīåĶĶåĪĩ": 6598,
      "éŃĶæ³ķæ£Ĵ": 6599,
      "ä¸ĢåĢĭå°ıçĶ·åŃ©": 6600,
      "å°±è·ĳéģİåİ»": 6601,
      "éĢĢå¾Į": 6602,
      "æķ²éĸĢ": 6603,
      "å¨ģ": 6604,
      "çµĲåĴĹå°¾": 6605,
      "çĺĭçĭĤ": 6606,
      "Ġå¹«æīĭ": 6607,
      "Ġä»įçĦ¶": 6608,
      "ä½¢æĮĩåĲĳ": 6609,
      "éĸĭåļŁ": 6610,
      "åı¯æĢķ": 6611,
      "å¿«åĺħ": 6612,
      "è·³åĪ°": 6613,
      "æĶŀåĪ°": 6614,
      "æ·ĭ": 6615,
      "åħ¥éĿ¢æľīä¸Ģ": 6616,
      "è¾Ľ": 6617,
      "ä½¢å°įèĩªå·±åĺħ": 6618,
      "å¤«äºº": 6619,
      "é½Ĭé½Ĭ": 6620,
      "åĢĭèĢģäººå®¶": 6621,
      "ä½¢åĵĭåķ²æľĭåıĭ": 6622,
      "åĪ°èĻķéĥ½ä¿Ĥ": 6623,
      "åĺħè·¯ä¸Ĭ": 6624,
      "ĳ³": 6625,
      "ä½¢éĸī": 6626,
      "å¥½å¾ĮæĤĶ": 6627,
      "ä¿ĤæĪĳåĵĭåĺħ": 6628,
      "éļ»çĭ¼": 6629,
      "ä½Ĩä¿Ĥå¤ªéģ²åĸĩ": 6630,
      "å¹»": 6631,
      "é£ŁéĽªç³ķ": 6632,
      "ä½¢å¥½å¤§": 6633,
      "æŀ¶è²¨è»Ĭ": 6634,
      "ä½¢åĸºæ£®æŀĹåº¦": 6635,
      "çµĦ": 6636,
      "Ġè¦ĭåĪ°ä¸ĢåĢĭ": 6637,
      "æª¯": 6638,
      "æł¼": 6639,
      "éºµç³": 6640,
      "æĶ¾åħ¥åĢĭ": 6641,
      "åķ±åĺħ": 6642,
      "au": 6643,
      "å¢¨": 6644,
      "Ġèªª": 6645,
      "ä½¢æĶ¾": 6646,
      "ä½łãĹİ": 6647,
      "å¤§èĩªçĦ¶": 6648,
      "ĠSn": 6649,
      "å½¼æŃ¤": 6650,
      "æıļ": 6651,
      "åı¯èĥ½æľī": 6652,
      "ä¸ĭåĸº": 6653,
      "ä¿¡è³´": 6654,
      "ç©ºéĸĵ": 6655,
      "ĠJoey": 6656,
      "è¿·å®®": 6657,
      "å¿«æīĭå¿«èħ³": 6658,
      "ack": 6659,
      "ľ°": 6660,
      "ä½¢æĶ¾ä½İ": 6661,
      "ä½¢åĻī": 6662,
      "åĸºéĤĬåĳĢ": 6663,
      "æĪĳéĥ½æĥ³": 6664,
      "åĪĿéłŃ": 6665,
      "ä»²æľª": 6666,
      "å½ĹæĺŁ": 6667,
      "ä¸Ģé½Ĭçİ©åķ¦": 6668,
      "ä¿ĿçķĻ": 6669,
      "éģĬèīĩ": 6670,
      "ä»¥åīįæľīåĢĭå¥³ä»Ķ": 6671,
      "éĸĭå¿ĥåĺħä¸ĢæĹ¥": 6672,
      "æİĽåĸº": 6673,
      "æº«æŁĶåĴģ": 6674,
      "çħİé¤ħ": 6675,
      "sy": 6676,
      "åĲĮä¸ĢåĢĭ": 6677,
      "åı¯ä»¥å¹«åĪ°": 6678,
      "ĠBet": 6679,
      "åıĪå¥½": 6680,
      "æĬ±ä½ıåĢĭ": 6681,
      "è¼Ŀ": 6682,
      "çªĹåº¦": 6683,
      "èĥĮåĮħ": 6684,
      "æķħäºĭå°±ä¿ĤåĴģçµĲåĴĹå°¾": 6685,
      "æ¸¬è©¦": 6686,
      "æķĳèŃ·è»Ĭ": 6687,
      "æ¬¢åĳ¼": 6688,
      "åĲĮéļ»çĭĹ": 6689,
      "ä¿ĤåĢĭ": 6690,
      "çİ©åķ²": 6691,
      "ä½Ĩä¿Ĥå¥½éĽ£": 6692,
      "è¦ĭåĪ°åĢĭå¤§": 6693,
      "ä¸ĢéĿ": 6694,
      "å¾ŀåīįæľīåĢĭç´°è·¯ä»Ķ": 6695,
      "ĠRosie": 6696,
      "¯¶è²´": 6697,
      "ĠãĢį": 6698,
      "ĠåŃ¸èŃĺåĴĹ": 6699,
      "Ġda": 6700,
      "ä½¢å¿ĥ": 6701,
      "éĸ£": 6702,
      "åĸºéĻĦè¿ĳ": 6703,
      "éļ»è±¬": 6704,
      "ä½łåĳĢ": 6705,
      "ä½Ĩä¿ĤèĢĮå®¶": 6706,
      "æĶĢ": 6707,
      "åĪĿ": 6708,
      "ä½¢å¥½æľŁå¾ħ": 6709,
      "ä¸īåĢĭ": 6710,
      "æĪĲçĤºæľĢä½³": 6711,
      "ä¿ĿæĮģå®īåħ¨": 6712,
      "æīĵéĸĭä½¢": 6713,
      "è¶ħå¤§åĺħ": 6714,
      "å¼µåºĬåº¦": 6715,
      "åĲłåı«": 6716,
      "è¨±é¡ĺ": 6717,
      "æĺİçĻ½åĴĹ": 6718,
      "åº¦éģİåĴĹä¸ĢåĢĭ": 6719,
      "ĭĩæķ¢åĺħ": 6720,
      "ä¸Ģåł´å¤§": 6721,
      "æ«»æ¡ĥ": 6722,
      "Ġè¡Į": 6723,
      "åĲĮæ»ĳæ¢¯": 6724,
      "åĲĮåŁĭç¬ĳ": 6725,
      "çĭĹåı«": 6726,
      "åįĢ": 6727,
      "èĢĮæĦŁåĪ°": 6728,
      "ç¹¼çºĮä½¢åĺħ": 6729,
      "ç¤ģ": 6730,
      "åŁĭåĢĭ": 6731,
      "è¢«åĽ°": 6732,
      "æķ¸åĪ°": 6733,
      "çħĻåĽ": 6734,
      "å¥½åį±éļªãĹİ": 6735,
      "ĠSophie": 6736,
      "ä½¢æ¸¸": 6737,
      "æľīéľĢè¦ģ": 6738,
      "æĪĳåıªä¿Ĥ": 6739,
      "éģİåĺħ": 6740,
      "è·ĳåĴĹèµ°": 6741,
      "æĬ±ç·Ĭ": 6742,
      "é¢¨æīĩ": 6743,
      "æ´Ĺè¡£": 6744,
      "ĠWh": 6745,
      "çĪŃè«ĸ": 6746,
      "é¦ĸåħĪ": 6747,
      "åĻ¹åĻ¹åĻ¹åĻ¹åĻ¹åĻ¹åĻ¹åĻ¹åĻ¹åĻ¹åĻ¹åĻ¹åĻ¹åĻ¹åĻ¹åĻ¹åĻ¹åĻ¹åĻ¹åĻ¹åĻ¹åĻ¹åĻ¹åĻ¹åĻ¹åĻ¹åĻ¹åĻ¹åĻ¹åĻ¹åĻ¹åĻ¹åĻ¹åĻ¹åĻ¹åĻ¹åĻ¹åĻ¹åĻ¹åĻ¹åĻ¹åĻ¹åĻ¹åĻ¹åĻ¹åĻ¹åĻ¹åĻ¹åĻ¹åĻ¹åĻ¹åĻ¹åĻ¹åĻ¹åĻ¹åĻ¹åĻ¹åĻ¹åĻ¹åĻ¹åĻ¹åĻ¹åĻ¹åĻ¹åĻ¹åĻ¹åĻ¹åĻ¹åĻ¹åĻ¹åĻ¹åĻ¹åĻ¹åĻ¹åĻ¹åĻ¹åĻ¹åĻ¹åĻ¹åĻ¹åĻ¹åĻ¹åĻ¹åĻ¹åĻ¹åĻ¹åĻ¹åĻ¹åĻ¹åĻ¹åĻ¹åĻ¹åĻ¹åĻ¹åĻ¹åĻ¹åĻ¹åĻ¹åĻ¹åĻ¹åĻ¹åĻ¹åĻ¹åĻ¹åĻ¹åĻ¹åĻ¹åĻ¹åĻ¹åĻ¹åĻ¹åĻ¹åĻ¹åĻ¹åĻ¹åĻ¹åĻ¹åĻ¹åĻ¹åĻ¹åĻ¹åĻ¹åĻ¹åĻ¹åĻ¹åĻ¹åĻ¹åĻ¹åĻ¹åĻ¹åĻ¹åĻ¹åĻ¹åĻ¹åĻ¹åĻ¹åĻ¹åĻ¹åĻ¹åĻ¹åĻ¹åĻ¹åĻ¹åĻ¹åĻ¹åĻ¹åĻ¹åĻ¹åĻ¹åĻ¹åĻ¹åĻ¹åĻ¹åĻ¹åĻ¹åĻ¹åĻ¹åĻ¹åĻ¹åĻ¹åĻ¹åĻ¹åĻ¹åĻ¹åĻ¹åĻ¹åĻ¹åĻ¹åĻ¹åĻ¹åĻ¹åĻ¹åĻ¹åĻ¹åĻ¹åĻ¹åĻ¹åĻ¹åĻ¹åĻ¹åĻ¹åĻ¹åĻ¹åĻ¹åĻ¹åĻ¹åĻ¹åĻ¹åĻ¹åĻ¹åĻ¹åĻ¹åĻ¹åĻ¹åĻ¹åĻ¹åĻ¹åĻ¹åĻ¹åĻ¹åĻ¹åĻ¹åĻ¹åĻ¹åĻ¹åĻ¹åĻ¹åĻ¹åĻ¹åĻ¹åĻ¹åĻ¹åĻ¹åĻ¹åĻ¹åĻ¹åĻ¹åĻ¹åĻ¹åĻ¹åĻ¹åĻ¹åĻ¹åĻ¹åĻ¹åĻ¹åĻ¹åĻ¹åĻ¹åĻ¹åĻ¹åĻ¹åĻ¹åĻ¹åĻ¹åĻ¹åĻ¹åĻ¹åĻ¹åĻ¹åĻ¹åĻ¹åĻ¹åĻ¹åĻ¹åĻ¹åĻ¹åĻ¹åĻ¹åĻ¹åĻ¹åĻ¹åĻ¹åĻ¹åĻ¹åĻ¹": 6748,
      "åļ¤åļ¤åļ¤åļ¤åļ¤åļ¤åļ¤åļ¤åļ¤åļ¤åļ¤åļ¤åļ¤åļ¤åļ¤åļ¤åļ¤åļ¤åļ¤åļ¤åļ¤åļ¤åļ¤åļ¤åļ¤åļ¤åļ¤åļ¤åļ¤åļ¤åļ¤åļ¤åļ¤åļ¤åļ¤åļ¤åļ¤åļ¤åļ¤åļ¤åļ¤åļ¤åļ¤åļ¤åļ¤åļ¤åļ¤åļ¤åļ¤åļ¤åļ¤åļ¤åļ¤åļ¤åļ¤åļ¤åļ¤åļ¤åļ¤åļ¤åļ¤åļ¤åļ¤åļ¤åļ¤åļ¤åļ¤åļ¤åļ¤åļ¤åļ¤åļ¤åļ¤åļ¤åļ¤åļ¤åļ¤åļ¤åļ¤åļ¤åļ¤åļ¤åļ¤åļ¤åļ¤åļ¤åļ¤åļ¤åļ¤åļ¤åļ¤åļ¤åļ¤åļ¤åļ¤åļ¤åļ¤åļ¤åļ¤åļ¤åļ¤åļ¤åļ¤åļ¤åļ¤åļ¤åļ¤åļ¤åļ¤åļ¤åļ¤åļ¤åļ¤åļ¤åļ¤åļ¤åļ¤åļ¤åļ¤åļ¤åļ¤åļ¤åļ¤åļ¤åļ¤åļ¤åļ¤åļ¤": 6749,
      "ä½łåĵĭåħ©åĢĭ": 6750,
      "åįļçī©é¤¨": 6751,
      "åķ²ç©įæľ¨": 6752,
      "ç´¯": 6753,
      "æĦıè¦ĭ": 6754,
      "éĸĵéĭªéłŃ": 6755,
      "æİŁ": 6756,
      "ä¹±": 6757,
      "æ»´": 6758,
      "åĲĮåŁĭå¤§": 6759,
      "çĵ£": 6760,
      "åĴ¬åĴĹ": 6761,
      "åĹ¡åĹ¡åĹ¡åĹ¡åĹ¡åĹ¡åĹ¡åĹ¡åĹ¡åĹ¡åĹ¡åĹ¡åĹ¡åĹ¡åĹ¡åĹ¡åĹ¡åĹ¡åĹ¡åĹ¡åĹ¡åĹ¡åĹ¡åĹ¡åĹ¡åĹ¡åĹ¡åĹ¡åĹ¡åĹ¡åĹ¡åĹ¡åĹ¡åĹ¡åĹ¡åĹ¡åĹ¡åĹ¡åĹ¡åĹ¡åĹ¡åĹ¡åĹ¡åĹ¡åĹ¡åĹ¡åĹ¡åĹ¡åĹ¡åĹ¡åĹ¡åĹ¡åĹ¡åĹ¡åĹ¡åĹ¡åĹ¡åĹ¡åĹ¡åĹ¡åĹ¡åĹ¡åĹ¡åĹ¡åĹ¡åĹ¡åĹ¡åĹ¡åĹ¡åĹ¡åĹ¡åĹ¡åĹ¡åĹ¡åĹ¡åĹ¡åĹ¡åĹ¡åĹ¡åĹ¡åĹ¡åĹ¡åĹ¡åĹ¡åĹ¡åĹ¡åĹ¡åĹ¡åĹ¡åĹ¡åĹ¡åĹ¡åĹ¡åĹ¡åĹ¡åĹ¡åĹ¡åĹ¡åĹ¡åĹ¡åĹ¡åĹ¡åĹ¡åĹ¡åĹ¡åĹ¡åĹ¡åĹ¡åĹ¡åĹ¡åĹ¡åĹ¡åĹ¡åĹ¡åĹ¡åĹ¡åĹ¡åĹ¡åĹ¡åĹ¡åĹ¡åĹ¡åĹ¡åĹ¡åĹ¡åĹ¡åĹ¡åĹ¡": 6762,
      "åĺħå°¾èģ²": 6763,
      "éĸ£æ¨ĵ": 6764,
      "Ġä½łå¥½": 6765,
      "ĠéģĩåĪ°": 6766,
      "ä¸Ģå¹ħ": 6767,
      "ĠåĲĮä½¢åĺħ": 6768,
      "æ£ļ": 6769,
      "åģļåĶĶåĪ°": 6770,
      "åķıåı¯åĶĶåı¯ä»¥": 6771,
      "çªº": 6772,
      "å®ĮåĴĹ": 6773,
      "ä¸Ģéļ»å¤§": 6774,
      "æİ¢ç´¢åĲĵ": 6775,
      "åĮħä½ı": 6776,
      "ä½¢æ±ºå®ļè¦ģ": 6777,
      "åĳ¨åľįåĺħäºº": 6778,
      "éĢģä¿¾": 6779,
      "åĽ°æĥĳ": 6780,
      "ä½¢çĪ¬": 6781,
      "åļŁçĿĩä¸ĭ": 6782,
      "å¥½é»": 6783,
      "æĲµåĢĭ": 6784,
      "å¥½å¤ļæ¬¡": 6785,
      "å¹«äºº": 6786,
      "å¸ĮæľĽèĩªå·±åı¯ä»¥": 6787,
      "å°±åĸºåĹ°éĻ£": 6788,
      "åĻ´å°Ħæ©Ł": 6789,
      "çħĻåĽª": 6790,
      "ĠæŃ²": 6791,
      "ä½¢çĤº": 6792,
      "å¥½åļĩäºº": 6793,
      "ä¸¸": 6794,
      "ä¿Ĥä½¢åĺħ": 6795,
      "åĻīåĸİ": 6796,
      "åĩºåĴĹ": 6797,
      "ç¬ĳåĴĹä¸Ģèģ²": 6798,
      "Ġå¥½å¤±æľĽ": 6799,
      "è¶¾": 6800,
      "ç´°ç´°éĸĵ": 6801,
      "ä½¢åĵĭå¥½èĪĪå¥®": 6802,
      "èĢ³æľµ": 6803,
      "èĢĥè©¦": 6804,
      "å¹¾åĪĨéĲĺå¾Į": 6805,
      "ä½¢æīĵ": 6806,
      "ä½¢ç¬ĳåĴĹç¬ĳ": 6807,
      "ä½¢å¯«": 6808,
      "éģİä½¢": 6809,
      "ä½¢è¦ĭåĪ°ä¸ĢåĢĭå¤§": 6810,
      "èĹıåĸº": 6811,
      "æ¨Ļè¨ĺ": 6812,
      "åĸºæ¨¹åĪ°": 6813,
      "æ··ä¹±": 6814,
      "æĶ¹åĸĦ": 6815,
      "å¥½éķ·åĺħ": 6816,
      "Ġå¸¶ä½ı": 6817,
      "åĶĶåħ¬å¹³": 6818,
      "æĪĲçľŁ": 6819,
      "æ°´çįº": 6820,
      "ä¹ĸ": 6821,
      "å»ł": 6822,
      "ä½Ĩä¿Ĥä½¢éĥ½ä¿Ĥ": 6823,
      "è³¦": 6824,
      "ä½¢å¤±": 6825,
      "æ°¸éģłéĥ½": 6826,
      "ker": 6827,
      "æ¹ĸåº¦": 6828,
      "é¡ĺæĦı": 6829,
      "æ¢³åŃĲ": 6830,
      "¹å§Ĩ": 6831,
      "ĠèĪĪå¥®åľ°": 6832,
      "åĲĬ": 6833,
      "åĸºéĻ½åħīä¸ĭ": 6834,
      "è©¹å§Ĩ": 6835,
      "ĠåĲĮä½¢åĺħæľĭåıĭ": 6836,
      "åĳ¢æĹ¥": 6837,
      "åĤ¾": 6838,
      "Ġå°±åĸºåº¦": 6839,
      "é©ļåĺĨ": 6840,
      "è£Ŀæ»¿": 6841,
      "åºĹéĭª": 6842,
      "é§Ŀ": 6843,
      "éĩĳæ§į": 6844,
      "ä¸Ģé½Ĭåİ»åħ¬åľĴçİ©": 6845,
      "ä½¢åĵĭåģľ": 6846,
      "è©¹å§Ĩæĸ¯": 6847,
      "éĩĳæ§įéŃļ": 6848,
      "Ġä¸ĢçĽ´": 6849,
      "è©±ä½¢åĵĭ": 6850,
      "åķ²å°ıæľĭåıĭ": 6851,
      "å°±èµ°åĴĹ": 6852,
      "æĥ³çŁ¥éģĵ": 6853,
      "å¤§åĪ°": 6854,
      "åīĥ": 6855,
      "åģļåĴĹ": 6856,
      "åĨįæ¬¡": 6857,
      "ä½¢å¥½éį¾æĦıåĲĮä½¢åª½åª½": 6858,
      "æĬĹ": 6859,
      "åĭĩæķ¢åķ²": 6860,
      "ä½¢æľīåĨĩ": 6861,
      "ä½łä¿ĤåĢĭå¥½": 6862,
      "åĳ¢åĢĭä¿ĤæĪĳåĺħ": 6863,
      "ä¸¦æī¿è«¾": 6864,
      "ç¢İåĴĹ": 6865,
      "å·¨éŁ¿": 6866,
      "åĵĪåĵĪ": 6867,
      "èĹĿè¡ĵ": 6868,
      "¨åĪ©": 6869,
      "åĶĶæķ¢": 6870,
      "äº¨åĪ©": 6871,
      "éļ»èŁ¹": 6872,
      "åķ²æĸ°åĺ¢": 6873,
      "å°ıé¦¬": 6874,
      "æµ·æ´ĭ": 6875,
      "ä½¢åķ²æľĭåıĭå": 6876,
      "æŀ¶è»Ĭåº¦": 6877,
      "è¦ªæĦĽåĺħ": 6878,
      "çĶľåĺħ": 6879,
      "ä½¢è·³ä¸Ĭ": 6880,
      "åĶĶåĨįåĴģ": 6881,
      "æ©Łæ¢°äºº": 6882,
      "ä½¢å¥½é¤ĵ": 6883,
      "å¥½å¿«æ¨Ĥ": 6884,
      "ä½Ĩä¿Ĥåĸº": 6885,
      "åı¯ä»¥é£Ł": 6886,
      "éłŃéłĤ": 6887,
      "å°įèĩªå·±åĺħ": 6888,
      "çĶ¨åĢĭ": 6889,
      "åĨįåļŁ": 6890,
      "åĽłçĤºæľī": 6891,
      "åĴĹåĢĭæĸ°æľĭåıĭ": 6892,
      "åĶĶå¥½åĺħäºĭ": 6893,
      "å¥½å¤§éļ»": 6894,
      "åļĩåĴĹä¸Ģè·³": 6895,
      "æ´Ĺæ¾¡": 6896,
      "éĨĴåļŁ": 6897,
      "æķ£èĲ½": 6898,
      "åįĪè¦º": 6899,
      "èĵĭä½ı": 6900,
      "åĺħåľĸçīĩ": 6901,
      "éįĭ": 6902,
      "ĠKate": 6903,
      "ä¸ĢéĿ¢": 6904,
      "ä½¢è¿ħéĢŁ": 6905,
      "ä¿Ĥè¦ģ": 6906,
      "ä¿Ĥé»ŀ": 6907,
      "åĶĶèŃĺ": 6908,
      "å¤§åĴĹ": 6909,
      "éĿ¦": 6910,
      "å°ıä¸ĳ": 6911,
      "å¹«ä¸ĭ": 6912,
      "éĸĭå§ĭåĲĮ": 6913,
      "é¢¨éĽ¨": 6914,
      "éĩįæĸ°": 6915,
      "éŀł": 6916,
      "æľªçŁ¥": 6917,
      "åĸºå¼µåºĬ": 6918,
      "è¶ĬåļŁè¶Ĭè¿ĳ": 6919,
      "æģĲæĩ¼": 6920,
      "çħĻèĬ±": 6921,
      "å¾Ĺå¤ªå¿«": 6922,
      "çĽ®çļĦ": 6923,
      "å¸¶ä½¢è¿Ķå±ĭä¼ģ": 6924,
      "éĩ£éŃļ": 6925,
      "ä¿Ĥä½¢åĵĭ": 6926,
      "ä½¢åĵĭåħ¥": 6927,
      "ĠåĲĮä½¢åķ²æľĭåıĭ": 6928,
      "å°įéŀĭ": 6929,
      "ä½¢åª½åª½åĲĮçĪ¸çĪ¸": 6930,
      "å¤ļè¬Ŀä½łåĵĭ": 6931,
      "åĴĹå¥½å¤ļæ¬¡": 6932,
      "èĨ©": 6933,
      "æĺŁçĲĥ": 6934,
      "åĳ¨åľįæľĽ": 6935,
      "èıĬ": 6936,
      "ĠAnnie": 6937,
      "è¦ĭåĪ°ä¸Ģæ£µ": 6938,
      "ä½¢å¤¢": 6939,
      "å¤¢åĪ°": 6940,
      "åĢĭèĢģå©Ĩå©Ĩ": 6941,
      "éłĺå¸¶": 6942,
      "įé¬ļ": 6943,
      "ä½¢æĭİèµ·": 6944,
      "åķ²çŁ³éłŃ": 6945,
      "éĺ¿ä¼¯": 6946,
      "ĠTo": 6947,
      "ä½Ĩä¿ĤåĨĩ": 6948,
      "èģ½åĴĹ": 6949,
      "ä½¢å¥½æĶ°": 6950,
      "Ġåĺħæīĭ": 6951,
      "ä¾¿": 6952,
      "ä½¢æľīæ¢Ŀ": 6953,
      "çĹĽåĳĢ": 6954,
      "åĸµåĸµåı«": 6955,
      "ĠPat": 6956,
      "æĨİ": 6957,
      "éĥµå·®": 6958,
      "åĩºåİ»çİ©": 6959,
      "å¥½éħ·åĳĢ": 6960,
      "èĸĦèį·": 6961,
      "æ©¡çļ®æĵ¦": 6962,
      "Ġæľīä¸Ģ": 6963,
      "ĠåĶĶå¥½": 6964,
      "åĸºåĢĭå": 6965,
      "ĶĶä¿Ĥ": 6966,
      "è©±æľĥ": 6967,
      "åľĭå®¶": 6968,
      "ä½¢åĵĭå¤§": 6969,
      "å¥½éĸĭå¿ĥèĩªå·±": 6970,
      "é£ŁåĴĹåķ²": 6971,
      "åĨįè©¦": 6972,
      "èģ½åĪ°ä½¢åĺħ": 6973,
      "ä»ĸåĢĳ": 6974,
      "èģ°æĺİåĺħ": 6975,
      "åŀĥåľ¾æ¡¶": 6976,
      "åļ¯åļ®åļ¯åļ®åļ¯åļ®åļ¯åļ®åļ¯åļ®åļ¯åļ®åļ¯åļ®åļ¯åļ®": 6977,
      "éĸĥéĸĥçĶŁåħī": 6978,
      "ĠWhis": 6979,
      "å¥½è²´": 6980,
      "ä½¢åĸ": 6981,
      "åĺħä¸»äºº": 6982,
      "åĢĭèĬ±åľĴ": 6983,
      "èģĸ": 6984,
      "æľĥçĻ¼çĶŁ": 6985,
      "çĿĩéĽ»è¦ĸ": 6986,
      "enny": 6987,
      "è·Łä½ıä½¢åĵĭå°±": 6988,
      "éŁ³æ©Ł": 6989,
      "Ġåĸºå®¢å»³": 6990,
      "ä¸Ńåĺħ": 6991,
      "åķ²åĺ¢é£Ł": 6992,
      "æ¿ĺ": 6993,
      "é£²åĴĹ": 6994,
      "çķĢåĴĹä¸Ģ": 6995,
      "ä½¢è¦ºå¾Ĺèĩªå·±å¥½": 6996,
      "åĶĶå¾ĹåĳĢ": 6997,
      "èĩªå·±åı¯ä»¥å¹«åĪ°": 6998,
      "ä½¢åĵĭç¬ĳä½ı": 6999,
      "å¤§èĪ¹": 7000,
      "å°ıè²ĵ": 7001,
      "éłŃåº¦": 7002,
      "åĳ¢å¡Ĭ": 7003,
      "æĪĳåĵĭä¿Ĥ": 7004,
      "æ¯Ķä½¢åĵĭ": 7005,
      "èģ½åĪ°ä½¢åĵĭåĺħ": 7006,
      "è¥¿è£Ŀ": 7007,
      "çĮĽ": 7008,
      "çį¨ç«ĭ": 7009,
      "å·¨äºº": 7010,
      "çĳªèİī": 7011,
      "åĺĢåĺĢåĺĢåĺĢåĺĢåĺĢåĺĢåĺĢåĺĢåĺĢåĺĢåĺĢåĺĢåĺĢåĺĢåĺĢ": 7012,
      "åļĢåļĢåļĢåļĢåļĢåļĢåļĢåļĢåļĢåļĢåļĢåļĢåļĢåļĢåļĢåļĢ": 7013,
      "åĢĭéİĸ": 7014,
      "ĠBrow": 7015,
      "kers": 7016,
      "Ġåı¯åĶĶåı¯ä»¥": 7017,
      "åĸºå»ļæĪ¿": 7018,
      "åĶĶå®īåħ¨": 7019,
      "æĪĳéĸĭå¿ĥ": 7020,
      "ä½Ĩä¿Ĥä½¢åıĪ": 7021,
      "å¤§çļĦ": 7022,
      "åĲĵä½¢": 7023,
      "è·ĳåĴĹåİ»": 7024,
      "æľĢéĿļåĺħ": 7025,
      "åĽłçĤºä½¢å¥½éį¾æĦı": 7026,
      "è«Ĺèµ·": 7027,
      "cky": 7028,
      "åĽŀæĩī": 7029,
      "ä½¢åĲĮä½¢åª½åĴª": 7030,
      "äº«åıĹç·Ĭ": 7031,
      "ä½¢æĶŀåĴĹ": 7032,
      "ess": 7033,
      "è¶ħç´ļèĭ±éĽĦ": 7034,
      "åīĿåīĿåīĿåīĿåīĿåīĿåīĿåīĿåīĿåīĿåīĿåīĿåīĿåīĿåīĿåīĿ": 7035,
      "ĠWhiskers": 7036,
      "ky": 7037,
      "¹èıľ": 7038,
      "åĺħç¦®çī©": 7039,
      "åļŁå»ºéĢł": 7040,
      "å¾Ĺè¿Ķ": 7041,
      "åı¯ä»¥åĲĮ": 7042,
      "åĲĵå°įæĸ¹": 7043,
      "ä¸ĢåĢĭæĸ°åĺħ": 7044,
      "æĸ°å¥ĩ": 7045,
      "å¤©è³¦": 7046,
      "åĿĲä¸Ĭ": 7047,
      "ç«ł": 7048,
      "ä½łå¥½åĭĩæķ¢": 7049,
      "åĲĮåŁĭå¥½åĶĶéĸĭå¿ĥ": 7050,
      "äº¤åĪ°": 7051,
      "æ¤°": 7052,
      "èĬ¹èıľ": 7053,
      "çłµçłµçłµçłµçłµçłµçłµçłµçłµçłµçłµçłµçłµçłµçłµçłµ": 7054,
      "èħ°å¸¶": 7055,
      "ç£¨åĿĬ": 7056,
      "è²§çª®": 7057,
      "åı³": 7058,
      "å°±çĶ¨": 7059,
      "ä½Ĩä¿Ĥä½ł": 7060,
      "åĬĩ": 7061,
      "æŀ¶çģ«è»Ĭ": 7062,
      "æīĵåĢĭ": 7063,
      "åĸĬä½ı": 7064,
      "éĹľä¸Ĭ": 7065,
      "ä½¢ä¿Ĥä¸ĢåĢĭå¥½": 7066,
      "çĿĩä¸ĭæĪĳ": 7067,
      "æĶ°åĴĹ": 7068,
      "æĶ¾è¿Ķåħ¥": 7069,
      "éĢ²åħ¥": 7070,
      "zzy": 7071,
      "çľ¨çľ¼": 7072,
      "RRRRRRRRRRRRRRRRRRRRRRRRRRRRRRRRRRRRRRRRRRRRRRRRRRRRRRRRRRRRRRRR": 7073,
      "å¥½å¤ļå¥½å¤ļå¥½å¤ļå¥½å¤ļå¥½å¤ļå¥½å¤ļå¥½å¤ļå¥½å¤ļå¥½å¤ļå¥½å¤ļå¥½å¤ļå¥½å¤ļå¥½å¤ļå¥½å¤ļå¥½å¤ļå¥½å¤ļ": 7074,
      "ĸåı«": 7075,
      "åĲĮå®īåħ¨": 7076,
      "ä½Ĩä¿Ĥä½¢åĶĶçŁ¥": 7077,
      "æķĪ": 7078,
      "æľĭåıĭåı«": 7079,
      "å±¤": 7080,
      "ĠåĲĮä½¢": 7081,
      "æĲµé£Ł": 7082,
      "åħ¥åĪ°": 7083,
      "å¼µè¢«": 7084,
      "æµ¸": 7085,
      "åĲĮä½¢è¬Ľåĺ¢": 7086,
      "æ²Ļæ±ł": 7087,
      "ä½¢åĵĭåĶĶåĨį": 7088,
      "å¾Ĺå¥½åĭģ": 7089,
      "è§ĴèĲ½åº¦": 7090,
      "éĻįæ©Ł": 7091,
      "èĪĪèĪĪèĪĪèĪĪèĪĪèĪĪèĪĪèĪĪèĪĪèĪĪèĪĪèĪĪèĪĪèĪĪèĪĪèĪĪ": 7092,
      "å¥Ķè·ĳ": 7093,
      "³¶": 7094,
      "ä½¢çĦ¡": 7095,
      "å¥½æĥ¡": 7096,
      "çİ©ä¸ĭ": 7097,
      "æĥ³å¹«": 7098,
      "åĸºåº¦éĸĭåĸ¼": 7099,
      "è²ª": 7100,
      "Ġå¥½åĤ·å¿ĥ": 7101,
      "åıĪéį¾æĦı": 7102,
      "å¤©åº¦": 7103,
      "æħ®": 7104,
      "çŃīåĴĹå¥½èĢĲ": 7105,
      "æº«åº¦": 7106,
      "åĳ¨åľįåĺħ": 7107,
      "ä¿ĤæĻĤåĢĻè¿Ķå±ĭä¼ģåĸĩ": 7108,
      "æķħäºĭå°±ä¿ĤåĴģåĸĩ": 7109,
      "åļ¼åļ¼åļ¼åļ¼åļ¼åļ¼åļ¼åļ¼åļ¼åļ¼åļ¼åļ¼åļ¼åļ¼åļ¼åļ¼åļ¼åļ¼åļ¼åļ¼åļ¼åļ¼åļ¼åļ¼åļ¼åļ¼åļ¼åļ¼åļ¼åļ¼åļ¼åļ¼": 7110,
      "Ġç¬ĳ": 7111,
      "ĠåĪĨäº«": 7112,
      "ä½¢èĪīèµ·": 7113,
      "ï¼ŁãĢįï¼Į": 7114,
      "éĩĩ": 7115,
      "å½İ": 7116,
      "ä½¢åĶĶä¿Ĥå¥½": 7117,
      "ĠåĸºåĢĭ": 7118,
      "èĻĽ": 7119,
      "ç¨±": 7120,
      "å¤±åİ»": 7121,
      "åĲĮä½¢åĺħå®¶äºº": 7122,
      "æĿĳèĲ½": 7123,
      "īåļīåļīåļīåļīåļīåļīåļīåļīåļīåļīåļīåļīåļīåļīåļīåļ": 7124,
      "ä½Ĩä¿Ĥå·²ç¶ĵå¤ªéģ²": 7125,
      "Ġåı¯èĥ½": 7126,
      "Ġéļ»æīĭ": 7127,
      "ä½¢æīĵéĸĭ": 7128,
      "æĪĳåħĪ": 7129,
      "ä½¢åĵĭè·Łä½ı": 7130,
      "åĢĭå¿ĥ": 7131,
      "éļ»æ³¢": 7132,
      "å°±è¬Ľ": 7133,
      "è¦ĭåĪ°ä¸ĢåĢĭå": 7134,
      "ç´°åĢĭå": 7135,
      "é£Łåĺ¢": 7136,
      "é£Łå®Įä¹ĭå¾Į": 7137,
      "çĿĩåķ²": 7138,
      "çĿĩå®Į": 7139,
      "åıĪéĸĭå¿ĥ": 7140,
      "æĪĳåĵĭæĦĽä½ł": 7141,
      "æ¯Ķèĸ©": 7142,
      "æıī": 7143,
      "ä½¢åª½åĴªå°±è©±": 7144,
      "ä½Ĩä¿Ĥä½¢ä»įçĦ¶": 7145,
      "éĽªçĲĥ": 7146,
      "ä½¢åĵĭåĸºåħ¬åľĴåº¦": 7147,
      "æĽ´å¥½åĺħ": 7148,
      "é»ĳèī²åĺħ": 7149,
      "å¹³éĿľ": 7150,
      "æħ¢æħ¢åľ°": 7151,
      "éĽ»è¦ĸæ©Ł": 7152,
      "åļŁæİ¢ä½¢": 7153,
      "ç´°ç´°ç´°ç´°ç´°ç´°ç´°ç´°ç´°ç´°ç´°ç´°ç´°ç´°ç´°ç´°ç´°ç´°ç´°ç´°ç´°ç´°ç´°ç´°ç´°ç´°ç´°ç´°ç´°ç´°ç´°ç´°": 7154,
      "åļ®æµ·åº¦åļ®æµ·åº¦åļ®æµ·åº¦åļ®æµ·åº¦åļ®æµ·åº¦åļ®æµ·åº¦åļ®æµ·åº¦åļ®æµ·åº¦": 7155,
      "åĥ¹åĢ¼": 7156,
      "Ġéĸĭå¿ĥåĴģ": 7157,
      "ä½¢ä¼¸æīĭ": 7158,
      "æīĴ": 7159,
      "ä½¢åĵĭåĢĭå": 7160,
      "ĠBill": 7161,
      "å¤ªéĩį": 7162,
      "çĹĽåĪ°": 7163,
      "èŃ·çħ§": 7164,
      "é¬įé¬ļ": 7165,
      "æ³¥èĨł": 7166,
      "éĩįè¦ģåĺħåĺ¢": 7167,
      "åĴģåĴģåĴģåĴģåĴģåĴģåĴģåĴģåĴģåĴģåĴģåĴģåĴģåĴģåĴģåĴģåĴģåĴģåĴģåĴģåĴģåĴģåĴģåĴģåĴģåĴģåĴģåĴģåĴģåĴģåĴģåĴģåĴģåĴģåĴģåĴģåĴģåĴģåĴģåĴģåĴģåĴģåĴģåĴģåĴģåĴģåĴģåĴģåĴģåĴģåĴģåĴģåĴģåĴģåĴģåĴģåĴģåĴģåĴģåĴģåĴģåĴģåĴģåĴģåĴģåĴģåĴģåĴģåĴģåĴģåĴģåĴģåĴģåĴģåĴģåĴģåĴģåĴģåĴģåĴģåĴģåĴģåĴģåĴģåĴģåĴģåĴģåĴģåĴģåĴģåĴģåĴģåĴģåĴģåĴģåĴģåĴģåĴģåĴģåĴģåĴģåĴģåĴģåĴģåĴģåĴģåĴģåĴģåĴģåĴģåĴģåĴģåĴģåĴģåĴģåĴģåĴģåĴģåĴģåĴģåĴģåĴģåĴģåĴģåĴģåĴģåĴģåĴģåĴģåĴģåĴģåĴģåĴģåĴģåĴģåĴģåĴģåĴģåĴģåĴģåĴģåĴģåĴģåĴģåĴģåĴģåĴģåĴģåĴģåĴģåĴģåĴģåĴģåĴģåĴģåĴģåĴģåĴģåĴģåĴģåĴģåĴģåĴģåĴģåĴģåĴģåĴģåĴģåĴģåĴģåĴģåĴģåĴģåĴģåĴģåĴģåĴģåĴģåĴģåĴģåĴģåĴģåĴģåĴģåĴģåĴģåĴģåĴģåĴģåĴģåĴģåĴģåĴģåĴģåĴģåĴģåĴģåĴģåĴģåĴģåĴģåĴģåĴģåĴģåĴģåĴģåĴģåĴģåĴģåĴģåĴģåĴģåĴģåĴģåĴģåĴģåĴģåĴģåĴģåĴģåĴģåĴģåĴģåĴģåĴģåĴģåĴģåĴģåĴģåĴģåĴģåĴģåĴģåĴģåĴģåĴģåĴģåĴģåĴģåĴģåĴģåĴģåĴģåĴģåĴģåĴģåĴģåĴģåĴģåĴģåĴģåĴģåĴģåĴģåĴģåĴģ": 7168,
      "«åļ«åļ«åļ«åļ«åļ«åļ«åļ«åļ«åļ«åļ«åļ«åļ«åļ«åļ«åļ«åļ«åļ«åļ«åļ«åļ«åļ«åļ«åļ«åļ«åļ«åļ«åļ«åļ«åļ«åļ«åļ«åļ«åļ«åļ«åļ«åļ«åļ«åļ«åļ«åļ«åļ«åļ«åļ«åļ«åļ«åļ«åļ«åļ«åļ«åļ«åļ«åļ«åļ«åļ«åļ«åļ«åļ«åļ«åļ«åļ«åļ«åļ«åļ«åļ": 7169,
      "å¡Ĭå¤§çŁ³": 7170,
      "ĠRuby": 7171,
      "li": 7172,
      "ªéĻ½": 7173,
      "Ġçİ©å¾Ĺå¥½éĸĭå¿ĥ": 7174,
      "åĺħæĸ¹æ³ķ": 7175,
      "åĪ°åĴĹä¸ĢæĹ¥": 7176,
      "ç´°éŃļ": 7177,
      "åľ°çĲĥ": 7178,
      "åħ¬åħ¬": 7179,
      "åĩºåĲį": 7180,
      "è·³éģİ": 7181,
      "å¯¸": 7182,
      "åľįä½ı": 7183,
      "ç®±åħ¥éĿ¢": 7184,
      "èľĨ": 7185,
      "çĿĩä½ıåĢĭ": 7186,
      "è®ĬæĪĲ": 7187,
      "ä¿ĿæĮģå¹³è¡¡": 7188,
      "ä½¢éĺ¿åª½è©±": 7189,
      "åķ±åķ±": 7190,
      "èĨłç´Ļ": 7191,
      "å¥ĩæĢªåĺħåĺ¢": 7192,
      "ç¬ĳç¬ĳåı£è©±": 7193,
      "æĵģæľīä½¢": 7194,
      "ä½¢åĿĲä½İ": 7195,
      "éĤĢè«ĭå": 7196,
      "æĸĳé»ŀ": 7197,
      "æķ´æķ´æķ´æķ´æķ´æķ´æķ´æķ´æķ´æķ´æķ´æķ´æķ´æķ´æķ´æķ´æķ´æķ´æķ´æķ´æķ´æķ´æķ´æķ´æķ´æķ´æķ´æķ´æķ´æķ´æķ´æķ´æķ´æķ´æķ´æķ´æķ´æķ´æķ´æķ´æķ´æķ´æķ´æķ´æķ´æķ´æķ´æķ´æķ´æķ´æķ´æķ´æķ´æķ´æķ´æķ´æķ´æķ´æķ´æķ´æķ´æķ´æķ´æķ´æķ´æķ´æķ´æķ´æķ´æķ´æķ´æķ´æķ´æķ´æķ´æķ´æķ´æķ´æķ´æķ´æķ´æķ´æķ´æķ´æķ´æķ´æķ´æķ´æķ´æķ´æķ´æķ´æķ´æķ´æķ´æķ´æķ´æķ´æķ´æķ´æķ´æķ´æķ´æķ´æķ´æķ´æķ´æķ´æķ´æķ´æķ´æķ´æķ´æķ´æķ´æķ´æķ´æķ´æķ´æķ´æķ´æķ´æķ´æķ´æķ´æķ´æķ´æķ´": 7198,
      "åļ¿åļ¿åļ¿åļ¿åļ¿åļ¿åļ¿åļ¿åļ¿åļ¿åļ¿åļ¿åļ¿åļ¿åļ¿åļ¿åļ¿åļ¿åļ¿åļ¿åļ¿åļ¿åļ¿åļ¿åļ¿åļ¿åļ¿åļ¿åļ¿åļ¿åļ¿åļ¿åļ¿åļ¿åļ¿åļ¿åļ¿åļ¿åļ¿åļ¿åļ¿åļ¿åļ¿åļ¿åļ¿åļ¿åļ¿åļ¿åļ¿åļ¿åļ¿åļ¿åļ¿åļ¿åļ¿åļ¿åļ¿åļ¿åļ¿åļ¿åļ¿åļ¿åļ¿åļ¿": 7199,
      "æİ§åĪ¶": 7200,
      "ä½łåı«åĴ©åĲįåĳĢ": 7201,
      "åĺħå¥³": 7202,
      "åı«åĴĹ": 7203,
      "ä½¢åª½å°±è©±": 7204,
      "èĥ½éĩı": 7205,
      "åħ©åĢĭå°ıæľĭåıĭ": 7206,
      "éĸĭå§ĭå¥½": 7207,
      "æ»ĳåĺħ": 7208,
      "åĢĭå¥³å£«": 7209,
      "éĢłæĪĲ": 7210,
      "çĻ¼çĶŁåĴ©äºĭåĳĢ": 7211,
      "çīĽæīĴ": 7212,
      "ĠåĶĶå¾Ĺ": 7213,
      "éŁ¿èµ·": 7214,
      "ä½¢åŃ¸èŃĺåĴĹ": 7215,
      "çŃīç·Ĭä½¢": 7216,
      "åľĵåĺħ": 7217,
      "è·ĳåĲĮçİ©": 7218,
      "æŀ¶æŀ¶æŀ¶æŀ¶æŀ¶æŀ¶æŀ¶æŀ¶æŀ¶æŀ¶æŀ¶æŀ¶æŀ¶æŀ¶æŀ¶æŀ¶æŀ¶æŀ¶æŀ¶æŀ¶æŀ¶æŀ¶æŀ¶æŀ¶æŀ¶æŀ¶æŀ¶æŀ¶æŀ¶æŀ¶æŀ¶æŀ¶æŀ¶æŀ¶æŀ¶æŀ¶æŀ¶æŀ¶æŀ¶æŀ¶æŀ¶æŀ¶æŀ¶æŀ¶æŀ¶æŀ¶æŀ¶æŀ¶æŀ¶æŀ¶æŀ¶æŀ¶æŀ¶æŀ¶æŀ¶æŀ¶æŀ¶æŀ¶æŀ¶æŀ¶æŀ¶æŀ¶æŀ¶æŀ¶": 7219,
      "åĸµåĸµåĸµåĸµåĸµåĸµåĸµåĸµåĸµåĸµåĸµåĸµåĸµåĸµåĸµåĸµ": 7220,
      "æ²Ļå¾ĭ": 7221,
      "é«ĺçĪ¾å¤«çĲĥ": 7222,
      "¢ä¿": 7223,
      "ĠæĲµåĪ°": 7224,
      "Ģĳ": 7225,
      "åĲĮçĪ¸": 7226,
      "å¤ı": 7227,
      "åīĽ": 7228,
      "è¦ģåģļ": 7229,
      "éĸĭå§ĭèĲ½éĽ¨": 7230,
      "æľīåĢĭæ´ŀ": 7231,
      "åĸĬåķ¦": 7232,
      "çŀĵæĻıè¦º": 7233,
      "ç½ķ": 7234,
      "ä¸ĬéĿ¢æľīå¥½å¤ļ": 7235,
      "åĢĭéį": 7236,
      "ä½łä¿ĤæĪĳåĺħ": 7237,
      "éĽĻçľ¼": 7238,
      "çĩĪæ³¡": 7239,
      "éĿ¢åīįåĺħ": 7240,
      "æł¹æ£į": 7241,
      "åĢĭå·¨äºº": 7242,
      "åįĩéĻįæ©Ł": 7243,
      "åĢĭéİ®": 7244,
      "åļıåļıåļıåļıåļıåļıåļıåļıåļıåļıåļıåļıåļıåļıåļıåļıåļıåļıåļıåļıåļıåļıåļıåļıåļıåļıåļıåļıåļıåļıåļıåļı": 7245,
      "Ġèµ°": 7246,
      "å¤§è©±": 7247,
      "éłģ": 7248,
      "èī²éīĽçŃĨ": 7249,
      "åĭĿ": 7250,
      "éĸĭå§ĭçİ©": 7251,
      "èĪĪé«ĺ": 7252,
      "æĸ¹é«Ķ": 7253,
      "å»£": 7254,
      "å¡Ĭç©įæľ¨": 7255,
      "èĹıèµ·": 7256,
      "æ²³éĤĬ": 7257,
      "èĵ¬": 7258,
      "éī¤": 7259,
      "ç«ĭæĸ¹é«Ķ": 7260,
      "åĢĭéĪķ": 7261,
      "éĩĩçĥĪ": 7262,
      "¢ä¿¬": 7263,
      "èĪĪé«ĺéĩĩçĥĪ": 7264,
      "Ĺħ": 7265,
      "å¥½æļĹ": 7266,
      "ä¿Ĥçī¹åĪ¥åĺħ": 7267,
      "åĶĶä¿¡": 7268,
      "çĿĩåĳĢ": 7269,
      "éĺ¿åª½å°±è©±": 7270,
      "æĪĳåĵĭæľī": 7271,
      "å¥½é©ļåĸľ": 7272,
      "ä½¢çŁ¥èĩªå·±": 7273,
      "éĿľéĿľ": 7274,
      "ä½¢éĥ½éį¾æĦı": 7275,
      "ä¸įåĲĮåĺħå½¢çĭĢ": 7276,
      "é®®èī·": 7277,
      "ļåĻļåĻļåĻļåĻļåĻļåĻļåĻļåĻļåĻļåĻļåĻļåĻļåĻļåĻļåĻļåĻ": 7278,
      "é»ŀè§£ä½łåĴģ": 7279,
      "Ġa": 7280,
      "éĺ¿å®īå¨ľ": 7281,
      "éĸĭå¿ĥåķ²": 7282,
      "ä¸Ģé½Ĭæķ´": 7283,
      "çĿĩéĨ«çĶŁ": 7284,
      "å¾ĮéĻ¢": 7285,
      "éĺ¿åª½åķı": 7286,
      "èµ°ä½¢": 7287,
      "å¸¶ä½ł": 7288,
      "æĺİåĴĹ": 7289,
      "æ¼ģ": 7290,
      "åĢĭå¥½å¥½åĺħ": 7291,
      "çļĦå£«": 7292,
      "èł¢åĺħ": 7293,
      "éĭ¼": 7294,
      "èªįçľŁ": 7295,
      "ä½Ĩä¿Ĥä½¢åĶĶä¿Ĥ": 7296,
      "ä¸Ģéĥ¨åĪĨ": 7297,
      "åĸ³åĸ³åĸ³åĸ³åĸ³åĸ³åĸ³åĸ³åĸ³åĸ³åĸ³åĸ³åĸ³åĸ³åĸ³åĸ³": 7298,
      "ĠåĽŀ": 7299,
      "åĸºè·¯": 7300,
      "åĸºéļ»è²ĵ": 7301,
      "æĪĳåİŁè«Ĵ": 7302,
      "å°ıåĺħ": 7303,
      "éĸĭä½¢": 7304,
      "åĶĶå¥½é£Ł": 7305,
      "ĠPip": 7306,
      "è«ĭä½ł": 7307,
      "åĩºè¡Ĺçİ©": 7308,
      "éĻ°å½±": 7309,
      "èŀįè§£": 7310,
      "æŃ£æŃ£æŃ£æŃ£æŃ£æŃ£æŃ£æŃ£æŃ£æŃ£æŃ£æŃ£æŃ£æŃ£æŃ£æŃ£æŃ£æŃ£æŃ£æŃ£æŃ£æŃ£æŃ£æŃ£æŃ£æŃ£æŃ£æŃ£æŃ£æŃ£æŃ£æŃ£æŃ£æŃ£æŃ£æŃ£æŃ£æŃ£æŃ£æŃ£æŃ£æŃ£æŃ£æŃ£æŃ£æŃ£æŃ£æŃ£æŃ£æŃ£æŃ£æŃ£æŃ£æŃ£æŃ£æŃ£æŃ£æŃ£æŃ£æŃ£æŃ£æŃ£æŃ£æŃ£æŃ£æŃ£æŃ£æŃ£æŃ£æŃ£æŃ£æŃ£æŃ£æŃ£æŃ£æŃ£æŃ£æŃ£æŃ£æŃ£æŃ£æŃ£æŃ£æŃ£æŃ£æŃ£æŃ£æŃ£æŃ£æŃ£æŃ£æŃ£æŃ£æŃ£æŃ£æŃ£æŃ£æŃ£æŃ£æŃ£æŃ£æŃ£æŃ£æŃ£æŃ£æŃ£æŃ£æŃ£æŃ£æŃ£æŃ£æŃ£æŃ£æŃ£æŃ£æŃ£æŃ£æŃ£æŃ£æŃ£æŃ£æŃ£æŃ£æŃ£æŃ£æŃ£æŃ£æŃ£": 7311,
      "æį½æį½æį½æį½æį½æį½æį½æį½æį½æį½æį½æį½æį½æį½æį½æį½": 7312,
      "¬éĸĵ": 7313,
      "å¥½æ·±": 7314,
      "åĺħåĳ³éģĵ": 7315,
      "ä½ıåķ²": 7316,
      "å°±åļŁåĪ°": 7317,
      "å®ĩ": 7318,
      "åħ¬å®¤": 7319,
      "èĬ±æľµ": 7320,
      "æĬ±åĴĹä½¢": 7321,
      "çķ¶æĻĤ": 7322,
      "æĴŃ": 7323,
      "æīĵæŀ¶": 7324,
      "ä½¢å¥½éį¾æĦıæİ¢ç´¢": 7325,
      "æ¬ĸ": 7326,
      "å°ĩåķ²åĺ¢": 7327,
      "æĽ´å¥½": 7328,
      "ä½¢çŁ¥åĪ°": 7329,
      "èļ¤": 7330,
      "æķ´è¿Ķå¥½": 7331,
      "è¾¦åħ¬å®¤": 7332,
      "ä»Ķä»Ķä»Ķä»Ķä»Ķä»Ķä»Ķä»Ķä»Ķä»Ķä»Ķä»Ķä»Ķä»Ķä»Ķä»Ķä»Ķä»Ķä»Ķä»Ķä»Ķä»Ķä»Ķä»Ķä»Ķä»Ķä»Ķä»Ķä»Ķä»Ķä»Ķä»Ķä»Ķä»Ķä»Ķä»Ķä»Ķä»Ķä»Ķä»Ķä»Ķä»Ķä»Ķä»Ķä»Ķä»Ķä»Ķä»Ķä»Ķä»Ķä»Ķä»Ķä»Ķä»Ķä»Ķä»Ķä»Ķä»Ķä»Ķä»Ķä»Ķä»Ķä»Ķä»Ķ": 7333,
      "ä½Ĥä½Ĥä½Ĥä½Ĥä½Ĥä½Ĥä½Ĥä½Ĥä½Ĥä½Ĥä½Ĥä½Ĥä½Ĥä½Ĥä½Ĥä½Ĥä½Ĥä½Ĥä½Ĥä½Ĥä½Ĥä½Ĥä½Ĥä½Ĥä½Ĥä½Ĥä½Ĥä½Ĥä½Ĥä½Ĥä½Ĥä½Ĥ": 7334,
      "åĩ³åĩ³åĩ³åĩ³åĩ³åĩ³åĩ³åĩ³åĩ³åĩ³åĩ³åĩ³åĩ³åĩ³åĩ³åĩ³": 7335,
      "æ©Ħæ¬ĸ": 7336,
      "ch": 7337,
      "Ġï¼ļ": 7338,
      "åĺħçī¹åĪ¥": 7339,
      "åĸºä½¢åĢĭ": 7340,
      "ä½¢åĵĭå¿ĺè¨ĺåĴĹ": 7341,
      "ä½Ĩä¿ĤåĲĮæĻĤ": 7342,
      "åı¯ä»¥çİ©": 7343,
      "æĸ¥": 7344,
      "è·³ä¸Ĭåİ»": 7345,
      "å¤§å®¶éĥ½å¥½": 7346,
      "éĸĵæĪ¿åĪ°": 7347,
      "æ³¥æ¿ĺ": 7348,
      "çķ¶ä½¢åĵĭåĪ°åĴĹ": 7349,
      "åĻ´åĻ´åĻ´åĻ´åĻ´åĻ´åĻ´åĻ´åĻ´åĻ´åĻ´åĻ´åĻ´åĻ´åĻ´åĻ´åĻ´åĻ´åĻ´åĻ´åĻ´åĻ´åĻ´åĻ´åĻ´åĻ´åĻ´åĻ´åĻ´åĻ´åĻ´åĻ´åĻ´åĻ´åĻ´åĻ´åĻ´åĻ´åĻ´åĻ´åĻ´åĻ´åĻ´åĻ´åĻ´åĻ´åĻ´åĻ´åĻ´åĻ´åĻ´åĻ´åĻ´åĻ´åĻ´åĻ´åĻ´åĻ´åĻ´åĻ´åĻ´åĻ´åĻ´åĻ´": 7350,
      "åĸ¼åĸ¼åĸ¼åĸ¼åĸ¼åĸ¼åĸ¼åĸ¼åĸ¼åĸ¼åĸ¼åĸ¼åĸ¼åĸ¼åĸ¼åĸ¼": 7351,
      "åĴĩåĴĩåĴĩåĴĩåĴĩåĴĩåĴĩåĴĩåĴĩåĴĩåĴĩåĴĩåĴĩåĴĩåĴĩåĴĩ": 7352,
      "æĪĳåĵĭå°įåĶĶä½ı": 7353,
      "Ġåª½åĴªè©±": 7354,
      "åĢĭç½Ĳ": 7355,
      "éĥ½å¥½èĪĪå¥®": 7356,
      "ä½Ĩä¿Ĥä½¢åĵĭåĶĶ": 7357,
      "Ġåĺħåª½": 7358,
      "åĲĮåŁĭä¸Ģéļ»": 7359,
      "é£ĽèĲ½åļŁ": 7360,
      "éĢĲ": 7361,
      "é©ļåĴĹ": 7362,
      "èĥ½åĬĽ": 7363,
      "é«ĺå¤§": 7364,
      "çłĮ": 7365,
      "æķĻä½¢é»ŀæ¨£": 7366,
      "éĥ¨çĽ¸æ©Ł": 7367,
      "ĠPolly": 7368,
      "èº¬": 7369,
      "çİĭåľ": 7370,
      "å¥¶æ²¹": 7371,
      "æĪĳéĥ½éį¾æĦı": 7372,
      "å¼·å£¯åĺħ": 7373,
      "ä»¥åīįæľīåĢĭå¥³ä»Ķåı«": 7374,
      "æ¼ģæ°ĳ": 7375,
      "īª": 7376,
      "ä½¢èģ½": 7377,
      "ä½¢å¥½éĿļ": 7378,
      "å¥½äºĭ": 7379,
      "å¥½åĳ³": 7380,
      "éĥ½è©±": 7381,
      "åı¯ä»¥åģļ": 7382,
      "å¥½éĸĭå¿ĥåĺħ": 7383,
      "å°ıçĨĬ": 7384,
      "å°ıæıĲçĲ´": 7385,
      "è²ł": 7386,
      "Ġåĺħèªªè©±": 7387,
      "åĳ¢æĬĬ": 7388,
      "åĲĮåŁĭèĩªè±ª": 7389,
      "åıĪéķ·": 7390,
      "åĲĮåŁĭå¤": 7391,
      "åĲĮåŁĭåŃ¸": 7392,
      "çĿĩåĲĵæľīåĴ©": 7393,
      "æľīä¸Ģéļ»å¤§": 7394,
      "èĬ¬": 7395,
      "çµĲæĿŁåĸĩ": 7396,
      "åĺĪéŁ³": 7397,
      "è©±ä½¢èģ½": 7398,
      "åĲĮä½¢åķ²åħ¬ä»Ķ": 7399,
      "ä¼¸æīĭåİ»æĶŀ": 7400,
      "åĴĶåĴĶåĴĶåĴĶåĴĶåĴĶåĴĶåĴĶåĴĶåĴĶåĴĶåĴĶåĴĶåĴĶåĴĶåĴĶ": 7401,
      "æľĢéį¾æĦĽåĺħ": 7402,
      "ä½¢å¥½éį¾æĦıåĲĮä½¢åĺħæľĭåıĭåĸº": 7403,
      "ä¸ĭåĸºå¤ĸéĿ¢çİ©": 7404,
      "éŀłèº¬": 7405,
      "æ¤°èıľ": 7406,
      "ä½¢æĭīä½ı": 7407,
      "åĲī": 7408,
      "æĪĳå¸ĮæľĽ": 7409,
      "åĢĭåĳ³": 7410,
      "èĲ½æ°´": 7411,
      "èĢĮæĦŁåĪ°èĩªè±ª": 7412,
      "é¼´": 7413,
      "åı£æ¸´": 7414,
      "æľ¨å±ĭ": 7415,
      "çŀ¬éĸĵ": 7416,
      "å¤ªéĻ½çľ¼éı¡": 7417,
      "ç±¬": 7418,
      "å±ĭåħ¥éĿ¢": 7419,
      "æĹ©èµ·èº«": 7420,
      "å·®åķ²": 7421,
      "å¾Ĺå¤ªåĭģ": 7422,
      "åĸ±åĸ±åĸ±åĸ±åĸ±åĸ±åĸ±åĸ±åĸ±åĸ±åĸ±åĸ±åĸ±åĸ±åĸ±åĸ±åĸ±åĸ±åĸ±åĸ±åĸ±åĸ±åĸ±åĸ±åĸ±åĸ±åĸ±åĸ±åĸ±åĸ±åĸ±åĸ±": 7423,
      "ä½łè¬Ľå¾Ĺåķ±": 7424,
      "æīĺçĽ¤": 7425,
      "å¥½é»ĳ": 7426,
      "Ġå±ĭä¼ģ": 7427,
      "ä½¢è©¦": 7428,
      "åħ¸": 7429,
      "åĢĭå£ŀ": 7430,
      "éĺ¿ä»Ķ": 7431,
      "çĦĻ": 7432,
      "æķ´åĴĹåĢĭ": 7433,
      "å°įèĩªå·±": 7434,
      "åĢĭå°ıä¸ĳ": 7435,
      "ĲĮåŁĭ": 7436,
      "æ¸¯": 7437,
      "å¾ŀåīįæľīåĢĭå¤§": 7438,
      "åĪĨéĸĭ": 7439,
      "æ£®æŀĹåĺħ": 7440,
      "èįīåĿ": 7441,
      "æ«Ī": 7442,
      "åĪ°åĴĹè¿Ķå±ĭä¼ģåĺħæĻĤéĸĵ": 7443,
      "å¤©æ°£å¥½å¥½": 7444,
      "æ¯ĽèĮ¸èĮ¸åĺħ": 7445,
      "å¤§åĺħè§Ĵå¤§åĺħè§Ĵå¤§åĺħè§Ĵå¤§åĺħè§Ĵå¤§åĺħè§Ĵå¤§åĺħè§Ĵå¤§åĺħè§Ĵå¤§åĺħè§Ĵ": 7446,
      "çĽ®çļĦåľ°": 7447,
      "ig": 7448,
      "or": 7449,
      "Ġè©¦éģİ": 7450,
      "å¥½å°ıå¿ĥ": 7451,
      "åĢĭæĹ¥": 7452,
      "åĢĭæ¢¯": 7453,
      "æľīå¤§": 7454,
      "åĸºéĤĬ": 7455,
      "çİ©å®Įä¹ĭå¾Į": 7456,
      "ä½Ĩä¿Ĥä»Ĭæ¬¡": 7457,
      "æ¨ģ": 7458,
      "éł°": 7459,
      "èģ½æĪĳ": 7460,
      "å¿«è¦ģ": 7461,
      "éĽ»æ±ł": 7462,
      "å°±åĸºåĳ¢åĢĭæĻĤåĢĻ": 7463,
      "ä½¢å¾ŀä¾Ĩæľªè¦ĭéģİ": 7464,
      "æīĵéĽ»è©±ä¿¾": 7465,
      "»ä½»ä½»ä½»ä½»ä½»ä½»ä½»ä½»ä½»ä½»ä½»ä½»ä½»ä½»ä½»ä½": 7466,
      "çĥĺçĦĻ": 7467,
      "¯èļ": 7468,
      "Ġä½¢è©±": 7469,
      "ä½¢æľīåķ²": 7470,
      "ä½¢ä¸įå°ıå¿ĥ": 7471,
      "åĺħç´°": 7472,
      "åĲĮåĭĩæķ¢": 7473,
      "åĸºæ£®æŀĹåĪ°": 7474,
      "æĪĳåķ¦": 7475,
      "æĪĳæľīåĢĭ": 7476,
      "ä½¢åĵĭéĥ½å¥½": 7477,
      "ĭåı£": 7478,
      "åĸºåº¦åĶ±æŃĮ": 7479,
      "ç·©": 7480,
      "å¤©èĬ±æĿ¿": 7481,
      "æ¨ĤéļĬ": 7482,
      "ä¾Ĩè¡Įåİ»": 7483,
      "åĹ°æĹ¥åŃ¸": 7484,
      "åĲĮä½¢éĺ¿åª½": 7485,
      "Ġä¿ĤåħĦå¼Ł": 7486,
      "å£ŀäºº": 7487,
      "è³½è»Ĭ": 7488,
      "éŀ¦éŁĨåº¦": 7489,
      "èļ¯èļ": 7490,
      "åıĹåĤ·åĴĹ": 7491,
      "å¾ŀåīįæľīåħ©åĢĭå¥½æľĭåıĭ": 7492,
      "åĹĮåĹĮåĹĮåĹĮåĹĮåĹĮåĹĮåĹĮåĹĮåĹĮåĹĮåĹĮåĹĮåĹĮåĹĮåĹĮåĹĮåĹĮåĹĮåĹĮåĹĮåĹĮåĹĮåĹĮåĹĮåĹĮåĹĮåĹĮåĹĮåĹĮåĹĮåĹĮ": 7493,
      "ç¹ªçķ«": 7494,
      "èļ¯èļĵ": 7495,
      "åĲĮçĪ¶è¦ª": 7496,
      "æī¹": 7497,
      "åı¯æĨĲ": 7498,
      "å·¦": 7499,
      "åıĪè©±": 7500,
      "ä»²å¥½": 7501,
      "æŀľçĦ¶": 7502,
      "åĻ´æ³ī": 7503,
      "éŀĭå": 7504,
      "åĽĽåľįæĲµ": 7505,
      "æīĶèĲ½": 7506,
      "æľīæĻĤæľĥ": 7507,
      "å®Įç¾İåĺħ": 7508,
      "åĲĮæľĭåıĭçİ©": 7509,
      "æ¨¡åŀĭ": 7510,
      "åĻ²åĻ²åĻ²åĻ²åĻ²åĻ²åĻ²åĻ²åĻ²åĻ²åĻ²åĻ²åĻ²åĻ²åĻ²åĻ²åĻ²åĻ²åĻ²åĻ²åĻ²åĻ²åĻ²åĻ²åĻ²åĻ²åĻ²åĻ²åĻ²åĻ²åĻ²åĻ²": 7511,
      "ä½§ä½§ä½§ä½§ä½§ä½§ä½§ä½§ä½§ä½§ä½§ä½§ä½§ä½§ä½§ä½§": 7512,
      "åĺŃåĺŃåĺŃåĺŃåĺŃåĺŃåĺŃåĺŃåĺŃåĺŃåĺŃåĺŃåĺŃåĺŃåĺŃåĺŃ": 7513,
      "ĠSte": 7514,
      "Ĳ¹": 7515,
      "å¥½åĲ¸å¼ķ": 7516,
      "åĴĹä½¢åĵĭåĺħ": 7517,
      "åĸī": 7518,
      "å¾ĳ": 7519,
      "åħį": 7520,
      "å¿į": 7521,
      "åĤ¢ä¿¬": 7522,
      "è¦ºå¾Ĺå¥½éĸĭå¿ĥ": 7523,
      "è«ĹåĪ°ä¸ĢåĢĭä¸»æĦı": 7524,
      "èĨı": 7525,
      "é£²æ°´": 7526,
      "ĠSpi": 7527,
      "Ġæĥ³å¹«": 7528,
      "åı¦ä¸ĢåĢĭå": 7529,
      "é»ĳæĿ¿": 7530,
      "åı¢æŀĹ": 7531,
      "å³°": 7532,
      "åĻĹåĻĹåĻĹåĻĹåĻĹåĻĹåĻĹåĻĹåĻĹåĻĹåĻĹåĻĹåĻĹåĻĹåĻĹåĻĹåĻĹåĻĹåĻĹåĻĹåĻĹåĻĹåĻĹåĻĹåĻĹåĻĹåĻĹåĻĹåĻĹåĻĹåĻĹåĻĹåĻĹåĻĹåĻĹåĻĹåĻĹåĻĹåĻĹåĻĹåĻĹåĻĹåĻĹåĻĹåĻĹåĻĹåĻĹåĻĹåĻĹåĻĹåĻĹåĻĹåĻĹåĻĹåĻĹåĻĹåĻĹåĻĹåĻĹåĻĹåĻĹåĻĹåĻĹåĻĹ": 7533,
      "çķ«åĩºåļŁçķ«åĩºåļŁçķ«åĩºåļŁçķ«åĩºåļŁçķ«åĩºåļŁçķ«åĩºåļŁçķ«åĩºåļŁçķ«åĩºåļŁ": 7534,
      "åģľåĶĶåĪ°åı£": 7535,
      "ç¶Ńä¿®": 7536,
      "ç¨įå¾Į": 7537,
      "èįīåĿª": 7538,
      "å¥½å¤±æľĽ": 7539,
      "åĺħè»Ĭ": 7540,
      "åĸºæ°´": 7541,
      "åĶĶå¤ļ": 7542,
      "çİ©çİ©åħ·": 7543,
      "æ´Ľ": 7544,
      "åĿ¦": 7545,
      "çī¹åĪ¥åĺħåľ°æĸ¹": 7546,
      "èłĶ": 7547,
      "ä½¢èģ½åĪ°ä¸ĢåĢĭèģ²éŁ³": 7548,
      "æ±łå¡ĺåĪ°": 7549,
      "æĮīåĴĹåĢĭ": 7550,
      "éĳĬ": 7551,
      "è¤ĩ": 7552,
      "æĶ¾è¿ĶèĲ½": 7553,
      "æĬķè¨´": 7554,
      "æĥ³åĥıåĬĽ": 7555,
      "åº¦åº¦åº¦åº¦åº¦åº¦åº¦åº¦åº¦åº¦åº¦åº¦åº¦åº¦åº¦åº¦åº¦åº¦åº¦åº¦åº¦åº¦åº¦åº¦åº¦åº¦åº¦åº¦åº¦åº¦åº¦åº¦åº¦åº¦åº¦åº¦åº¦åº¦åº¦åº¦åº¦åº¦åº¦åº¦åº¦åº¦åº¦åº¦åº¦åº¦åº¦åº¦åº¦åº¦åº¦åº¦åº¦åº¦åº¦åº¦åº¦åº¦åº¦åº¦åº¦åº¦åº¦åº¦åº¦åº¦åº¦åº¦åº¦åº¦åº¦åº¦åº¦åº¦åº¦åº¦åº¦åº¦åº¦åº¦åº¦åº¦åº¦åº¦åº¦åº¦åº¦åº¦åº¦åº¦åº¦åº¦åº¦åº¦åº¦åº¦åº¦åº¦åº¦åº¦åº¦åº¦åº¦åº¦åº¦åº¦åº¦åº¦åº¦åº¦åº¦åº¦åº¦åº¦åº¦åº¦åº¦åº¦åº¦åº¦åº¦åº¦åº¦åº¦": 7556,
      "åĴļåĴļåĴļåĴļåĴļåĴļåĴļåĴļåĴļåĴļåĴļåĴļåĴļåĴļåĴļåĴļåĴļåĴļåĴļåĴļåĴļåĴļåĴļåĴļåĴļåĴļåĴļåĴļåĴļåĴļåĴļåĴļ": 7557,
      "çı¾ä»£åĮĸ": 7558,
      "¯¶è²´åĺħæķĻè¨ĵ": 7559,
      "å¥½å·®": 7560,
      "åĸºæ°´åº¦": 7561,
      "åķ²çī¹åĪ¥åĺħåĺ¢": 7562,
      "ä½Ĩä¿Ĥéļ»": 7563,
      "ç¬ĳç·Ĭ": 7564,
      "å¸¶åŁĭ": 7565,
      "åª½åĴªè¬Ľ": 7566,
      "å¥½å¥½ç¬ĳ": 7567,
      "åĶĶå¥½åĺħ": 7568,
      "ä½¢æĥ³é£Ł": 7569,
      "éĮ¨": 7570,
      "ä¸įèĪĴæľį": 7571,
      "ä½¢åĵĭåĸºåĢĭ": 7572,
      "çľŁè©±": 7573,
      "æľĢéį¾æĦıåĺħçİ©åħ·": 7574,
      "é«Ĵé«Ĵ": 7575,
      "æ¨Ļèªŀ": 7576,
      "é¼»åŃĲ": 7577,
      "éı¡åŃĲ": 7578,
      "åħĭæĭī": 7579,
      "æĬĢå·§": 7580,
      "åĹ°åĹ°åĹ°åĹ°åĹ°åĹ°åĹ°åĹ°åĹ°åĹ°åĹ°åĹ°åĹ°åĹ°åĹ°åĹ°åĹ°åĹ°åĹ°åĹ°åĹ°åĹ°åĹ°åĹ°åĹ°åĹ°åĹ°åĹ°åĹ°åĹ°åĹ°åĹ°": 7581,
      "ä½¤ä½¤ä½¤ä½¤ä½¤ä½¤ä½¤ä½¤ä½¤ä½¤ä½¤ä½¤ä½¤ä½¤ä½¤ä½¤ä½¤ä½¤ä½¤ä½¤ä½¤ä½¤ä½¤ä½¤ä½¤ä½¤ä½¤ä½¤ä½¤ä½¤ä½¤ä½¤": 7582,
      "åĪ°åĴĹä¸ĢæĹ¥åĺħå°¾èģ²": 7583,
      "ä¸ĢåĪ»": 7584,
      "ä¿ĤéĽĻèĥŀèĥİ": 7585,
      "åĪ°åĸĩ": 7586,
      "æĪĳæĩīè©²": 7587,
      "ä½¢åĵĭéĸĵæĪ¿": 7588,
      "ä½łåĸĩ": 7589,
      "è¦ģåĺħåĺ¢": 7590,
      "è¡Įè¿Ķå±ĭä¼ģ": 7591,
      "æ£ĭ": 7592,
      "æ¯ıäºº": 7593,
      "ä½¢åĶĶæľĥ": 7594,
      "æĬĺ": 7595,
      "ä½¢æĥ³åİ»": 7596,
      "ä½łå¥½æĥ¡": 7597,
      "æį²": 7598,
      "çĶľèľľ": 7599,
      "æ¨¹æŀĿåº¦": 7600,
      "å¾®éı¡": 7601,
      "æŁĶè»Łåĺħ": 7602,
      "é¡¯å¾®éı¡": 7603,
      "ĠåĲĮæĦıåĴĹ": 7604,
      "ä¸ĢéłĤ": 7605,
      "èıĬèĬ±": 7606,
      "é¼´é¼ł": 7607,
      "ĠæīĢä»¥": 7608,
      "åĢĭä¸īæŃ²": 7609,
      "æĪĳå¥½æĥ³": 7610,
      "åĢĭå½": 7611,
      "æľĥä¸ĢçĽ´": 7612,
      "åĸºåº¦è¬Ľ": 7613,
      "ä½¢åª½åª½ç¬ĳåĴĹç¬ĳ": 7614,
      "æ´²": 7615,
      "å¡ĳ": 7616,
      "Ġåķıä½¢åª½åª½": 7617,
      "åĴĹä¸ĢåĢĭéĩįè¦ģåĺħæķĻè¨ĵ": 7618,
      "å¥½å¥½é£Łåĺħåĺ¢": 7619,
      "çĽ´åĪ°ä½¢": 7620,
      "çįİçīĮ": 7621,
      "ĠBuzz": 7622,
      "èĴ¸": 7623,
      "æ¨¹æŀĿåĪ°è·³åļŁè·³åİ»": 7624,
      "çıĬçĳļç¤ģ": 7625,
      "åĸºéļ»è²ĵéĿ¢åīįåĺħ": 7626,
      "ä½¢åĴģ": 7627,
      "ä½¢æīĭåº¦": 7628,
      "ä¸Ģåķ²": 7629,
      "åĲĮåĸĬ": 7630,
      "å¤§éĸĢ": 7631,
      "åĳĢè¡Į": 7632,
      "å¸Ŀ": 7633,
      "çĶ¨ä½¢éļ»": 7634,
      "æĺ¥": 7635,
      "çĦ¡çŁ¥": 7636,
      "çıŃæģ©": 7637,
      "åĮĨ": 7638,
      "æ¡Ĩ": 7639,
      "ĠåĶĶèģ½è©±": 7640,
      "ä¸ĬéĿ¢æľīåĢĭ": 7641,
      "æ®¿": 7642,
      "é«ĴåĴĹ": 7643,
      "èľĺèĽĽç¶²": 7644,
      "arry": 7645,
      "èªŀè¨Ģ": 7646,
      "çķ¶ä½¢åĪ°åĴĹ": 7647,
      "æĭĸæĬĬ": 7648,
      "åļ¨åļ¨åļ¨åļ¨åļ¨åļ¨åļ¨åļ¨åļ¨åļ¨åļ¨åļ¨åļ¨åļ¨åļ¨åļ¨åļ¨åļ¨åļ¨åļ¨åļ¨åļ¨åļ¨åļ¨åļ¨åļ¨åļ¨åļ¨åļ¨åļ¨åļ¨åļ¨": 7649,
      "å¥½çİ©åĪ°çĪĨ": 7650,
      "åĳµèŃ·": 7651,
      "åĸºéļ»è²ĵéĿ¢åīįåĺħæ¨¹æŀĿåĪ°è·³åļŁè·³åİ»": 7652,
      "¾Ĺ": 7653,
      "Ġ,": 7654,
      "å¥½åĪºæ¿Ģ": 7655,
      "åĺħèģ²": 7656,
      "åĺħæĪ¿éĸĵ": 7657,
      "åĢĭèĤļ": 7658,
      "å°±èµ°": 7659,
      "ç´ĭ": 7660,
      "åĪ·": 7661,
      "æķ´åĴĹ": 7662,
      "ĠBlu": 7663,
      "æ³Ĭ": 7664,
      "éłŃä½¬": 7665,
      "è¡Įä¾Ĩè¡Įåİ»": 7666,
      "èłħ": 7667,
      "æįķ": 7668,
      "é«®åŀ": 7669,
      "ä½¢èģ½åĪ°ä¸ĢéĻ£": 7670,
      "åĸ³åĸ³åı«": 7671,
      "å°ıæľĭåıĭå°±": 7672,
      "æ¯ıæĹ¥ä½¢éĥ½æľĥ": 7673,
      "ä½¢åŃ¸æĩĤ": 7674,
      "èİĵæŀľ": 7675,
      "Ġg": 7676,
      "ä½¢æīĵéĸĭåĢĭ": 7677,
      "åĢĭæĢªçī©": 7678,
      "éłĨ": 7679,
      "çĿĩåĶĶåĪ°": 7680,
      "æ±¡": 7681,
      "è·³åĩºåļŁ": 7682,
      "æīĵçĪĽ": 7683,
      "ç´Ħç¿°åĲĮ": 7684,
      "å¥½é«ĺèĪĪ": 7685,
      "å¾Īå¿«å°±æľĥ": 7686,
      "ä½¢çĻ¼çı¾åĴĹä¸Ģ": 7687,
      "è¤¸": 7688,
      "çĸ²åĢ¦åĴĹ": 7689,
      "åĴĹä¸Ģåı£æ°£": 7690,
      "çŀĵç·Ĭè¦º": 7691,
      "ĠØ": 7692,
      "åĲĮæĪĳåĵĭ": 7693,
      "åħĩ": 7694,
      "åħŃ": 7695,
      "æĪĳéľĢè¦ģ": 7696,
      "ä½ıæ¢Ŀ": 7697,
      "æľĭåıĭä¸Ģé½Ĭ": 7698,
      "ä¸ĬåĪ°": 7699,
      "å°įåĺħ": 7700,
      "è¨İ": 7701,
      "æĪĳåĵĭéĥ½": 7702,
      "åĭķä½ľ": 7703,
      "æĪĳåĵĭåĢĭ": 7704,
      "åĴĹåķ²æ°´": 7705,
      "ä½¢åĵĭå¥½åĶĶéĸĭå¿ĥ": 7706,
      "Ġåĸºåħ¬åľĴ": 7707,
      "ä½Ĩä¿Ĥä½¢è¨ĺå¾Ĺ": 7708,
      "é£²åĵģ": 7709,
      "ä¸īæŃ²å¤§": 7710,
      "æŁĶåĴĮ": 7711,
      "æĶ¾åħ¥çĦĹçĪĲ": 7712,
      "å¸¶ä½ıç¬ĳå®¹": 7713,
      "åĺħå°ıé£Ł": 7714,
      "æĪĳåĵĭåĶĶåı¯ä»¥": 7715,
      "æĩīæī¿åĴĹ": 7716,
      "æ¥µ": 7717,
      "ĠçŁ¥": 7718,
      "ŀĥåľ¾": 7719,
      "çİ©åĺħ": 7720,
      "ä½¢åĵĭè¿Ķåİ»": 7721,
      "èĢ·": 7722,
      "çĤºä½ł": 7723,
      "è·ĳå¾Ĺå¥½å¿«": 7724,
      "åģļåĴ©åĳĢ": 7725,
      "Ġå¥½å¥½å¥ĩ": 7726,
      "ä½¢åĸºå±ĭä¼ģ": 7727,
      "åĶĶä¿ĤåĴģ": 7728,
      "çľŁãĹİ": 7729,
      "æķħäºĭçµĲæĿŁ": 7730,
      "and": 7731,
      "èĤ¥çļĤ": 7732,
      "å²©": 7733,
      "åĸĥåĸĥ": 7734,
      "æĶªæĭĮæ©Ł": 7735,
      "İŁè«Ĵ": 7736,
      "Ġè¨ĺå¾Ĺ": 7737,
      "éļ»é©¢": 7738,
      "ä½ıçľ¼": 7739,
      "æĹ¥æĹ¥": 7740,
      "è¿Ĳ": 7741,
      "ä½¢åĺħåĨĴéļª": 7742,
      "éĻ¸": 7743,
      "èĬ±æ¤°èıľ": 7744,
      "æīĢä»¥å°±åķı": 7745,
      "ä»²æľīåķ²": 7746,
      "åİ»åĴĹéĤĬ": 7747,
      "ä½¢åĵĭä¸Ģé½ĬåĲĪä½ľ": 7748,
      "å¿«æ¨Ĥåľ°": 7749,
      "åº§å±±": 7750,
      "è¡¨æĥħ": 7751,
      "æ¯ıå¤©éĥ½æľĥ": 7752,
      "ä½¢åĨįåĨĩ": 7753,
      "åĸºå±ĭä¼ģåĪ°": 7754,
      "çĤºèĩªå·±æĦŁåĪ°é©ķåĤ²": 7755,
      "é¡ıèī²åĲĮå½¢çĭĢ": 7756,
      "ç¾ŀæĦ§": 7757,
      "Ġk": 7758,
      "Ħ²": 7759,
      "ä½¢ä»¶": 7760,
      "ä½¢ç¤ºæĦı": 7761,
      "ä½¢å¹¾": 7762,
      "åĺħéŃļ": 7763,
      "åĺħæĥħæ³ģ": 7764,
      "æľīåīµæĦı": 7765,
      "éļ»çĮ´åŃĲ": 7766,
      "ä½Ĩä¿Ĥåķ²": 7767,
      "é£ŁåĳĢ": 7768,
      "èĲ½ç·Ĭ": 7769,
      "ä¹³": 7770,
      "ä½¢åĸºèįīåľ°ä¸Ĭ": 7771,
      "å£ĺ": 7772,
      "æ¿º": 7773,
      "çĽ¡åĴĹ": 7774,
      "ä½¢åĵĭä¸Ģé½Ĭçİ©å¾Ĺå¥½éĸĭå¿ĥ": 7775,
      "ä¸ĢåĢĭå°ıæľĭåıĭ": 7776,
      "æ¸ħæ¥ļåķ²": 7777,
      "®ĮæĪĲåĴĹ": 7778,
      "æ±ºå¿ĥè¦ģ": 7779,
      "ĺ¢": 7780,
      "ä½¢éĸĭåĴĹ": 7781,
      "å¾·": 7782,
      "åº¦æĲµ": 7783,
      "çİ©èĢį": 7784,
      "åĢĭå¼": 7785,
      "æľĥåĶĶæľĥ": 7786,
      "æķ´åĢĭ": 7787,
      "å°įå¤§": 7788,
      "éĺ¿åª½åĸºåº¦": 7789,
      "èĬ±çĵ£": 7790,
      "æ³¢æµª": 7791,
      "æĦŁè¦ºå¥½éĸĭå¿ĥ": 7792,
      "æºĲ": 7793,
      "éĹľåĴĹ": 7794,
      "å¾ŀåīįæľīä¸Ģéļ»å¥½": 7795,
      "éĩĳå¹£": 7796,
      "æ¾¤": 7797,
      "®īåħ¨åĺħåľ°æĸ¹": 7798,
      "ä¸įä¹ħä¹ĭå¾Į": 7799,
      "ä½¢åİ»åĪ°éĤĬåº¦": 7800,
      "è¨İè«ĸ": 7801,
      "Ġå°ĸåı«": 7802,
      "ä½¢æĬ±ä½ıä½¢": 7803,
      "å¥§": 7804,
      "åĺħéĽĢ": 7805,
      "åĺħè¡«": 7806,
      "åºı": 7807,
      "åĶĶè©²": 7808,
      "ä½ıåĸºä¸ĢåĢĭ": 7809,
      "èĩªå·±åĢĭ": 7810,
      "èµ°åķ²": 7811,
      "æ°´æ¯į": 7812,
      "å¼µåį¡": 7813,
      "å®Įå¾Į": 7814,
      "çµ¦": 7815,
      "éĸĥäº®": 7816,
      "èĬ±åľĴåº¦çİ©": 7817,
      "æĶ¶éŁ³æ©Ł": 7818,
      "ä½¢å¥½èĪĪå¥®åĴģ": 7819,
      "ĠRob": 7820,
      "åĲĮä½łä¸Ģé½Ĭçİ©": 7821,
      "æĻºæħ§åĺħ": 7822,
      "ä½¢æŀ¶çİ©åħ·è»Ĭ": 7823,
      "æĦŁè¦ºå¥½å¥½å¤ļ": 7824,
      "ľä¼": 7825,
      "ä½¢åĹ°": 7826,
      "ª½åĴª": 7827,
      "å¤§æµ·": 7828,
      "æľĥåĸº": 7829,
      "ä½¢å¥½å¿«": 7830,
      "ä½¢å¥½å¾ĮæĤĶ": 7831,
      "æĦŁåĭķ": 7832,
      "è¦ºå¾Ĺæľīåķ²": 7833,
      "éĸĭèĬ±": 7834,
      "æĦĽä½¢åĵĭ": 7835,
      "ä¸ŃåĴĹ": 7836,
      "çĲĨé«®": 7837,
      "å¯«åŃĹ": 7838,
      "çķĻä½İåĴĹ": 7839,
      "è§£éĩĭåĴĹ": 7840,
      "æı®æīĭåĲĮ": 7841,
      "å³¶": 7842,
      "å¥½ç·Ĭ": 7843,
      "ä½¢åĢĴ": 7844,
      "åĺħéĩįè¦ģ": 7845,
      "åĲĮåª½åª½": 7846,
      "éģµ": 7847,
      "å¤§å»": 7848,
      "ä¼´": 7849,
      "è¬Ľè¬Ľ": 7850,
      "æŀ¶ä¸Ĭ": 7851,
      "å¥½éį¾æĦıåĸºå¤ĸéĿ¢çİ©": 7852,
      "èİĬ": 7853,
      "è©¦æĸ°åĺ¢": 7854,
      "ä»¤ä½¢åĵĭ": 7855,
      "ç²īçŃĨ": 7856,
      "æŀĿä»Ķ": 7857,
      "å¼·åĭģ": 7858,
      "ä½¢æľĽä¸Ĭå¤©": 7859,
      "ä½¢åĢĭåĲį": 7860,
      "åľĵåľĪ": 7861,
      "ä½¢è·ĳåİ»æĲµ": 7862,
      "ä½¢åĸĬä½ı": 7863,
      "ä½łåĵĭåĶĶæĩīè©²": 7864,
      "ç¬ĽåŃĲ": 7865,
      "åĻĵåĻĵåĻĵåĻĵåĻĵåĻĵåĻĵåĻĵåĻĵåĻĵåĻĵåĻĵåĻĵåĻĵåĻĵåĻĵåĻĵåĻĵåĻĵåĻĵåĻĵåĻĵåĻĵåĻĵåĻĵåĻĵåĻĵåĻĵåĻĵåĻĵåĻĵåĻĵåĻĵåĻĵåĻĵåĻĵåĻĵåĻĵåĻĵåĻĵåĻĵåĻĵåĻĵåĻĵåĻĵåĻĵåĻĵåĻĵåĻĵåĻĵåĻĵåĻĵåĻĵåĻĵåĻĵåĻĵåĻĵåĻĵåĻĵåĻĵåĻĵåĻĵåĻĵåĻĵåĻĵåĻĵåĻĵåĻĵåĻĵåĻĵåĻĵåĻĵåĻĵåĻĵåĻĵåĻĵåĻĵåĻĵåĻĵåĻĵåĻĵåĻĵåĻĵåĻĵåĻĵåĻĵåĻĵåĻĵåĻĵåĻĵåĻĵåĻĵåĻĵåĻĵåĻĵåĻĵåĻĵåĻĵåĻĵåĻĵåĻĵåĻĵåĻĵåĻĵåĻĵåĻĵåĻĵåĻĵåĻĵåĻĵåĻĵåĻĵåĻĵåĻĵåĻĵåĻĵåĻĵåĻĵåĻĵåĻĵåĻĵåĻĵåĻĵåĻĵåĻĵåĻĵåĻĵåĻĵ": 7866,
      "äº¦éĥ½": 7867,
      "å¾ŀåĳ¢éĸĭå§ĭ": 7868,
      "co": 7869,
      "Ġåĵĩ": 7870,
      "ä¸ĢæŀĿ": 7871,
      "ä¸ĢåłĨ": 7872,
      "åĴĹä¸ĢåĢĭå¥½": 7873,
      "ä¿ĤçĶ¨": 7874,
      "åĸºè¡Ĺåº¦": 7875,
      "åħħ": 7876,
      "ä½¢åĵĭéľĢè¦ģ": 7877,
      "ä½Ĩä¿Ĥéļ»çĭĹ": 7878,
      "äººçĶŁ": 7879,
      "çĦ¶å¾Įè·ĳåİ»": 7880,
      "Ġå°±ç¬ĳåĴĹ": 7881,
      "éĸĭå§ĭå¤§": 7882,
      "ä½¢åĵĭåĸºåħ¬åľĴåĪ°": 7883,
      "ä½łåĵĭåķ²": 7884,
      "åŁĭçľ¼": 7885,
      "åį¡åĴĹ": 7886,
      "ç²īæľ«": 7887,
      "åĢĭåľ°": 7888,
      "å§Ĳå¦¹": 7889,
      "æĤ¶æĤ¶": 7890,
      "æİ¹åĩºåļŁ": 7891,
      "å¾ŀåīįæľīéļ»å°ıé³¥": 7892,
      "å¢Ĭ": 7893,
      "æ©¡æ¨¹": 7894,
      "åı¯éĿłåĺħ": 7895,
      "æŃ£å¸¸åĺħ": 7896,
      "ith": 7897,
      "ä½ıå°įä½ıå°įä½ıå°įä½ıå°įä½ıå°įä½ıå°įä½ıå°įä½ıå°įä½ıå°įä½ıå°įä½ıå°įä½ıå°įä½ıå°įä½ıå°įä½ıå°įä½ıå°į": 7898,
      "å¥½ç¥ŀå¥ĩåĺħäºĭ": 7899,
      "èģĸèª": 7900,
      "les": 7901,
      "ĠåĽŀè¦Ĩ": 7902,
      "åĲĮåħ¶ä»ĸ": 7903,
      "æľīåĨĩäºº": 7904,
      "ä½Ĩä¿Ĥä»ĬæĹ¥": 7905,
      "å¥½éĸĭå¿ĥåĻī": 7906,
      "éłĲ": 7907,
      "ä¸Ĭå¸Ŀ": 7908,
      "æĲµæĸ¹æ³ķ": 7909,
      "çĤºä½¢åĵĭ": 7910,
      "æľĽèĲ½åİ»": 7911,
      "ä½¢åĺħæĸ°": 7912,
      "é£Ľå¾Ĺ": 7913,
[...]
