{
  "version": "1.0",
  "truncation": null,
  "padding": null,
  "added_tokens": [
    {
      "id": 0,
      "content": "<UNK>",
      "single_word": false,
      "lstrip": false,
      "rstrip": false,
      "normalized": false,
      "special": true
    },
    {
      "id": 1,
      "content": "<CLS>",
      "single_word": false,
      "lstrip": false,
      "rstrip": false,
      "normalized": false,
      "special": true
    },
    {
      "id": 2,
      "content": "<SEP>",
      "single_word": false,
      "lstrip": false,
      "rstrip": false,
      "normalized": false,
      "special": true
    },
    {
      "id": 3,
      "content": "<EN>",
      "single_word": false,
      "lstrip": false,
      "rstrip": false,
      "normalized": false,
      "special": true
    },
    {
      "id": 4,
      "content": "</EN>",
      "single_word": false,
      "lstrip": false,
      "rstrip": false,
      "normalized": false,
      "special": true
    },
    {
      "id": 5,
      "content": "<ES>",
      "single_word": false,
      "lstrip": false,
      "rstrip": false,
      "normalized": false,
      "special": true
    },
    {
      "id": 6,
      "content": "</ES>",
      "single_word": false,
      "lstrip": false,
      "rstrip": false,
      "normalized": false,
      "special": true
    },
    {
      "id": 7,
      "content": "<ZH>",
      "single_word": false,
      "lstrip": false,
      "rstrip": false,
      "normalized": false,
      "special": true
    },
    {
      "id": 8,
      "content": "</ZH>",
      "single_word": false,
      "lstrip": false,
      "rstrip": false,
      "normalized": false,
      "special": true
    },
    {
      "id": 9,
      "content": "<HI>",
      "single_word": false,
      "lstrip": false,
      "rstrip": false,
      "normalized": false,
      "special": true
    },
    {
      "id": 10,
      "content": "</HI>",
      "single_word": false,
      "lstrip": false,
      "rstrip": false,
      "normalized": false,
      "special": true
    }
  ],
  "normalizer": null,
  "pre_tokenizer": {
    "type": "ByteLevel",
    "add_prefix_space": false,
    "trim_offsets": true,
    "use_regex": true
  },
  "post_processor": {
    "type": "ByteLevel",
    "add_prefix_space": true,
    "trim_offsets": false,
    "use_regex": true
  },
  "decoder": {
    "type": "ByteLevel",
    "add_prefix_space": true,
    "trim_offsets": true,
    "use_regex": true
  },
  "model": {
    "type": "BPE",
    "dropout": null,
    "unk_token": null,
    "continuing_subword_prefix": null,
    "end_of_word_suffix": null,
    "fuse_unk": false,
    "byte_fallback": false,
    "ignore_merges": false,
    "vocab": {
      "<UNK>": 0,
      "<CLS>": 1,
      "<SEP>": 2,
      "<EN>": 3,
      "</EN>": 4,
      "<ES>": 5,
      "</ES>": 6,
      "<ZH>": 7,
      "</ZH>": 8,
      "<HI>": 9,
      "</HI>": 10,
      "!": 11,
      "\"": 12,
      "#": 13,
      "$": 14,
      "%": 15,
      "&": 16,
      "'": 17,
      "(": 18,
      ")": 19,
      "*": 20,
      "+": 21,
      ",": 22,
      "-": 23,
      ".": 24,
      "/": 25,
      "0": 26,
      "1": 27,
      "2": 28,
      "3": 29,
      "4": 30,
      "5": 31,
      "6": 32,
      "7": 33,
      "8": 34,
      "9": 35,
      ":": 36,
      ";": 37,
      "<": 38,
      "=": 39,
      ">": 40,
      "?": 41,
      "@": 42,
      "A": 43,
      "B": 44,
      "C": 45,
      "D": 46,
      "E": 47,
      "F": 48,
      "G": 49,
      "H": 50,
      "I": 51,
      "J": 52,
      "K": 53,
      "L": 54,
      "M": 55,
      "N": 56,
      "O": 57,
      "P": 58,
      "Q": 59,
      "R": 60,
      "S": 61,
      "T": 62,
      "U": 63,
      "V": 64,
      "W": 65,
      "X": 66,
      "Y": 67,
      "Z": 68,
      "[": 69,
      "\\": 70,
      "]": 71,
      "^": 72,
      "_": 73,
      "`": 74,
      "a": 75,
      "b": 76,
      "c": 77,
      "d": 78,
      "e": 79,
      "f": 80,
      "g": 81,
      "h": 82,
      "i": 83,
      "j": 84,
      "k": 85,
      "l": 86,
      "m": 87,
      "n": 88,
      "o": 89,
      "p": 90,
      "q": 91,
      "r": 92,
      "s": 93,
      "t": 94,
      "u": 95,
      "v": 96,
      "w": 97,
      "x": 98,
      "y": 99,
      "z": 100,
      "{": 101,
      "|": 102,
      "}": 103,
      "~": 104,
      "¡": 105,
      "¢": 106,
      "£": 107,
      "¤": 108,
      "¥": 109,
      "¦": 110,
      "§": 111,
      "¨": 112,
      "©": 113,
      "ª": 114,
      "«": 115,
      "¬": 116,
      "®": 117,
      "¯": 118,
      "°": 119,
      "±": 120,
      "²": 121,
      "³": 122,
      "´": 123,
      "µ": 124,
      "¶": 125,
      "·": 126,
      "¸": 127,
      "¹": 128,
      "º": 129,
      "»": 130,
      "¼": 131,
      "½": 132,
      "¾": 133,
      "¿": 134,
      "À": 135,
      "Á": 136,
      "Â": 137,
      "Ã": 138,
      "Ä": 139,
      "Å": 140,
      "Æ": 141,
      "Ç": 142,
      "È": 143,
      "É": 144,
      "Ê": 145,
      "Ë": 146,
      "Ì": 147,
      "Í": 148,
      "Î": 149,
      "Ï": 150,
      "Ð": 151,
      "Ñ": 152,
      "Ò": 153,
      "Ó": 154,
      "Ô": 155,
      "Õ": 156,
      "Ö": 157,
      "×": 158,
      "Ø": 159,
      "Ù": 160,
      "Ú": 161,
      "Û": 162,
      "Ü": 163,
      "Ý": 164,
      "Þ": 165,
      "ß": 166,
      "à": 167,
      "á": 168,
      "â": 169,
      "ã": 170,
      "ä": 171,
      "å": 172,
      "æ": 173,
      "ç": 174,
      "è": 175,
      "é": 176,
      "ê": 177,
      "ë": 178,
      "ì": 179,
      "í": 180,
      "î": 181,
      "ï": 182,
      "ð": 183,
      "ñ": 184,
      "ò": 185,
      "ó": 186,
      "ô": 187,
      "õ": 188,
      "ö": 189,
      "÷": 190,
      "ø": 191,
      "ù": 192,
      "ú": 193,
      "û": 194,
      "ü": 195,
      "ý": 196,
      "þ": 197,
      "ÿ": 198,
      "Ā": 199,
      "ā": 200,
      "Ă": 201,
      "ă": 202,
      "Ą": 203,
      "ą": 204,
      "Ć": 205,
      "ć": 206,
      "Ĉ": 207,
      "ĉ": 208,
      "Ċ": 209,
      "ċ": 210,
      "Č": 211,
      "č": 212,
      "Ď": 213,
      "ď": 214,
      "Đ": 215,
      "đ": 216,
      "Ē": 217,
      "ē": 218,
      "Ĕ": 219,
      "ĕ": 220,
      "Ė": 221,
      "ė": 222,
      "Ę": 223,
      "ę": 224,
      "Ě": 225,
      "ě": 226,
      "Ĝ": 227,
      "ĝ": 228,
      "Ğ": 229,
      "ğ": 230,
      "Ġ": 231,
      "ġ": 232,
      "Ģ": 233,
      "ģ": 234,
      "Ĥ": 235,
      "ĥ": 236,
      "Ħ": 237,
      "ħ": 238,
      "Ĩ": 239,
      "ĩ": 240,
      "Ī": 241,
      "ī": 242,
      "Ĭ": 243,
      "ĭ": 244,
      "Į": 245,
      "į": 246,
      "İ": 247,
      "ı": 248,
      "Ĳ": 249,
      "ĳ": 250,
      "Ĵ": 251,
      "ĵ": 252,
      "Ķ": 253,
      "ķ": 254,
      "ĸ": 255,
      "Ĺ": 256,
      "ĺ": 257,
      "Ļ": 258,
      "ļ": 259,
      "Ľ": 260,
      "ľ": 261,
      "Ŀ": 262,
      "ŀ": 263,
      "Ł": 264,
      "ł": 265,
      "Ń": 266,
      "he": 267,
      "Ġt": 268,
      "Ġa": 269,
      "Ġs": 270,
      "Ġw": 271,
      "nd": 272,
      "Ġthe": 273,
      "ed": 274,
      "Ġand": 275,
      "Ġto": 276,
      "Ġb": 277,
      "in": 278,
      "Ġh": 279,
      "Ġwa": 280,
      "re": 281,
      "Ġf": 282,
      "ou": 283,
      "it": 284,
      "Ġl": 285,
      "Ġc": 286,
      "Ġd": 287,
      "er": 288,
      "Ġhe": 289,
      "Ġm": 290,
      "Ġp": 291,
      "Ġwas": 292,
      "om": 293,
      "ĠT": 294,
      "Ġo": 295,
      "ay": 296,
      "ar": 297,
      "is": 298,
      "ing": 299,
      "il": 300,
      "Ġg": 301,
      "id": 302,
      "at": 303,
      "en": 304,
      "Ġn": 305,
      "Ġsa": 306,
      "Ġha": 307,
      "ĠS": 308,
      "ĠThe": 309,
      "an": 310,
      "im": 311,
      "or": 312,
      "on": 313,
      "Ġit": 314,
      "Ġth": 315,
      "ll": 316,
      "le": 317,
      "ĠH": 318,
      "Ġher": 319,
      "ot": 320,
      "et": 321,
      "ir": 322,
      "ĠShe": 323,
      "ĠHe": 324,
      "es": 325,
      "Ġin": 326,
      "ver": 327,
      "ut": 328,
      "ow": 329,
      "ĠThey": 330,
      "ck": 331,
      "Ġe": 332,
      "Ġu": 333,
      "ld": 334,
      "ily": 335,
      "Ġy": 336,
      "oo": 337,
      "Ġsaid": 338,
      "ig": 339,
      "Ġr": 340,
      "am": 341,
      "Ġbe": 342,
      "Ġst": 343,
      "Ġ\"": 344,
      "ce": 345,
      "ĠI": 346,
      "Ġshe": 347,
      "ke": 348,
      "pp": 349,
      "ith": 350,
      "Lily": 351,
      "ve": 352,
      "Ġwith": 353,
      "On": 354,
      "Ġon": 355,
      "Ġof": 356,
      "ri": 357,
      "ked": 358,
      "Ġhis": 359,
      "Ġyou": 360,
      "Ġpl": 361,
      "Ġso": 362,
      "nt": 363,
      "very": 364,
      "ad": 365,
      "Ġday": 366,
      "Ġthat": 367,
      "Ġup": 368,
      "ĠLily": 369,
      "Ġplay": 370,
      "Ġhad": 371,
      "Ġthey": 372,
      "st": 373,
      "Ġwe": 374,
      "Ġmom": 375,
      "Ġfor": 376,
      "el": 377,
      "my": 378,
      "ould": 379,
      "un": 380,
      "ĠB": 381,
      "'s": 382,
      "The": 383,
      "Ġli": 384,
      "Ġhapp": 385,
      "ch": 386,
      "ent": 387,
      "itt": 388,
      "Ġwant": 389,
      "her": 390,
      "Ġsh": 391,
      "out": 392,
      "Ġdo": 393,
      "Ġnot": 394,
      "Ġvery": 395,
      "ome": 396,
      "ly": 397,
      "all": 398,
      "ound": 399,
      "end": 400,
      "ittle": 401,
      "ime": 402,
      "se": 403,
      "Ġwh": 404,
      "Ġk": 405,
      "Ġlittle": 406,
      "Ġtime": 407,
      "Ġthere": 408,
      "al": 409,
      "Ġne": 410,
      "ht": 411,
      "Ġhappy": 412,
      "Ġbig": 413,
      "Ġre": 414,
      "ĠM": 415,
      "Ġis": 416,
      "ĠIt": 417,
      "Ġsm": 418,
      "Ġbut": 419,
      "ĠĊ": 420,
      "ra": 421,
      "Ġsaw": 422,
      "riend": 423,
      "Ġfriend": 424,
      "Ġan": 425,
      "ry": 426,
      "Ġas": 427,
      "ack": 428,
      ".\"": 429,
      "One": 430,
      "ide": 431,
      "ake": 432,
      "'t": 433,
      "ved": 434,
      "ter": 435,
      "ug": 436,
      "Once": 437,
      "Ġlo": 438,
      "Ġloo": 439,
      "Ġwere": 440,
      "ore": 441,
      "!\"": 442,
      "ec": 443,
      "Ġhim": 444,
      "Ġbo": 445,
      "Ġtoo": 446,
      "ĠTim": 447,
      "Ġse": 448,
      "Ġgo": 449,
      "irl": 450,
      "Ġupon": 451,
      "Ġwanted": 452,
      "Ġj": 453,
      "ard": 454,
      "Ġgirl": 455,
      "ill": 456,
      "Ġare": 457,
      "Ġthem": 458,
      "Ġout": 459,
      "Ġat": 460,
      "Ġtheir": 461,
      "ind": 462,
      "Ġsp": 463,
      "way": 464,
      "fu": 465,
      "Ġdid": 466,
      "ur": 467,
      "Ġcould": 468,
      "ĠA": 469,
      "hen": 470,
      "Ġsmil": 471,
      "ain": 472,
      "Ġhave": 473,
      "art": 474,
      "Ġwent": 475,
      "hed": 476,
      "Ġex": 477,
      "rom": 478,
      "ic": 479,
      "round": 480,
      "lp": 481,
      "Ġnam": 482,
      "Ġcan": 483,
      "ful": 484,
      "Ġfriends": 485,
      "ĠBen": 486,
      "hing": 487,
      "Ġhelp": 488,
      "Ġkn": 489,
      "Ġall": 490,
      "ĠJ": 491,
      "ood": 492,
      "ight": 493,
      "?\"": 494,
      "um": 495,
      "ark": 496,
      "one": 497,
      "Ġback": 498,
      "Ġfun": 499,
      "Ġcl": 500,
      "are": 501,
      "Ġsay": 502,
      "Ġle": 503,
      "You": 504,
      "Ġnamed": 505,
      "Ġno": 506,
      "ĠTom": 507,
      "Ġloved": 508,
      "op": 509,
      "elt": 510,
      "ĠTimmy": 511,
      "ĠOne": 512,
      "oug": 513,
      "Ġal": 514,
      "Ġsc": 515,
      "side": 516,
      "Ġfelt": 517,
      "Ġtoy": 518,
      "ick": 519,
      "Ġsmiled": 520,
      "Ġman": 521,
      "Ġfe": 522,
      "Ġasked": 523,
      "Ġsee": 524,
      "ame": 525,
      "Ġlooked": 526,
      "Ġlike": 527,
      "Ġaround": 528,
      "Ġsome": 529,
      "omet": 530,
      "ure": 531,
      "Ġro": 532,
      "Ġboy": 533,
      "Ġbr": 534,
      "get": 535,
      "Ġwould": 536,
      "Ġme": 537,
      "ĠW": 538,
      "Ġbir": 539,
      "ong": 540,
      "ice": 541,
      "Ġstart": 542,
      "ss": 543,
      "Ġsomet": 544,
      "Ġbird": 545,
      "ings": 546,
      "Ġfa": 547,
      "Ġwor": 548,
      "Ġag": 549,
      "ade": 550,
      "Ġmake": 551,
      "Ġwhat": 552,
      "Ġtre": 553,
      "dd": 554,
      "king": 555,
      "gether": 556,
      "own": 557,
      "ĠBut": 558,
      "Ġaway": 559,
      "Ġran": 560,
      "ag": 561,
      "Ġstarted": 562,
      ",\"": 563,
      "ĠYou": 564,
      "oud": 565,
      "Ġmade": 566,
      "ared": 567,
      "ie": 568,
      "Ġtogether": 569,
      "Ã¢": 570,
      "âĤ": 571,
      "âĤ¬": 572,
      "Ġco": 573,
      "Ġsays": 574,
      "Ġpark": 575,
      "Ġsomething": 576,
      "if": 577,
      "Ġcar": 578,
      "ther": 579,
      "ited": 580,
      "Ġsad": 581,
      "Ġput": 582,
      "Ġnew": 583,
      "Ġother": 584,
      "Ġpr": 585,
      "ble": 586,
      "Ġagain": 587,
      "Ġfrom": 588,
      "Ġexc": 589,
      "Ġhug": 590,
      "Ġmu": 591,
      "Ġhome": 592,
      "Ġla": 593,
      "ell": 594,
      "Ġwhen": 595,
      "Ġwho": 596,
      "ook": 597,
      "Ġgood": 598,
      "est": 599,
      "ried": 600,
      "Ġfound": 601,
      "ĠL": 602,
      "Ġthen": 603,
      "ach": 604,
      "ep": 605,
      "Ġdec": 606,
      "Ġfl": 607,
      "pped": 608,
      "Ġch": 609,
      "as": 610,
      "Ġplaying": 611,
      "ought": 612,
      "Ġwal": 613,
      "Ġget": 614,
      "qu": 615,
      "ally": 616,
      "hat": 617,
      "ĠE": 618,
      "Ġthings": 619,
      "Ġsw": 620,
      "uck": 621,
      "Ġgot": 622,
      "pl": 623,
      "ous": 624,
      "Ġliked": 625,
      "nn": 626,
      "Ġevery": 627,
      "Ġdecid": 628,
      "Ġexcited": 629,
      "ave": 630,
      "Ġdecided": 631,
      "ro": 632,
      "Ġcame": 633,
      "ax": 634,
      "Ġbl": 635,
      "Ġbec": 636,
      "Ġdown": 637,
      "Ġyour": 638,
      "Ġfind": 639,
      "Ġcare": 640,
      "Ġdog": 641,
      "ust": 642,
      "Ġscared": 643,
      "Ġone": 644,
      "Ġfeel": 645,
      "Ġv": 646,
      "Ġthan": 647,
      "ist": 648,
      "ouse": 649,
      "ny": 650,
      "Ġdad": 651,
      "ĠD": 652,
      "ap": 653,
      "ĠMom": 654,
      "Ġab": 655,
      "arn": 656,
      "ara": 657,
      "ways": 658,
      "ue": 659,
      "Ġdidn": 660,
      "nna": 661,
      "Ġgra": 662,
      "udd": 663,
      "Ġmy": 664,
      "Ġalways": 665,
      "ant": 666,
      "Ġtook": 667,
      "ers": 668,
      "They": 669,
      "Ġke": 670,
      "us": 671,
      "Ġmommy": 672,
      "ess": 673,
      "ĠF": 674,
      "fe": 675,
      "Ġabout": 676,
      "our": 677,
      "Ġlot": 678,
      "Ġtoys": 679,
      "Ġtree": 680,
      "Ġpo": 681,
      "Ġkne": 682,
      "Ġball": 683,
      "Ġlook": 684,
      "Ġwill": 685,
      "nder": 686,
      "Ġoutside": 687,
      "ite": 688,
      "Ġthought": 689,
      "eci": 690,
      "ened": 691,
      "Ġta": 692,
      "Ġlearn": 693,
      "bb": 694,
      "ise": 695,
      "ched": 696,
      "Ġmore": 697,
      "Ġpre": 698,
      "Ġknow": 699,
      "Ġho": 700,
      "Ġint": 701,
      "ĠSam": 702,
      "ged": 703,
      "ecial": 704,
      "Ġspecial": 705,
      "Ġold": 706,
      "Ġtake": 707,
      "Ġsor": 708,
      "ĠMax": 709,
      "Ġlaug": 710,
      "Ġpe": 711,
      "Ġknew": 712,
      "ive": 713,
      "Ġcat": 714,
      "ma": 715,
      "fter": 716,
      "Ġhow": 717,
      "Ġany": 718,
      "udden": 719,
      "au": 720,
      "Ġshow": 721,
      "Ġtr": 722,
      "Ġmuch": 723,
      "ia": 724,
      "uddenly": 725,
      "Ġsorry": 726,
      "and": 727,
      "Ġsl": 728,
      "ink": 729,
      "But": 730,
      "ish": 731,
      "Ġrun": 732,
      "Ġhouse": 733,
      "Ġtw": 734,
      "ven": 735,
      "Ġtold": 736,
      "Ġor": 737,
      "Ġsk": 738,
      "Ġop": 739,
      "Ġhand": 740,
      "Ġsun": 741,
      "Ġinside": 742,
      "Ġgave": 743,
      "Ġtried": 744,
      "Ġmo": 745,
      "Ġclo": 746,
      "Ġinto": 747,
      "Ġwater": 748,
      "Ġproud": 749,
      "ank": 750,
      "Ġcouldn": 751,
      "Ġover": 752,
      "Ġqu": 753,
      "ause": 754,
      "ate": 755,
      "Ġnever": 756,
      "ump": 757,
      "ty": 758,
      "other": 759,
      "ĠEvery": 760,
      "Ġen": 761,
      "Ġeat": 762,
      "Ġif": 763,
      "ace": 764,
      "Ġroom": 765,
      "Ġplayed": 766,
      "etter": 767,
      "Ġheard": 768,
      "ge": 769,
      "Ġexpl": 770,
      "Ġeach": 771,
      "Ġpick": 772,
      "Ġpret": 773,
      "ion": 774,
      "Ġthis": 775,
      "by": 776,
      "here": 777,
      "dy": 778,
      "ĠWe": 779,
      "Tom": 780,
      "ak": 781,
      "Ġbecause": 782,
      "ĠAnna": 783,
      "Ġhugged": 784,
      "Ġstr": 785,
      "Ġcom": 786,
      "Ġwat": 787,
      "Ġgre": 788,
      "Ġbox": 789,
      "Ġjust": 790,
      "Ġnice": 791,
      "ile": 792,
      "ĠSara": 793,
      "oth": 794,
      "Ġneed": 795,
      "iz": 796,
      "Mom": 797,
      "Ġjo": 798,
      "Ġoff": 799,
      "Ġmany": 800,
      "Ġlong": 801,
      "Ġbear": 802,
      "Ġsmall": 803,
      "Ġfo": 804,
      "Ġbu": 805,
      "ving": 806,
      "Ġsn": 807,
      "ough": 808,
      "Ġlearned": 809,
      "'m": 810,
      "ort": 811,
      "ine": 812,
      "Ġunt": 813,
      "uc": 814,
      "imal": 815,
      "Ġanimal": 816,
      "gry": 817,
      "Ġtry": 818,
      "Ġbetter": 819,
      "ild": 820,
      "sel": 821,
      "Ġuntil": 822,
      "sed": 823,
      "Ġlove": 824,
      "urt": 825,
      "ĠJack": 826,
      "ft": 827,
      "Ġim": 828,
      "em": 829,
      "Ġdre": 830,
      "Ġend": 831,
      "Ġkind": 832,
      "Ġcall": 833,
      "Ġcle": 834,
      "ber": 835,
      "Ġflow": 836,
      "Ġad": 837,
      "Ġbest": 838,
      "urn": 839,
      "vent": 840,
      "ĠHer": 841,
      "He": 842,
      "aut": 843,
      "ĠAnd": 844,
      "ĠSo": 845,
      "ars": 846,
      "Ġfi": 847,
      "Ġpu": 848,
      "ady": 849,
      "Ġcareful": 850,
      "Ġsky": 851,
      "Ġfast": 852,
      "Ġgr": 853,
      "ves": 854,
      "Ġthanked": 855,
      "Ġeven": 856,
      "Ġbeaut": 857,
      "ĠC": 858,
      "Yes": 859,
      "Ġbra": 860,
      "urp": 861,
      "arden": 862,
      "ĠJo": 863,
      "Ġgarden": 864,
      "Ġdon": 865,
      "pt": 866,
      "lly": 867,
      "Ġche": 868,
      "Ġte": 869,
      "ĠMia": 870,
      "Ġby": 871,
      "self": 872,
      "Th": 873,
      "Ġlots": 874,
      "ies": 875,
      "iny": 876,
      "Ġgl": 877,
      "Ġloud": 878,
      "Ġlaughed": 879,
      "Ġfam": 880,
      "Ġjump": 881,
      "ase": 882,
      "Ġbeauti": 883,
      "lew": 884,
      "Ġlist": 885,
      "Ġstill": 886,
      "wn": 887,
      "Ġbeautiful": 888,
      "ĠFrom": 889,
      "rm": 890,
      "Ġhard": 891,
      "Ġway": 892,
      "Ġcome": 893,
      "Ġhurt": 894,
      "Ġwo": 895,
      "Ġanimals": 896,
      "It": 897,
      "ct": 898,
      "Ġra": 899,
      "ĠHis": 900,
      "ast": 901,
      "hes": 902,
      "Ġcol": 903,
      "Ġunder": 904,
      "ĠThen": 905,
      "Ġrem": 906,
      "Åĵ": 907,
      "ning": 908,
      "Ġsafe": 909,
      "Ġstay": 910,
      "ect": 911,
      "be": 912,
      "Ġlet": 913,
      "Ġlived": 914,
      "Ġboth": 915,
      "Tim": 916,
      "ool": 917,
      "Ġcu": 918,
      "ople": 919,
      "Ġimp": 920,
      "Ġbrave": 921,
      "Ġfamily": 922,
      "Ġits": 923,
      "kay": 924,
      "Ġbad": 925,
      "ob": 926,
      "Ġdan": 927,
      "Ġred": 928,
      "Ġstor": 929,
      "ished": 930,
      "Ġbook": 931,
      "ane": 932,
      "Ġtwo": 933,
      "When": 934,
      "Ġfin": 935,
      "ree": 936,
      "Ġpeople": 937,
      "ucy": 938,
      "Ġshould": 939,
      "urpr": 940,
      "ock": 941,
      "Ġcalled": 942,
      "ĠÃ¢": 943,
      "Ġflew": 944,
      "Ġfly": 945,
      "Ġpic": 946,
      "igh": 947,
      "Ġwalked": 948,
      "Ġsurpr": 949,
      "Ġangry": 950,
      "Ġsoon": 951,
      "Ġfore": 952,
      "ĠWhen": 953,
      "Ġdoll": 954,
      "xt": 955,
      "led": 956,
      "Ġkept": 957,
      "Ġclean": 958,
      "Ġshare": 959,
      "fore": 960,
      "ised": 961,
      "Ġrock": 962,
      "Ġpretty": 963,
      "No": 964,
      "Ġdra": 965,
      "hn": 966,
      "Ġgoing": 967,
      "ip": 968,
      "Ġdoor": 969,
      "Let": 970,
      "Ġcon": 971,
      "ĠP": 972,
      "Ġkeep": 973,
      "Ġground": 974,
      "Ġshiny": 975,
      "Ġopened": 976,
      "dded": 977,
      "Ġadvent": 978,
      "ummy": 979,
      "Ġreal": 980,
      "Ġnow": 981,
      "Ġwind": 982,
      "Ġcry": 983,
      "illy": 984,
      "Ġexplore": 985,
      "age": 986,
      "Ġcre": 987,
      "Ġsto": 988,
      "Ben": 989,
      "Ġide": 990,
      "Ġbefore": 991,
      "Ġnoise": 992,
      "Ġfr": 993,
      "Ġcolor": 994,
      "Ġturn": 995,
      "ary": 996,
      "les": 997,
      "so": 998,
      "Ġfar": 999,
      "ture": 1000,
      "âĤ¬â": 1001,
      "Ġalso": 1002,
      "Ġpicked": 1003,
      "Ġfeeling": 1004,
      "ied": 1005,
      "Ġwhile": 1006,
      "Ġey": 1007,
      "Ġidea": 1008,
      "imb": 1009,
      "oon": 1010,
      "oy": 1011,
      "Ġclimb": 1012,
      "Ġnext": 1013,
      "ff": 1014,
      "thing": 1015,
      "Ġbed": 1016,
      "Ġun": 1017,
      "Ġwr": 1018,
      "What": 1019,
      "eet": 1020,
      "Ġthr": 1021,
      "Ġhas": 1022,
      "Ġwalking": 1023,
      "ĠLucy": 1024,
      "Ġsmile": 1025,
      "uch": 1026,
      "Ġpicture": 1027,
      "That": 1028,
      "ger": 1029,
      "iced": 1030,
      "Ġtruck": 1031,
      "Ġnodded": 1032,
      "Ġadventure": 1033,
      "th": 1034,
      "Ġma": 1035,
      "aybe": 1036,
      "Ħ¢": 1037,
      "âĤ¬âĦ¢": 1038,
      "kes": 1039,
      "Ġbeing": 1040,
      "ember": 1041,
      "ĠG": 1042,
      "ted": 1043,
      "Thank": 1044,
      "ious": 1045,
      "joy": 1046,
      "ac": 1047,
      "Ġclos": 1048,
      "ting": 1049,
      "Ġgive": 1050,
      "Ġfood": 1051,
      "Ġtra": 1052,
      "Ġlooking": 1053,
      "Ġwait": 1054,
      "Ġlisten": 1055,
      "ĠDad": 1056,
      "Ġstopped": 1057,
      "Ġblue": 1058,
      "ized": 1059,
      "ught": 1060,
      "Ġtow": 1061,
      "Ġremember": 1062,
      "Ġbre": 1063,
      "Ġdif": 1064,
      "Ġafter": 1065,
      "Ġbro": 1066,
      "Ġhands": 1067,
      "ĠSuddenly": 1068,
      "Ġnoticed": 1069,
      "Ġthink": 1070,
      "maz": 1071,
      "Ġeyes": 1072,
      "Ġamaz": 1073,
      "Ġdel": 1074,
      "Ġwalk": 1075,
      "able": 1076,
      "Ġquick": 1077,
      "Ġown": 1078,
      "Ġenjoy": 1079,
      "Ġforest": 1080,
      "She": 1081,
      "Ġdis": 1082,
      "Ġslide": 1083,
      "Ġgreat": 1084,
      "Ġever": 1085,
      "Ġshowed": 1086,
      "Ġrepl": 1087,
      "Ġwatch": 1088,
      "irst": 1089,
      "Ġstrong": 1090,
      "Ġflowers": 1091,
      "Ġapp": 1092,
      "bbit": 1093,
      "Ġeveryone": 1094,
      "Ġimport": 1095,
      "Ġwonder": 1096,
      "Ġrain": 1097,
      "Ġfish": 1098,
      "Ġwork": 1099,
      "llow": 1100,
      "Ġvo": 1101,
      "Ġac": 1102,
      "Ġtal": 1103,
      "Suddenly": 1104,
      "Ġboat": 1105,
      "Ġnear": 1106,
      "Ġstick": 1107,
      "Ġask": 1108,
      "ĠSp": 1109,
      "Ġokay": 1110,
      "Ġhead": 1111,
      "Ġimportant": 1112,
      "Ġwhere": 1113,
      "Ġshout": 1114,
      "Ġmean": 1115,
      "Ġrabbit": 1116,
      "gan": 1117,
      "Ġright": 1118,
      "Ġplace": 1119,
      "Ġus": 1120,
      "bye": 1121,
      "Ġsound": 1122,
      "bbed": 1123,
      "Ġquickly": 1124,
      "Ġyell": 1125,
      "Ġfollow": 1126,
      "Ġreplied": 1127,
      "Ġuse": 1128,
      "Ġbright": 1129,
      "lease": 1130,
      "ĠBob": 1131,
      "Ġwatched": 1132,
      "Ġdress": 1133,
      "Ġde": 1134,
      "fere": 1135,
      "ange": 1136,
      "Ġbecame": 1137,
      "day": 1138,
      "ĠN": 1139,
      "Ġdiffere": 1140,
      "ath": 1141,
      "Ġmor": 1142,
      "ered": 1143,
      "Ġar": 1144,
      "co": 1145,
      "Ġsure": 1146,
      "We": 1147,
      "ndma": 1148,
      "Ġcake": 1149,
      "Ġchild": 1150,
      "Ġhigh": 1151,
      "Ġcuri": 1152,
      "Ġbeen": 1153,
      "ĠR": 1154,
      "Ġmag": 1155,
      "ount": 1156,
      "Ġstore": 1157,
      "Ġour": 1158,
      "Ġwarm": 1159,
      "Ġye": 1160,
      "aught": 1161,
      "Ġsqu": 1162,
      "Ġhop": 1163,
      "Ġface": 1164,
      "Ġgoodbye": 1165,
      "Ġforg": 1166,
      "more": 1167,
      "Ġdifferent": 1168,
      "Ġanymore": 1169,
      "Ġcloser": 1170,
      "Ġdoes": 1171,
      "Anna": 1172,
      "Look": 1173,
      "So": 1174,
      "leep": 1175,
      "ng": 1176,
      "Ġcurious": 1177,
      "Ġcook": 1178,
      "Ġtell": 1179,
      "Ġam": 1180,
      "Ġvoice": 1181,
      "Ġnight": 1182,
      "itc": 1183,
      "ila": 1184,
      "imes": 1185,
      "Ġpain": 1186,
      "ĠSue": 1187,
      "Ġbel": 1188,
      "ĠSpot": 1189,
      "ired": 1190,
      "Ġbutter": 1191,
      "Ġopen": 1192,
      "ached": 1193,
      "Ġfav": 1194,
      "Ġpa": 1195,
      "Her": 1196,
      "Ġhelped": 1197,
      "Ġfirst": 1198,
      "Ġfell": 1199,
      "ull": 1200,
      "Ġcont": 1201,
      "Sara": 1202,
      "ĠMommy": 1203,
      "Ġhappened": 1204,
      "Ġz": 1205,
      "ĠTh": 1206,
      "Ġlea": 1207,
      "Ġthree": 1208,
      "Ġsees": 1209,
      "iss": 1210,
      "Can": 1211,
      "Ġkitc": 1212,
      "Ġkitchen": 1213,
      "Jo": 1214,
      "Ġpull": 1215,
      "Ġfire": 1216,
      "Ġflo": 1217,
      "Ġbus": 1218,
      "Ġbirds": 1219,
      "Ġblock": 1220,
      "Ġgrabbed": 1221,
      "Ġsweet": 1222,
      "After": 1223,
      "Ġstory": 1224,
      "Ġhere": 1225,
      "Ġonly": 1226,
      "Ġkid": 1227,
      "Ġbrother": 1228,
      "Ġdr": 1229,
      "Ġsand": 1230,
      "unny": 1231,
      "Ġglad": 1232,
      "Ġbit": 1233,
      "Ġru": 1234,
      "Ġgrass": 1235,
      "Ġrealized": 1236,
      "ppy": 1237,
      "ater": 1238,
      "Ġjumped": 1239,
      "orn": 1240,
      "Ġbeh": 1241,
      "Ġmon": 1242,
      "Ġper": 1243,
      "Ġdraw": 1244,
      "Ġstop": 1245,
      "Ġreached": 1246,
      "Ġcra": 1247,
      "ĠEveryone": 1248,
      "Ġsing": 1249,
      "ins": 1250,
      "Ġhaving": 1251,
      "Ġcr": 1252,
      "Ġmess": 1253,
      "zy": 1254,
      "ĠDo": 1255,
      "nts": 1256,
      "Ġrest": 1257,
      "uff": 1258,
      "Ġba": 1259,
      "Ġthrough": 1260,
      "Ġtri": 1261,
      "Ġprin": 1262,
      "Ġate": 1263,
      "ĠAs": 1264,
      "ĠJane": 1265,
      "Ġsoft": 1266,
      "Ġless": 1267,
      "Ġpap": 1268,
      "isy": 1269,
      "Ġready": 1270,
      "Ġyummy": 1271,
      "where": 1272,
      "Ġworld": 1273,
      "'re": 1274,
      "Ġhat": 1275,
      "akes": 1276,
      "Ġgame": 1277,
      "Ġfix": 1278,
      "Ġreally": 1279,
      "ĠLet": 1280,
      "Ġlady": 1281,
      "Ġshouted": 1282,
      "Ġpare": 1283,
      "Ġfavor": 1284,
      "Ġbegan": 1285,
      "Ġfavorite": 1286,
      "Ġhimself": 1287,
      "Ġunderst": 1288,
      "Ġcut": 1289,
      "Ġtired": 1290,
      "ĠSarah": 1291,
      "Ġmagic": 1292,
      "Ġduck": 1293,
      "fully": 1294,
      "Ġpretend": 1295,
      "ken": 1296,
      "Ġused": 1297,
      "Ġmum": 1298,
      "Ġtast": 1299,
      "ather": 1300,
      "Ġbutterf": 1301,
      "sh": 1302,
      "Ġthing": 1303,
      "Ġdone": 1304,
      "Ġworry": 1305,
      "Ġcoming": 1306,
      "ign": 1307,
      "Ġmaking": 1308,
      "illed": 1309,
      "Ġcatch": 1310,
      "ĠCan": 1311,
      "Ġkids": 1312,
      "Ġfunny": 1313,
      "Ġname": 1314,
      "Ġpus": 1315,
      "eddy": 1316,
      "Wow": 1317,
      "Ġseen": 1318,
      "As": 1319,
      "ster": 1320,
      "Ġpond": 1321,
      "Ġlooks": 1322,
      "Ġcars": 1323,
      "ĠThat": 1324,
      "Ġcried": 1325,
      "Ġfro": 1326,
      "Ġste": 1327,
      "Timmy": 1328,
      "Ġanother": 1329,
      "ient": 1330,
      "Ġtop": 1331,
      "air": 1332,
      "olly": 1333,
      "Ġwhy": 1334,
      "Mommy": 1335,
      "Ġprom": 1336,
      "Ġwaved": 1337,
      "Ġflower": 1338,
      "Ġbag": 1339,
      "Ġpart": 1340,
      "Ġbunny": 1341,
      "Ġhair": 1342,
      "Ġparents": 1343,
      "Ġtouch": 1344,
      "bo": 1345,
      "ards": 1346,
      "Don": 1347,
      "Ġpaper": 1348,
      "Ġgi": 1349,
      "Ġdin": 1350,
      "Ġlight": 1351,
      "Ġgreen": 1352,
      "Ġdri": 1353,
      "Ġcool": 1354,
      "Ġdelic": 1355,
      "Ġdro": 1356,
      "Ġlesson": 1357,
      "Ġhole": 1358,
      "Ġswim": 1359,
      "ĠJohn": 1360,
      "hy": 1361,
      "ĠJoe": 1362,
      "Ġtrees": 1363,
      "iver": 1364,
      "Ġsurprise": 1365,
      "Ġyellow": 1366,
      "Ġremembered": 1367,
      "Ġbehind": 1368,
      "Ġfloor": 1369,
      "oney": 1370,
      "Ġhold": 1371,
      "ely": 1372,
      "ued": 1373,
      "Ġworked": 1374,
      "mer": 1375,
      "Ġfull": 1376,
      "Ġthank": 1377,
      "Ġrunning": 1378,
      "rel": 1379,
      "Ġhopped": 1380,
      "ation": 1381,
      "Ġsleep": 1382,
      "andy": 1383,
      "Ġwished": 1384,
      "ssed": 1385,
      "Ġspot": 1386,
      "Ġsmell": 1387,
      "Ġset": 1388,
      "ike": 1389,
      "Ġblocks": 1390,
      "Ġcold": 1391,
      "Ġlost": 1392,
      "Ġsat": 1393,
      "Ġhappily": 1394,
      "Ġread": 1395,
      "Ġwear": 1396,
      "Ġdoing": 1397,
      "Ġneeded": 1398,
      "Ġdream": 1399,
      "Ġdark": 1400,
      "Ġmouse": 1401,
      "Ġstre": 1402,
      "Ġbow": 1403,
      "aisy": 1404,
      "Ġwood": 1405,
      "Ġslow": 1406,
      "Ġlaugh": 1407,
      "ren": 1408,
      "Ġbutterfly": 1409,
      "Ġsho": 1410,
      "Ġcarefully": 1411,
      "Sam": 1412,
      "Ġtall": 1413,
      "Ġyears": 1414,
      "Ġleft": 1415,
      "Ġ-": 1416,
      "Ġlikes": 1417,
      "Ġcla": 1418,
      "Ġsurprised": 1419,
      "Ġhill": 1420,
      "Ġwindow": 1421,
      "Ġfrog": 1422,
      "Ġswing": 1423,
      "Ġenjoyed": 1424,
      "Ġheld": 1425,
      "Ġfinished": 1426,
      "uit": 1427,
      "Ġsnow": 1428,
      "Ġhear": 1429,
      "Ġmove": 1430,
      "ĠAfter": 1431,
      "Ġbuy": 1432,
      "ens": 1433,
      "\".": 1434,
      "Ġwrong": 1435,
      "Ġice": 1436,
      "Ġperf": 1437,
      "John": 1438,
      "ined": 1439,
      "Ġfollowed": 1440,
      "Ġair": 1441,
      "inally": 1442,
      "Ġarri": 1443,
      "Ġlion": 1444,
      "ul": 1445,
      "ĠBenny": 1446,
      "Ġfair": 1447,
      "Ġherself": 1448,
      "Ġhid": 1449,
      "ĠIn": 1450,
      "Ġanything": 1451,
      "Ġcontin": 1452,
      "Hell": 1453,
      "Hello": 1454,
      "Ġhun": 1455,
      "Ġclose": 1456,
      "Ġdir": 1457,
      "Ġchildren": 1458,
      "Ġbug": 1459,
      "Ġfriendly": 1460,
      "cess": 1461,
      "Ġcast": 1462,
      "Ġrel": 1463,
      "Ġtable": 1464,
      "asure": 1465,
      "Ġbuild": 1466,
      "ĠSally": 1467,
      "Ġarm": 1468,
      "Ġwonderful": 1469,
      "Ġforgot": 1470,
      "Ġmight": 1471,
      "Ġarrived": 1472,
      "ds": 1473,
      "ield": 1474,
      "Ġunderstand": 1475,
      "Ġdelicious": 1476,
      "Ġagre": 1477,
      "Ġel": 1478,
      "Ġtight": 1479,
      "Ġhot": 1480,
      "Ġplease": 1481,
      "Ġcolors": 1482,
      "Ġgrandma": 1483,
      "Ġsomeone": 1484,
      "ner": 1485,
      "Ġsong": 1486,
      "Ġcount": 1487,
      "Ġbooks": 1488,
      "Ġfilled": 1489,
      "Ġgone": 1490,
      "Ġcontinued": 1491,
      "Ġbroken": 1492,
      "Ġable": 1493,
      "Then": 1494,
      "Ġleaves": 1495,
      "Ġscre": 1496,
      "ĠNow": 1497,
      "Ġgent": 1498,
      "av": 1499,
      "Ġelse": 1500,
      "ĠThere": 1501,
      "Ġwants": 1502,
      "Ġcreat": 1503,
      "ask": 1504,
      "sp": 1505,
      "ĠLila": 1506,
      "Ġvis": 1507,
      "Ġwall": 1508,
      "lf": 1509,
      "From": 1510,
      "ĠEm": 1511,
      "ey": 1512,
      "Ġyes": 1513,
      "Ġbaby": 1514,
      "uffy": 1515,
      "Ġpink": 1516,
      "atter": 1517,
      "Ġbreak": 1518,
      "room": 1519,
      "man": 1520,
      "ich": 1521,
      "Ġpoin": 1522,
      "gon": 1523,
      "Ġamazing": 1524,
      "'ll": 1525,
      "ries": 1526,
      "Jack": 1527,
      "Ġmar": 1528,
      "Ġgetting": 1529,
      "ĠMaybe": 1530,
      "icy": 1531,
      "ĠDaisy": 1532,
      "Ġenough": 1533,
      "Ġpictures": 1534,
      "Ġfight": 1535,
      "OK": 1536,
      "Ġwhite": 1537,
      "oup": 1538,
      "Ġcomp": 1539,
      "Ġcastle": 1540,
      "Ġdinner": 1541,
      "Ġagreed": 1542,
      "row": 1543,
      "irrel": 1544,
      "Ġmus": 1545,
      "Ġmoment": 1546,
      "ross": 1547,
      "Ġmother": 1548,
      "Ġstayed": 1549,
      "Ġfall": 1550,
      "ash": 1551,
      "Ġmorning": 1552,
      "Ġcookies": 1553,
      "ced": 1554,
      "Ġscary": 1555,
      "Ġtrying": 1556,
      "Ġfinally": 1557,
      "Ġclimbed": 1558,
      "Ġfur": 1559,
      "Ġsometimes": 1560,
      "Ġsail": 1561,
      "Ġothers": 1562,
      "ĠK": 1563,
      "Ġwet": 1564,
      "Ġpi": 1565,
      "Ġju": 1566,
      "Ġsmiles": 1567,
      "Ġhungry": 1568,
      "ctor": 1569,
      "Ġsquirrel": 1570,
      "Ġtalk": 1571,
      "ence": 1572,
      "ons": 1573,
      "Ġclot": 1574,
      "Ġmet": 1575,
      "Ġclothes": 1576,
      "At": 1577,
      "Ġbrought": 1578,
      "ama": 1579,
      "ister": 1580,
      "red": 1581,
      "oom": 1582,
      "Ġturned": 1583,
      "ĠThis": 1584,
      "Ġroll": 1585,
      "Ġperfect": 1586,
      "Ġdaddy": 1587,
      "lc": 1588,
      "Ġmakes": 1589,
      "Ġcream": 1590,
      "ĠBilly": 1591,
      "This": 1592,
      "Ġfew": 1593,
      "Ġlistened": 1594,
      "oring": 1595,
      "Ġtail": 1596,
      "ee": 1597,
      "Ġeverything": 1598,
      "ance": 1599,
      "Ġwasn": 1600,
      "Ġspl": 1601,
      "Ġstrange": 1602,
      "rot": 1603,
      "Ġsear": 1604,
      "Ġballoon": 1605,
      "Ġbeach": 1606,
      "Ġpol": 1607,
      "Ġpuppy": 1608,
      "Ġjoy": 1609,
      "Ġsit": 1610,
      "ated": 1611,
      "ower": 1612,
      "Ġride": 1613,
      "der": 1614,
      "His": 1615,
      "zz": 1616,
      "Ġwaited": 1617,
      "Ġspark": 1618,
      "ĠJen": 1619,
      "Ġthre": 1620,
      "ĠWhat": 1621,
      "Ġmusic": 1622,
      "wl": 1623,
      "Ġamazed": 1624,
      "ever": 1625,
      "ĠGra": 1626,
      "Ġalone": 1627,
      "ĠTommy": 1628,
      "os": 1629,
      "amp": 1630,
      "pping": 1631,
      "Ġvisit": 1632,
      "Ġsilly": 1633,
      "Ġdanger": 1634,
      "ucky": 1635,
      "Ġteddy": 1636,
      "key": 1637,
      "ott": 1638,
      "Ġasks": 1639,
      "Ġpet": 1640,
      "Ġwoods": 1641,
      "ĠTo": 1642,
      "ope": 1643,
      "Ġdeep": 1644,
      "ang": 1645,
      "Ġhide": 1646,
      "eter": 1647,
      "Ġgrow": 1648,
      "Oh": 1649,
      "Ġleave": 1650,
      "Ġsister": 1651,
      "Ġside": 1652,
      "Ġpie": 1653,
      "ugg": 1654,
      "Ġcloud": 1655,
      "amed": 1656,
      "Ġflying": 1657,
      "med": 1658,
      "Ġlake": 1659,
      "Ġpulled": 1660,
      "Max": 1661,
      "Ġfox": 1662,
      "Ġpromised": 1663,
      "Ġpat": 1664,
      "gg": 1665,
      "ix": 1666,
      "ĠFl": 1667,
      "Ġdance": 1668,
      "Ġtowards": 1669,
      "eces": 1670,
      "Ġtreasure": 1671,
      "me": 1672,
      "Ġsec": 1673,
      "Ġfield": 1674,
      "ames": 1675,
      "ph": 1676,
      "Ġpieces": 1677,
      "ises": 1678,
      "Ġplan": 1679,
      "Maybe": 1680,
      "up": 1681,
      "Ġruns": 1682,
      "Ġshared": 1683,
      "Ġbigger": 1684,
      "cket": 1685,
      "ained": 1686,
      "Ġve": 1687,
      "Ġwon": 1688,
      "Ġthinks": 1689,
      "Ġem": 1690,
      "Ġland": 1691,
      "Ġmoral": 1692,
      "thy": 1693,
      "Ġtreat": 1694,
      "Okay": 1695,
      "Ġowner": 1696,
      "Ġliving": 1697,
      "Ġpen": 1698,
      "Ġele": 1699,
      "Ġbran": 1700,
      "Ġgrate": 1701,
      "ĠAll": 1702,
      "Ġbott": 1703,
      "Ġdolls": 1704,
      "Ġshar": 1705,
      "Ġcandy": 1706,
      "igg": 1707,
      "avy": 1708,
      "Ġparty": 1709,
      "Ġgu": 1710,
      "Ġeverywhere": 1711,
      "Ġgrateful": 1712,
      "cle": 1713,
      "set": 1714,
      "Ġcup": 1715,
      "Ġblank": 1716,
      "Ġbike": 1717,
      "Ġslowly": 1718,
      "outh": 1719,
      "Ġpaint": 1720,
      "Ġjob": 1721,
      "Ġsuch": 1722,
      "sw": 1723,
      "Ġbelie": 1724,
      "Ġworried": 1725,
      "Ġmouth": 1726,
      "Ġwelc": 1727,
      "ĠAmy": 1728,
      "Ġjoin": 1729,
      "Ġblanket": 1730,
      "Ġfaster": 1731,
      "Ġplant": 1732,
      "fort": 1733,
      "ret": 1734,
      "ually": 1735,
      "Ġansw": 1736,
      "Ġbroke": 1737,
      "Ġmoney": 1738,
      "unch": 1739,
      "ling": 1740,
      "iet": 1741,
      "Ġshap": 1742,
      "Ġgif": 1743,
      "Ġreach": 1744,
      "Ġmagical": 1745,
      "Ġsnack": 1746,
      "Ġbar": 1747,
      "Ġcolorful": 1748,
      "ire": 1749,
      "ident": 1750,
      "Ġhelping": 1751,
      "ased": 1752,
      "Ġprincess": 1753,
      "Ġdoctor": 1754,
      "Ġcho": 1755,
      "Ġrace": 1756,
      "Ġdragon": 1757,
      "Ġacc": 1758,
      "Ġriver": 1759,
      "ĠJim": 1760,
      "Sure": 1761,
      "Ġnap": 1762,
      "Ġpro": 1763,
      "Ġsign": 1764,
      "less": 1765,
      "Ġquiet": 1766,
      "Ġcrying": 1767,
      "orm": 1768,
      "ipped": 1769,
      "Ġblack": 1770,
      "ze": 1771,
      "app": 1772,
      "Ġmost": 1773,
      "ol": 1774,
      "Ġdangerous": 1775,
      "Ġstepped": 1776,
      "Ġtrain": 1777,
      "Ġsmart": 1778,
      "Ġatt": 1779,
      "Ġbowl": 1780,
      "Ġfarmer": 1781,
      "Ġmix": 1782,
      "Ġheavy": 1783,
      "Ġpot": 1784,
      "Ġmonster": 1785,
      "ere": 1786,
      "ored": 1787,
      "Ġje": 1788,
      "ming": 1789,
      "bble": 1790,
      "Ġtwins": 1791,
      "Ġwords": 1792,
      "Ġacross": 1793,
      "Ġdirty": 1794,
      "ear": 1795,
      "Ġdisapp": 1796,
      "Ġeating": 1797,
      "Ġsame": 1798,
      "Ġstuck": 1799,
      "ĠJill": 1800,
      "Ġclosed": 1801,
      "ĠMr": 1802,
      "Ġfruit": 1803,
      "Ġthrew": 1804,
      "Ġmust": 1805,
      "Ġtower": 1806,
      "Ġwouldn": 1807,
      "Ġbuck": 1808,
      "cked": 1809,
      "ĠMolly": 1810,
      "Ġspr": 1811,
      "Ġhig": 1812,
      "Ġwin": 1813,
      "Ġaccident": 1814,
      "Ġcray": 1815,
      "Ġmonkey": 1816,
      "Ġcarrot": 1817,
      "Why": 1818,
      "ord": 1819,
      "Ġbath": 1820,
      "Ġheal": 1821,
      "Ġfeels": 1822,
      "Ġteac": 1823,
      "iting": 1824,
      "Ġbite": 1825,
      "eared": 1826,
      "Hi": 1827,
      "asket": 1828,
      "umb": 1829,
      "Ġpushed": 1830,
      "Ġbutt": 1831,
      "Ġtown": 1832,
      "chool": 1833,
      "Ġpast": 1834,
      "Ġbasket": 1835,
      "Ġheart": 1836,
      "Ġhoped": 1837,
      "br": 1838,
      "Ġwithout": 1839,
      "Ġhit": 1840,
      "Ġcoll": 1841,
      "Ġclapped": 1842,
      "Ġpack": 1843,
      "Ġbelieve": 1844,
      "Ġstand": 1845,
      "Ġpers": 1846,
      "Ġforget": 1847,
      "Mia": 1848,
      "Ġschool": 1849,
      "Ġfairy": 1850,
      "Ġcheered": 1851,
      "phant": 1852,
      "Ġbee": 1853,
      "Ġsmo": 1854,
      "ĠFluffy": 1855,
      "Ġfence": 1856,
      "Ġlon": 1857,
      "de": 1858,
      "orrow": 1859,
      "Ġcour": 1860,
      "Ġyard": 1861,
      "Ġbrown": 1862,
      "Ġchair": 1863,
      "ĠDaddy": 1864,
      "Ġdrove": 1865,
      "ract": 1866,
      "Ġadventures": 1867,
      "Ġnoises": 1868,
      "ier": 1869,
      "ventually": 1870,
      "Ġhigher": 1871,
      "Ġlonely": 1872,
      "ass": 1873,
      "Ġca": 1874,
      "Ġelephant": 1875,
      "Ġteacher": 1876,
      "Ġtoday": 1877,
      "ors": 1878,
      "ney": 1879,
      "Ġpocket": 1880,
      "Ġupset": 1881,
      "cy": 1882,
      "vel": 1883,
      "Ġturns": 1884,
      "Ġswings": 1885,
      "Ġgentle": 1886,
      "Ġlonger": 1887,
      "Finally": 1888,
      "Ġwings": 1889,
      "Ġwelcome": 1890,
      "ho": 1891,
      "Ġgames": 1892,
      "ts": 1893,
      "Ġcourse": 1894,
      "Ġben": 1895,
      "Ġexplained": 1896,
      "Ġfree": 1897,
      "Ġneck": 1898,
      "Ġsuddenly": 1899,
      "Ġleg": 1900,
      "Ġjour": 1901,
      "Ġsecret": 1902,
      "Lila": 1903,
      "ead": 1904,
      "Ġstar": 1905,
      "issed": 1906,
      "ountain": 1907,
      "Ġwhe": 1908,
      "Ġdry": 1909,
      "Ġcorn": 1910,
      "Ġsoup": 1911,
      "Ġbring": 1912,
      "Ġshop": 1913,
      "Ġinst": 1914,
      "Ġhappen": 1915,
      "Ġneigh": 1916,
      "Ġdropped": 1917,
      "Ġplac": 1918,
      "Ġhugs": 1919,
      "yard": 1920,
      "Ġtrou": 1921,
      "Ġpiece": 1922,
      "weet": 1923,
      "Ġmin": 1924,
      "Ġthrow": 1925,
      "Ġneighb": 1926,
      "Ġswam": 1927,
      "ible": 1928,
      "Ġstories": 1929,
      "Ġsang": 1930,
      "Ġbackyard": 1931,
      "itting": 1932,
      "ush": 1933,
      "ĠEmma": 1934,
      "pper": 1935,
      "ment": 1936,
      "Ġwish": 1937,
      "Ġrocks": 1938,
      "Ġbucket": 1939,
      "Ġwell": 1940,
      "Ġlate": 1941,
      "ek": 1942,
      "Ġnaught": 1943,
      "Ġapple": 1944,
      "Ġbelong": 1945,
      "Ġowl": 1946,
      "Ġph": 1947,
      "ches": 1948,
      "Ġnaughty": 1949,
      "ces": 1950,
      "Ġtaking": 1951,
      "Ġorange": 1952,
      "Ġalong": 1953,
      "Ġlunch": 1954,
      "ocked": 1955,
      "Ġdrink": 1956,
      "fused": 1957,
      "ung": 1958,
      "Ġjar": 1959,
      "Ġexploring": 1960,
      "Ġexp": 1961,
      "Ġcou": 1962,
      "Ġsea": 1963,
      "Ġes": 1964,
      "Ġyoung": 1965,
      "bow": 1966,
      "Ġdist": 1967,
      "Ġseemed": 1968,
      "Ġsinging": 1969,
      "oun": 1970,
      "Ġshook": 1971,
      "Ġmat": 1972,
      "Ġcaught": 1973,
      "Ġmoved": 1974,
      "Ġwar": 1975,
      "Ġnearby": 1976,
      "Ġpig": 1977,
      "Ġwise": 1978,
      "Ġkey": 1979,
      "Ġshoes": 1980,
      "Ġstars": 1981,
      "Ġtiny": 1982,
      "Ġthough": 1983,
      "Ġwoke": 1984,
      "Ġtom": 1985,
      "Ġdes": 1986,
      "Ġmiss": 1987,
      "Ġaf": 1988,
      "llo": 1989,
      "ĠGrandma": 1990,
      "Ġmail": 1991,
      "ail": 1992,
      "ions": 1993,
      "vered": 1994,
      "Do": 1995,
      "cer": 1996,
      "Ġsick": 1997,
      "col": 1998,
      "ĠThank": 1999,
      "Ġbench": 2000,
      "Ġcarry": 2001,
      "ape": 2002,
      "Ġrelie": 2003,
      "Ġresp": 2004,
      "Ġsu": 2005,
      "Ġnest": 2006,
      "Ġshapes": 2007,
      "cing": 2008,
      "ittens": 2009,
      "sy": 2010,
      "Ġrainbow": 2011,
      "Ġarms": 2012,
      "idge": 2013,
      "Ġbranch": 2014,
      "Ġkite": 2015,
      "Ġmine": 2016,
      "Ġdriver": 2017,
      "Ġjuice": 2018,
      "Ġtakes": 2019,
      "Ġbusy": 2020,
      "Ġob": 2021,
      "aughter": 2022,
      "raid": 2023,
      "Ġafraid": 2024,
      "let": 2025,
      "ĠMary": 2026,
      "Ġwondered": 2027,
      "itch": 2028,
      "Ġmad": 2029,
      "ward": 2030,
      "Ġcir": 2031,
      "Ġsitting": 2032,
      "ining": 2033,
      "Ġcow": 2034,
      "Ġmark": 2035,
      "ese": 2036,
      "Ġmil": 2037,
      "cks": 2038,
      "Ġstreet": 2039,
      "And": 2040,
      "Ġcomes": 2041,
      "Ġinv": 2042,
      "Ġaccidentally": 2043,
      "Ġround": 2044,
      "Ġnose": 2045,
      "Ġdisco": 2046,
      "Ġking": 2047,
      "Ġforever": 2048,
      "Ġ3": 2049,
      "Later": 2050,
      "Ġyear": 2051,
      "Ġfarm": 2052,
      "Ġwhist": 2053,
      "Ġband": 2054,
      "Ġpeace": 2055,
      "Ġdaughter": 2056,
      "Ġlift": 2057,
      "Ġsounds": 2058,
      "sting": 2059,
      "Ġgift": 2060,
      "Ġstu": 2061,
      "ĠFinally": 2062,
      "to": 2063,
      "Ġegg": 2064,
      "Ġcute": 2065,
      "bby": 2066,
      "thday": 2067,
      "ball": 2068,
      "Ġexciting": 2069,
      "adow": 2070,
      "Ġcozy": 2071,
      "Ġfit": 2072,
      "ity": 2073,
      "Ġletter": 2074,
      "Ġpurp": 2075,
      "ĠInside": 2076,
      "Ġcoat": 2077,
      "Ġwra": 2078,
      "Ġboun": 2079,
      "Ġpower": 2080,
      "ours": 2081,
      "Ġrelieved": 2082,
      "Ġhello": 2083,
      "Ġnothing": 2084,
      "Ġpatient": 2085,
      "Ġintere": 2086,
      "Ġholding": 2087,
      "Ġlaughing": 2088,
      "Ġhuge": 2089,
      "Ġjourney": 2090,
      "Of": 2091,
      "Ġmist": 2092,
      "ĠTweet": 2093,
      "shine": 2094,
      "Ġimag": 2095,
      "Ġspoon": 2096,
      "ĠSoon": 2097,
      "Ġswimming": 2098,
      "Ġgigg": 2099,
      "itten": 2100,
      "Ġmilk": 2101,
      "Ġdays": 2102,
      "Ġsunshine": 2103,
      "Ġlife": 2104,
      "Ġcomfort": 2105,
      "Ġfing": 2106,
      "Ġpurple": 2107,
      "gged": 2108,
      "uched": 2109,
      "Ġtouched": 2110,
      "Ġlater": 2111,
      "ĠCome": 2112,
      "ĠMama": 2113,
      "Ġinstead": 2114,
      "Ġact": 2115,
      "Ġbirthday": 2116,
      "irt": 2117,
      "eth": 2118,
      "ĠO": 2119,
      "Ġroad": 2120,
      "Ġcheese": 2121,
      "Ġinc": 2122,
      "fish": 2123,
      "Ġear": 2124,
      "Ġsunny": 2125,
      "unt": 2126,
      "alm": 2127,
      "Ġret": 2128,
      "Ġgives": 2129,
      "Ġsearched": 2130,
      "ped": 2131,
      "Ġbought": 2132,
      "Ġfan": 2133,
      "Ġbread": 2134,
      "Ġpointed": 2135,
      "ness": 2136,
      "Ġanyone": 2137,
      "Ġonto": 2138,
      "Ġbottle": 2139,
      "board": 2140,
      "Ġpres": 2141,
      "Ġducks": 2142,
      "ize": 2143,
      "Ġstorm": 2144,
      "sc": 2145,
      "ose": 2146,
      "Ġhope": 2147,
      "Ġreturn": 2148,
      "Ġlucky": 2149,
      "Ġplane": 2150,
      "ĠSammy": 2151,
      "Ġtasty": 2152,
      "Ġcave": 2153,
      "Ġcreature": 2154,
      "Ġwatching": 2155,
      "blem": 2156,
      "Ġgrab": 2157,
      "Ġpudd": 2158,
      "Hey": 2159,
      "Ġproblem": 2160,
      "Ġce": 2161,
      "Ġsmiling": 2162,
      "ndp": 2163,
      "Ġrope": 2164,
      "Ġkick": 2165,
      "Ġspo": 2166,
      "Ġcrayons": 2167,
      "Ġshell": 2168,
      "Ġeas": 2169,
      "Ġsharp": 2170,
      "aur": 2171,
      "Ġspid": 2172,
      "els": 2173,
      "Ġmeet": 2174,
      "Ġpromise": 2175,
      "Ġsnowman": 2176,
      "Ġperson": 2177,
      "Ġhoney": 2178,
      "Ġdanced": 2179,
      "ond": 2180,
      "Ġpuzz": 2181,
      "epend": 2182,
      "Ġinteresting": 2183,
      "ten": 2184,
      "Ġtalked": 2185,
      "Ġsandw": 2186,
      "Ġbutton": 2187,
      "Ġquest": 2188,
      "Ġcollect": 2189,
      "og": 2190,
      "ove": 2191,
      "Ġzoom": 2192,
      "Ġtrouble": 2193,
      "Ġwide": 2194,
      "Ġcard": 2195,
      "Ġkiss": 2196,
      "ometimes": 2197,
      "itty": 2198,
      "Bob": 2199,
      "Ġsmelled": 2200,
      "Ġspin": 2201,
      "Ġpresent": 2202,
      "Ġent": 2203,
      "Ġap": 2204,
      "Ġlovely": 2205,
      "Ġapples": 2206,
      "Ġpract": 2207,
      "Ġadm": 2208,
      "Ġwrite": 2209,
      "Ġbush": 2210,
      "Ġgiant": 2211,
      "ĠJimmy": 2212,
      "Ġhealthy": 2213,
      "ont": 2214,
      "Ġclouds": 2215,
      "Ġpill": 2216,
      "Ġshining": 2217,
      "Ġgather": 2218,
      "izz": 2219,
      "Ġpar": 2220,
      "umber": 2221,
      "Ġrolled": 2222,
      "isa": 2223,
      "Ġcheer": 2224,
      "Tommy": 2225,
      "Ġplaces": 2226,
      "Good": 2227,
      "Ġfront": 2228,
      "ndpa": 2229,
      "Ġputs": 2230,
      "owed": 2231,
      "Ġwhich": 2232,
      "Ġloves": 2233,
      "Ġsaf": 2234,
      "Ġvill": 2235,
      "Ġsur": 2236,
      "Ġpath": 2237,
      "ĠMittens": 2238,
      "lla": 2239,
      "Ġspotted": 2240,
      "ub": 2241,
      "Ġtun": 2242,
      "Ġhon": 2243,
      "Ġworm": 2244,
      "Ġimpre": 2245,
      "Ġclever": 2246,
      "Ġshr": 2247,
      "Ġorgan": 2248,
      "Ġmyster": 2249,
      "bar": 2250,
      "Ġlay": 2251,
      "Ġmatter": 2252,
      "Ġfeather": 2253,
      "Ġtasted": 2254,
      "Ġwild": 2255,
      "Ġdi": 2256,
      "Ġeag": 2257,
      "Ġzoo": 2258,
      "Ġmed": 2259,
      "Ġtrip": 2260,
      "Ġprot": 2261,
      "Ġrespect": 2262,
      "een": 2263,
      "Ġbark": 2264,
      "Ġhor": 2265,
      "Ġcouch": 2266,
      "Ġsuc": 2267,
      "Ġthin": 2268,
      "Ġpop": 2269,
      "Ġwhole": 2270,
      "Lucy": 2271,
      "ching": 2272,
      "Ġfoot": 2273,
      "Ġprotect": 2274,
      "erly": 2275,
      "Ġasleep": 2276,
      "Ġpile": 2277,
      "Ġspent": 2278,
      "ular": 2279,
      "St": 2280,
      "Ġbuilding": 2281,
      "Ġdirt": 2282,
      "cean": 2283,
      "Ġocean": 2284,
      "Ġlad": 2285,
      "Ġknee": 2286,
      "la": 2287,
      "Ġgoes": 2288,
      "Ġcoin": 2289,
      "Ġspider": 2290,
      "Ġwearing": 2291,
      "barra": 2292,
      "Ġmountain": 2293,
      "Ġpretended": 2294,
      "Ġembarra": 2295,
      "eb": 2296,
      "nic": 2297,
      "Every": 2298,
      "Ġslid": 2299,
      "Ġpicnic": 2300,
      "Ġscreamed": 2301,
      "Ġfaces": 2302,
      "Ġteach": 2303,
      "Ġphone": 2304,
      "hile": 2305,
      "Ġsack": 2306,
      "Ġsnake": 2307,
      "Ġanswer": 2308,
      "ĠWith": 2309,
      "Ġseat": 2310,
      "Ġconfused": 2311,
      "Ġappeared": 2312,
      "Come": 2313,
      "oose": 2314,
      "Jim": 2315,
      "Ġtalking": 2316,
      "Ġgently": 2317,
      "ife": 2318,
      "Ġsal": 2319,
      "Ġfurry": 2320,
      "ex": 2321,
      "Ġhelpful": 2322,
      "Ġmud": 2323,
      "Ġdrive": 2324,
      "Ġmind": 2325,
      "lex": 2326,
      "Ġpan": 2327,
      "Ġpass": 2328,
      "Ġladder": 2329,
      "Ġsupp": 2330,
      "Ġoven": 2331,
      "Ġign": 2332,
      "Ġcart": 2333,
      "Ġpush": 2334,
      "In": 2335,
      "ale": 2336,
      "Ġser": 2337,
      "Ġrec": 2338,
      "Ġwhenever": 2339,
      "arge": 2340,
      "Ġval": 2341,
      "Ġcorner": 2342,
      "unk": 2343,
      "Ġwom": 2344,
      "Ġchocol": 2345,
      "Ġcalm": 2346,
      "Ġsplas": 2347,
      "Ġwoman": 2348,
      "Ġban": 2349,
      "ĠHow": 2350,
      "ÅĵI": 2351,
      "Ġneighbor": 2352,
      "Just": 2353,
      "Ġlast": 2354,
      "ĠGo": 2355,
      "Ġtool": 2356,
      "Ġmach": 2357,
      "ĠSometimes": 2358,
      "Molly": 2359,
      "Ġblew": 2360,
      "Ġfixed": 2361,
      "read": 2362,
      "Ġring": 2363,
      "Ġfighting": 2364,
      "Ġfinish": 2365,
      "Ġwaiting": 2366,
      "Ġwave": 2367,
      "Ġspicy": 2368,
      "Ġforgive": 2369,
      "Ġtid": 2370,
      "ert": 2371,
      "bbles": 2372,
      "ĠAl": 2373,
      "Ġfeet": 2374,
      "Ġminut": 2375,
      "Ġspread": 2376,
      "Ġdelight": 2377,
      "Ġash": 2378,
      "Ġtaste": 2379,
      "Ġeventually": 2380,
      "Ġteeth": 2381,
      "Ġlive": 2382,
      "Ġembarrassed": 2383,
      "Ġpour": 2384,
      "Ġhorse": 2385,
      "Ġtomorrow": 2386,
      "Soon": 2387,
      "Ġremind": 2388,
      "Ġbell": 2389,
      "Mum": 2390,
      "Ġscar": 2391,
      "Ġcookie": 2392,
      "Ġsmooth": 2393,
      "Ġrocket": 2394,
      "ones": 2395,
      "Ġant": 2396,
      "Ġshy": 2397,
      "Ġcloth": 2398,
      "Ġfold": 2399,
      "ĠEmily": 2400,
      "Ġchocolate": 2401,
      "mo": 2402,
      "Ġtries": 2403,
      "ĠCh": 2404,
      "Ġcolour": 2405,
      "Ġstep": 2406,
      "oph": 2407,
      "old": 2408,
      "Ġlarge": 2409,
      "Ġtea": 2410,
      "Ġsongs": 2411,
      "Ġneckl": 2412,
      "Ġhiding": 2413,
      "Ġbanan": 2414,
      "ĠJenny": 2415,
      "Ġkitten": 2416,
      "Ġpaw": 2417,
      "Ġspray": 2418,
      "Ġspe": 2419,
      "urse": 2420,
      "Ġrob": 2421,
      "Ġhum": 2422,
      "Ġpool": 2423,
      "Ġshirt": 2424,
      "Ġple": 2425,
      "Ġemp": 2426,
      "Ġwash": 2427,
      "Ġcann": 2428,
      "Ġpizz": 2429,
      "Ġempty": 2430,
      "nny": 2431,
      "ungle": 2432,
      "Ġvillage": 2433,
      "Ġcreative": 2434,
      "lebr": 2435,
      "Ġjungle": 2436,
      "Ġgrew": 2437,
      "Ġbugs": 2438,
      "Ġtightly": 2439,
      "Ġtidy": 2440,
      "als": 2441,
      "getable": 2442,
      "Ġcannot": 2443,
      "ĠSt": 2444,
      "dge": 2445,
      "Ġcoo": 2446,
      "Ġknocked": 2447,
      "Ġvegetable": 2448,
      "Ġwhistle": 2449,
      "Ġsol": 2450,
      "Ġrep": 2451,
      "Ġcelebr": 2452,
      "umpy": 2453,
      "ato": 2454,
      "hnny": 2455,
      "ĠTV": 2456,
      "den": 2457,
      "Ġchick": 2458,
      "My": 2459,
      "Ġrude": 2460,
      "Ġwore": 2461,
      "Ġtrust": 2462,
      "Ġhar": 2463,
      "ĠSome": 2464,
      "airs": 2465,
      "Ġbarked": 2466,
      "Ġrobot": 2467,
      "Ġwip": 2468,
      "Ġpeaceful": 2469,
      "Now": 2470,
      "Ġsparkly": 2471,
      "Ġpuddle": 2472,
      "Ġnecklace": 2473,
      "ground": 2474,
      "Ġhears": 2475,
      "Ġchased": 2476,
      "ighed": 2477,
      "ĠEverywhere": 2478,
      "Ġpizza": 2479,
      "ĠPlease": 2480,
      "Ġstret": 2481,
      "Ġsel": 2482,
      "Ġstir": 2483,
      "ĠJust": 2484,
      "Ġmeant": 2485,
      "ĠLe": 2486,
      "ned": 2487,
      "Ġbal": 2488,
      "Ġmoon": 2489,
      "Ġmaybe": 2490,
      "Ġgun": 2491,
      "Ġstra": 2492,
      "Ġpuzzle": 2493,
      "Ġhidden": 2494,
      "Ġpin": 2495,
      "Ġnet": 2496,
      "Ġsave": 2497,
      "ian": 2498,
      "Ġtreats": 2499,
      "Ġgen": 2500,
      "Ġmeadow": 2501,
      "Ġcarrots": 2502,
      "ĠOn": 2503,
      "inted": 2504,
      "lower": 2505,
      "era": 2506,
      "box": 2507,
      "Ġmot": 2508,
      "Ġsticks": 2509,
      "Ġsnacks": 2510,
      "dle": 2511,
      "Ġcarried": 2512,
      "Ġmissed": 2513,
      "ĠTheir": 2514,
      "gly": 2515,
      "ustr": 2516,
      "Ġforward": 2517,
      "ult": 2518,
      "Ġseed": 2519,
      "Ġflut": 2520,
      "Ġtells": 2521,
      "Ġsplash": 2522,
      "Ġav": 2523,
      "Ġgroup": 2524,
      "Ġsour": 2525,
      "Ġbat": 2526,
      "Ġcrab": 2527,
      "Ġprince": 2528,
      "Ġmachine": 2529,
      "Ġshelf": 2530,
      "Ġber": 2531,
      "ĠJake": 2532,
      "Ġclear": 2533,
      "Ġugly": 2534,
      "Ġstring": 2535,
      "Ġselfish": 2536,
      "Ġjumping": 2537,
      "Ġdisappo": 2538,
      "Ġ'": 2539,
      "ird": 2540,
      "Dad": 2541,
      "ĠTeddy": 2542,
      "aul": 2543,
      "Ġgold": 2544,
      "iger": 2545,
      "Ġlem": 2546,
      "elly": 2547,
      "kin": 2548,
      "Ġfrustr": 2549,
      "Ġleaf": 2550,
      "Ġburn": 2551,
      "Ġknowing": 2552,
      "Ġgray": 2553,
      "Ġstood": 2554,
      "ĠLisa": 2555,
      "ying": 2556,
      "Ġroar": 2557,
      "Ġyelled": 2558,
      "Ġpolice": 2559,
      "Ġlanded": 2560,
      "Ġlegs": 2561,
      "Please": 2562,
      "itter": 2563,
      "Ġsharing": 2564,
      "most": 2565,
      "Ġhonest": 2566,
      "Ġpir": 2567,
      "Ġcirc": 2568,
      "ator": 2569,
      "Ġstone": 2570,
      "eterm": 2571,
      "hin": 2572,
      "Ġwhis": 2573,
      "Ġblow": 2574,
      "Ġdeterm": 2575,
      "ĠWhy": 2576,
      "ĠMum": 2577,
      "ĠTogether": 2578,
      "Ġstanding": 2579,
      "Ġplate": 2580,
      "Ġdrew": 2581,
      "Ġbreath": 2582,
      "Ġalmost": 2583,
      "Ġgar": 2584,
      "Ġnods": 2585,
      "vous": 2586,
      "Ġfancy": 2587,
      "Ġfrustrated": 2588,
      "Ġnumber": 2589,
      "Ġseek": 2590,
      "Stop": 2591,
      "Ġdisappointed": 2592,
      "Ġtest": 2593,
      "Ġsleepy": 2594,
      "To": 2595,
      "orry": 2596,
      "iff": 2597,
      "Ġthese": 2598,
      "ital": 2599,
      "Mama": 2600,
      "aking": 2601,
      "There": 2602,
      "uce": 2603,
      "Ġfear": 2604,
      "Ġscream": 2605,
      "Ġpowerful": 2606,
      "Ġmysterious": 2607,
      "Ġfeed": 2608,
      "Ġpillow": 2609,
      "Be": 2610,
      "ser": 2611,
      "Ġhours": 2612,
      "Ġgener": 2613,
      "Ġpolite": 2614,
      "ĠBr": 2615,
      "ĠAnn": 2616,
      "Ġhosp": 2617,
      "Ġfil": 2618,
      "Ġcro": 2619,
      "pack": 2620,
      "Ġhospital": 2621,
      "Ġline": 2622,
      "Ġgas": 2623,
      "Ġjew": 2624,
      "Ġmedic": 2625,
      "Ġashamed": 2626,
      "ffe": 2627,
      "Ġplants": 2628,
      "Ġcries": 2629,
      "Ġdecor": 2630,
      "ĠEven": 2631,
      "ecially": 2632,
      "Ġner": 2633,
      "ote": 2634,
      "ets": 2635,
      "Ġreg": 2636,
      "ĠPeter": 2637,
      "Ġreturned": 2638,
      "issors": 2639,
      "ual": 2640,
      "izzy": 2641,
      "Ġunderstood": 2642,
      "Ġsheep": 2643,
      "Ġscissors": 2644,
      "Ġmedicine": 2645,
      "Ġnervous": 2646,
      "Ġwhisp": 2647,
      "ĠDon": 2648,
      "Ġtwirl": 2649,
      "ensive": 2650,
      "Ġexpensive": 2651,
      "Ġspoil": 2652,
      "pecially": 2653,
      "ony": 2654,
      "Ġshore": 2655,
      "Ġpacked": 2656,
      "Ġespecially": 2657,
      "sist": 2658,
      "Ġscarf": 2659,
      "osaur": 2660,
      "Ġbored": 2661,
      "ĠBe": 2662,
      "Ġpay": 2663,
      "Ġdancing": 2664,
      "Ġpassed": 2665,
      "Ġsandwich": 2666,
      "Ġvegetables": 2667,
      "Ġnut": 2668,
      "Ġtaught": 2669,
      "Ġvan": 2670,
      "Ġgarage": 2671,
      "Ġsaved": 2672,
      "Ġpoor": 2673,
      "Ġgrumpy": 2674,
      "usie": 2675,
      "Ġcloset": 2676,
      "light": 2677,
      "ina": 2678,
      "Ġpri": 2679,
      "Ġbecome": 2680,
      "Ġhel": 2681,
      "Ġmummy": 2682,
      "Ġruined": 2683,
      "Ġscr": 2684,
      "Ġtaken": 2685,
      "Ġfinger": 2686,
      "Ġgate": 2687,
      "'d": 2688,
      "Ġdrum": 2689,
      "Ġcomfortable": 2690,
      "Ġfill": 2691,
      "Ġmessy": 2692,
      "iddle": 2693,
      "Ġcand": 2694,
      "ĠRex": 2695,
      "Ġdinosaur": 2696,
      "Ġsold": 2697,
      "Ġbedroom": 2698,
      "Ġeasy": 2699,
      "Ġones": 2700,
      "Ġexam": 2701,
      "Ġgenerous": 2702,
      "oop": 2703,
      "Ġpleased": 2704,
      "Ġasking": 2705,
      "ano": 2706,
      "Ġclass": 2707,
      "Ġsuccess": 2708,
      "ym": 2709,
      "Ġwis": 2710,
      "Ġyourself": 2711,
      "Jane": 2712,
      "imp": 2713,
      "Ġworking": 2714,
      "Ġdetermined": 2715,
      "Ġship": 2716,
      "Ġpray": 2717,
      "Ġglue": 2718,
      "Ġfig": 2719,
      "Ġhopping": 2720,
      "Ġgiggled": 2721,
      "Ġsailed": 2722,
      "Ġboring": 2723,
      "Ġstuff": 2724,
      "Ġballs": 2725,
      "ĠLeo": 2726,
      "Ġmotor": 2727,
      "Ġcri": 2728,
      "Ġwagged": 2729,
      "Ġvase": 2730,
      "Ġglass": 2731,
      "Jimmy": 2732,
      "Ġkissed": 2733,
      "Where": 2734,
      "Ġhur": 2735,
      "Ġmov": 2736,
      "ĠKitty": 2737,
      "Ġmistake": 2738,
      "Ġoften": 2739,
      "ĠOK": 2740,
      "Ġsighed": 2741,
      "ates": 2742,
      "Ġdest": 2743,
      "Ġplayground": 2744,
      "Ġexcite": 2745,
      "Ġesc": 2746,
      "Ġminutes": 2747,
      "erp": 2748,
      "Ġtrue": 2749,
      "Ġwheel": 2750,
      "Ġlead": 2751,
      "Ġbrush": 2752,
      "ĠJohnny": 2753,
      "Ġchest": 2754,
      "Ġchew": 2755,
      "Ġanswered": 2756,
      "Ġwaves": 2757,
      "Ġweak": 2758,
      "Ġclown": 2759,
      "Ġboys": 2760,
      "Ġgathered": 2761,
      "iness": 2762,
      "Ġfake": 2763,
      "Ġspend": 2764,
      "Ġdrop": 2765,
      "Ġthankful": 2766,
      "illi": 2767,
      "Ġtears": 2768,
      "Ġrad": 2769,
      "ĠZ": 2770,
      "mb": 2771,
      "Ġtick": 2772,
      "Ġmiddle": 2773,
      "selves": 2774,
      "Ġcontent": 2775,
      "Sarah": 2776,
      "Ġhang": 2777,
      "Ġjelly": 2778,
      "Ġteam": 2779,
      "apped": 2780,
      "ots": 2781,
      "Ġeld": 2782,
      "Ġgets": 2783,
      "ushed": 2784,
      "Ġexcitement": 2785,
      "Ġcap": 2786,
      "Ġquestions": 2787,
      "Ġlemon": 2788,
      "Ġeggs": 2789,
      "Ġlock": 2790,
      "Who": 2791,
      "Ġtent": 2792,
      "arl": 2793,
      "Ġflag": 2794,
      "Ġskipped": 2795,
      "Ġfridge": 2796,
      "ipp": 2797,
      "Ġchange": 2798,
      "Ġsmelly": 2799,
      "Ġwrote": 2800,
      "Ġrid": 2801,
      "Ġdrawing": 2802,
      "Ġlit": 2803,
      "Ġrelax": 2804,
      "Ġadd": 2805,
      "llie": 2806,
      "Ġfruits": 2807,
      "Ġdiscovered": 2808,
      "oof": 2809,
      "aged": 2810,
      "Sorry": 2811,
      "Ġknight": 2812,
      "Ġbridge": 2813,
      "Ġsight": 2814,
      "ete": 2815,
      "ĠBl": 2816,
      "Ġbathroom": 2817,
      "Their": 2818,
      "Ġboard": 2819,
      "Ġmatch": 2820,
      "Ġmir": 2821,
      "Ġdogs": 2822,
      "Are": 2823,
      "Ġknife": 2824,
      "Ġshows": 2825,
      "Ġclap": 2826,
      "Ġlazy": 2827,
      "Ġfluffy": 2828,
      "Ġqueen": 2829,
      "Ġwolf": 2830,
      "Ġtag": 2831,
      "Ġsil": 2832,
      "Ġcovered": 2833,
      "ĠBrown": 2834,
      "que": 2835,
      "Ġcheck": 2836,
      "Ġsweetie": 2837,
      "Jill": 2838,
      "Ġfamous": 2839,
      "Ġmighty": 2840,
      "ork": 2841,
      "cept": 2842,
      "Ġbake": 2843,
      "Ġord": 2844,
      "Ġpicks": 2845,
      "Ġdrank": 2846,
      "Ġdistance": 2847,
      "Ġmic": 2848,
      "Ġang": 2849,
      "Ġnod": 2850,
      "ella": 2851,
      "Ġdisappeared": 2852,
      "ipper": 2853,
      "Ġlying": 2854,
      "ĠAt": 2855,
      "Ġdeer": 2856,
      "ror": 2857,
      "Ġwander": 2858,
      "Ġboss": 2859,
      "Ġcaterp": 2860,
      "Ġtowel": 2861,
      "Ġcrown": 2862,
      "Ġcaterpill": 2863,
      "Me": 2864,
      "usual": 2865,
      "Ġunusual": 2866,
      "Ġwalks": 2867,
      "Ġfre": 2868,
      "Ġmap": 2869,
      "Ġsoap": 2870,
      "Ġcalling": 2871,
      "Ġeager": 2872,
      "ti": 2873,
      "Ġbone": 2874,
      "Ġind": 2875,
      "Ġfis": 2876,
      "Ġmoving": 2877,
      "Ġshoot": 2878,
      "Ġed": 2879,
      "Ġsell": 2880,
      "Ġdecide": 2881,
      "Ġelderly": 2882,
      "obby": 2883,
      "ĠIf": 2884,
      "Ġlose": 2885,
      "Ġstones": 2886,
      "ination": 2887,
      "Ġborrow": 2888,
      "Ġcover": 2889,
      "Ġdig": 2890,
      "Ġdish": 2891,
      "elp": 2892,
      "Ġcleaned": 2893,
      "body": 2894,
      "Ġsplashed": 2895,
      "ating": 2896,
      "Sally": 2897,
      "Ġweek": 2898,
      "Ġglow": 2899,
      "Ġcrawl": 2900,
      "Ġcage": 2901,
      "arth": 2902,
      "ĠEnd": 2903,
      "Ġcher": 2904,
      "imed": 2905,
      "work": 2906,
      "umbled": 2907,
      "Ġincred": 2908,
      "Ġhunt": 2909,
      "Ġfeathers": 2910,
      "Ġoffered": 2911,
      "Ġbanana": 2912,
      "asing": 2913,
      "Ġcaterpillar": 2914,
      "Ġyours": 2915,
      "Ġkindness": 2916,
      "Ġfather": 2917,
      "alous": 2918,
      "Ġcoins": 2919,
      "Ġeye": 2920,
      "Ġjuicy": 2921,
      "Ġbrilli": 2922,
      "Ġjealous": 2923,
      "Ġbranches": 2924,
      "Ġtape": 2925,
      "Ġcam": 2926,
      "Ġcost": 2927,
      "Ġbottom": 2928,
      "Ġorganized": 2929,
      "Ġmirror": 2930,
      "Ġlamp": 2931,
      "Ġbody": 2932,
      "Ġbrilliant": 2933,
      "Ġtoug": 2934,
      "Ġrare": 2935,
      "fast": 2936,
      "Ġtie": 2937,
      "Ġcraw": 2938,
      "Ġhorn": 2939,
      "Ġthick": 2940,
      "Ġcrawled": 2941,
      "Ġdepend": 2942,
      "Ġhurts": 2943,
      "Ġtunn": 2944,
      "port": 2945,
      "ĠNo": 2946,
      "enny": 2947,
      "Ġmeasure": 2948,
      "Ġcolourful": 2949,
      "Ġbalance": 2950,
      "Help": 2951,
      "Ġbubbles": 2952,
      "Ġbreakfast": 2953,
      "Ġimpressed": 2954,
      "Ġlicked": 2955,
      "Ġext": 2956,
      "Ġhero": 2957,
      "ugar": 2958,
      "Ġtwist": 2959,
      "olog": 2960,
      "Ġincredible": 2961,
      "Ġtiger": 2962,
      "Ġfool": 2963,
      "Ġrough": 2964,
      "Ġjoke": 2965,
      "Ġcross": 2966,
      "Ġonce": 2967,
      "Ġtrucks": 2968,
      "Ġwagon": 2969,
      "Ġfine": 2970,
      "Ġlibr": 2971,
      "Ġboxes": 2972,
      "Ġtough": 2973,
      "Ġadventur": 2974,
      "Ġsmoke": 2975,
      "Ġhappening": 2976,
      "Ġapolog": 2977,
      "appy": 2978,
      "bin": 2979,
      "Ġmanaged": 2980,
      "Ġcabin": 2981,
      "Ġsugar": 2982,
      "ilt": 2983,
      "amond": 2984,
      "?\".": 2985,
      "Ġflash": 2986,
      "Ġrealised": 2987,
      "Ġfavour": 2988,
      "Ġbitter": 2989,
      "Ġtrunk": 2990,
      "Ġadventurous": 2991,
      "How": 2992,
      "Ġwrapped": 2993,
      "hip": 2994,
      "rag": 2995,
      "Ġnoisy": 2996,
      "Ġchase": 2997,
      "Ġjog": 2998,
      "Ġfalls": 2999,
      "Ġflute": 3000,
      "ĠBlue": 3001,
      "Mummy": 3002,
      "Ġaw": 3003,
      "Ġadded": 3004,
      "Ġsugg": 3005,
      "Ġfavourite": 3006,
      "Ġsuggest": 3007,
      "Sp": 3008,
      "Ġdizzy": 3009,
      "ĠSusie": 3010,
      "Ġmelt": 3011,
      "Ġok": 3012,
      "Ġdiamond": 3013,
      "Ġrecord": 3014,
      "Ġharm": 3015,
      "Ġmixed": 3016,
      "Ġcircles": 3017,
      "Ġfoolish": 3018,
      "Al": 3019,
      "Ġsunf": 3020,
      "Ġmarket": 3021,
      "Ġpump": 3022,
      "Ġaccept": 3023,
      "lies": 3024,
      "Ġwand": 3025,
      "Ġlog": 3026,
      "Ġjam": 3027,
      "ured": 3028,
      "Ġguess": 3029,
      "Ġsafely": 3030,
      "land": 3031,
      "yal": 3032,
      "keep": 3033,
      "Ġlouder": 3034,
      "Ġextra": 3035,
      "ory": 3036,
      "Ġword": 3037,
      "Ġneeds": 3038,
      "Ġarg": 3039,
      "Ġlifted": 3040,
      "edient": 3041,
      "ery": 3042,
      "ately": 3043,
      "ĠMark": 3044,
      "Ġcheerful": 3045,
      "Ġturt": 3046,
      "ĠSn": 3047,
      "Ġshark": 3048,
      "Ġjack": 3049,
      "Ġmagn": 3050,
      "Ġdependable": 3051,
      "Ġter": 3052,
      "Ġpil": 3053,
      "Ġears": 3054,
      "Ġpointing": 3055,
      "uggled": 3056,
      "Ġdreamed": 3057,
      "Ġwrap": 3058,
      "Ġberries": 3059,
      "Ġmoms": 3060,
      "Ġagainst": 3061,
      "Ġgrandpa": 3062,
      "Ġgrown": 3063,
      "Ġjewel": 3064,
      "ira": 3065,
      "Ġpee": 3066,
      "Ġgiving": 3067,
      "Ġfigure": 3068,
      "Sue": 3069,
      "Ġham": 3070,
      "Ġgrace": 3071,
      "Ġweal": 3072,
      "Ġfrown": 3073,
      "Well": 3074,
      "Ġswan": 3075,
      "Ġbags": 3076,
      "Ġmovie": 3077,
      "Ġtwig": 3078,
      "Ġdreams": 3079,
      "Ġballoons": 3080,
      "Ġbelonged": 3081,
      "ique": 3082,
      "head": 3083,
      "omed": 3084,
      "Ġlearning": 3085,
      "Ġstronger": 3086,
      "laimed": 3087,
      "Gra": 3088,
      "Ġdolp": 3089,
      "Ġedge": 3090,
      "Ġexclaimed": 3091,
      "Ġyarn": 3092,
      "Ġsword": 3093,
      "Ġslipped": 3094,
      "Ġunique": 3095,
      "Ġsearch": 3096,
      "Ġloyal": 3097,
      "Ġchoose": 3098,
      "emo": 3099,
      "Ġhats": 3100,
      "Ġshake": 3101,
      "rage": 3102,
      "Ġloudly": 3103,
      "Ġenjoying": 3104,
      "fic": 3105,
      "oppy": 3106,
      "Ġhappiness": 3107,
      "Ġspun": 3108,
      "iable": 3109,
      "Ġobedient": 3110,
      "Ġtools": 3111,
      "anut": 3112,
      "anged": 3113,
      "Ġmarble": 3114,
      "ĠMrs": 3115,
      "ready": 3116,
      "Ġsquee": 3117,
      "Ġlaughs": 3118,
      "Ġrich": 3119,
      "Ġwalls": 3120,
      "Ġlean": 3121,
      "ĠElla": 3122,
      "Ġtele": 3123,
      "Ġreliable": 3124,
      "Ġcamera": 3125,
      "und": 3126,
      "Ġfour": 3127,
      "ĠFred": 3128,
      "ext": 3129,
      "iv": 3130,
      "ature": 3131,
      "Ġalready": 3132,
      "Ġmod": 3133,
      "Ġcleaning": 3134,
      "Ġunl": 3135,
      "Ġdiffic": 3136,
      "Ġangel": 3137,
      "Ġterri": 3138,
      "oot": 3139,
      "ĠMy": 3140,
      "Ġclay": 3141,
      "Ġbull": 3142,
      "Ġmeans": 3143,
      "Ġuseful": 3144,
      "Ġcrayon": 3145,
      "Billy": 3146,
      "Ġgoat": 3147,
      "ipe": 3148,
      "Ġpainting": 3149,
      "Ġbuttons": 3150,
      "gy": 3151,
      "ention": 3152,
      "Here": 3153,
      "Ġbarn": 3154,
      "ages": 3155,
      "Ġusing": 3156,
      "Ġcompet": 3157,
      "Ġstraw": 3158,
      "ĠLittle": 3159,
      "umbers": 3160,
      "Ġbloom": 3161,
      "Ġstubb": 3162,
      "Ġindepend": 3163,
      "Ġtunnel": 3164,
      "Ġturtle": 3165,
      "Ġtank": 3166,
      "Ġhelps": 3167,
      "Ġscare": 3168,
      "Ġcircle": 3169,
      "Ġdifficult": 3170,
      "cil": 3171,
      "Ġnorm": 3172,
      "Ġthoughtful": 3173,
      "Joe": 3174,
      "Ġpencil": 3175,
      "keeper": 3176,
      "Ġthu": 3177,
      "Ġfier": 3178,
      "Ġfright": 3179,
      "Ġbushes": 3180,
      "ĠTweety": 3181,
      "Ġpeanut": 3182,
      "Ġpainted": 3183,
      "Ġnosy": 3184,
      "Ġsounded": 3185,
      "zed": 3186,
      "Ġtimes": 3187,
      "Ġguit": 3188,
      "Ġstream": 3189,
      "Ġgem": 3190,
      "Ġwhale": 3191,
      "Ġoffice": 3192,
      "Ġcounted": 3193,
      "Ġdove": 3194,
      "Ġref": 3195,
      "Ġskin": 3196,
      "Ġbald": 3197,
      "Ġparrot": 3198,
      "Ġliz": 3199,
      "Ġcompetit": 3200,
      "Ġstubborn": 3201,
      "Amy": 3202,
      "Ġbirdie": 3203,
      "Ġfierce": 3204,
      "wards": 3205,
      "Ġtoast": 3206,
      "ado": 3207,
      "ĠBu": 3208,
      "Ġknows": 3209,
      "ye": 3210,
      "Ġrug": 3211,
      "Ġisland": 3212,
      "ĠWhenever": 3213,
      "Ġinvited": 3214,
      "Ġwealthy": 3215,
      "Ġnormal": 3216,
      "Ġcop": 3217,
      "Ġsaying": 3218,
      "Ġswe": 3219,
      "Ġexplored": 3220,
      "Ġjoined": 3221,
      "cient": 3222,
      "ject": 3223,
      "Ġfrag": 3224,
      "Ġicy": 3225,
      "orge": 3226,
      "Ġsoar": 3227,
      "Ġweird": 3228,
      "Ġnotice": 3229,
      "Ġcrack": 3230,
      "Ġindependent": 3231,
      "Ġnumbers": 3232,
      "Ġsunflower": 3233,
      "Ġpost": 3234,
      "Ġmole": 3235,
      "Ġbrothers": 3236,
      "Ġdesign": 3237,
      "Ġpirate": 3238,
      "inary": 3239,
      "erry": 3240,
      "Ġgrap": 3241,
      "Ġbossy": 3242,
      "Ġfat": 3243,
      "Ġsmaller": 3244,
      "Ġharder": 3245,
      "ouses": 3246,
      "Ġbuilt": 3247,
      "Ġspoiled": 3248,
      "ines": 3249,
      "Ġstairs": 3250,
      "Ġancient": 3251,
      "Ġseem": 3252,
      "Ġprep": 3253,
      "ĠToday": 3254,
      "Ġguitar": 3255,
      "Ġstumbled": 3256,
      "Ġlights": 3257,
      "Ġmarch": 3258,
      "Ġchicken": 3259,
      "Ġfountain": 3260,
      "Ġsauce": 3261,
      "Ġstri": 3262,
      "Ġrode": 3263,
      "Ġenorm": 3264,
      "Ġpicking": 3265,
      "Ġbeet": 3266,
      "Ġcact": 3267,
      "Ġvalu": 3268,
      "Ġescape": 3269,
      "Ġfragile": 3270,
      "Ġenormous": 3271,
      "Ġhouses": 3272,
      "Ġresc": 3273,
      "Ġpoured": 3274,
      "Ġseeds": 3275,
      "Ġfresh": 3276,
      "Ġsuit": 3277,
      "Ġchar": 3278,
      "ĠPete": 3279,
      "Ġhose": 3280,
      "Ġenvel": 3281,
      "ÅĵLet": 3282,
      "Ġreminded": 3283,
      "ither": 3284,
      "Ġpow": 3285,
      "Ġmem": 3286,
      "upid": 3287,
      "Ġbump": 3288,
      "Ġcudd": 3289,
      "irp": 3290,
      "Ġfork": 3291,
      "Ġtrump": 3292,
      "Ġproudly": 3293,
      "Ġkinds": 3294,
      "Ġbounce": 3295,
      "Ġpractice": 3296,
      "Ġways": 3297,
      "Ġpenny": 3298,
      "Ġcity": 3299,
      "Ġpepper": 3300,
      "Ġsalad": 3301,
      "ĠAlice": 3302,
      "Ġcostum": 3303,
      "Spot": 3304,
      "Ġfrightened": 3305,
      "aid": 3306,
      "ache": 3307,
      "Ġsearching": 3308,
      "Ġchose": 3309,
      "Ġfingers": 3310,
      "Ġshells": 3311,
      "Ġadmired": 3312,
      "Ġsolve": 3313,
      "Ġcactus": 3314,
      "Ġtummy": 3315,
      "Ġwake": 3316,
      "Ġhalf": 3317,
      "Ġthirst": 3318,
      "Ġroof": 3319,
      "Ġshowing": 3320,
      "ola": 3321,
      "Ġdelighted": 3322,
      "na": 3323,
      "Ġcone": 3324,
      "Ġdull": 3325,
      "anger": 3326,
      "dom": 3327,
      "Ġnurse": 3328,
      "alk": 3329,
      "arsh": 3330,
      "Ġboats": 3331,
      "Ġbarber": 3332,
      "eorge": 3333,
      "Ġbeak": 3334,
      "Ġstage": 3335,
      "Ġstupid": 3336,
      "Ġexcitedly": 3337,
      "Ġabove": 3338,
      "berry": 3339,
      "Ġstudy": 3340,
      "Ġbatter": 3341,
      "Ġspace": 3342,
      "Ġsuggested": 3343,
      "Ġlizard": 3344,
      "Ġshone": 3345,
      "Ġcompass": 3346,
      "Ġregular": 3347,
      "Ġflashlight": 3348,
      "vice": 3349,
      "Ġhoop": 3350,
      "Ġcere": 3351,
      "Ġlocked": 3352,
      "Ġspilled": 3353,
      "Ġshape": 3354,
      "Ġattic": 3355,
      "Ġterrible": 3356,
      "Ġtooth": 3357,
      "ĠNemo": 3358,
      "Ġvaluable": 3359,
      "Ġtrumpet": 3360,
      "time": 3361,
      "arry": 3362,
      "Ġarrow": 3363,
      "ress": 3364,
      "Ġpant": 3365,
      "Ġearth": 3366,
      "Ġyet": 3367,
      "ĠBella": 3368,
      "illie": 3369,
      "Ġcheap": 3370,
      "ĠBobo": 3371,
      "Ġdesk": 3372,
      "Ġkicked": 3373,
      "Ġserious": 3374,
      "Ġsuccessful": 3375,
      "Ġthirsty": 3376,
      "Ġlow": 3377,
      "ĠDave": 3378,
      "Em": 3379,
      "het": 3380,
      "inal": 3381,
      "Ġclum": 3382,
      "Ġlab": 3383,
      "Ġscrat": 3384,
      "Ġorig": 3385,
      "com": 3386,
      "Ġow": 3387,
      "Ġrat": 3388,
      "Ġstove": 3389,
      "corn": 3390,
      "Ġavo": 3391,
      "Ġenvelope": 3392,
      "Ġwitch": 3393,
      "ĠMummy": 3394,
      "Ġthemselves": 3395,
      "Ġimpress": 3396,
      "Ġer": 3397,
      "Ġson": 3398,
      "ĠWhile": 3399,
      "aghet": 3400,
      "Ġcomb": 3401,
      "Ġbrightly": 3402,
      "Ġstops": 3403,
      "Ġthunder": 3404,
      "aghetti": 3405,
      "Ġhay": 3406,
      "Ġbees": 3407,
      "Ġstamp": 3408,
      "iew": 3409,
      "Ġlaw": 3410,
      "Ġraced": 3411,
      "Ġdreaming": 3412,
      "Ġscreen": 3413,
      "ĠMar": 3414,
      "Ġcareless": 3415,
      "Ġsniff": 3416,
      "Ġoriginal": 3417,
      "Ġwashed": 3418,
      "Ġspaghetti": 3419,
      "ĠYour": 3420,
      "Ġchanged": 3421,
      "Ġview": 3422,
      "Ġwiped": 3423,
      "ĠU": 3424,
      "uth": 3425,
      "Ġending": 3426,
      "Ġstickers": 3427,
      "Ġhelm": 3428,
      "Ġrushed": 3429,
      "ĠDucky": 3430,
      "Ġdelicate": 3431,
      "Ġwarned": 3432,
      "Ġbeetle": 3433,
      "Ġflex": 3434,
      "Ġmis": 3435,
      "gest": 3436,
      "ience": 3437,
      "isk": 3438,
      "Ġthose": 3439,
      "Ġyog": 3440,
      "Ġcarp": 3441,
      "berries": 3442,
      "Ġleaving": 3443,
      "Ġsteal": 3444,
      "Ġpersist": 3445,
      "Ġcompassion": 3446,
      "Ġclumsy": 3447,
      "Ġtor": 3448,
      "Ġbiggest": 3449,
      "!\".": 3450,
      "Ġtravel": 3451,
      "Ġdead": 3452,
      "oomy": 3453,
      "Ġpopcorn": 3454,
      "Ġdough": 3455,
      "Ġbean": 3456,
      "Ġfinding": 3457,
      "Ġenc": 3458,
      "Ġpumpkin": 3459,
      "Ġing": 3460,
      "ision": 3461,
      "Ġsne": 3462,
      "Ġtomato": 3463,
      "Ġdiscover": 3464,
      "Ġwire": 3465,
      "anny": 3466,
      "Ġlibrary": 3467,
      "While": 3468,
      "uring": 3469,
      "robe": 3470,
      "Ġgrand": 3471,
      "Ġsnee": 3472,
      "Ġdeliver": 3473,
      "Ġcomplet": 3474,
      "redient": 3475,
      "Ġgraceful": 3476,
      "Ġingredient": 3477,
      "Ġmeal": 3478,
      "Ġsorts": 3479,
      "Ġunk": 3480,
      "Ġtelling": 3481,
      "Ġcereal": 3482,
      "Ġknock": 3483,
      "Ġuncle": 3484,
      "Ġimagined": 3485,
      "Ġearly": 3486,
      "Ġpeeked": 3487,
      "Ġtask": 3488,
      "âĤ¬âĢ": 3489,
      "Ġtrap": 3490,
      "Ġhairy": 3491,
      "Ġmissing": 3492,
      "Ġcounting": 3493,
      "Ġingredients": 3494,
      "Ġadvice": 3495,
      "Ġpup": 3496,
      "uper": 3497,
      "Ġjacket": 3498,
      "Ġmel": 3499,
      "Ġshiver": 3500,
      "Ġzip": 3501,
      "Ġhumble": 3502,
      "Ġforth": 3503,
      "Ġstranger": 3504,
      "Ġsquare": 3505,
      "Ġdoesn": 3506,
      "Ġpale": 3507,
      "Ġguard": 3508,
      "Ġdestro": 3509,
      "ĠBobby": 3510,
      "Ġflexible": 3511,
      "Ġsudden": 3512,
      "Ġhipp": 3513,
      "ilty": 3514,
      "Ġplayful": 3515,
      "Ġdriving": 3516,
      "Ġguilty": 3517,
      "Ġpige": 3518,
      "Ġaunt": 3519,
      "Ġquestion": 3520,
      "Ġthinking": 3521,
      "Ġwhispered": 3522,
      "Ġimpressive": 3523,
      "Ġcards": 3524,
      "Ġnicely": 3525,
      "Ġjolly": 3526,
      "Ġcreate": 3527,
      "Ġopens": 3528,
      "Ġcollar": 3529,
      "Ġcarrying": 3530,
      "Ġslides": 3531,
      "Ġspeed": 3532,
      "nown": 3533,
      "Ġcur": 3534,
      "Ġallowed": 3535,
      "cod": 3536,
      "Ġtwirled": 3537,
      "Ġhandle": 3538,
      "Ġprint": 3539,
      "Ġsparkled": 3540,
      "Ġhunter": 3541,
      "illa": 3542,
      "Ġbrace": 3543,
      "Ġsticker": 3544,
      "Ġpopular": 3545,
      "ud": 3546,
      "Ġcush": 3547,
      "Ġumb": 3548,
      "ement": 3549,
      "Ġrub": 3550,
      "host": 3551,
      "Ġumbre": 3552,
      "fa": 3553,
      "Ġtap": 3554,
      "Ġtied": 3555,
      "Ġsink": 3556,
      "Ġanx": 3557,
      "Ġenv": 3558,
      "Ġrubb": 3559,
      "ations": 3560,
      "Ġbase": 3561,
      "Ġdisg": 3562,
      "Ġrubbed": 3563,
      "comfort": 3564,
      "bled": 3565,
      "Ġfriendship": 3566,
      "Ġcarpet": 3567,
      "tter": 3568,
      "Ġuncomfort": 3569,
      "Ġcooking": 3570,
      "Ġcharming": 3571,
      "Ġpersistent": 3572,
      "Ġdisgust": 3573,
      "Ġuncomfortable": 3574,
      "arian": 3575,
      "Ġgum": 3576,
      "Ġgira": 3577,
      "Ġshocked": 3578,
      "ĠRose": 3579,
      "Ġholds": 3580,
      "awn": 3581,
      "Ġwing": 3582,
      "ream": 3583,
      "Ġghost": 3584,
      "Ġrefused": 3585,
      "ellig": 3586,
      "ĠRed": 3587,
      "Ġperm": 3588,
      "Ġmetal": 3589,
      "Ġanxious": 3590,
      "Ġintellig": 3591,
      "Ġbutterflies": 3592,
      "Ġdolphin": 3593,
      "Ġdust": 3594,
      "Ġscatter": 3595,
      "Ġsett": 3596,
      "Ġcrocod": 3597,
      "Ġgasped": 3598,
      "Ġunknown": 3599,
      "Ġpatter": 3600,
      "Ġscoot": 3601,
      "Ġeng": 3602,
      "Ġcomput": 3603,
      "Ġpatch": 3604,
      "Ġpants": 3605,
      "loo": 3606,
      "aroo": 3607,
      "Ġneat": 3608,
      "ugged": 3609,
      "angaroo": 3610,
      "Ġspinning": 3611,
      "Ġnature": 3612,
      "Ġshel": 3613,
      "Ġkangaroo": 3614,
      "Ġchasing": 3615,
      "Ġcelebrate": 3616,
      "Ġpattern": 3617,
      "Ġled": 3618,
      "Ġmoder": 3619,
      "Ġpasta": 3620,
      "Ġwheels": 3621,
      "Ġnames": 3622,
      "Ġtruth": 3623,
      "Ġordinary": 3624,
      "Ġhammer": 3625,
      "ÅĵLetÃ¢": 3626,
      "Ġhippo": 3627,
      "Ġmask": 3628,
      "Ġsurf": 3629,
      "Ġtorn": 3630,
      "Ġencou": 3631,
      "Ow": 3632,
      "Ġresist": 3633,
      "Ġcoco": 3634,
      "Ġimpat": 3635,
      "ĠGrandpa": 3636,
      "Ġcocoa": 3637,
      "See": 3638,
      "Ġgoose": 3639,
      "Ġstat": 3640,
      "ĠAlex": 3641,
      "ÅĵIt": 3642,
      "Ġphot": 3643,
      "ĠEllie": 3644,
      "Ġacorn": 3645,
      "uddy": 3646,
      "Ġperform": 3647,
      "eer": 3648,
      "Ġbent": 3649,
      "Ġpand": 3650,
      "Ġotter": 3651,
      "ĠKim": 3652,
      "Ġgrowing": 3653,
      "Ġimpatient": 3654,
      "Ġmath": 3655,
      "iches": 3656,
      "ĠWh": 3657,
      "Ġskip": 3658,
      "Ġsnuggled": 3659,
      "Ġcrazy": 3660,
      "Ġsleeping": 3661,
      "ffee": 3662,
      "Ġprize": 3663,
      "Ġharmless": 3664,
      "Ġmodern": 3665,
      "ray": 3666,
      "Ġoat": 3667,
      "orant": 3668,
      "Ġshine": 3669,
      "Ġrece": 3670,
      "Ġscale": 3671,
      "ÅĵWhat": 3672,
      "Ġfireman": 3673,
      "Ġcrane": 3674,
      "Ġrestaur": 3675,
      "Ġmagnet": 3676,
      "Ġrestaurant": 3677,
      "Ġbeauty": 3678,
      "Ġtrash": 3679,
      "Ġwindows": 3680,
      "Ġsplit": 3681,
      "Ġattract": 3682,
      "Ġpotato": 3683,
      "Ġdestroy": 3684,
      "ĠHere": 3685,
      "Ġreind": 3686,
      "ĠFr": 3687,
      "Ġhanded": 3688,
      "Ġunpack": 3689,
      "Ġshoe": 3690,
      "Ġplaced": 3691,
      "Ġintelligent": 3692,
      "ĠMike": 3693,
      "ĠLook": 3694,
      "Ġspoke": 3695,
      "Ġcricket": 3696,
      "Go": 3697,
      "llip": 3698,
      "Ġcompassionate": 3699,
      "Ġdisgusting": 3700,
      "llipop": 3701,
      "cut": 3702,
      "Ġsofa": 3703,
      "Ġumbrella": 3704,
      "Ġtem": 3705,
      "Ġahead": 3706,
      "Ġload": 3707,
      "Ġlollipop": 3708,
      "Ġstarts": 3709,
      "noon": 3710,
      "Ġsuper": 3711,
      "Ġafternoon": 3712,
      "Ġdrawer": 3713,
      "Ġwheat": 3714,
      "Ġdistant": 3715,
      "Ġsandwiches": 3716,
      "Ġcandle": 3717,
      "Ġwaff": 3718,
      "ĠSm": 3719,
      "Ġyawn": 3720,
      "Ġignorant": 3721,
      "ince": 3722,
      "Ġchance": 3723,
      "ĠFin": 3724,
      "ĠCl": 3725,
      "ips": 3726,
      "aches": 3727,
      "Ġtriang": 3728,
      "ĠSnow": 3729,
      "Ġbracelet": 3730,
      "Ġreindeer": 3731,
      "ikes": 3732,
      "oe": 3733,
      "Ġdug": 3734,
      "Ġhedge": 3735,
      "Ġrules": 3736,
      "Ġcountry": 3737,
      "Ġspring": 3738,
      "ophone": 3739,
      "Ġpigeon": 3740,
      "aby": 3741,
      "Ġhook": 3742,
      "Ġshield": 3743,
      "Ġreco": 3744,
      "Ġflour": 3745,
      "Ġtrop": 3746,
      "Ġclock": 3747,
      "Ġbin": 3748,
      "Ġpurse": 3749,
      "Ġshut": 3750,
      "Ġcoffee": 3751,
      "ĠcouldnÃ¢": 3752,
      "Ġsupport": 3753,
      "Ġrestless": 3754,
      "Ġhung": 3755,
      "Ġcupboard": 3756,
      "Ġtire": 3757,
      "Ġharsh": 3758,
      "Ġcord": 3759,
      "Ġol": 3760,
      "Ġjug": 3761,
      "Ġorder": 3762,
      "Ġgifted": 3763,
      "Ġmailbox": 3764,
      "ĠTweetie": 3765,
      "Ġtrophy": 3766,
      "Ġsym": 3767,
      "erable": 3768,
      "Ġmay": 3769,
      "ict": 3770,
      "used": 3771,
      "Ġjumps": 3772,
      "ophie": 3773,
      "Ġnote": 3774,
      "Ġsadly": 3775,
      "Ġcats": 3776,
      "lcano": 3777,
      "Ġshrimp": 3778,
      "Ġsilver": 3779,
      "Ġmiserable": 3780,
      "af": 3781,
      "Ġsend": 3782,
      "Ġshadow": 3783,
      "ices": 3784,
      "Ġmush": 3785,
      "Ġpretending": 3786,
      "cycle": 3787,
      "Ġfilm": 3788,
      "Ġcrocodile": 3789,
      "gu": 3790,
      "Ġax": 3791,
      "Ġitself": 3792,
      "Ġleop": 3793,
      "aser": 3794,
      "ĠPolly": 3795,
      "gging": 3796,
      "Ġengine": 3797,
      "Yay": 3798,
      "cu": 3799,
      "ibb": 3800,
      "shed": 3801,
      "Ġcamp": 3802,
      "bol": 3803,
      "Ġfurther": 3804,
      "Ġcourage": 3805,
      "Ġpracticed": 3806,
      "Ġhurry": 3807,
      "Ġmelon": 3808,
      "Ġmuff": 3809,
      "Ġanywhere": 3810,
      "Ġimpro": 3811,
      "Ġobject": 3812,
      "Ġcomputer": 3813,
      "Ġsymbol": 3814,
      "gn": 3815,
      "Ġbri": 3816,
      "Ġfu": 3817,
      "Ġmill": 3818,
      "Ġvine": 3819,
      "uct": 3820,
      "Ġtrick": 3821,
      "Ġcreatures": 3822,
      "Ġgoal": 3823,
      "Ġcompl": 3824,
      "ÅĵYes": 3825,
      "Ġtowers": 3826,
      "Ġjeep": 3827,
      "Ġenth": 3828,
      "aled": 3829,
      "Ġrose": 3830,
      "Ġpainter": 3831,
      "Ġrepe": 3832,
      "Ġrice": 3833,
      "Ġstack": 3834,
      "Ġcooler": 3835,
      "Ġreading": 3836,
      "Alice": 3837,
      "Ġenvious": 3838,
      "Ġpony": 3839,
      "ĠSandy": 3840,
      "Ġstation": 3841,
      "Ġparade": 3842,
      "Ġwishes": 3843,
      "az": 3844,
      "Ġneedle": 3845,
      "Ġcryst": 3846,
      "Ġforgave": 3847,
      "Ġcartoon": 3848,
      "iron": 3849,
      "stri": 3850,
      "Ġkay": 3851,
      "ĠAre": 3852,
      "ÅĵThat": 3853,
      "ĠToby": 3854,
      "Ġtreasures": 3855,
      "Ġstretched": 3856,
      "Ġaxe": 3857,
      "Ġenthus": 3858,
      "Ġreward": 3859,
      "Ġnowhere": 3860,
      "Ġhelmet": 3861,
      "Ġattractive": 3862,
      "ric": 3863,
      "Ġjet": 3864,
      "Ġhelpless": 3865,
      "Ġlaser": 3866,
      "Ġolder": 3867,
      "ĠGive": 3868,
      "Ġbrighter": 3869,
      "Ġsecond": 3870,
      "Ġtroubled": 3871,
      "Ġletters": 3872,
      "Ġsweater": 3873,
      "Ġoy": 3874,
      "Ġscold": 3875,
      "ĠEventually": 3876,
      "Ġmessage": 3877,
      "Ġpastry": 3878,
      "Ġfootball": 3879,
      "cream": 3880,
      "Ġten": 3881,
      "Ġbadly": 3882,
      "Ġtrack": 3883,
      "Ġpackage": 3884,
      "Ġvalue": 3885,
      "ĠBrownie": 3886,
      "Ġcompetitive": 3887,
      "Ġcushion": 3888,
      "Ġscooter": 3889,
      "Ġpanda": 3890,
      "Ġpilot": 3891,
      "Ġrecogn": 3892,
      "Ġmushroom": 3893,
      "Ġtheater": 3894,
      "Ġpor": 3895,
      "ĠTr": 3896,
      "Ġsock": 3897,
      "Ġalert": 3898,
      "ĠWhere": 3899,
      "Ġpressed": 3900,
      "Ġgloomy": 3901,
      "Ġtricks": 3902,
      "Ġvisited": 3903,
      "Ġgiggle": 3904,
      "ebra": 3905,
      "Ġsalt": 3906,
      "Ġfearful": 3907,
      "Ġmicr": 3908,
      "Ġhall": 3909,
      "htub": 3910,
      "Ġspell": 3911,
      "Ġanyway": 3912,
      "ĠPe": 3913,
      "Ġbandage": 3914,
      "Ġhuman": 3915,
      "orable": 3916,
      "Ġbeep": 3917,
      "Ġswitch": 3918,
      "Ġtear": 3919,
      "ĠPaul": 3920,
      "Ġshouts": 3921,
      "Ġdeaf": 3922,
      "Ġadmire": 3923,
      "Ġbathtub": 3924,
      "Ġeraser": 3925,
      "Re": 3926,
      "ef": 3927,
      "kelet": 3928,
      "Ġvolcano": 3929,
      "Ġzebra": 3930,
      "Ġpengu": 3931,
      "Ġbarrel": 3932,
      "Ġcows": 3933,
      "Ġmicrophone": 3934,
      "orilla": 3935,
      "Ġener": 3936,
      "Ġthread": 3937,
      "Ġswinging": 3938,
      "Ġroared": 3939,
      "Ġraven": 3940,
      "Ġbounced": 3941,
      "hino": 3942,
      "Ġsoldier": 3943,
      "Ġavoc": 3944,
      "Ġleopard": 3945,
      "stairs": 3946,
      "Ġstarting": 3947,
      "Ġtray": 3948,
      "Ġstatue": 3949,
      "Ġsize": 3950,
      "Ġhive": 3951,
      "opus": 3952,
      "Ġholes": 3953,
      "Ġstrugg": 3954,
      "ctopus": 3955,
      "ĠPat": 3956,
      "Ġobser": 3957,
      "Ġnuts": 3958,
      "Ġmodest": 3959,
      "iskers": 3960,
      "ĠSmith": 3961,
      "ci": 3962,
      "year": 3963,
      "Ġsent": 3964,
      "ĠLola": 3965,
      "Ġpeach": 3966,
      "Ġadorable": 3967,
      "Benny": 3968,
      "Ġsquash": 3969,
      "ebook": 3970,
      "Ġsteps": 3971,
      "Ġriding": 3972,
      "keleton": 3973,
      "Mary": 3974,
      "Ġoctopus": 3975,
      "ckey": 3976,
      "Ġnotebook": 3977,
      "Ġhockey": 3978,
      "Ġrespectful": 3979,
      "Ġcurt": 3980,
      "Ġlip": 3981,
      "Ġshaking": 3982,
      "Ġbackpack": 3983,
      "Ġchain": 3984,
      "Ġcurtain": 3985,
      "Ġants": 3986,
      "Ġfive": 3987,
      "Ġmop": 3988,
      "Ġgorilla": 3989,
      "Ġquar": 3990,
      "Ġbehave": 3991,
      "Ġhaircut": 3992,
      "Ġwallet": 3993,
      "Ġshopkeeper": 3994,
      "ceros": 3995,
      "Ġfilthy": 3996,
      "strich": 3997,
      "hinoceros": 3998,
      "Ġeither": 3999,
      "Ġur": 4000,
      "ceed": 4001,
      "Ġboots": 4002,
      "Ġpulls": 4003,
      "Ġtripped": 4004,
      "Ġpapers": 4005,
      "Ġstirred": 4006,
      "Give": 4007,
      "If": 4008,
      "Ġpad": 4009,
      "ĠMandy": 4010,
      "Ġnobody": 4011,
      "Ġsunset": 4012,
      "Ġexplain": 4013,
      "Ġchecked": 4014,
      "Ġsandbox": 4015,
      "ccol": 4016,
      "arnt": 4017,
      "Ġlearnt": 4018,
      "Ġsort": 4019,
      "Ġavail": 4020,
      "Ġdecorate": 4021,
      "ccoli": 4022,
      "erc": 4023,
      "Ġmug": 4024,
      "Ġpun": 4025,
      "Ġgolf": 4026,
      "Ġmeas": 4027,
      "ĠGeorge": 4028,
      "ĠRo": 4029,
      "Ġpushing": 4030,
      "Ġmotorcycle": 4031,
      "Ġrescue": 4032,
      "Ġcrystal": 4033,
      "ipping": 4034,
      "Ġrhinoceros": 4035,
      "Ġsomewhere": 4036,
      "Ġvest": 4037,
      "Ġpebble": 4038,
      "Ġart": 4039,
      "Ġlightning": 4040,
      "Ġsailor": 4041,
      "Ġcooked": 4042,
      "Ġpowder": 4043,
      "iest": 4044,
      "Ġstared": 4045,
      "Ġshort": 4046,
      "ief": 4047,
      "Ġclapping": 4048,
      "Ġrolling": 4049,
      "Ġgiraffe": 4050,
      "Ġporch": 4051,
      "Ġskeleton": 4052,
      "Ġdess": 4053,
      "ĠBunny": 4054,
      "Ġvi": 4055,
      "ĠEverything": 4056,
      "Ġjokes": 4057,
      "Ġexper": 4058,
      "ses": 4059,
      "Ġbet": 4060,
      "render": 4061,
      "Ġincl": 4062,
      "Ġunlock": 4063,
      "Ġavailable": 4064,
      "reci": 4065,
      "Ġcomet": 4066,
      "ĠBuddy": 4067,
      "sely": 4068,
      "Ġtrains": 4069,
      "Ġdishes": 4070,
      "Ġpoint": 4071,
      "Ġorganize": 4072,
      "Ġsucceed": 4073,
      "Ġkayak": 4074,
      "par": 4075,
      "Ġhappier": 4076,
      "seum": 4077,
      "Ġexerc": 4078,
      "Ġleash": 4079,
      "ucked": 4080,
      "Ġquite": 4081,
      "enry": 4082,
      "ooped": 4083,
      "Ġstom": 4084,
      "Ġhadn": 4085,
      "Ġsepar": 4086,
      "Ġlaund": 4087,
      "astic": 4088,
      "Ġlistening": 4089,
      "osie": 4090,
      "Ġbarking": 4091,
      "Ġpaws": 4092,
      "Ġfrowned": 4093,
      "hood": 4094,
      "ube": 4095,
      "Ġtur": 4096,
      "Ġtoil": 4097,
      "elery": 4098,
      "Ġmuseum": 4099,
      "Ġcolours": 4100,
      "Ġclimbing": 4101,
      "Ġappreci": 4102,
      "Ġcomplete": 4103,
      "Ġtriangle": 4104,
      "Ġcase": 4105,
      "Ġweather": 4106,
      "Ġseal": 4107,
      "ummer": 4108,
      "Ġpeek": 4109,
      "Ġunh": 4110,
      "Ġzipper": 4111,
      "Ġdessert": 4112,
      "Ġlaundry": 4113,
      "night": 4114,
      "ĠSh": 4115,
      "Ġcane": 4116,
      "Ġbroccoli": 4117,
      "ĠJoey": 4118,
      "Little": 4119,
      "inking": 4120,
      "Ġreef": 4121,
      "ĠMaria": 4122,
      "ĠWhiskers": 4123,
      "ubby": 4124,
      "Ġiron": 4125,
      "Ġputting": 4126,
      "Ġclosely": 4127,
      "Ġpushes": 4128,
      "Ġmonkeys": 4129,
      "Ġsurrender": 4130,
      "Jenny": 4131,
      "cast": 4132,
      "Ġpipe": 4133,
      "Ġyach": 4134,
      "Ġspir": 4135,
      "Ġbreat": 4136,
      "Ġlions": 4137,
      "Ġblowing": 4138,
      "come": 4139,
      "io": 4140,
      "Ġsle": 4141,
      "Ġped": 4142,
      "urb": 4143,
      "Ġmarched": 4144,
      "Ġdisturb": 4145,
      "Ġspeak": 4146,
      "Ġturkey": 4147,
      "Ġtoilet": 4148,
      "Bye": 4149,
      "aked": 4150,
      "ges": 4151,
      "ron": 4152,
      "Ġbicy": 4153,
      "Ġfinds": 4154,
      "Ġskill": 4155,
      "Ġdrawings": 4156,
      "Ġbarks": 4157,
      "Ġlively": 4158,
      "Ġstuffed": 4159,
      "heart": 4160,
      "Ġnail": 4161,
      "Ġrever": 4162,
      "ĠAndy": 4163,
      "Ġpair": 4164,
      "Ġsandcast": 4165,
      "Ġnapkin": 4166,
      "Ġended": 4167,
      "Ġdancer": 4168,
      "Ġpolish": 4169,
      "Ġcostume": 4170,
      "ĠSnowy": 4171,
      "Ġyacht": 4172,
      "Ġostrich": 4173,
      "anic": 4174,
      "Ġink": 4175,
      "Ġfort": 4176,
      "Ġsoftly": 4177,
      "Ġmild": 4178,
      "iling": 4179,
      "Ġribb": 4180,
      "chanic": 4181,
      "ected": 4182,
      "Ġraining": 4183,
      "olin": 4184,
      "gs": 4185,
      "vator": 4186,
      "Ġtube": 4187,
      "Ġlid": 4188,
      "Ġoil": 4189,
      "Ġclub": 4190,
      "Ġchubby": 4191,
      "Ġuniver": 4192,
      "Ġappl": 4193,
      "Ġthanks": 4194,
      "Ġinf": 4195,
      "ecause": 4196,
      "Ġmechanic": 4197,
      "ĠWill": 4198,
      "play": 4199,
      "Ġcrow": 4200,
      "Ġpiano": 4201,
      "ĠGrace": 4202,
      "Ġelevator": 4203,
      "Ġbasketball": 4204,
      "aulif": 4205,
      "Ġbubble": 4206,
      "Ġhoping": 4207,
      "Ġbelt": 4208,
      "Ġmixer": 4209,
      "Ġstrip": 4210,
      "Ġunhappy": 4211,
      "Ġcaulif": 4212,
      "ison": 4213,
      "Ġglove": 4214,
      "Ġairport": 4215,
      "Ġspirit": 4216,
      "Ġwife": 4217,
      "Ġbikes": 4218,
      "Ġhut": 4219,
      "ites": 4220,
      "Ġinsist": 4221,
      "Ġpress": 4222,
      "Ġjudge": 4223,
      "Ġcups": 4224,
      "Ġwelcomed": 4225,
      "Ġframe": 4226,
      "Ġmagaz": 4227,
      "Ġgrabs": 4228,
      "Everyone": 4229,
      "Ġdrops": 4230,
      "Ġleaned": 4231,
      "edy": 4232,
      "Ġmama": 4233,
      "Ġthief": 4234,
      "stic": 4235,
      "Ġgrapes": 4236,
      "âĤ¬âĢľ": 4237,
      "Ġquarrel": 4238,
      "mand": 4239,
      "Ġevening": 4240,
      "Ġprov": 4241,
      "Ġrepair": 4242,
      "Ġbaseball": 4243,
      "Ġtemp": 4244,
      "ws": 4245,
      "Ġcelery": 4246,
      "ĠMillie": 4247,
      "Ġfactor": 4248,
      "iastic": 4249,
      "Ġbuzz": 4250,
      "Ġimagine": 4251,
      "Ġradish": 4252,
      "arlie": 4253,
      "Ġapologized": 4254,
      "Ġsneak": 4255,
      "Ġenthusiastic": 4256,
      "Ġoyster": 4257,
      "Ġtub": 4258,
      "Ġluck": 4259,
      "Ġmen": 4260,
      "Ġrag": 4261,
      "Ġdisplay": 4262,
      "Ġgiven": 4263,
      "Ġcounter": 4264,
      "Ġbreaks": 4265,
      "Ġcherries": 4266,
      "Ġshelter": 4267,
      "ĠBear": 4268,
      "Ġmule": 4269,
      "ĠdidnÃ¢": 4270,
      "Ġmarry": 4271,
      "Ġveil": 4272,
      "Ġzoomed": 4273,
      "Ġfactory": 4274,
      "aff": 4275,
      "azz": 4276,
      "zzy": 4277,
      "ĠBill": 4278,
      "Ġfisher": 4279,
      "Ġbicycle": 4280,
      "Ġlend": 4281,
      "Ġshade": 4282,
      "Ġfeelings": 4283,
      "Ġenergy": 4284,
      "Ġpoem": 4285,
      "Ġbul": 4286,
      "Ġhopes": 4287,
      "Ġfrogs": 4288,
      "Ġcauliflower": 4289,
      "imney": 4290,
      "Ġrod": 4291,
      "Ġprun": 4292,
      "Ġchimney": 4293,
      "Ġbears": 4294,
      "Grandma": 4295,
      "Daisy": 4296,
      "Ġfurn": 4297,
      "iture": 4298,
      "Ġweep": 4299,
      "Ġpole": 4300,
      "Ġstretch": 4301,
      "Ġfurniture": 4302,
      "Ġgym": 4303,
      "Ġplayer": 4304,
      "apa": 4305,
      "Ġraft": 4306,
      "Ġmaze": 4307,
      "Ġpaid": 4308,
      "Ġbulb": 4309,
      "ense": 4310,
      "any": 4311,
      "Ġstaff": 4312,
      "chair": 4313,
      "Ġshakes": 4314,
      "icer": 4315,
      "ippery": 4316,
      "ccer": 4317,
      "Ġdive": 4318,
      "Ġsoccer": 4319,
      "Ġlives": 4320,
      "Ġkitty": 4321,
      "rod": 4322,
      "Ġintrod": 4323,
      "Ġslippery": 4324,
      "Ġcheek": 4325,
      "Ġattention": 4326,
      "Ġneighbour": 4327,
      "Ġsheet": 4328,
      "Ġnews": 4329,
      "Ġtrail": 4330,
      "Ġsmells": 4331,
      "Ġfalling": 4332,
      "Ġperfectly": 4333,
      "Ġphoto": 4334,
      "Ġviolin": 4335,
      "eath": 4336,
      "gen": 4337,
      "Ġbur": 4338,
      "Ġpine": 4339,
      "Ġknot": 4340,
      "ĠJerry": 4341,
      "Ġchirp": 4342,
      "Ġquit": 4343,
      "ĠRu": 4344,
      "ĠRosie": 4345,
      "Ġmarried": 4346,
      "Ġbananas": 4347,
      "Ġsummer": 4348,
      "Ġlang": 4349,
      "Ġpage": 4350,
      "Ġlie": 4351,
      "Ġfirework": 4352,
      "Ġsweetheart": 4353,
      "Ġcrib": 4354,
      "Ġlangu": 4355,
      "Ġlime": 4356,
      "Ġonion": 4357,
      "Ġreve": 4358,
      "Ġarmchair": 4359,
      "Ġsprink": 4360,
      "Ġbelongs": 4361,
      "Ġcardboard": 4362,
      "Ġgolden": 4363,
      "Ġcabinet": 4364,
      "ait": 4365,
      "low": 4366,
      "men": 4367,
      "Ġsir": 4368,
      "aring": 4369,
      "Ġgro": 4370,
      "ories": 4371,
      "Ġshouldn": 4372,
      "Ġwool": 4373,
      "ĠSophie": 4374,
      "ĠWould": 4375,
      "ĠLee": 4376,
      "Ġtrave": 4377,
      "Ġsticky": 4378,
      "Ġpuddles": 4379,
      "Ġfields": 4380,
      "Ġtuna": 4381,
      "Ġchickens": 4382,
      "bul": 4383,
      "ĠSee": 4384,
      "stead": 4385,
      "Ġscolded": 4386,
      "inarian": 4387,
      "Ġswung": 4388,
      "Ġvide": 4389,
      "ÅĵYou": 4390,
      "eterinarian": 4391,
      "..": 4392,
      "Ġtherm": 4393,
      "Ġsoil": 4394,
      "Ġstraight": 4395,
      "Ġburned": 4396,
      "Ġavocado": 4397,
      "eve": 4398,
      "Ġherb": 4399,
      "Ġrot": 4400,
      "hero": 4401,
      "ometer": 4402,
      "Ġflies": 4403,
      "Ġveterinarian": 4404,
      "Ġprevent": 4405,
      "izes": 4406,
      "reeze": 4407,
      "Ġdisag": 4408,
      "Ġpirates": 4409,
      "Ġfisherman": 4410,
      "ween": 4411,
      "Ġnovel": 4412,
      "aud": 4413,
      "Ġoffer": 4414,
      "Ġshovel": 4415,
      "Ġcreated": 4416,
      "Ġpetals": 4417,
      "Ġjourn": 4418,
      "Ġimagination": 4419,
      "Daddy": 4420,
      "Ġsuperhero": 4421,
      "Ġbetween": 4422,
      "Ġmeeting": 4423,
      "Ġclassroom": 4424,
      "Ġglowing": 4425,
      "hic": 4426,
      "Ġplastic": 4427,
      "Ġtwink": 4428,
      "Ġopera": 4429,
      "Ġvehic": 4430,
      "Ġkingdom": 4431,
      "Ġmistakes": 4432,
      "Ġmemories": 4433,
      "Ġthermometer": 4434,
      "Ch": 4435,
      "Ġble": 4436,
      "Ġcell": 4437,
      "Ġpal": 4438,
      "unately": 4439,
      "Ġseeing": 4440,
      "Ġshoulder": 4441,
      "ĠKate": 4442,
      "anges": 4443,
      "Ġthrows": 4444,
      "Ġfishing": 4445,
      "aw": 4446,
      "lass": 4447,
      "Ġmeat": 4448,
      "Ġceiling": 4449,
      "Ġpassport": 4450,
      "Ġignored": 4451,
      "Ġjellyfish": 4452,
      "Ġslept": 4453,
      "ues": 4454,
      "Ġtax": 4455,
      "ĠBun": 4456,
      "Ġforgotten": 4457,
      "Ġcelebrated": 4458,
      "Ġradio": 4459,
      "Ġskirt": 4460,
      "Ġdoors": 4461,
      "ngth": 4462,
      "Ġteleph": 4463,
      "Ġjournal": 4464,
      "Next": 4465,
      "rs": 4466,
      "Ġoak": 4467,
      "Ġmakeup": 4468,
      "Ġheads": 4469,
      "Ġpresents": 4470,
      "Ġaccepted": 4471,
      "Ġtelephone": 4472,
      "Because": 4473,
      "arm": 4474,
      "Ġstro": 4475,
      "Ġallig": 4476,
      "Your": 4477,
      "agg": 4478,
      "Ġflame": 4479,
      "ĠdonÃ¢": 4480,
      "Ġstrength": 4481,
      "Ġvend": 4482,
      "Ġthrowing": 4483,
      "Ġpinch": 4484,
      "Today": 4485,
      "Ġinfant": 4486,
      "ents": 4487,
      "Ġvet": 4488,
      "Emma": 4489,
      "Ġfile": 4490,
      "chie": 4491,
      "Ġloop": 4492,
      "Ġswamp": 4493,
      "Ġambul": 4494,
      "Ġpoints": 4495,
      "Inside": 4496,
      "Together": 4497,
      "ĠTrue": 4498,
      "Ġapplaud": 4499,
      "Ġgrocer": 4500,
      "Ġtaxi": 4501,
      "Eventually": 4502,
      "drobe": 4503,
      "vision": 4504,
      "urch": 4505,
      "Ġalive": 4506,
      "Ġwriting": 4507,
      "Ġshouting": 4508,
      "Ġbaking": 4509,
      "Ġplanet": 4510,
      "Ġwardrobe": 4511,
      "Ġrubber": 4512,
      "te": 4513,
      "Ġcree": 4514,
      "ores": 4515,
      "Ġseas": 4516,
      "Ġworth": 4517,
      "Ġsung": 4518,
      "Ġcube": 4519,
      "Ġdiscu": 4520,
      "Ġsteam": 4521,
      "Ġwinter": 4522,
      "Ġlemonade": 4523,
      "achel": 4524,
      "Ġmagazine": 4525,
      "Ġpalace": 4526,
      "Ġcreek": 4527,
      "Ġwags": 4528,
      "Ġfle": 4529,
      "Ġitch": 4530,
      "bbie": 4531,
      "Ġshower": 4532,
      "ĠInstead": 4533,
      "Ġdiary": 4534,
      "Ġsquirrels": 4535,
      "Ġattach": 4536,
      "Ġfolder": 4537,
      "Ġhanging": 4538,
      "Ġtelevision": 4539,
      "Ġstrawberry": 4540,
      "bor": 4541,
      "ium": 4542,
      "Ġaut": 4543,
      "Ġstable": 4544,
      "Ġboot": 4545,
      "Ġquack": 4546,
      "Ġgreedy": 4547,
      "Ġfog": 4548,
      "ĠPapa": 4549,
      "ggy": 4550,
      "nam": 4551,
      "Ġinse": 4552,
      "ssible": 4553,
      "Ġflapped": 4554,
      "Ġparent": 4555,
      "Ġprepare": 4556,
      "ĠAb": 4557,
      "Ġhelper": 4558,
      "Ġknob": 4559,
      "ĠLilly": 4560,
      "Ġchalk": 4561,
      "Ġfollows": 4562,
      "Ġsailing": 4563,
      "Ġsurround": 4564,
      "Ġmystery": 4565,
      "Ġmedal": 4566,
      "Ġsprayed": 4567,
      "ito": 4568,
      "Ġpra": 4569,
      "icop": 4570,
      "Ġvac": 4571,
      "Ġornam": 4572,
      "Ġmoves": 4573,
      "ĠNext": 4574,
      "Ġdisappear": 4575,
      "Ġserve": 4576,
      "Ġhelicop": 4577,
      "Ġargue": 4578,
      "Ġalligator": 4579,
      "Ġambulance": 4580,
      "Ġhelicopter": 4581,
      "sit": 4582,
      "tress": 4583,
      "ĠHelp": 4584,
      "ĠBaby": 4585,
      "Ġgrin": 4586,
      "Ġbelow": 4587,
      "Ġsigns": 4588,
      "Ġmattress": 4589,
      "Ġharbor": 4590,
      "Ġwaving": 4591,
      "una": 4592,
      "ĠJess": 4593,
      "rosc": 4594,
      "Ġdressed": 4595,
      "Ġfreez": 4596,
      "Ġstud": 4597,
      "Ġeagerly": 4598,
      "ĠUn": 4599,
      "lasses": 4600,
      "Ġsunglasses": 4601,
      "ĠSu": 4602,
      "Ġknown": 4603,
      "ups": 4604,
      "Ġminute": 4605,
      "Ġmicrosc": 4606,
      "ÅĵItÃ¢": 4607,
      "Ġvendor": 4608,
      "ab": 4609,
      "lier": 4610,
      "Ġpopped": 4611,
      "Ġfiref": 4612,
      "Ġcherry": 4613,
      "Ġmicroscope": 4614,
      "case": 4615,
      "Ġwine": 4616,
      "ising": 4617,
      "imi": 4618,
      "igail": 4619,
      "Ġweigh": 4620,
      "Ġrequ": 4621,
      "Ġrooms": 4622,
      "Ġgrill": 4623,
      "Ġletting": 4624,
      "Ġfallen": 4625,
      "Ġapart": 4626,
      "ĠAnnie": 4627,
      "Ġfauc": 4628,
      "Ġpear": 4629,
      "Ġberry": 4630,
      "Ġrefre": 4631,
      "Ġcomplain": 4632,
      "Ġlanguage": 4633,
      "Did": 4634,
      "elcome": 4635,
      "Ġlawn": 4636,
      "estig": 4637,
      "ĠCo": 4638,
      "Ġblackboard": 4639,
      "Ġinvestig": 4640,
      "Ġeasily": 4641,
      "Ġwipe": 4642,
      "Ann": 4643,
      "mm": 4644,
      "Ġbreeze": 4645,
      "inky": 4646,
      "Ġheaded": 4647,
      "Ġquietly": 4648,
      "aggie": 4649,
      "Ġfaucet": 4650,
      "tain": 4651,
      "Ġsince": 4652,
      "Ġcared": 4653,
      "omob": 4654,
      "iday": 4655,
      "Ġthumb": 4656,
      "amb": 4657,
      "Ġcob": 4658,
      "Ġtaller": 4659,
      "Ġentered": 4660,
      "ĠGod": 4661,
      "Ġcrossed": 4662,
      "Ġwhisper": 4663,
      "Ġhappens": 4664,
      "Ġleak": 4665,
      "quito": 4666,
      "Ġpoked": 4667,
      "Ġsque": 4668,
      "Ġchairs": 4669,
      "Ġearlier": 4670,
      "Ġkisses": 4671,
      "Ġrelaxed": 4672,
      "Ġreverse": 4673,
      "Ġautomob": 4674,
      "Ġig": 4675,
      "Ġsuff": 4676,
      "Ġfought": 4677,
      "Ġpur": 4678,
      "atie": 4679,
      "Ġstad": 4680,
      "Ġmusician": 4681,
      "Ġregret": 4682,
      "Ġcrawling": 4683,
      "Ġimprove": 4684,
      "Ġexercise": 4685,
      "Ġigloo": 4686,
      "Ġstadium": 4687,
      "Ġwaste": 4688,
      "ĠIÃ¢": 4689,
      "Ġalarm": 4690,
      "Ġcaring": 4691,
      "Ġchurch": 4692,
      "asis": 4693,
      "Ġdelay": 4694,
      "Ġdresses": 4695,
      "Ġcrash": 4696,
      "Ġapron": 4697,
      "Ġsniffed": 4698,
      "Ġwaffle": 4699,
      "Ġvacation": 4700,
      "Ġrequest": 4701,
      "Ġwigg": 4702,
      "Ġlumber": 4703,
      "chor": 4704,
      "Ġcliff": 4705,
      "Ġfastest": 4706,
      "Ġbalan": 4707,
      "Ġolive": 4708,
      "Ġseparate": 4709,
      "Ġinvestigate": 4710,
      "liday": 4711,
      "web": 4712,
      "yer": 4713,
      "Ġsizes": 4714,
      "ĠTony": 4715,
      "Ġpoke": 4716,
      "Ġholiday": 4717,
      "Ġairpl": 4718,
      "Ġinsect": 4719,
      "'.": 4720,
      "Lisa": 4721,
      "Ġoasis": 4722,
      "Ġsaus": 4723,
      "ĠWho": 4724,
      "Ġvroom": 4725,
      "Ġsurprises": 4726,
      "Ġappro": 4727,
      "Ġsparkle": 4728,
      "Ġpuzzles": 4729,
      "Ġskills": 4730,
      "squito": 4731,
      "Ġcable": 4732,
      "uckily": 4733,
      "Ġmosquito": 4734,
      "Thanks": 4735,
      "Ġscrew": 4736,
      "orses": 4737,
      "Ġshrink": 4738,
      "Ġyogurt": 4739,
      "Ġaer": 4740,
      "ero": 4741,
      "Ġyield": 4742,
      "Ġreaches": 4743,
      "opl": 4744,
      "Ġlotion": 4745,
      "Ġamazement": 4746,
      "Ġdear": 4747,
      "Ġspots": 4748,
      "fortunately": 4749,
      "Ġbouncing": 4750,
      "Ġdestination": 4751,
      "Ġscattered": 4752,
      "Ġcobweb": 4753,
      "Ġaeropl": 4754,
      "iately": 4755,
      "ler": 4756,
      "right": 4757,
      "Ġtucked": 4758,
      "Ġhorses": 4759,
      "ety": 4760,
      "Ġisn": 4761,
      "mediately": 4762,
      "Ġincre": 4763,
      "Ġsupply": 4764,
      "Ġsplashing": 4765,
      "Ġlawyer": 4766,
      "Wait": 4767,
      "was": 4768,
      "Ġrake": 4769,
      "sters": 4770,
      "Ġoranges": 4771,
      "Ġfloat": 4772,
      "Ġmint": 4773,
      "Ġsafety": 4774,
      "Ġtrusted": 4775,
      "Ġdishwas": 4776,
      "Ġdishwasher": 4777,
      "mend": 4778,
      "oral": 4779,
      "Ġunif": 4780,
      "Ġhearts": 4781,
      "Ġmailman": 4782,
      "Ġcollected": 4783,
      "Ġflutter": 4784,
      "Ġyawned": 4785,
      "Ġvehicle": 4786,
      "ives": 4787,
      "Ġpit": 4788,
      "ommend": 4789,
      "ĠitÃ¢": 4790,
      "Ġanchor": 4791,
      "aces": 4792,
      "Ġblueberries": 4793,
      "Ġfloated": 4794,
      "Ġshrugged": 4795,
      "Ġshooting": 4796,
      "Ġsqueeze": 4797,
      "Ġbother": 4798,
      "Ġsaving": 4799,
      "Ġlaught": 4800,
      "Ġrabbits": 4801,
      "Ġcastles": 4802,
      "Ġrecommend": 4803,
      "Ġspending": 4804,
      "ĠBuzz": 4805,
      "Ġmuffin": 4806,
      "Ġautomobile": 4807,
      "Is": 4808,
      "nger": 4809,
      "Ġtut": 4810,
      "Ġtug": 4811,
      "inked": 4812,
      "icing": 4813,
      "place": 4814,
      "Ġpoppy": 4815,
      "ction": 4816,
      "Ġdemand": 4817,
      "ĠRe": 4818,
      "Ġchoice": 4819,
      "Ġexamine": 4820,
      "Ġachie": 4821,
      "omes": 4822,
      "Ġlicks": 4823,
      "raged": 4824,
      "Ġspade": 4825,
      "ops": 4826,
      "âĤ¬.": 4827,
      "Ġquiz": 4828,
      "Ġhurting": 4829,
      "Ġconf": 4830,
      "Ġsparkling": 4831,
      "Ġworms": 4832,
      "Ġcandles": 4833,
      "Ġexperience": 4834,
      "Ġribbon": 4835,
      "ĠJames": 4836,
      "Ġkneel": 4837,
      "Ġstruc": 4838,
      "Ġbookcase": 4839,
      "Ġfollowing": 4840,
      "Ġsqueezed": 4841,
      "Ġuniform": 4842,
      "Ġlaughter": 4843,
      "Ġstructure": 4844,
      "ĠBet": 4845,
      "ĠMimi": 4846,
      "Ġagree": 4847,
      "Ġeaten": 4848,
      "Ġburied": 4849,
      "Ġraz": 4850,
      "Ġremove": 4851,
      "Sammy": 4852,
      "Ġbumped": 4853,
      "Ġpenguin": 4854,
      "Ġpraised": 4855,
      "Ġsigh": 4856,
      "Ġmention": 4857,
      "Ġplates": 4858,
      "Ġbury": 4859,
      "ĠCharlie": 4860,
      "Ġbeans": 4861,
      "Ġinclud": 4862,
      "Ġvideo": 4863,
      "cakes": 4864,
      "Ġsings": 4865,
      "Ġtong": 4866,
      "Ġrise": 4867,
      "Ġplays": 4868,
      "Ġspear": 4869,
      "Ġsnap": 4870,
      "Ġchess": 4871,
      "Ġinstr": 4872,
      "Ġminer": 4873,
      "Ġfuel": 4874,
      "Ġflea": 4875,
      "nies": 4876,
      "sing": 4877,
      "ĊĠ": 4878,
      "Ġsimp": 4879,
      "Ġscooped": 4880,
      "Ġblinked": 4881,
      "Ġhills": 4882,
      "Ġtornado": 4883,
      "Yuck": 4884,
      "Ġwashing": 4885,
      "Ġequ": 4886,
      "Ġsnapped": 4887,
      "Ġunderstanding": 4888,
      "ĠOr": 4889,
      "Ġignore": 4890,
      "Ġringing": 4891,
      "Ġcaptain": 4892,
      "ival": 4893,
      "Ġbattery": 4894,
      "Ġsettled": 4895,
      "Ġdestroyed": 4896,
      "Ġrazor": 4897,
      "Ġdried": 4898,
      "Ġmall": 4899,
      "ionary": 4900,
      "Ġkeeping": 4901,
      "Ġideas": 4902,
      "Ġgrowled": 4903,
      "Ġblankets": 4904,
      "Ġappreciate": 4905,
      "ĠRuby": 4906,
      "Ġtoes": 4907,
      "Ġpalm": 4908,
      "ĠRachel": 4909,
      "Ġadmir": 4910,
      "ictionary": 4911,
      "ib": 4912,
      "Ġfest": 4913,
      "ĠHenry": 4914,
      "ĠMiss": 4915,
      "Ġmanage": 4916,
      "Ġwatches": 4917,
      "Ġglo": 4918,
      "Ġfireplace": 4919,
      "ĠKing": 4920,
      "Ġsits": 4921,
      "Ġenter": 4922,
      "Ġwandered": 4923,
      "ĠClara": 4924,
      "Ġsandcastle": 4925,
      "Ġaeroplane": 4926,
      "Will": 4927,
      "ived": 4928,
      "ĠTed": 4929,
      "Ġmyself": 4930,
      "omeday": 4931,
      "Ġlabel": 4932,
      "Ġbleed": 4933,
      "Peter": 4934,
      "apping": 4935,
      "Ġdictionary": 4936,
      "Ġport": 4937,
      "ĠHarry": 4938,
      "amber": 4939,
      "Ġbravely": 4940,
      "Ġcoats": 4941,
      "Ġmelted": 4942,
      "Ġtide": 4943,
      "Ġyucky": 4944,
      "alley": 4945,
      "Ġjunk": 4946,
      "ĠDanny": 4947,
      "Ġsetting": 4948,
      "Ġjewelry": 4949,
      "Ġstrawberries": 4950,
      "Ġyoga": 4951,
      "Ġoats": 4952,
      "Ġfreezer": 4953,
      "loe": 4954,
      "ring": 4955,
      "Ġtore": 4956,
      "ĠIts": 4957,
      "Ġscore": 4958,
      "Ġroot": 4959,
      "Ġclaws": 4960,
      "uggage": 4961,
      "Ġsneeze": 4962,
      "Ġstomach": 4963,
      "Ġtutor": 4964,
      "Ġluggage": 4965,
      "Ġpages": 4966,
      "Ġpride": 4967,
      "Ġtrade": 4968,
      "Ġclimbs": 4969,
      "Ġgifts": 4970,
      "With": 4971,
      "Ġsomeday": 4972,
      "bey": 4973,
      "ĠSpike": 4974,
      "Ġfloating": 4975,
      "Ġmoments": 4976,
      "Ġplanes": 4977,
      "Ġhits": 4978,
      "Ġvanished": 4979,
      "Ġscratch": 4980,
      "Ġairplane": 4981,
      "Fl": 4982,
      "Ġbeamed": 4983,
      "Ġprop": 4984,
      "Ġappear": 4985,
      "Mandy": 4986,
      "umble": 4987,
      "antly": 4988,
      "Ġbelieved": 4989,
      "Ġbeef": 4990,
      "Ġsub": 4991,
      "Ġrepeat": 4992,
      "Ġstruggling": 4993,
      "rise": 4994,
      "Ġga": 4995,
      "ĠIs": 4996,
      "Ġweap": 4997,
      "Ġblueberry": 4998,
      "Ġburning": 4999,
      "ĠBefore": 5000,
      "Ġtemple": 5001,
      "ah": 5002,
      "ls": 5003,
      "vet": 5004,
      "Ġdire": 5005,
      "Ġitem": 5006,
      "Ġchores": 5007,
      "Ġvalley": 5008,
      "Ġjogging": 5009,
      "emember": 5010,
      "Ġdrain": 5011,
      "Ġelephants": 5012,
      "Ġwhistling": 5013,
      "ĠSteve": 5014,
      "Ġweeks": 5015,
      "Ġtongue": 5016,
      "ĠTina": 5017,
      "ishing": 5018,
      "Ġgear": 5019,
      "Ġnation": 5020,
      "Ġshot": 5021,
      "Ġsport": 5022,
      "Ġimmediately": 5023,
      "Ġcalls": 5024,
      "Ġremain": 5025,
      "ission": 5026,
      "Ġcuddled": 5027,
      "Ġpermission": 5028,
      "Ġfestival": 5029,
      "Ġlily": 5030,
      "lend": 5031,
      "Ġhers": 5032,
      "Ġres": 5033,
      "Ġranch": 5034,
      "Ġchamber": 5035,
      "Ġpoison": 5036,
      "Ġsunrise": 5037,
      "Ġraise": 5038,
      "Ġcrunch": 5039,
      "Ġteaching": 5040,
      "Ġbathe": 5041,
      "house": 5042,
      "iers": 5043,
      "Ġhomes": 5044,
      "Ġpulling": 5045,
      "Ġsteak": 5046,
      "Ġpatiently": 5047,
      "Ġmarbles": 5048,
      "Ġbreathe": 5049,
      "Ġprovide": 5050,
      "Ġhesit": 5051,
      "ĠHave": 5052,
      "uture": 5053,
      "seek": 5054,
      "ĠEach": 5055,
      "aped": 5056,
      "Ġcalend": 5057,
      "Ġpeanuts": 5058,
      "ĠAbigail": 5059,
      "Ġcalendar": 5060,
      "'ve": 5061,
      "osed": 5062,
      "Ġfuture": 5063,
      "Ġstitch": 5064,
      "Ġjazz": 5065,
      "Ġspit": 5066,
      "Ġwarmth": 5067,
      "Ġpaused": 5068,
      "Ġbuckle": 5069,
      "Ġpastel": 5070,
      "Ġcollecting": 5071,
      "Ġticket": 5072,
      "ĠFreddy": 5073,
      "allow": 5074,
      "ipment": 5075,
      "Ġthrilled": 5076,
      "ĠGood": 5077,
      "Ġdifferen": 5078,
      "Ġhotel": 5079,
      "Ġprayed": 5080,
      "Ġapproached": 5081,
      "Ġgust": 5082,
      "Ġshed": 5083,
      "fume": 5084,
      "Ġalright": 5085,
      "Ġtease": 5086,
      "Ġwarning": 5087,
      "Ġencouraged": 5088,
      "Ġchirping": 5089,
      "Ġequipment": 5090,
      "Jen": 5091,
      "Mark": 5092,
      "Tweet": 5093,
      "Ġdaisy": 5094,
      "Ġbegged": 5095,
      "Ġsocks": 5096,
      "Ġshamp": 5097,
      "Ġcoal": 5098,
      "Ġskull": 5099,
      "Ġskipping": 5100,
      "Ġperfume": 5101,
      "Ġanswers": 5102,
      "Ġmissile": 5103,
      "Ġpanic": 5104,
      "Ġearthqu": 5105,
      "Ġpunish": 5106,
      "Ġinsisted": 5107,
      "Ġshampoo": 5108,
      "Ġcakes": 5109,
      "Ġnone": 5110,
      "Ġlick": 5111,
      "Ġrestore": 5112,
      "osity": 5113,
      "Ġsoldiers": 5114,
      "Ġtwisted": 5115,
      "mother": 5116,
      "These": 5117,
      "Ġmeowed": 5118,
      "Ġdoggy": 5119,
      "Ġhardly": 5120,
      "xture": 5121,
      "Ġguy": 5122,
      "Ġrespons": 5123,
      "Ġsolved": 5124,
      "Ġjewels": 5125,
      "Ġreceived": 5126,
      "Ġobserve": 5127,
      "Qu": 5128,
      "Welcome": 5129,
      "Ġlect": 5130,
      "Ġevent": 5131,
      "Ġsore": 5132,
      "Ġlic": 5133,
      "Ġsew": 5134,
      "Ġunite": 5135,
      "Ġreceive": 5136,
      "Ġbricks": 5137,
      "Ġrevealed": 5138,
      "Ġlecture": 5139,
      "Ouch": 5140,
      "fy": 5141,
      "Ġpist": 5142,
      "anna": 5143,
      "Ġbites": 5144,
      "Ġdeeper": 5145,
      "Ġordered": 5146,
      "Ġpistol": 5147,
      "act": 5148,
      "Ġbang": 5149,
      "Ġdigg": 5150,
      "Ġsty": 5151,
      "Ġfasc": 5152,
      "Ġcopper": 5153,
      "Ġcomfy": 5154,
      "Ġparts": 5155,
      "Ġmatches": 5156,
      "Ġpatterns": 5157,
      "Ġrecognized": 5158,
      "Ġrefreshed": 5159,
      "Ġemer": 5160,
      "Ġremained": 5161,
      "Ġworks": 5162,
      "Ġinvite": 5163,
      "ĠCoco": 5164,
      "Ġdigging": 5165,
      "Ġsip": 5166,
      "ities": 5167,
      "Ġrow": 5168,
      "Ġupstairs": 5169,
      "Ġjail": 5170,
      "Ġchir": 5171,
      "ases": 5172,
      "Ġblood": 5173,
      "Johnny": 5174,
      "Ġdrinking": 5175,
      "Ġwarn": 5176,
      "Ġsupposed": 5177,
      "Ġhate": 5178,
      "ĠJul": 5179,
      "Ġracing": 5180,
      "Ġmustache": 5181,
      "Ġdiscovery": 5182,
      "ÅĵThatÃ¢": 5183,
      "ĠPeople": 5184,
      "Ġdiscuss": 5185,
      "Ġgrinned": 5186,
      "Ġchirped": 5187,
      "All": 5188,
      "cc": 5189,
      "sity": 5190,
      "ari": 5191,
      "Ġrush": 5192,
      "Ġwherever": 5193,
      "Ġours": 5194,
      "Ġbookshe": 5195,
      "Ġcircus": 5196,
      "Ġurge": 5197,
      "Ġmeasured": 5198,
      "Ġsimple": 5199,
      "Ġfascin": 5200,
      "\",": 5201,
      "utty": 5202,
      "ĠMay": 5203,
      "Ġgirls": 5204,
      "Ġspill": 5205,
      "ĠLater": 5206,
      "Ġdecision": 5207,
      "Ġsunlight": 5208,
      "Ġmass": 5209,
      "Ġplanted": 5210,
      "Ġgrape": 5211,
      "Ġlicense": 5212,
      "bers": 5213,
      "eed": 5214,
      "lvet": 5215,
      "riger": 5216,
      "Ġeff": 5217,
      "Ġbeg": 5218,
      "aper": 5219,
      "Ġjogged": 5220,
      "Ġreplace": 5221,
      "Ġcrashed": 5222,
      "Ġvelvet": 5223,
      "Ġpigs": 5224,
      "Ġapologize": 5225,
      "Ġrefriger": 5226,
      "Ġbuzzing": 5227,
      "Ġsuffer": 5228,
      "Ġearthquake": 5229,
      "Ġrefrigerator": 5230,
      "Mmm": 5231,
      "Ġbak": 5232,
      "Ġobey": 5233,
      "allen": 5234,
      "ĠEveryday": 5235,
      "Ġglowed": 5236,
      "ĠPenny": 5237,
      "Ġwrites": 5238,
      "Ġactually": 5239,
      "Ġclearing": 5240,
      "oved": 5241,
      "Ġheat": 5242,
      "!\",": 5243,
      "Ġnewsp": 5244,
      "Ġraised": 5245,
      "ÅĵNo": 5246,
      "Ġbringing": 5247,
      "Ġeasier": 5248,
      "Ġselling": 5249,
      "Ġuniversity": 5250,
      "Ġweapon": 5251,
      "Ġdifference": 5252,
      "Sh": 5253,
      "tory": 5254,
      "ĠV": 5255,
      "Ġbill": 5256,
      "Ġhistory": 5257,
      "Ġchallen": 5258,
      "ĠJoy": 5259,
      "Ġrested": 5260,
      "Ġmarching": 5261,
      "Ġbathrobe": 5262,
      "Ġinvit": 5263,
      "Ġawe": 5264,
      "Ġsettle": 5265,
      "Ġcartoons": 5266,
      "Ġbookshelf": 5267,
      "Ġtoe": 5268,
      "oming": 5269,
      "Ġgain": 5270,
      "htray": 5271,
      "Ġashtray": 5272,
      "Ġworse": 5273,
      "Ġlaid": 5274,
      "Ġlets": 5275,
      "Ġturning": 5276,
      "Ġcontinue": 5277,
      "Ġsparkles": 5278,
      "Ġlands": 5279,
      "Before": 5280,
      "Ġdecorations": 5281,
      "Ġprepared": 5282,
      "kins": 5283,
      "Ġbes": 5284,
      "Ġfed": 5285,
      "enty": 5286,
      "Ġwhip": 5287,
      "Ġscur": 5288,
      "Ġflood": 5289,
      "ĠFo": 5290,
      "Ġstrang": 5291,
      "Ġremem": 5292,
      "ĠNot": 5293,
      "Ġcompany": 5294,
      "Ġspoons": 5295,
      "Ġfirefight": 5296,
      "ĠRemy": 5297,
      "Ġdare": 5298,
      "Ġslip": 5299,
      "Ġwatered": 5300,
      "Ġhated": 5301,
      "Ġagreement": 5302,
      "Ġbrick": 5303,
      "Ġmenu": 5304,
      "Ġremembers": 5305,
      "ging": 5306,
      "Ġtremb": 5307,
      "bbled": 5308,
      "Ġproblems": 5309,
      "ude": 5310,
      "Ġsoared": 5311,
      "ĠMilly": 5312,
      "Ġfash": 5313,
      "Ġpossible": 5314,
      "izard": 5315,
      "Ġfamil": 5316,
      "Ġchewed": 5317,
      "irpy": 5318,
      "Ġadmiring": 5319,
      "Ġcrunchy": 5320,
      "Ġmitten": 5321,
      "Ġwanting": 5322,
      "Ġbrus": 5323,
      "Ġattached": 5324,
      "Ġexamined": 5325,
      "Ġtomatoes": 5326,
      "Ġdisagre": 5327,
      "Jake": 5328,
      "Would": 5329,
      "fied": 5330,
      "walk": 5331,
      "Ġweren": 5332,
      "indy": 5333,
      "Ġmonsters": 5334,
      "looking": 5335,
      "Ġsprinkles": 5336,
      "Ġbeside": 5337,
      "Moral": 5338,
      "Ġtip": 5339,
      "ĠLiz": 5340,
      "Ġslice": 5341,
      "Ġfixing": 5342,
      "Ġpracticing": 5343,
      "Ġvillag": 5344,
      "ÅĵIÃ¢": 5345,
      "Ġneighborhood": 5346,
      "Ġpupil": 5347,
      "Ġcurled": 5348,
      "Ġstrangers": 5349,
      "ha": 5350,
      "atch": 5351,
      "Ġrust": 5352,
      "Ġflap": 5353,
      "Ġoper": 5354,
      "Ġgrey": 5355,
      "Ġbrain": 5356,
      "Ġcub": 5357,
      "Ġtrapped": 5358,
      "Ġtracks": 5359,
      "ĠKatie": 5360,
      "Ġmouths": 5361,
      "Really": 5362,
      "Ġgrocery": 5363,
      "Ġsurrounded": 5364,
      "Ġeffort": 5365,
      "Ġnewspaper": 5366,
      "Ex": 5367,
      "cles": 5368,
      "hest": 5369,
      "Ġcal": 5370,
      "Ġonwards": 5371,
      "Ġweight": 5372,
      "ĠDan": 5373,
      "Ġpeel": 5374,
      "Ġwond": 5375,
      "Ġcontain": 5376,
      "Ġcutting": 5377,
      "Ġgloves": 5378,
      "Ro": 5379,
      "Ġwre": 5380,
      "Ġbun": 5381,
      "Ġhanger": 5382,
      "ĠLuna": 5383,
      "Ġflav": 5384,
      "Ġfreeze": 5385,
      "ĠChloe": 5386,
      "Emily": 5387,
      "nie": 5388,
      "xy": 5389,
      "Ġwaist": 5390,
      "Ġduring": 5391,
      "ays": 5392,
      "ora": 5393,
      "Ġspaces": 5394,
      "omething": 5395,
      "Ġperched": 5396,
      "Ġcomple": 5397,
      "Ġsidewalk": 5398,
      "Ġcollection": 5399,
      "Ġsafari": 5400,
      "Ġseats": 5401,
      "Ġguns": 5402,
      "Ġpinched": 5403,
      "Ġescaped": 5404,
      "Ġrides": 5405,
      "Ġmodel": 5406,
      "Ġsubway": 5407,
      "Ġvillagers": 5408,
      "Ġrhy": 5409,
      "asp": 5410,
      "Ġdownstairs": 5411,
      "Ġrained": 5412,
      "Ġtalent": 5413,
      "ĠNutty": 5414,
      "Ġbowed": 5415,
      "Ġbuildings": 5416,
      "Ġpaints": 5417,
      "Ġreminder": 5418,
      "Ġwisdom": 5419,
      "Ġargued": 5420,
      "ĠBubbles": 5421,
      "Ġcostumes": 5422,
      "Ġsausage": 5423,
      "Not": 5424,
      "ĠSund": 5425,
      "aded": 5426,
      "Ġwaits": 5427,
      "Ġdrinks": 5428,
      "Ġwhistled": 5429,
      "Ġintroduc": 5430,
      "Ġfashion": 5431,
      "uing": 5432,
      "Ġwizard": 5433,
      "Ġmister": 5434,
      "ĠBeth": 5435,
      "Ġmudd": 5436,
      "Ġgotten": 5437,
      "Ġzipped": 5438,
      "Ġfiremen": 5439,
      "Ġvisiting": 5440,
      "ĠFloppy": 5441,
      "Ġaccidents": 5442,
      "Ġsliding": 5443,
      "Ġtwigs": 5444,
      "Ġmemory": 5445,
      "Ġpermit": 5446,
      "Fluffy": 5447,
      "Le": 5448,
      "do": 5449,
      "dam": 5450,
      "neath": 5451,
      "Ġx": 5452,
      "Ġsix": 5453,
      "Ġwid": 5454,
      "Ġpitch": 5455,
      "ĠHoppy": 5456,
      "adly": 5457,
      "ĠMaggie": 5458,
      "ĠFro": 5459,
      "Ġpeered": 5460,
      "ĠCat": 5461,
      "thm": 5462,
      "Ġzero": 5463,
      "Ġsteel": 5464,
      "Ġpetted": 5465,
      "Ġpancakes": 5466,
      "Ġprice": 5467,
      "Ġdinosaurs": 5468,
      "Ġmineral": 5469,
      "Ġbleeding": 5470,
      "Ġmuddy": 5471,
      "Ha": 5472,
      "Ġbones": 5473,
      "Ġweighed": 5474,
      "Ġpears": 5475,
      "Ġanytime": 5476,
      "Ġeagle": 5477,
      "Ġmountains": 5478,
      "Ġmeasuring": 5479,
      "Ġbunnies": 5480,
      "Ok": 5481,
      "Sometimes": 5482,
      "Yum": 5483,
      "ided": 5484,
      "Ġsting": 5485,
      "isten": 5486,
      "Ġpearl": 5487,
      "ÅĵThank": 5488,
      "Ġneighbors": 5489,
      "Ġfolded": 5490,
      "ĠChr": 5491,
      "Ġhurric": 5492,
      "reen": 5493,
      "Ġlamb": 5494,
      "Ġnavy": 5495,
      "Ġarea": 5496,
      "Ġbrid": 5497,
      "Ġbrushed": 5498,
      "Ġchef": 5499,
      "Ġvoices": 5500,
      "Ġshopping": 5501,
      "avi": 5502,
      "ĠOl": 5503,
      "Ġscratched": 5504,
      "Ġgrandmother": 5505,
      "Ġencourage": 5506,
      "Ġpadd": 5507,
      "Ġprune": 5508,
      "Ġbrings": 5509,
      "Ġmeow": 5510,
      "Ġdecides": 5511,
      "Ġbeds": 5512,
      "Ġswims": 5513,
      "Ġpets": 5514,
      "Ġbottles": 5515,
      "ĠSomeone": 5516,
      "Ġpillows": 5517,
      "Ġguessed": 5518,
      "Ġpedal": 5519,
      "Ġmassage": 5520,
      "Ġwonders": 5521,
      "!'": 5522,
      "ĠOnce": 5523,
      "Ġlung": 5524,
      "Ġripped": 5525,
      "riage": 5526,
      "Ġleather": 5527,
      "Ġsnowball": 5528,
      "Ġsecrets": 5529,
      "Ġcomforted": 5530,
      "Ġinvitation": 5531,
      "Ġhurricane": 5532,
      "cage": 5533,
      "mare": 5534,
      "son": 5535,
      "ides": 5536,
      "amie": 5537,
      "Ġhappiest": 5538,
      "ĠMat": 5539,
      "terday": 5540,
      "ica": 5541,
      "Ġbirdcage": 5542,
      "Ġrang": 5543,
      "Ġoverjoy": 5544,
      "ĠPoppy": 5545,
      "ĠLetÃ¢": 5546,
      "Ġcatching": 5547,
      "ĠChirpy": 5548,
      "ĠAnne": 5549,
      "Ġcuddle": 5550,
      "Ġornament": 5551,
      "ĠSuzy": 5552,
      "Ġfascinated": 5553,
      "Ġdisagreed": 5554,
      "Ġoverjoyed": 5555,
      "cious": 5556,
      "Ġscoop": 5557,
      "ĠLucky": 5558,
      "Ġstruck": 5559,
      "Ġglitter": 5560,
      "Ġunderground": 5561,
      "Ġstole": 5562,
      "Ġmarkers": 5563,
      "Ġzooming": 5564,
      "Ġwaffles": 5565,
      "Ready": 5566,
      "Ġinstruct": 5567,
      "Ġstyle": 5568,
      "Ġoperation": 5569,
      "xygen": 5570,
      "Ġrhythm": 5571,
      "Or": 5572,
      "ĠThese": 5573,
      "igz": 5574,
      "Ġpretti": 5575,
      "Ġsnail": 5576,
      "Ġkindly": 5577,
      "Ġpupp": 5578,
      "Ġbrand": 5579,
      "Ġnightmare": 5580,
      "Ġactiv": 5581,
      "ĠHowever": 5582,
      "Ġsneezed": 5583,
      "Ġrecognize": 5584,
      "Ġbridges": 5585,
      "Ġprettiest": 5586,
      "First": 5587,
      "Ġrele": 5588,
      "Ġexact": 5589,
      "Ġeveryday": 5590,
      "Ġblouse": 5591,
      "Ġvowed": 5592,
      "Ġteasp": 5593,
      "Ġrail": 5594,
      "Ġcones": 5595,
      "Ġtastes": 5596,
      "Ġdrift": 5597,
      "Ġsatis": 5598,
      "Ġwooden": 5599,
      "Ġdoctors": 5600,
      "laire": 5601,
      "Ġhurried": 5602,
      "Ġsucceeded": 5603,
      "Ġdisturbed": 5604,
      "Ġtravell": 5605,
      "ĠBetsy": 5606,
      "Ġteaspoon": 5607,
      "Susie": 5608,
      "mble": 5609,
      "oed": 5610,
      "Ġtugged": 5611,
      "Ġbare": 5612,
      "ĠMe": 5613,
      "Ġcontro": 5614,
      "Ġpiles": 5615,
      "Ġstudied": 5616,
      "Ġbillboard": 5617,
      "ĠSunday": 5618,
      "gers": 5619,
      "Ġoxygen": 5620,
      "etch": 5621,
      "Ġstruggled": 5622,
      "Ġimage": 5623,
      "Ġbye": 5624,
      "aster": 5625,
      "ÅĵLook": 5626,
      "Ġkeeps": 5627,
      "Ġcrept": 5628,
      "Ġtune": 5629,
      "Ġacorns": 5630,
      "Ġmuffins": 5631,
      "Ġlips": 5632,
      "ĠSharing": 5633,
      "Ġitems": 5634,
      "rin": 5635,
      "uke": 5636,
      "Ġlines": 5637,
      "Ġcaut": 5638,
      "ĠSomething": 5639,
      "Ġtremble": 5640,
      "anta": 5641,
      "Ġunderneath": 5642,
      "ÅĵDon": 5643,
      "Ġladyb": 5644,
      "Ġperfor": 5645,
      "Ġplanned": 5646,
      "Ġserved": 5647,
      "Ġbloomed": 5648,
      "Ġincluded": 5649,
      "Ġspaceship": 5650,
      "Happy": 5651,
      "len": 5652,
      "uzz": 5653,
      "imy": 5654,
      "Ġloving": 5655,
      "Ġofficer": 5656,
      "avid": 5657,
      "Ġsuitc": 5658,
      "Ġparked": 5659,
      "Ġscreams": 5660,
      "Ġtickets": 5661,
      "Ġsoaring": 5662,
      "Ġmentioned": 5663,
      "Ġresponsible": 5664,
      "Ġbegin": 5665,
      "ding": 5666,
      "Ġwagging": 5667,
      "Ġbeat": 5668,
      "Ġbeard": 5669,
      "ĠItÃ¢": 5670,
      "Ġsorting": 5671,
      "ÅĵWe": 5672,
      "Ġkeeper": 5673,
      "Ġcreation": 5674,
      "ffic": 5675,
      "Ġtraffic": 5676,
      "Ġlandsc": 5677,
      "Ġneighbourhood": 5678,
      "Ġcompleted": 5679,
      "Luckily": 5680,
      "Ġtonight": 5681,
      "ĠTiny": 5682,
      "Ġeight": 5683,
      "Ġeats": 5684,
      "Ġhonk": 5685,
      "Ġsights": 5686,
      "Ġshivered": 5687,
      "Ġpotatoes": 5688,
      "Ġolives": 5689,
      "Dave": 5690,
      "Rex": 5691,
      "Remember": 5692,
      "Ġdied": 5693,
      "Ġgained": 5694,
      "Ġbend": 5695,
      "Ġcuriosity": 5696,
      "Ġemergen": 5697,
      "Ġscurried": 5698,
      "Ġintroduced": 5699,
      "Ġinstructions": 5700,
      "Ġvent": 5701,
      "Ġprecious": 5702,
      "izing": 5703,
      "Ġpaintings": 5704,
      "Andy": 5705,
      "Ġdecorated": 5706,
      "Ġuniverse": 5707,
      ".'": 5708,
      "George": 5709,
      "Ġnicer": 5710,
      "Ġago": 5711,
      "Ġwhatever": 5712,
      "Ġrealize": 5713,
      "Ġsteep": 5714,
      "ĠJenna": 5715,
      "Ġaccom": 5716,
      "Ġmachines": 5717,
      "Ġmovies": 5718,
      "Ġcompetition": 5719,
      "Ġshadows": 5720,
      "Ġprunes": 5721,
      "Ġexactly": 5722,
      "Ġsi": 5723,
      "Ġann": 5724,
      "Ġrocked": 5725,
      "Ġdraws": 5726,
      "Ġguest": 5727,
      "Ġprotected": 5728,
      "Ġsolut": 5729,
      "uctantly": 5730,
      "igzag": 5731,
      "Ġlandscape": 5732,
      "ux": 5733,
      "zen": 5734,
      "Ġsadness": 5735,
      "Ġslapped": 5736,
      "Ġowned": 5737,
      "ĠRa": 5738,
      "Ġbeha": 5739,
      "Ġprinter": 5740,
      "Ġfrosting": 5741,
      "Ġbeneath": 5742,
      "Ġpowers": 5743,
      "Ġintroduce": 5744,
      "lowly": 5745,
      "Ġproperly": 5746,
      "Ġwreck": 5747,
      "uxu": 5748,
      "Mar": 5749,
      "bies": 5750,
      "Ġbank": 5751,
      "ĠSunny": 5752,
      "Ġinch": 5753,
      "bert": 5754,
      "ĠJosh": 5755,
      "Ġshoulders": 5756,
      "Ġyelling": 5757,
      "Ġcontest": 5758,
      "Ġpouring": 5759,
      "Ġlemons": 5760,
      "Ġlibrarian": 5761,
      "Ġstealing": 5762,
      "âĤ¬âĢĿ": 5763,
      "Ġrubbing": 5764,
      "Ġpenguins": 5765,
      "Ġreleased": 5766,
      "Ye": 5767,
      "ales": 5768,
      "Ġluxu": 5769,
      "ĠTw": 5770,
      "Ġweb": 5771,
      "Ġknelt": 5772,
      "ĠRob": 5773,
      "Ġruin": 5774,
      "Ġbabies": 5775,
      "Ġsisters": 5776,
      "iggy": 5777,
      "Ġmixing": 5778,
      "Ġkeys": 5779,
      "ĠOllie": 5780,
      "Ġgathering": 5781,
      "Ġtwirling": 5782,
      "Ġsilence": 5783,
      "Ġurged": 5784,
      "fit": 5785,
      "hins": 5786,
      "rr": 5787,
      "ashed": 5788,
      "Ġstruggle": 5789,
      "Ġpurred": 5790,
      "Ġcontrol": 5791,
      "omas": 5792,
      "Ġtheirs": 5793,
      "Ġsorted": 5794,
      "Ġforgi": 5795,
      "Joey": 5796,
      "Ġfrozen": 5797,
      "Ġreluctantly": 5798,
      "Ġunlocked": 5799,
      "Ġcrackers": 5800,
      "Ġfireworks": 5801,
      "Ġbarely": 5802,
      "Ġaccompl": 5803,
      "mel": 5804,
      "Ġsides": 5805,
      "Ġmice": 5806,
      "ishes": 5807,
      "Ġsoak": 5808,
      "ĠBir": 5809,
      "Ġshock": 5810,
      "Ġoutdo": 5811,
      "Ġexit": 5812,
      "Ġbudge": 5813,
      "ĠCar": 5814,
      "Ġdragged": 5815,
      "Ġcrumb": 5816,
      "Ġmuscles": 5817,
      "Ġspiders": 5818,
      "Ġpunished": 5819,
      "Ġstripes": 5820,
      "Ġchallenge": 5821,
      "Teddy": 5822,
      "iar": 5823,
      "Ġdam": 5824,
      "Ġloose": 5825,
      "Ġoutfit": 5826,
      "ĠAn": 5827,
      "ÅĵCan": 5828,
      "Ġpastels": 5829,
      "Ġbouncy": 5830,
      "Ġdolphins": 5831,
      "ĠFrank": 5832,
      "Ġrepeated": 5833,
      "Ġachieve": 5834,
      "zing": 5835,
      "Ġ1": 5836,
      "ĠHop": 5837,
      "ppers": 5838,
      "Ġranger": 5839,
      "agull": 5840,
      "ĠFirst": 5841,
      "Ġopin": 5842,
      "thank": 5843,
      "though": 5844,
      "Ġwaiter": 5845,
      "Ġbreaking": 5846,
      "Ġprinted": 5847,
      "Ġwinning": 5848,
      "Ġpockets": 5849,
      "Ġexpect": 5850,
      "Ġexpected": 5851,
      "Ġroads": 5852,
      "Ġroaring": 5853,
      "Ġfigured": 5854,
      "ĠZoe": 5855,
      "Ġemergency": 5856,
      "rance": 5857,
      "Ġthro": 5858,
      "Ġlied": 5859,
      "Ġchases": 5860,
      "Ġbecoming": 5861,
      "bbing": 5862,
      "Ġbuckets": 5863,
      "Ġmission": 5864,
      "ĠStop": 5865,
      "Ġpoliceman": 5866,
      "uesday": 5867,
      "Ġbrushes": 5868,
      "Ġthroat": 5869,
      "ien": 5870,
      "shing": 5871,
      "edding": 5872,
      "ĠTuesday": 5873,
      "ĠBig": 5874,
      "Ġseagull": 5875,
      "Ġclick": 5876,
      "ĠDid": 5877,
      "Ġpeaches": 5878,
      "Ġslimy": 5879,
      "ĠletÃ¢": 5880,
      "Ġwondering": 5881,
      "Ġplanets": 5882,
      "Ġentire": 5883,
      "Ġstirring": 5884,
      "Ġscreaming": 5885,
      "Ġclaps": 5886,
      "Ġdiscovering": 5887,
      "Ġcamping": 5888,
      "Ġcrowd": 5889,
      "ĠUncle": 5890,
      "Kitty": 5891,
      "pected": 5892,
      "Ġwest": 5893,
      "Ġtour": 5894,
      "Ġpies": 5895,
      "ĠLike": 5896,
      "Ġsnugg": 5897,
      "Ġsitu": 5898,
      "Ġstaring": 5899,
      "Ġstretching": 5900,
      "Ġsneaked": 5901,
      "Ġapplauded": 5902,
      "Ġincrease": 5903,
      "Ġguys": 5904,
      "ÅĵDonÃ¢": 5905,
      "Bella": 5906,
      "Un": 5907,
      "ĠJan": 5908,
      "Ġhomework": 5909,
      "Ġhowever": 5910,
      "ĠCindy": 5911,
      "Ġunex": 5912,
      "Ġseesaw": 5913,
      "Ġacted": 5914,
      "Ġspraying": 5915,
      "Ġcountryside": 5916,
      "Ġbalancing": 5917,
      "Ġsiren": 5918,
      "Ġunexpected": 5919,
      "die": 5920,
      "zie": 5921,
      "Ġboo": 5922,
      "Ġfart": 5923,
      "itely": 5924,
      "Ġda": 5925,
      "lee": 5926,
      "Ġworries": 5927,
      "Ġgoodnight": 5928,
      "Ġtouching": 5929,
      "Ġhighest": 5930,
      "Ġgiggling": 5931,
      "Goodbye": 5932,
      "ĠAlways": 5933,
      "Ġconfident": 5934,
      "Ġtrembling": 5935,
      "Ġcautious": 5936,
      "Ġsuitcase": 5937,
      "Ġoutdoors": 5938,
      "James": 5939,
      "Mr": 5940,
      "Pete": 5941,
      "bric": 5942,
      "jam": 5943,
      "ern": 5944,
      "Ġheel": 5945,
      "Ġmittens": 5946,
      "ĠSanta": 5947,
      "Ġallow": 5948,
      "Ġfabric": 5949,
      "Ġteasing": 5950,
      "Ġbroom": 5951,
      "Ġourselves": 5952,
      "ults": 5953,
      "Ġmarriage": 5954,
      "Ġpassing": 5955,
      "Ġscru": 5956,
      "Ġleader": 5957,
      "ĠUnfortunately": 5958,
      "Ġdemanded": 5959,
      "Ġsighs": 5960,
      "Ġladybug": 5961,
      "jamas": 5962,
      "hell": 5963,
      "Ġcape": 5964,
      "ĠTilly": 5965,
      "Ġplenty": 5966,
      "Ġscra": 5967,
      "Ġmatching": 5968,
      "Ġrainbows": 5969,
      "Ġentrance": 5970,
      "Ġsupplies": 5971,
      "Ġshivering": 5972,
      "Ġnails": 5973,
      "Ġdirection": 5974,
      "annah": 5975,
      "Ġluxury": 5976,
      "Ella": 5977,
      "Henry": 5978,
      "Mike": 5979,
      "Mittens": 5980,
      "vers": 5981,
      "Ġripe": 5982,
      "Ġstare": 5983,
      "Ġrelease": 5984,
      "inda": 5985,
      "Ġflat": 5986,
      "Ġvict": 5987,
      "ĠDavid": 5988,
      "Ġgrant": 5989,
      "ĠGr": 5990,
      "Ġsweets": 5991,
      "Ġbaked": 5992,
      "ulu": 5993,
      "Ġreaching": 5994,
      "Ġwinner": 5995,
      "Ġcompletely": 5996,
      "ĠJulie": 5997,
      "Ġsatisfied": 5998,
      "Ġsolution": 5999,
      "dies": 6000,
      "Ġmater": 6001,
      "essie": 6002,
      "aky": 6003,
      "Ġgreet": 6004,
      "Ġtexture": 6005,
      "Ġrestored": 6006,
      "Ġcuts": 6007,
      "...": 6008,
      "Ġtwinkling": 6009,
      "Ġmateri": 6010,
      "Ah": 6011,
      "Lola": 6012,
      "nes": 6013,
      "Ġti": 6014,
      "Ġwedding": 6015,
      "Ġheav": 6016,
      "ĠBy": 6017,
      "ĠLizzy": 6018,
      "ason": 6019,
      "Ġpoking": 6020,
      "ĠPip": 6021,
      "aced": 6022,
      "Ġsweeties": 6023,
      "Ġproject": 6024,
      "Ġcurly": 6025,
      "Ġsurface": 6026,
      "Ġcurtains": 6027,
      "Ġseason": 6028,
      "ĠJessie": 6029,
      "Ġbalanced": 6030,
      "Ġresult": 6031,
      "ody": 6032,
      "vin": 6033,
      "ĠYes": 6034,
      "Ġbunch": 6035,
      "Ġfara": 6036,
      "Ġge": 6037,
      "Ġeast": 6038,
      "ĠJon": 6039,
      "aren": 6040,
      "Ġsnakes": 6041,
      "ÅĵHello": 6042,
      "Ġwritten": 6043,
      "Ġpajamas": 6044,
      "Ġsinger": 6045,
      "ĠDolly": 6046,
      "Ġrolls": 6047,
      "Ġpastries": 6048,
      "Ġinterest": 6049,
      "Ġrescued": 6050,
      "Ġloaded": 6051,
      "cuse": 6052,
      "lowers": 6053,
      "Ġquacked": 6054,
      "Ġfaraway": 6055,
      "uly": 6056,
      "Ġwound": 6057,
      "ednes": 6058,
      "ĠSlowly": 6059,
      "ĠMad": 6060,
      "ĠJe": 6061,
      "Ġcomm": 6062,
      "Ġforehead": 6063,
      "Ġunited": 6064,
      "acob": 6065,
      "Ġzigzag": 6066,
      "Ġpolishing": 6067,
      "Ġmarker": 6068,
      "ĠOut": 6069,
      "Ġprayer": 6070,
      "Ġhorns": 6071,
      "Ġmelting": 6072,
      "Ġrecorded": 6073,
      "Ġstudying": 6074,
      "Ġtasks": 6075,
      "Ġpaddle": 6076,
      "Ġinclude": 6077,
      "Ġburrow": 6078,
      "Ġdisagree": 6079,
      "Ġkneeled": 6080,
      "Leo": 6081,
      "ednesday": 6082,
      "Paul": 6083,
      "ĠQu": 6084,
      "Ġboom": 6085,
      "ĠWednesday": 6086,
      "Ġflames": 6087,
      "Ġstrings": 6088,
      "ÅĵThis": 6089,
      "Ġcreating": 6090,
      "Ġmatched": 6091,
      "Ġdeser": 6092,
      "Ġtrips": 6093,
      "Ġcrabs": 6094,
      "Ġmagnets": 6095,
      "Ġshelves": 6096,
      "Excuse": 6097,
      "eep": 6098,
      "ĠSure": 6099,
      "Ġstair": 6100,
      "icorn": 6101,
      "Ġcatches": 6102,
      "Ġslap": 6103,
      "Ġbravery": 6104,
      "Ġunicorn": 6105,
      "Ġtowels": 6106,
      "Ġkicking": 6107,
      "Ġcheering": 6108,
      "ophia": 6109,
      "Ġvanish": 6110,
      "Ġdusty": 6111,
      "Ġphotos": 6112,
      "Bun": 6113,
      "pe": 6114,
      "Ëľ": 6115,
      "Ġwink": 6116,
      "Ġdent": 6117,
      "ena": 6118,
      "igi": 6119,
      "une": 6120,
      "Ġstartled": 6121,
      "âĤ¬Ëľ": 6122,
      "Ġchat": 6123,
      "Ġblink": 6124,
      "Ġpebbles": 6125,
      "ledge": 6126,
      "Ġbedtime": 6127,
      "Ġreplaced": 6128,
      "Ġsingle": 6129,
      "Ġdragons": 6130,
      "Ġmotion": 6131,
      "However": 6132,
      "Ġpencils": 6133,
      "Ġbumps": 6134,
      "Ġstamps": 6135,
      "Ġweeping": 6136,
      "Ġitchy": 6137,
      "Ġornaments": 6138,
      "Ġgazed": 6139,
      "Ġventured": 6140,
      "Fred": 6141,
      "go": 6142,
      "hee": 6143,
      "Ġsway": 6144,
      "Ġfetch": 6145,
      "irm": 6146,
      "ĠBird": 6147,
      "ĠBye": 6148,
      "ĠAdam": 6149,
      "Ġhugging": 6150,
      "Ġknowledge": 6151,
      "Ġtruly": 6152,
      "Ġworker": 6153,
      "Ġcracked": 6154,
      "Ġbuying": 6155,
      "Ġhealed": 6156,
      "Ġmisses": 6157,
      "Ġarguing": 6158,
      "Annie": 6159,
      "Ġregretted": 6160,
      "Alex": 6161,
      "cers": 6162,
      "reat": 6163,
      "ayla": 6164,
      "ĠFor": 6165,
      "ĠClaire": 6166,
      "Ġremoved": 6167,
      "ÅĵMommy": 6168,
      "Ġwrist": 6169,
      "Ġfoods": 6170,
      "Ġtractor": 6171,
      "Ġrainco": 6172,
      "Ġsticking": 6173,
      "Ġusually": 6174,
      "Ġprints": 6175,
      "Ġdrives": 6176,
      "ĠwasnÃ¢": 6177,
      "Ġpolished": 6178,
      "angled": 6179,
      "Ġpatience": 6180,
      "Ġrelief": 6181,
      "Ġrockets": 6182,
      "Ġtickle": 6183,
      "Ġcovers": 6184,
      "Ġsandcastles": 6185,
      "Ġactivities": 6186,
      "Ġfarther": 6187,
      "Ġraincoat": 6188,
      "Fr": 6189,
      "Mrs": 6190,
      "boo": 6191,
      "cope": 6192,
      "iles": 6193,
      "Ġrumble": 6194,
      "Ġstern": 6195,
      "Ġshined": 6196,
      "Ġcans": 6197,
      "ĠJamie": 6198,
      "Ġroots": 6199,
      "ĠPipp": 6200,
      "Ġexplorers": 6201,
      "Ġstolen": 6202,
      "Ġusual": 6203,
      "ĠNick": 6204,
      "Ġopening": 6205,
      "Afterwards": 6206,
      "Ġgrowling": 6207,
      "hog": 6208,
      "Ġchewing": 6209,
      "Ġflags": 6210,
      "Ġpeeking": 6211,
      "Grandpa": 6212,
      "Ġstrike": 6213,
      "Ġobserved": 6214,
      "ĠChrist": 6215,
      "ĠRabbit": 6216,
      "melia": 6217,
      "lings": 6218,
      "you": 6219,
      "int": 6220,
      "Ġcent": 6221,
      "Ġpout": 6222,
      "ĠSadly": 6223,
      "ords": 6224,
      "ĠLarry": 6225,
      "usted": 6226,
      "ÅĵOh": 6227,
      "Ġsmiley": 6228,
      "Ġuses": 6229,
      "Ġyells": 6230,
      "Ġpartic": 6231,
      "Ġthreat": 6232,
      "Ġcoloured": 6233,
      "Ġglasses": 6234,
      "Ġtraveled": 6235,
      "Yeah": 6236,
      "Millie": 6237,
      "Sandy": 6238,
      "Ġbumpy": 6239,
      "Ġrisk": 6240,
      "Ġyouth": 6241,
      "Ġspike": 6242,
      "opes": 6243,
      "Ġfault": 6244,
      "Ġchips": 6245,
      "Ġfoc": 6246,
      "Ġsnat": 6247,
      "Ġrocking": 6248,
      "Ġruler": 6249,
      "Ġgrowl": 6250,
      "Ġcelebration": 6251,
      "Ġherbs": 6252,
      "abel": 6253,
      "Ġfirefighters": 6254,
      "ĠMatt": 6255,
      "mas": 6256,
      "per": 6257,
      "rious": 6258,
      "indr": 6259,
      "Ġchuck": 6260,
      "asm": 6261,
      "ĠCarl": 6262,
      "Ġraindr": 6263,
      "ÅĵWhy": 6264,
      "Ġstaying": 6265,
      "oys": 6266,
      "Ġowners": 6267,
      "Ġteaches": 6268,
      "Ġdesert": 6269,
      "Ġvalued": 6270,
      "Ġtickled": 6271,
      "Ġsilent": 6272,
      "Ġfreed": 6273,
      "Ġseems": 6274,
      "Ġsquares": 6275,
      "Ġrubs": 6276,
      "Ġhedgehog": 6277,
      "Ġimproved": 6278,
      "ĠRover": 6279,
      "Ġseashell": 6280,
      "Ġsquealed": 6281,
      "Ġcrumbs": 6282,
      "Ġvictory": 6283,
      "jo": 6284,
      "Ġdipped": 6285,
      "oni": 6286,
      "Ġsobbed": 6287,
      "ĠChe": 6288,
      "ĠPl": 6289,
      "ĠPinky": 6290,
      "Ġlistens": 6291,
      "ĠThomas": 6292,
      "Ġrule": 6293,
      "Ġyesterday": 6294,
      "Ġcreamy": 6295,
      "Ġpatted": 6296,
      "Ġfuzzy": 6297,
      "Ġtemper": 6298,
      "Ġparticular": 6299,
      "Sophie": 6300,
      "Ġtodd": 6301,
      "Ġfirm": 6302,
      "Ġden": 6303,
      "aty": 6304,
      "Ġbead": 6305,
      "Ġexha": 6306,
      "ĠWater": 6307,
      "Ġlap": 6308,
      "ĠLuckily": 6309,
      "ĠLinda": 6310,
      "ĠLulu": 6311,
      "bbly": 6312,
      "Ġpeppers": 6313,
      "Ġcoloring": 6314,
      "ĠGreen": 6315,
      "Ġcaused": 6316,
      "ĠLeave": 6317,
      "Ġadding": 6318,
      "Ġwandering": 6319,
      "Ġwiggled": 6320,
      "Ġfamilies": 6321,
      "ĠChristmas": 6322,
      "Bobby": 6323,
      "Cl": 6324,
      "Polly": 6325,
      "oh": 6326,
      "hello": 6327,
      "Ġcash": 6328,
      "iding": 6329,
      "ences": 6330,
      "ĠĊĠ": 6331,
      "opsy": 6332,
      "ĠGigi": 6333,
      "Ġworkers": 6334,
      "ĠEmmy": 6335,
      "Ġwinked": 6336,
      "Ġsafer": 6337,
      "Ġreveal": 6338,
      "Ġtwinkle": 6339,
      "Ġgaze": 6340,
      "Ġopinion": 6341,
      "Ġsituation": 6342,
      "Ġraindrops": 6343,
      "pite": 6344,
      "Ġast": 6345,
      "Ġcous": 6346,
      "Ġdared": 6347,
      "Ġpause": 6348,
      "isies": 6349,
      "esome": 6350,
      "Ġech": 6351,
      "ĠBoth": 6352,
      "Ġnect": 6353,
      "ĠMany": 6354,
      "ĠcanÃ¢": 6355,
      "Ġfaced": 6356,
      "Ġchoo": 6357,
      "Ġneedles": 6358,
      "itches": 6359,
      "Ġresting": 6360,
      "Ġarrive": 6361,
      "Ġagrees": 6362,
      "Ġpacking": 6363,
      "Ġactions": 6364,
      "ĠOwl": 6365,
      "Bobo": 6366,
      "Grace": 6367,
      "Ġunpacked": 6368,
      "ĠJessica": 6369,
      "Ġdaisies": 6370,
      "Ġexhausted": 6371,
      "Ġnectar": 6372,
      "Fine": 6373,
      "Uh": 6374,
      "band": 6375,
      "eke": 6376,
      "fl": 6377,
      "Ġtim": 6378,
      "Ġaff": 6379,
      "Ġlined": 6380,
      "Ġcough": 6381,
      "Ġwasted": 6382,
      "ley": 6383,
      "ĠyouÃ¢": 6384,
      "Ġgoals": 6385,
      "urry": 6386,
      "Ġmane": 6387,
      "Ġswooped": 6388,
      "ĠFriend": 6389,
      "Ġdeli": 6390,
      "ĠNan": 6391,
      "oline": 6392,
      "Ġbowls": 6393,
      "Ġinviting": 6394,
      "Ġpleasure": 6395,
      "Ġnetwork": 6396,
      "Ġawesome": 6397,
      "Ġjackets": 6398,
      "Ġdelivered": 6399,
      "Ġscrubbed": 6400,
      "Ġtemperature": 6401,
      "Days": 6402,
      "Rose": 6403,
      "njoy": 6404,
      "Ġcause": 6405,
      "arter": 6406,
      "immer": 6407,
      "Ġliqu": 6408,
      "Ġsmarter": 6409,
      "Ġrobb": 6410,
      "ongo": 6411,
      "ĠSpark": 6412,
      "Ġbehavi": 6413,
      "Ġreads": 6414,
      "Ġdarkness": 6415,
      "Ġfairies": 6416,
      "Ġmarked": 6417,
      "Ġwarri": 6418,
      "Ġspeaking": 6419,
      "Ġblooming": 6420,
      "Ġcopy": 6421,
      "Ġhallway": 6422,
      "Ġgroceries": 6423,
      "Ġliquid": 6424,
      "udy": 6425,
      "Ġwow": 6426,
      "eds": 6427,
      "Ġhi": 6428,
      "Ġpiggy": 6429,
      "ĠSus": 6430,
      "ĠHappy": 6431,
      "Ġsoaked": 6432,
      "Ġwears": 6433,
      "Ġscales": 6434,
      "Ġfever": 6435,
      "ĠLuke": 6436,
      "Ġknees": 6437,
      "Ġimportance": 6438,
      "uggles": 6439,
      "Ġprincesses": 6440,
      "Ġreply": 6441,
      "Ġblows": 6442,
      "ĠSnuggles": 6443,
      "Ġwires": 6444,
      "Ġachieved": 6445,
      "ĠFollow": 6446,
      "Ġcalmed": 6447,
      "Ġdrifted": 6448,
      "Ġcautiously": 6449,
      "Ġsnatched": 6450,
      "Maggie": 6451,
      "ĠĠĊ": 6452,
      "Ġty": 6453,
      "irts": 6454,
      "Ġstem": 6455,
      "Ġseven": 6456,
      "ĠJones": 6457,
      "Ġsomebody": 6458,
      "ĠEls": 6459,
      "Ġyourselves": 6460,
      "ĠwouldnÃ¢": 6461,
      "Ġcowb": 6462,
      "izzie": 6463,
      "Ġleading": 6464,
      "Ġribbons": 6465,
      "Ġrecommended": 6466,
      "Ġinterested": 6467,
      "Ġchuckled": 6468,
      "Ġbeads": 6469,
      "Ġdelivery": 6470,
      "ossible": 6471,
      "Ġsense": 6472,
      "Ġbars": 6473,
      "Ġglee": 6474,
      "Ġspong": 6475,
      "ĠJay": 6476,
      "Ġswirl": 6477,
      "Ġtwin": 6478,
      "emma": 6479,
      "Ġimpossible": 6480,
      "boat": 6481,
      "Ġpots": 6482,
      "ĠOw": 6483,
      "Ġmasks": 6484,
      "ÅĵWhatÃ¢": 6485,
      "Ġfluttered": 6486,
      "Ġbakery": 6487,
      "Ġsnowballs": 6488,
      "Ġdentist": 6489,
      "mies": 6490,
      "Ġmes": 6491,
      "ĠTess": 6492,
      "igning": 6493,
      "Ġrip": 6494,
      "Ġkites": 6495,
      "Ġlosing": 6496,
      "Ġremote": 6497,
      "Ġbadge": 6498,
      "Ġdreamt": 6499,
      "Ġnaps": 6500,
      "Ġnapkins": 6501,
      "Ġorganizing": 6502,
      "Ġwipes": 6503,
      "ĠZoom": 6504,
      "Ġknights": 6505,
      "Ġhelmets": 6506,
      "Ġtempt": 6507,
      "Ġstroll": 6508,
      "Ġstroked": 6509,
      "Ġpaddled": 6510,
      "Ġforgiven": 6511,
      "Ġmesmer": 6512,
      "Harry": 6513,
      "ik": 6514,
      "Ġlimes": 6515,
      "ĠAbbie": 6516,
      "ĠElly": 6517,
      "usband": 6518,
      "Ġlearns": 6519,
      "Ġjoking": 6520,
      "Ġcloses": 6521,
      "Ġfroze": 6522,
      "ĠJohnson": 6523,
      "Ġpointy": 6524,
      "Ġsecure": 6525,
      "ĠBeing": 6526,
      "Ġawake": 6527,
      "Ġpedals": 6528,
      "Ġbaker": 6529,
      "Ġannoy": 6530,
      "Unfortunately": 6531,
      "Ġcashier": 6532,
      "mallow": 6533,
      "Ġopp": 6534,
      "arling": 6535,
      "Ġbelly": 6536,
      "Ġcolored": 6537,
      "Ġhider": 6538,
      "Ġprotecting": 6539,
      "Ġpassen": 6540,
      "Ġsplashes": 6541,
      "Ġdetermination": 6542,
      "Ġseeker": 6543,
      "Ġfilling": 6544,
      "Ġradishes": 6545,
      "arshmallow": 6546,
      "Ġstomped": 6547,
      "ĠSuzie": 6548,
      "Tweety": 6549,
      "Ab": 6550,
      "ĠY": 6551,
      "ĠSorry": 6552,
      "Ġinsp": 6553,
      "ades": 6554,
      "ĠAmelia": 6555,
      "Ġnoses": 6556,
      "ĠMomo": 6557,
      "ĠPut": 6558,
      "Ġdeal": 6559,
      "Ġstorekeeper": 6560,
      "ĠDoggy": 6561,
      "Ġtallest": 6562,
      "Ġmuscle": 6563,
      "Ġtails": 6564,
      "Ġsigned": 6565,
      "Ġscaring": 6566,
      "Ġscarves": 6567,
      "Ġcandies": 6568,
      "Ġleaning": 6569,
      "Ġgiraff": 6570,
      "Ġobjects": 6571,
      "Ġsneaky": 6572,
      "Ġaccomplish": 6573,
      "Ġtipt": 6574,
      "Ġwarrior": 6575,
      "Ġsponge": 6576,
      "va": 6577,
      "Ġtig": 6578,
      "Ġaud": 6579,
      "Ġsib": 6580,
      "Ġhusband": 6581,
      "ouch": 6582,
      "iled": 6583,
      "Ġrising": 6584,
      "endy": 6585,
      "alph": 6586,
      "ĠJacob": 6587,
      "?\",": 6588,
      "Ġbacked": 6589,
      "Ġleap": 6590,
      "Ġmeals": 6591,
      "ĠWatch": 6592,
      "Ġeverybody": 6593,
      "ishy": 6594,
      "Ġcreations": 6595,
      "Ġunf": 6596,
      "ĠGet": 6597,
      "Ġafterwards": 6598,
      "Ġhealth": 6599,
      "brush": 6600,
      "Ġmiles": 6601,
      "Ġzookeeper": 6602,
      "Ġrecording": 6603,
      "Ġarrows": 6604,
      "Ġartist": 6605,
      "Ġcheeks": 6606,
      "Charlie": 6607,
      "Ġsnuggle": 6608,
      "Ġgiraffes": 6609,
      "Ġtigers": 6610,
      "For": 6611,
      "tuce": 6612,
      "vest": 6613,
      "ans": 6614,
      "Ġweeke": 6615,
      "ĠBongo": 6616,
      "itted": 6617,
      "ĠMira": 6618,
      "Ġaren": 6619,
      "icky": 6620,
      "Ġflapping": 6621,
      "Ġchip": 6622,
      "Ġlettuce": 6623,
      "Ġdancers": 6624,
      "Ġconn": 6625,
      "Ġconcer": 6626,
      "ĠPam": 6627,
      "ths": 6628,
      "Ġarr": 6629,
      "Ġsteer": 6630,
      "Ġparties": 6631,
      "Ġhides": 6632,
      "Ġmarks": 6633,
      "Ġdiving": 6634,
      "Ġsalty": 6635,
      "Ġgracefully": 6636,
      "Ġavoid": 6637,
      "Ġhesitated": 6638,
      "ĠGoodbye": 6639,
      "Ġtravelled": 6640,
      "ĠJeff": 6641,
      "Ġweekend": 6642,
      "Fin": 6643,
      "Ġcust": 6644,
      "Ġdots": 6645,
      "Ġmi": 6646,
      "ilo": 6647,
      "ann": 6648,
      "Ġthird": 6649,
      "Ġyum": 6650,
      "Ġfeast": 6651,
      "ĠLou": 6652,
      "aura": 6653,
      "Ġslices": 6654,
      "Ġsnuck": 6655,
      "ĠCra": 6656,
      "Ġracc": 6657,
      "ĠPrin": 6658,
      "Ġhandsome": 6659,
      "Ġdef": 6660,
      "Ġtricked": 6661,
      "Ġsailboat": 6662,
      "ĠFlopsy": 6663,
      "Ġpotion": 6664,
      "ments": 6665,
      "Ġburst": 6666,
      "Ġdiscussed": 6667,
      "Ġhesitant": 6668,
      "ĠNothing": 6669,
      "Ġrusty": 6670,
      "Ġtalented": 6671,
      "Ġtoddler": 6672,
      "Ġafford": 6673,
      "Ġcustom": 6674,
      "Ġraccoon": 6675,
      "aa": 6676,
      "ners": 6677,
      "uzzy": 6678,
      "Ġtangled": 6679,
      "Ġhissed": 6680,
      "ĠMa": 6681,
      "icked": 6682,
      "ĠFar": 6683,
      "Ġslam": 6684,
      "Ġdrawn": 6685,
      "Ġcorners": 6686,
      "Ġspoonful": 6687,
      "Ġpans": 6688,
      "Ġrequested": 6689,
      "ĠBetty": 6690,
      "Ġdirect": 6691,
      "Ġlungs": 6692,
      "Ġsiblings": 6693,
      "An": 6694,
      "Katie": 6695,
      "zes": 6696,
      "Ġcott": 6697,
      "Ġdie": 6698,
      "ids": 6699,
      "llen": 6700,
      "Ġneither": 6701,
      "Ġbackwards": 6702,
      "ept": 6703,
      "Ġflight": 6704,
      "ĠEarth": 6705,
      "Ġswept": 6706,
      "Ġhandful": 6707,
      "ĠRobby": 6708,
      "Ġprinting": 6709,
      "Ġpretends": 6710,
      "Ġdarker": 6711,
      "Ġsnowmen": 6712,
      "Ġembarrass": 6713,
      "Ġfolding": 6714,
      "Ġpumpkins": 6715,
      "Ġlogs": 6716,
      "Ġwraps": 6717,
      "ivity": 6718,
      "Ġsausages": 6719,
      "Ġfluttering": 6720,
      "Maria": 6721,
      "Ġtiptoed": 6722,
      "Ġmixture": 6723,
      "Boo": 6724,
      "ded": 6725,
      "eal": 6726,
      "pit": 6727,
      "Ġlower": 6728,
      "ility": 6729,
      "Ġrus": 6730,
      "ickey": 6731,
      "Ġchop": 6732,
      "ĠEnjoy": 6733,
      "Ġgrandp": 6734,
      "Ġgrabbing": 6735,
      "ĠJacky": 6736,
      "Ġadult": 6737,
      "Those": 6738,
      "ĠPo": 6739,
      "Ġdrawers": 6740,
      "ĠKayla": 6741,
      "Ġgasp": 6742,
      "ĠZoomy": 6743,
      "Meow": 6744,
      "ĠBuzzy": 6745,
      "Ġsuperheroes": 6746,
      "Ġinsects": 6747,
      "Ġwidened": 6748,
      "ĠPippin": 6749,
      "Ġcousin": 6750,
      "Ġaudience": 6751,
      "Great": 6752,
      "Ru": 6753,
      "Ġwins": 6754,
      "Ġocc": 6755,
      "Ġbeam": 6756,
      "ĠBinky": 6757,
      "ĠAunt": 6758,
      "Ġfears": 6759,
      "Ġworn": 6760,
      "Ġcond": 6761,
      "Ġwilling": 6762,
      "aker": 6763,
      "Ġwindy": 6764,
      "Ġgrassy": 6765,
      "Ġrivers": 6766,
      "umbling": 6767,
      "Ġstarfish": 6768,
      "Ġclowns": 6769,
      "Ġrefle": 6770,
      "Ġbasement": 6771,
      "Ġexperien": 6772,
      "Ġfamiliar": 6773,
      "Ġflavor": 6774,
      "Ġchefs": 6775,
      "Ġperforman": 6776,
      "Ġbeginning": 6777,
      "Ew": 6778,
      "abby": 6779,
      "cited": 6780,
      "no": 6781,
      "Ġgross": 6782,
      "ĠSophia": 6783,
      "sequ": 6784,
      "Ġrefu": 6785,
      "ĠMon": 6786,
      "ĠJazz": 6787,
      "iece": 6788,
      "Ġdads": 6789,
      "Ġbully": 6790,
      "Ġconsequ": 6791,
      "Ġuns": 6792,
      "Ġsnowfl": 6793,
      "Ġcreativity": 6794,
      "Ġforgetting": 6795,
      "Ġwrapping": 6796,
      "Ġcelebrating": 6797,
      "Toby": 6798,
      "Ġpaying": 6799,
      "Ġknocks": 6800,
      "Ġcomplained": 6801,
      "ĠRobert": 6802,
      "Ġsprinkled": 6803,
      "Ġfirefighter": 6804,
      "Roar": 6805,
      "ĠOlive": 6806,
      "Ġheavier": 6807,
      "Ġpouted": 6808,
      "ĠPrincess": 6809,
      "Ġgrandpare": 6810,
      "Run": 6811,
      "Whee": 6812,
      "Ġmerry": 6813,
      "ĠHoot": 6814,
      "Ġropes": 6815,
      "ados": 6816,
      "Ġwept": 6817,
      "Ġreass": 6818,
      "ĠMel": 6819,
      "Ġbodies": 6820,
      "ĠJune": 6821,
      "using": 6822,
      "ĠJojo": 6823,
      "Ġstays": 6824,
      "obody": 6825,
      "retty": 6826,
      "Ġkicks": 6827,
      "Ġshrinking": 6828,
      "Ġrecipe": 6829,
      "Ġsource": 6830,
      "Ġindeed": 6831,
      "Ġforks": 6832,
      "Ġscratches": 6833,
      "Ġavocados": 6834,
      "Ġseparated": 6835,
      "Ġprovided": 6836,
      "Ġsurroundings": 6837,
      "Shh": 6838,
      "ĠFox": 6839,
      "Ġpuppies": 6840,
      "Bad": 6841,
      "Danny": 6842,
      "Ellie": 6843,
      "Kate": 6844,
      "tle": 6845,
      "Ġwadd": 6846,
      "ĠHannah": 6847,
      "Ġrings": 6848,
      "Ġspikes": 6849,
      "ĠLizzie": 6850,
      "aula": 6851,
      "ĠEverybody": 6852,
      "iley": 6853,
      "Ġdollhouse": 6854,
      "Ġcrew": 6855,
      "ĠGary": 6856,
      "Ġbeloved": 6857,
      "ĠKeep": 6858,
      "Ġattack": 6859,
      "ĠWithout": 6860,
      "ĠBluey": 6861,
      "Ġtricky": 6862,
      "Ġseconds": 6863,
      "Ġhumans": 6864,
      "Ġpresses": 6865,
      "Ġincluding": 6866,
      "Ġgranted": 6867,
      "ĠFriends": 6868,
      "Ġconsequences": 6869,
      "?'": 6870,
      "Bl": 6871,
      "Milly": 6872,
      "Nemo": 6873,
      "cake": 6874,
      "fall": 6875,
      "wk": 6876,
      "Ġhour": 6877,
      "Ġdarling": 6878,
      "Ġmaster": 6879,
      "Ġnine": 6880,
      "Ġhawk": 6881,
      "Ġstool": 6882,
      "Ġplucked": 6883,
      "Ġgobbled": 6884,
      "ĠAbby": 6885,
      "Ġglued": 6886,
      "Ġdresser": 6887,
      "ĠNina": 6888,
      "athan": 6889,
      "Ġmagician": 6890,
      "Ġtalks": 6891,
      "Ġplans": 6892,
      "Ġneighbours": 6893,
      "Ġhoriz": 6894,
      "Ġwishing": 6895,
      "Ġedges": 6896,
      "Ġtunnels": 6897,
      "Ġgems": 6898,
      "Ġdelivering": 6899,
      "Ġneatly": 6900,
      "Ġinstrum": 6901,
      "Ġbehaved": 6902,
      "ĠGranny": 6903,
      "Ġdeserve": 6904,
      "Ġtimer": 6905,
      "Fo": 6906,
      "Wh": 6907,
      "urious": 6908,
      "Ġtouc": 6909,
      "ĠSpl": 6910,
      "ĠBessie": 6911,
      "Ġteased": 6912,
      "Ġamong": 6913,
      "Ġruining": 6914,
      "ĠJaney": 6915,
      "Ġscrews": 6916,
      "Ġsailors": 6917,
      "Ġplanning": 6918,
      "ĠStay": 6919,
      "Ġcrossing": 6920,
      "Ġlollipops": 6921,
      "Ġsymbols": 6922,
      "Ġbuzzed": 6923,
      "Ġwarnings": 6924,
      "Ġswimsuit": 6925,
      "Ġmaterials": 6926,
      "ĠSusan": 6927,
      "Ġaccomplishment": 6928,
      "Ġrushing": 6929,
      "Ġperformance": 6930,
      "Ġhorizon": 6931,
      "Nina": 6932,
      "Some": 6933,
      "Tw": 6934,
      "rig": 6935,
      "the": 6936,
      "Ġhitting": 6937,
      "Ġmarshmallow": 6938,
      "Ġpens": 6939,
      "Ġonward": 6940,
      "choo": 6941,
      "Ġspices": 6942,
      "Ġhelpers": 6943,
      "Ġfact": 6944,
      "Ġage": 6945,
      "ĠLi": 6946,
      "ĠListen": 6947,
      "Ġflas": 6948,
      "ÅĵDo": 6949,
      "Ġremembering": 6950,
      "Ġamount": 6951,
      "Ġblocking": 6952,
      "ĠOur": 6953,
      "Ġpaths": 6954,
      "Ġdrums": 6955,
      "ĠZara": 6956,
      "Ġdesigns": 6957,
      "Ġmushrooms": 6958,
      "ronaut": 6959,
      "Ġcobwebs": 6960,
      "Ġastronaut": 6961,
      "Ġechoed": 6962,
      "Ġdirections": 6963,
      "Ġtouches": 6964,
      "Dan": 6965,
      "Even": 6966,
      "Ġmer": 6967,
      "atur": 6968,
      "Ġsan": 6969,
      "Ġstung": 6970,
      "Ġonions": 6971,
      "Ġplayers": 6972,
      "step": 6973,
      "Ġleast": 6974,
      "Ġbru": 6975,
      "Ġteles": 6976,
      "Ġraces": 6977,
      "Ġstrongest": 6978,
      "ĠRemember": 6979,
      "Ġchoices": 6980,
      "Ġbaskets": 6981,
      "Ġforgets": 6982,
      "Ġpeacefully": 6983,
      "Ġmatters": 6984,
      "Ġtested": 6985,
      "Ġresisted": 6986,
      "ĠRobbie": 6987,
      "ÅĵYouÃ¢": 6988,
      "ably": 6989,
      "Ġwiggle": 6990,
      "Ġdamage": 6991,
      "Ġscraped": 6992,
      "Ruby": 6993,
      "Ġmarshmallows": 6994,
      "Ġtelescope": 6995,
      "Pe": 6996,
      "Time": 6997,
      "Tina": 6998,
      "fire": 6999,
      "tier": 7000,
      "ĠQ": 7001,
      "Ġcor": 7002,
      "ĠSqu": 7003,
      "ĠSque": 7004,
      "rip": 7005,
      "Ġyounger": 7006,
      "ntil": 7007,
      "ĠWell": 7008,
      "ĠEl": 7009,
      "Ġvines": 7010,
      "Ġprettier": 7011,
      "ÅĵWow": 7012,
      "ÅĵMy": 7013,
      "Ġconvers": 7014,
      "Ġgrowls": 7015,
      "Ġbaths": 7016,
      "Ġimagining": 7017,
      "Ġhonked": 7018,
      "Ġgenie": 7019,
      "Ġpoems": 7020,
      "Ġminerals": 7021,
      "Ġrustling": 7022,
      "ĠTwo": 7023,
      "Ġgreeted": 7024,
      "Ġpassengers": 7025,
      "Ġoccas": 7026,
      "Ġsank": 7027,
      "During": 7028,
      "Kim": 7029,
      "dges": 7030,
      "iel": 7031,
      "now": 7032,
      "Ġtuck": 7033,
      "ition": 7034,
      "Ġmast": 7035,
      "Ġmunch": 7036,
      "aying": 7037,
      "Ġstitches": 7038,
      "Ġneare": 7039,
      "ĠJudy": 7040,
      "Ġscient": 7041,
      "Ġadults": 7042,
      "Ġache": 7043,
      "Ġnearly": 7044,
      "Ġcuriously": 7045,
      "Ġrespond": 7046,
      "Ġimages": 7047,
      "ĠStitch": 7048,
      "Ġfeeding": 7049,
      "Ġvanilla": 7050,
      "Ġpraying": 7051,
      "Ġborrowed": 7052,
      "artha": 7053,
      "Ġcushions": 7054,
      "manda": 7055,
      "Ġcomplaining": 7056,
      "Ġincreased": 7057,
      "ĠFrog": 7058,
      "Ġbehaving": 7059,
      "Ġcommun": 7060,
      "immering": 7061,
      "Ġbehavior": 7062,
      "Ġmesmerized": 7063,
      "ĠFarmer": 7064,
      "Ġunsure": 7065,
      "Ġscientist": 7066,
      "By": 7067,
      "Ducky": 7068,
      "May": 7069,
      "Mad": 7070,
      "aired": 7071,
      "ky": 7072,
      "lves": 7073,
      "Ġcoral": 7074,
      "ĠTara": 7075,
      "Ġsale": 7076,
      "Ġplaytime": 7077,
      "Ġnotes": 7078,
      "allowed": 7079,
      "ĠWendy": 7080,
      "ĠLena": 7081,
      "Ġswallowed": 7082,
      "ueen": 7083,
      "Ġtramp": 7084,
      "Ġtwice": 7085,
      "Ġwobbly": 7086,
      "Ġdances": 7087,
      "Ġzipping": 7088,
      "ĠAsh": 7089,
      "Ġjoyful": 7090,
      "Ġstands": 7091,
      "Ġdrivers": 7092,
      "Ġhopeful": 7093,
      "Ġrepaired": 7094,
      "Ġsunflowers": 7095,
      "Ġenthusi": 7096,
      "Ġrewarded": 7097,
      "Ġcenter": 7098,
      "rigued": 7099,
      "Ġtrampoline": 7100,
      "Have": 7101,
      "Our": 7102,
      "Oops": 7103,
      "Ġcoup": 7104,
      "Ġpours": 7105,
      "Ġoh": 7106,
      "Ġnibb": 7107,
      "ĠSc": 7108,
      "Ġnoon": 7109,
      "Ġscen": 7110,
      "Ġcoc": 7111,
      "Ġflown": 7112,
      "ĠEx": 7113,
      "Ġswords": 7114,
      "Ġtreehouse": 7115,
      "Ġtrot": 7116,
      "Ġbraver": 7117,
      "Ġwobble": 7118,
      "Ġwobbled": 7119,
      "ÅĵHi": 7120,
      "ÅĵWell": 7121,
      "Ġdropping": 7122,
      "Ġhearing": 7123,
      "attered": 7124,
      "Ġhealing": 7125,
      "Ġaction": 7126,
      "Ġspreading": 7127,
      "ĠMikey": 7128,
      "ĠFroggy": 7129,
      "ĠBirthday": 7130,
      "Ġgeese": 7131,
      "Ġarranged": 7132,
      "Ġenthusiasm": 7133,
      "Ġcouple": 7134,
      "dri": 7135,
      "ippy": 7136,
      "weed": 7137,
      "yes": 7138,
      "initely": 7139,
      "itched": 7140,
      "itude": 7141,
      "Ġdet": 7142,
      "atul": 7143,
      "Ġnood": 7144,
      "Ġease": 7145,
      "ĠMouse": 7146,
      "ĠMilo": 7147,
      "ĠMickey": 7148,
      "idey": 7149,
      "Ġjugg": 7150,
      "Ġspins": 7151,
      "Ġblast": 7152,
      "ĠFuzzy": 7153,
      "Ġpecked": 7154,
      "Ġslips": 7155,
      "iona": 7156,
      "Ġfinal": 7157,
      "Ġfinishing": 7158,
      "ĠPr": 7159,
      "acy": 7160,
      "Ġwarmer": 7161,
      "Ġsandpit": 7162,
      "Ġlighter": 7163,
      "Ġslower": 7164,
      "Ġelf": 7165,
      "anging": 7166,
      "Ġprove": 7167,
      "Ġbeeh": 7168,
      "ĠThanks": 7169,
      "Ġwiping": 7170,
      "Ġheroes": 7171,
      "Ġencourag": 7172,
      "Ġtriangles": 7173,
      "Ġrefreshing": 7174,
      "Ġtravelling": 7175,
      "Ġguests": 7176,
      "Ġ10": 7177,
      "ĠQuack": 7178,
      "ĠQueen": 7179,
      "--": 7180,
      "Like": 7181,
      "bell": 7182,
      "bird": 7183,
      "ĊĊ": 7184,
      "Ġ2": 7185,
      "Ġaimed": 7186,
      "Ġsadd": 7187,
      "ĠSmo": 7188,
      "imon": 7189,
      "Ġthorn": 7190,
      "ĠHolly": 7191,
      "veral": 7192,
      "Ġplain": 7193,
      "adie": 7194,
      "Ġshirts": 7195,
      "Ġreason": 7196,
      "ĠMabel": 7197,
      "Ġseveral": 7198,
      "ĠLaura": 7199,
      "Ġflips": 7200,
      "Ġposs": 7201,
      "Ġexplo": 7202,
      "Ġoffic": 7203,
      "ÅĵMom": 7204,
      "ÅĵCome": 7205,
      "ÅĵNow": 7206,
      "Ġthrown": 7207,
      "Ġdefe": 7208,
      "ĠNobody": 7209,
      "Ġsteady": 7210,
      "Ġpennies": 7211,
      "Ġseaweed": 7212,
      "Ġlifting": 7213,
      "Ġacting": 7214,
      "ertain": 7215,
      "ĠAlthough": 7216,
      "Ġantic": 7217,
      "Ġexamining": 7218,
      "Ġseller": 7219,
      "Ġawo": 7220,
      "ĠUnder": 7221,
      "Ġcampfire": 7222,
      "Ġoysters": 7223,
      "Ġbreathed": 7224,
      "Ġvideos": 7225,
      "Ġfirefly": 7226,
      "Ġyielded": 7227,
      "Ġfocused": 7228,
      "ĠElsa": 7229,
      "Ġdefinitely": 7230,
      "Follow": 7231,
      "Br": 7232,
      "Lilly": 7233,
      "Pat": 7234,
      "Tr": 7235,
      "Yummy": 7236,
      "ears": 7237,
      "yond": 7238,
      "Ġsy": 7239,
      "Ġfaded": 7240,
      "ĠSun": 7241,
      "anes": 7242,
      "Ġbeyond": 7243,
      "Ġstain": 7244,
      "rie": 7245,
      "stick": 7246,
      "Ġscamp": 7247,
      "Ġchos": 7248,
      "Ġpeck": 7249,
      "Ġheading": 7250,
      "Ġsquishy": 7251,
      "ĠThose": 7252,
      "Ġbows": 7253,
      "Ġpolitely": 7254,
      "Ġvisitor": 7255,
      "Ġcupcakes": 7256,
      "Ġchopped": 7257,
      "Ġcausing": 7258,
      "Ġexpress": 7259,
      "Ġlifts": 7260,
      "Steve": 7261,
      "illiam": 7262,
      "Ġthud": 7263,
      "years": 7264,
      "Ġcuddly": 7265,
      "Ġproper": 7266,
      "Ġsports": 7267,
      "Ġfreedom": 7268,
      "Ġsnowflakes": 7269,
      "Ġnoodles": 7270,
      "Ġbeehive": 7271,
      "Ġchosen": 7272,
      "aven": 7273,
      "bro": 7274,
      "cher": 7275,
      "ratul": 7276,
      "while": 7277,
      "Ġdaring": 7278,
      "inger": 7279,
      "Ġsofter": 7280,
      "str": 7281,
      "unched": 7282,
      "ently": 7283,
      "Ġshown": 7284,
      "Ġroars": 7285,
      "ongratul": 7286,
      "Ġwhose": 7287,
      "ĠFire": 7288,
      "Ġtwenty": 7289,
      "ĠSpidey": 7290,
      "ĠRain": 7291,
      "Ġwarmly": 7292,
      "Ġthroughout": 7293,
      "ĠwonÃ¢": 7294,
      "Ġdived": 7295,
      "ĠAlong": 7296,
      "Ġnervously": 7297,
      "Ġtwisting": 7298,
      "Ġdiamonds": 7299,
      "Ġtoaster": 7300,
      "Ġsniffs": 7301,
      "Ġsneezing": 7302,
      "Ġsurfboard": 7303,
      "Ġstacked": 7304,
      "Ġinsisting": 7305,
      "ĠAbi": 7306,
      "Ġpupils": 7307,
      "Ġflavors": 7308,
      "Ġrobber": 7309,
      "Ġcowboy": 7310,
      "Ġslammed": 7311,
      "Car": 7312,
      "Miss": 7313,
      "Sadly": 7314,
      "Woof": 7315,
      "cl": 7316,
      "mered": 7317,
      "Ġaim": 7318,
      "ido": 7319,
      "onies": 7320,
      "Ġinj": 7321,
      "utter": 7322,
      "ĠBo": 7323,
      "ĠBoun": 7324,
      "ĠJax": 7325,
      "Ġcharge": 7326,
      "Ġintrigued": 7327,
      "Ġovercome": 7328,
      "Ġpuff": 7329,
      "Ġexplorer": 7330,
      "Ġstopping": 7331,
      "Ġwrink": 7332,
      "ĠGemma": 7333,
      "Ġtables": 7334,
      "ĠKaren": 7335,
      "otten": 7336,
      "Ġbelongings": 7337,
      "Ġmailed": 7338,
      "Ġdriveway": 7339,
      "Ġignoring": 7340,
      "Ġdecorating": 7341,
      "Ġwhispers": 7342,
      "Ġtwisty": 7343,
      "Ġstreamers": 7344,
      "Ġdesigned": 7345,
      "Ġgrandson": 7346,
      "Ġstatues": 7347,
      "Ġperforming": 7348,
      "Ġlending": 7349,
      "Ġtwinkled": 7350,
      "Ġloops": 7351,
      "Ġwhispering": 7352,
      "Ġsuffered": 7353,
      "Ġlicking": 7354,
      "Ġsewed": 7355,
      "ĠSparky": 7356,
      "iki": 7357,
      "Ġgrandparents": 7358,
      "Blue": 7359,
      "Ġawoke": 7360,
      "Jerry": 7361,
      "Su": 7362,
      "cter": 7363,
      "upt": 7364,
      "yan": 7365,
      "Ġfant": 7366,
      "Ġdot": 7367,
      "Ġmate": 7368,
      "Ġponies": 7369,
      "Ġrotten": 7370,
      "Ġplayroom": 7371,
      "Ġshoo": 7372,
      "Ġroses": 7373,
      "Ġcoach": 7374,
      "Ġcosy": 7375,
      "Ġprob": 7376,
      "Ġgoodies": 7377,
      "Ġsled": 7378,
      "Ġbeautifully": 7379,
      "Ġdollars": 7380,
      "Ġunw": 7381,
      "Ġforests": 7382,
      "ĠRavi": 7383,
      "Ġbelts": 7384,
      "uffin": 7385,
      "Ġunderstands": 7386,
      "meal": 7387,
      "Ġjoining": 7388,
      "Ġfits": 7389,
      "Ġcalmly": 7390,
      "Ġleads": 7391,
      "ĠZero": 7392,
      "Ġswans": 7393,
      "Ġoatmeal": 7394,
      "Ġsurrendered": 7395,
      "Ġquarreling": 7396,
      "Ġnovels": 7397,
      "Ġresults": 7398,
      "Ġpunishment": 7399,
      "Ġtrembled": 7400,
      "Ġwider": 7401,
      "Ġreflection": 7402,
      "ĠSquirrel": 7403,
      "ĠSqueaky": 7404,
      "Ġanticip": 7405,
      "Ġscampered": 7406,
      "Ġfantastic": 7407,
      "Ġprobably": 7408,
      "Adam": 7409,
      "Surpr": 7410,
      "ael": 7411,
      "eel": 7412,
      "rup": 7413,
      "sm": 7414,
      "sers": 7415,
      "whe": 7416,
      "Ġtiss": 7417,
      "Ġtying": 7418,
      "Ġgap": 7419,
      "Ġnapping": 7420,
      "anwhile": 7421,
      "iment": 7422,
      "onse": 7423,
      "rier": 7424,
      "ĠBee": 7425,
      "Ġmanag": 7426,
      "ĠWally": 7427,
      "Ġchara": 7428,
      "ĠDr": 7429,
      "Ġslither": 7430,
      "Ġwaterfall": 7431,
      "Ġfins": 7432,
      "Ġcolder": 7433,
      "ichael": 7434,
      "Ġfoxes": 7435,
      "Ġshops": 7436,
      "ounced": 7437,
      "Ġresponse": 7438,
      "Ġpicnics": 7439,
      "Ġappreciated": 7440,
      "Ġconfl": 7441,
      "ĠJulia": 7442,
      "ĠChris": 7443,
      "Ġperformed": 7444,
      "rrr": 7445,
      "ĠBirdy": 7446,
      "Frank": 7447,
      "Ġrisks": 7448,
      "Ġforgiveness": 7449,
      "Ġconnected": 7450,
      "Ġmerma": 7451,
      "broken": 7452,
      "Ġcharacter": 7453,
      "Baby": 7454,
      "Jul": 7455,
      "Listen": 7456,
      "Very": 7457,
      "crow": 7458,
      "mates": 7459,
      "Ġais": 7460,
      "its": 7461,
      "Ġcertain": 7462,
      "ilted": 7463,
      "Ġgest": 7464,
      "ĠSk": 7465,
      "ĠSw": 7466,
      "cky": 7467,
      "child": 7468,
      "ĠMartha": 7469,
      "Ġaside": 7470,
      "Ġscored": 7471,
      "ĠWin": 7472,
      "ĠLove": 7473,
      "Ġposter": 7474,
      "Ġposit": 7475,
      "Ġtweet": 7476,
      "Ġhanding": 7477,
      "Ġgardener": 7478,
      "Ġconvin": 7479,
      "Ġrainy": 7480,
      "ĠRalph": 7481,
      "Ġelbow": 7482,
      "Ġcloudy": 7483,
      "ĠStan": 7484,
      "Ġpostman": 7485,
      "Ġsniffing": 7486,
      "ĠUntil": 7487,
      "Ġgrandchild": 7488,
      "Ġappreciation": 7489,
      "Ġscrewdri": 7490,
      "Tweetie": 7491,
      "Ġspills": 7492,
      "Ġseashells": 7493,
      "Ġannoyed": 7494,
      "Abigail": 7495,
      "ĠCrabby": 7496,
      "Ġwaddled": 7497,
      "Ġencouraging": 7498,
      "Ġsyrup": 7499,
      "Ġanticipation": 7500,
      "Ġscrewdriver": 7501,
      "Back": 7502,
      "Tilly": 7503,
      "ae": 7504,
      "but": 7505,
      "found": 7506,
      "oss": 7507,
      "Ġtar": 7508,
      "Ġtipped": 7509,
      "Ġwag": 7510,
      "rey": 7511,
      "Ġlent": 7512,
      "Ġni": 7513,
      "ana": 7514,
      "onna": 7515,
      "espite": 7516,
      "ooking": 7517,
      "Ġramp": 7518,
      "Ġweeds": 7519,
      "Ġshady": 7520,
      "Ġkings": 7521,
      "Ġreun": 7522,
      "ĠMo": 7523,
      "Ġjars": 7524,
      "ĠAny": 7525,
      "Ġexcept": 7526,
      "ighting": 7527,
      "Ġnodd": 7528,
      "Ġchanging": 7529,
      "Ġwatering": 7530,
      "Ġsmallest": 7531,
      "Ġsnort": 7532,
      "Ġbravest": 7533,
      "Ġcheers": 7534,
      "ĠPandy": 7535,
      "Ġsweetest": 7536,
      "Ġcraft": 7537,
      "Ġworrying": 7538,
      "Ġsails": 7539,
      "Ġbelieving": 7540,
      "Ġheartbroken": 7541,
      "Ġlaying": 7542,
      "Ġpops": 7543,
      "Ġbells": 7544,
      "Ġnecklaces": 7545,
      "Ġsuggestion": 7546,
      "Ġpreparing": 7547,
      "Ġpedaled": 7548,
      "Ġreversed": 7549,
      "Ġstudents": 7550,
      "Ġincreasing": 7551,
      "Ġresponsib": 7552,
      "Quick": 7553,
      "Ġsuffering": 7554,
      "ĠSplash": 7555,
      "Ġconversation": 7556,
      "Ġofficers": 7557,
      "Bet": 7558,
      "Beth": 7559,
      "Karen": 7560,
      "Mine": 7561,
      "father": 7562,
      "munk": 7563,
      "ollen": 7564,
      "ĠX": 7565,
      "Ġties": 7566,
      "Ġtumbled": 7567,
      "Ġgonna": 7568,
      "ambled": 7569,
      "Ġstumble": 7570,
      "storm": 7571,
      "Ġreapp": 7572,
      "Ġswollen": 7573,
      "ÅĵOf": 7574,
      "Ġconqu": 7575,
      "Ġblocked": 7576,
      "Ġbiting": 7577,
      "Ġnests": 7578,
      "Ġrespected": 7579,
      "Ġangels": 7580,
      "Ġpepperoni": 7581,
      "Ġbatteries": 7582,
      "Ġpermitted": 7583,
      "Ġzebras": 7584,
      "Ġmeowing": 7585,
      "Ġpuppet": 7586,
      "Ġgears": 7587,
      "Ġconcert": 7588,
      "Ġreassured": 7589,
      "Ġtrotted": 7590,
      "Bill": 7591,
      "Bunny": 7592,
      "Each": 7593,
      "Jamie": 7594,
      "Rob": 7595,
      "cie": 7596,
      "wise": 7597,
      "Ġtoss": 7598,
      "Ġheight": 7599,
      "ĠTuna": 7600,
      "ĠSal": 7601,
      "order": 7602,
      "Ġev": 7603,
      "Ġearn": 7604,
      "Ġund": 7605,
      "Ġrather": 7606,
      "Ġstall": 7607,
      "ĠthatÃ¢": 7608,
      "ĠMart": 7609,
      "Ġsmashed": 7610,
      "Ġanger": 7611,
      "Ġspook": 7612,
      "Ġmemb": 7613,
      "Ġnewfound": 7614,
      "Ġblond": 7615,
      "Ġthoughts": 7616,
      "Ġtapped": 7617,
      "Ġskunk": 7618,
      "Ġquilt": 7619,
      "ection": 7620,
      "Whenever": 7621,
      "Ġwrigg": 7622,
      "Ġtoward": 7623,
      "athy": 7624,
      "Ġfires": 7625,
      "Ġdrown": 7626,
      "Ġcrashing": 7627,
      "Ġpromises": 7628,
      "Ġcounts": 7629,
      "ĠTodd": 7630,
      "Ġvegg": 7631,
      "Ġpaintbrush": 7632,
      "Ġplanting": 7633,
      "Ġstreets": 7634,
      "Ġpays": 7635,
      "Ġscrambled": 7636,
      "ĠZip": 7637,
      "Ġsoapy": 7638,
      "Ġsuits": 7639,
      "ĠDavey": 7640,
      "Ġdiscoveries": 7641,
      "Ġspeeding": 7642,
      "uctor": 7643,
      "Ġpassports": 7644,
      "Anne": 7645,
      "amboo": 7646,
      "Ġdelayed": 7647,
      "Ġwiggly": 7648,
      "Ġuniforms": 7649,
      "Ġefforts": 7650,
      "Ġdamaged": 7651,
      "Ġfirmly": 7652,
      "ĠLouise": 7653,
      "Ġmermaid": 7654,
      "Ġspooky": 7655,
      "Ġmembers": 7656,
      "?!\"": 7657,
      "Out": 7658,
      "Rachel": 7659,
      "ms": 7660,
      "oey": 7661,
      "prin": 7662,
      "sie": 7663,
      "vas": 7664,
      "Ġwoof": 7665,
      "Ġhoo": 7666,
      "Ġpound": 7667,
      "Ġnuzz": 7668,
      "ances": 7669,
      "orter": 7670,
      "ĠHope": 7671,
      "amma": 7672,
      "Ġbeating": 7673,
      "Ġsoot": 7674,
      "ading": 7675,
      "ĠMuffin": 7676,
      "ugs": 7677,
      "Ġsped": 7678,
      "fus": 7679,
      "ĠAmanda": 7680,
      "romise": 7681,
      "usty": 7682,
      "ĠFuzz": 7683,
      "ĠFiona": 7684,
      "ĠFido": 7685,
      "Ġcleared": 7686,
      "ÅĵOkay": 7687,
      "Ġdangers": 7688,
      "Ġcleaner": 7689,
      "ĠGina": 7690,
      "Ġrains": 7691,
      "Ġhops": 7692,
      "Ġmonths": 7693,
      "Ġtablet": 7694,
      "Ġjudges": 7695,
      "Ġshaped": 7696,
      "Ġmints": 7697,
      "Ġbandages": 7698,
      "Ġpanicked": 7699,
      "Ġtidied": 7700,
      "Ġclearly": 7701,
      "Ġfills": 7702,
      "Ġaddress": 7703,
      "Ġfishes": 7704,
      "Ġcovering": 7705,
      "Ġmagnif": 7706,
      "Ġfrowning": 7707,
      "ivia": 7708,
      "Ġcuddles": 7709,
      "Ġsurfing": 7710,
      "Ġmillion": 7711,
      "Ġexercises": 7712,
      "Ġbreathing": 7713,
      "Ġstroke": 7714,
      "Ġpurrs": 7715,
      "Ġdiscussing": 7716,
      "Ġbrushing": 7717,
      "ĠMaddy": 7718,
      "ĠQuick": 7719,
      "Ġoppos": 7720,
      "Ġinspired": 7721,
      "Ġconductor": 7722,
      "steps": 7723,
      "Ġtissue": 7724,
      "Ġtarget": 7725,
      "Ġveggies": 7726,
      "Penny": 7727,
      "water": 7728,
      "Ġdep": 7729,
      "ening": 7730,
      "Ġnur": 7731,
      "Ġrout": 7732,
      "Ġsoaking": 7733,
      "Ġkittens": 7734,
      "Ġseals": 7735,
      "Ġcanvas": 7736,
      "Ġalien": 7737,
      "Ġtreated": 7738,
      "Ġthanking": 7739,
      "ĠFighting": 7740,
      "Ġtrans": 7741,
      "Ġuntie": 7742,
      "ĠCle": 7743,
      "asty": 7744,
      "ÅĵHey": 7745,
      "Ġdoorway": 7746,
      "ĠPaula": 7747,
      "ĠRock": 7748,
      "Ġnights": 7749,
      "ĠThatÃ¢": 7750,
      "Ġsmelling": 7751,
      "ĠKelly": 7752,
      "Ġsparks": 7753,
      "Ġsprout": 7754,
      "Ġpackages": 7755,
      "Ġdesper": 7756,
      "ails": 7757,
      "Ġpuzzled": 7758,
      "Ġfootsteps": 7759,
      "Ġtoolbox": 7760,
      "ĠAli": 7761,
      "ĠAlison": 7762,
      "Ġreminding": 7763,
      "Ġtidying": 7764,
      "Ġwisely": 7765,
      "Ġsqueezing": 7766,
      "ĠUp": 7767,
      "Ġtravels": 7768,
      "Ġgrandfather": 7769,
      "Ġpigeons": 7770,
      "Ġloading": 7771,
      "Ġartwork": 7772,
      "Ġmagazines": 7773,
      "Ġdisplayed": 7774,
      "Ġprevented": 7775,
      "Chloe": 7776,
      "Ġsqueak": 7777,
      "Ġadmiration": 7778,
      "Ġglobe": 7779,
      "ĠMaya": 7780,
      "Ġmaterial": 7781,
      "Ġexperienced": 7782,
      "Ġrefuse": 7783,
      "Ġoccasion": 7784,
      "eeling": 7785,
      "Ġconvinced": 7786,
      "Ġreunited": 7787,
      "Hannah": 7788,
      "bage": 7789,
      "cent": 7790,
      "mi": 7791,
      "pen": 7792,
      "Ġsou": 7793,
      "rew": 7794,
      "Ġcoug": 7795,
      "Ġheaven": 7796,
      "Ġmoo": 7797,
      "ĠTake": 7798,
      "arrow": 7799,
      "Ġger": 7800,
      "Ġnasty": 7801,
      "Ġsav": 7802,
      "ĠSleep": 7803,
      "ighing": 7804,
      "Ġrays": 7805,
      "Ġmommies": 7806,
      "ĠMichael": 7807,
      "Ġank": 7808,
      "Ġspy": 7809,
      "lph": 7810,
      "aret": 7811,
      "Ġgoodby": 7812,
      "Ġchin": 7813,
      "Ġchilly": 7814,
      "Ġblinking": 7815,
      "inkle": 7816,
      "Ġfond": 7817,
      "ÅĵWhere": 7818,
      "ĠPu": 7819,
      "Ġdressing": 7820,
      "Ġduckling": 7821,
      "Ġswimmer": 7822,
      "ordinary": 7823,
      "Ġdistract": 7824,
      "Ġdespite": 7825,
      "Ġimaginary": 7826,
      "Ġhonking": 7827,
      "Ġshrunk": 7828,
      "Ġchocolates": 7829,
      "Ġbanged": 7830,
      "Ġpleaded": 7831,
      "Ġsolving": 7832,
      "Ġtrusting": 7833,
      "Ġgarbage": 7834,
      "Ġcrowns": 7835,
      "Ġcamel": 7836,
      "Ġguessing": 7837,
      "Ġextraordinary": 7838,
      "Ġsending": 7839,
      "...\"": 7840,
      "Ġrotting": 7841,
      "Ġvehicles": 7842,
      "Ġsqueaked": 7843,
      "Ġsewing": 7844,
      "Ġaccomplished": 7845,
      "Ġswayed": 7846,
      "Ġsternly": 7847,
      "Clara": 7848,
      "ĠTessa": 7849,
      "Two": 7850,
      "Ġmunching": 7851,
      "Ġevil": 7852,
      "Ġopposite": 7853,
      "Ġgoodbyes": 7854,
      "Claire": 7855,
      "Dear": 7856,
      "Take": 7857,
      "fia": 7858,
      "gain": 7859,
      "hind": 7860,
      "vant": 7861,
      "vroom": 7862,
      "hew": 7863,
      "Ġbamboo": 7864,
      "isions": 7865,
      "idence": 7866,
      "ori": 7867,
      "ĠHallow": 7868,
      "Ġrin": 7869,
      "ĠIm": 7870,
      "Ġwithin": 7871,
      "ĠBri": 7872,
      "ĠBaa": 7873,
      "Ġdod": 7874,
      "Ġdoves": 7875,
      "Ġwhoo": 7876,
      "ĠMaisy": 7877,
      "Ġloc": 7878,
      "Ġspat": 7879,
      "Ġexch": 7880,
      "Ġknots": 7881,
      "Ġmanners": 7882,
      "Ġlapt": 7883,
      "Ġlasers": 7884,
      "Ġflipped": 7885,
      "ilda": 7886,
      "ÅĵBut": 7887,
      "Ġdisc": 7888,
      "ĠNora": 7889,
      "ĠDog": 7890,
      "airy": 7891,
      "uggy": 7892,
      "Ġcomforting": 7893,
      "screen": 7894,
      "Ġgenerosity": 7895,
      "Ġscrub": 7896,
      "Ġprayers": 7897,
      "ĠSnap": 7898,
      "Ġwealth": 7899,
      "Ġenviron": 7900,
      "ĠFinn": 7901,
      "ĠPepper": 7902,
      "Ġemerged": 7903,
      "Ġobeyed": 7904,
      "Ġcubes": 7905,
      "ĠMaddie": 7906,
      "Ġchipmunk": 7907,
      "Ġcustomers": 7908,
      "citedly": 7909,
      "Ġmasterp": 7910,
      "Ġresponded": 7911,
      "Ġnibbled": 7912,
      "Ġcocoon": 7913,
      "Ġgesture": 7914,
      "ĠHalloween": 7915,
      "Ġenvironment": 7916,
      "Any": 7917,
      "Watch": 7918,
      "eedy": 7919,
      "oc": 7920,
      "rink": 7921,
      "Ġhen": 7922,
      "Ġmood": 7923,
      "Ġmaker": 7924,
      "Ġnatur": 7925,
      "ĠSuper": 7926,
      "oration": 7927,
      "Ġinter": 7928,
      "Ġsheets": 7929,
      "ittered": 7930,
      "lyn": 7931,
      "icate": 7932,
      "Ġbride": 7933,
      "ĠWelcome": 7934,
      "Ġdecl": 7935,
      "Ġchanges": 7936,
      "Ġsunscreen": 7937,
      "Ġbrains": 7938,
      "Ġdonkey": 7939,
      "Ġsurprising": 7940,
      "acles": 7941,
      "Ġbusiness": 7942,
      "Ġmovements": 7943,
      "Ġmarve": 7944,
      "Ġvisits": 7945,
      "Ġgrows": 7946,
      "Ġcollap": 7947,
      "Ġafar": 7948,
      "Ġstorms": 7949,
      "Ġpinching": 7950,
      "Ġdigs": 7951,
      "Ġawful": 7952,
      "Always": 7953,
      "Ġunlo": 7954,
      "Ġshovels": 7955,
      "Ġconfidence": 7956,
      "Ġburying": 7957,
      "Ġpeeled": 7958,
      "Ġencouragement": 7959,
      "Ġpaddling": 7960,
      "Ġglittering": 7961,
      "Ġforgiving": 7962,
      "intment": 7963,
      "Ġtype": 7964,
      "Ġwrinkled": 7965,
      "Surprise": 7966,
      "Ġankle": 7967,
      "Ġlaptop": 7968,
      "Jess": 7969,
      "Rosie": 7970,
      "dress": 7971,
      "even": 7972,
      "ps": 7973,
      "we": 7974,
      "worm": 7975,
      "Ġting": 7976,
      "Ġwakes": 7977,
      "rect": 7978,
      "ĠTaking": 7979,
      "Ġgroom": 7980,
      "ider": 7981,
      "ats": 7982,
      "ĠSl": 7983,
      "ĠSimon": 7984,
      "anish": 7985,
      "immered": 7986,
      "Ġform": 7987,
      "elie": 7988,
      "rying": 7989,
      "artled": 7990,
      "ĠWilliam": 7991,
      "Ġwhoever": 7992,
      "Ġdecisions": 7993,
      "Ġflick": 7994,
      "Ġflip": 7995,
      "Ġwaters": 7996,
      "ipes": 7997,
      "ĠRyan": 7998,
      "Ġforgives": 7999,
      "issa": 8000,
      "Ġbits": 8001,
      "Ġhairdress": 8002,
      "boards": 8003,
      "Ġlessons": 8004,
      "Ġfloors": 8005,
      "Ġtighter": 8006,
      "Ġcompared": 8007,
      "ĠJennie": 8008,
      "Ġcupcake": 8009,
      "Ġjobs": 8010,
      "ĠOther": 8011,
      "Ġtroubles": 8012,
      "Ġpresented": 8013,
      "Ġmattered": 8014,
      "Ġrecorder": 8015,
      "Ġprick": 8016,
      "Ġsweep": 8017,
      "Ġpandas": 8018,
      "ĠSnowman": 8019,
      "Ġtires": 8020,
      "Ġrepeating": 8021,
      "Ġspells": 8022,
      "Ġlipstick": 8023,
      "Ġlanguages": 8024,
      "Ġbothering": 8025,
      "Ġsnaps": 8026,
      "ĠOlivia": 8027,
      "ĠMeg": 8028,
      "Ġleapt": 8029,
      "Ġbruises": 8030,
      "Ġcorrect": 8031,
      "Ġnearest": 8032,
      "Ġsadder": 8033,
      "Ġthorns": 8034,
      "Ġconflict": 8035,
      "Ġnodding": 8036,
      "Ġtransf": 8037,
      "Ġgerms": 8038,
      "Ġnatural": 8039,
      "Ġhairdresser": 8040,
      "Buddy": 8041,
      "Buzz": 8042,
      "Boys": 8043,
      "Get": 8044,
      "Jessie": 8045,
      "Pl": 8046,
      "evin": 8047,
      "lt": 8048,
      "line": 8049,
      "pes": 8050,
      "what": 8051,
      "Ġsill": 8052,
      "Ġsigning": 8053,
      "Ġtossed": 8054,
      "Ġbou": 8055,
      "ouched": 8056,
      "Ġdump": 8057,
      "Ġpins": 8058,
      "lets": 8059,
      "Ġsteth": 8060,
      "Ġshall": 8061,
      "Ġrely": 8062,
      "Ġloses": 8063,
      "ĠgirlÃ¢": 8064,
      "Ġclues": 8065,
      "Ġalthough": 8066,
      "Ġscent": 8067,
      "Ġscores": 8068,
      "âĤ¬,": 8069,
      "ĠLooking": 8070,
      "Ġpose": 8071,
      "Ġexploration": 8072,
      "ÅĵMaybe": 8073,
      "ÅĵSee": 8074,
      "Ġwinding": 8075,
      "ĠGre": 8076,
      "acle": 8077,
      "Ġclosing": 8078,
      "Ġleaking": 8079,
      "Ġcracks": 8080,
      "Ġparted": 8081,
      "Ġdripping": 8082,
      "Ġsnowy": 8083,
      "spe": 8084,
      "Ġdesigning": 8085,
      "Ġsurv": 8086,
      "Ġself": 8087,
      "ĠBruce": 8088,
      "ĠBecky": 8089,
      "Ġadds": 8090,
      "Ġjogger": 8091,
      "Ġhamster": 8092,
      "Ġfrowns": 8093,
      "Ġsweat": 8094,
      "Ġcombed": 8095,
      "Ġtaped": 8096,
      "Ġcomputers": 8097,
      "Ġwindowsill": 8098,
      "Ġunpacking": 8099,
      "Ġhooks": 8100,
      "Ġtearing": 8101,
      "ĠPatty": 8102,
      "Ġobserving": 8103,
      "Ġexplains": 8104,
      "Ġapplause": 8105,
      "Ġluckily": 8106,
      "Ġburger": 8107,
      "Ġfreezing": 8108,
      "Ġpurr": 8109,
      "Ġspits": 8110,
      "ĠVroom": 8111,
      "Ġoutfits": 8112,
      "Ġseagulls": 8113,
      "Ġtextures": 8114,
      "ĠNana": 8115,
      "Ġcottage": 8116,
      "Ġinstruments": 8117,
      "Ġexploded": 8118,
      "Brown": 8119,
      "ĠSkip": 8120,
      "Ġbouqu": 8121,
      "Ġstethos": 8122,
      "Bang": 8123,
      "Joy": 8124,
      "Since": 8125,
      "belt": 8126,
      "bank": 8127,
      "baby": 8128,
      "jack": 8129,
      "ker": 8130,
      "Ġcongratul": 8131,
      "inging": 8132,
      "Ġgall": 8133,
      "Ġyel": 8134,
      "Ġrowed": 8135,
      "ĠBra": 8136,
      "ĠBecause": 8137,
      "Ġlies": 8138,
      "Ġshallow": 8139,
      "Ġshorter": 8140,
      "Ġscri": 8141,
      "Ġfailed": 8142,
      "ĠYouÃ¢": 8143,
      "Ġcarries": 8144,
      "ĠLia": 8145,
      "Ġcares": 8146,
      "ĠDespite": 8147,
      "antha": 8148,
      "bbling": 8149,
      "anda": 8150,
      "Ġstrum": 8151,
      "Ġsnapping": 8152,
      "ortunately": 8153,
      "ĠJoanna": 8154,
      "aste": 8155,
      "ÅĵThe": 8156,
      "ÅĵWho": 8157,
      "bee": 8158,
      "LetÃ¢": 8159,
      "Ġcompete": 8160,
      "ĠKaty": 8161,
      "Ġprod": 8162,
      "Ġcaw": 8163,
      "Ġgiggles": 8164,
      "ĠAlbert": 8165,
      "Ġsprays": 8166,
      "Ġrobots": 8167,
      "Ġstretches": 8168,
      "Ġ''": 8169,
      "Ġclassmates": 8170,
      "Ġwiser": 8171,
      "ĠZoey": 8172,
      "Meanwhile": 8173,
      "Ġapologised": 8174,
      "Ġscarecrow": 8175,
      "Ġsweaty": 8176,
      "Ġbeetles": 8177,
      "Ġmember": 8178,
      "Ġerase": 8179,
      "Ġstamped": 8180,
      "Ġscooters": 8181,
      "Ġfilms": 8182,
      "Ġbeeped": 8183,
      "ĠRoger": 8184,
      "Ġtubes": 8185,
      "Ġtraveling": 8186,
      "Ġlumberjack": 8187,
      "Ġbothered": 8188,
      "Ġsimply": 8189,
      "Ġrepeats": 8190,
      "Ġsirens": 8191,
      "Ġfocus": 8192,
      "asmine": 8193,
      "Ġcotton": 8194,
      "ĠLibby": 8195,
      "Ġastronauts": 8196,
      "Ġaisle": 8197,
      "Ġmasterpiece": 8198,
      "Ġdeclared": 8199,
      "Ġbouquet": 8200,
      "Liz": 8201,
      "Pretty": 8202,
      "Tony": 8203,
      "emy": 8204,
      "eens": 8205,
      "ibbit": 8206,
      "ris": 8207,
      "val": 8208,
      "well": 8209,
      "Â¦": 8210,
      "Ġactor": 8211,
      "Ġsipped": 8212,
      "Ġbound": 8213,
      "Ġdip": 8214,
      "erk": 8215,
      "ilities": 8216,
      "ĠSay": 8217,
      "Ġforts": 8218,
      "Ġshin": 8219,
      "ĠĊĊ": 8220,
      "ument": 8221,
      "âĤ¬Â¦": 8222,
      "ĠDuck": 8223,
      "ĠDory": 8224,
      "uddles": 8225,
      "anted": 8226,
      "Ġqueens": 8227,
      "Ġenemy": 8228,
      "Ġjoked": 8229,
      "Ġjoins": 8230,
      "ortun": 8231,
      "ĠCurious": 8232,
      "ÅĵGood": 8233,
      "Ġstored": 8234,
      "ĠGinger": 8235,
      "ĠSpeedy": 8236,
      "Ġbrightest": 8237,
      "Ġsquir": 8238,
      "Ġsquished": 8239,
      "Ġbuses": 8240,
      "Ġcrouched": 8241,
      "Ġpapa": 8242,
      "Ġtasting": 8243,
      "Ġcompan": 8244,
      "ĠFlora": 8245,
      "Ġcafe": 8246,
      "Ġwhistles": 8247,
      "Ġpurpose": 8248,
      "Ġbounces": 8249,
      "barrow": 8250,
      "Ġseatbelt": 8251,
      "Ġpizzas": 8252,
      "ĠStar": 8253,
      "Ġcroaked": 8254,
      "Ġwheelbarrow": 8255,
      "Ġrelaxing": 8256,
      "Ġhunting": 8257,
      "Ġaware": 8258,
      "Ġhoops": 8259,
      "Ġgrandd": 8260,
      "Ġdestroying": 8261,
      "Ġbracelets": 8262,
      "Ġcrocodiles": 8263,
      "Ġdisturbing": 8264,
      "ĠSeeing": 8265,
      "ĠDaniel": 8266,
      "Ġactivity": 8267,
      "ĠFrankie": 8268,
      "Ġexpecting": 8269,
      "ĠJanie": 8270,
      "Ġtemptation": 8271,
      "Ġopportun": 8272,
      "Ġsteering": 8273,
      "anne": 8274,
      "Ġcustomer": 8275,
      "ĠHootie": 8276,
      "Ġflashing": 8277,
      "Maddy": 8278,
      "Ġunwra": 8279,
      "Ġdrowned": 8280,
      "Ġnuzzled": 8281,
      "Brownie": 8282,
      "Ġstethoscope": 8283,
      "Ġcongratulated": 8284,
      "Ġyelped": 8285,
      "Abby": 8286,
      "Co": 8287,
      "Cindy": 8288,
      "Honey": 8289,
      "Lena": 8290,
      "Mira": 8291,
      "Too": 8292,
      "da": 8293,
      "flowers": 8294,
      "lers": 8295,
      "olph": 8296,
      "po": 8297,
      "py": 8298,
      "rily": 8299,
      "ĠOkay": 8300,
      "Ġtilted": 8301,
      "Ġsens": 8302,
      "Ġtheat": 8303,
      "Ġbless": 8304,
      "ita": 8305,
      "Ġdarl": 8306,
      "Ġwasting": 8307,
      "ĠTry": 8308,
      "ili": 8309,
      "ĠSadie": 8310,
      "ammy": 8311,
      "Ġbea": 8312,
      "Ġplayd": 8313,
      "ĠBuggy": 8314,
      "Ġshave": 8315,
      "Ġshimmering": 8316,
      "Ġbond": 8317,
      "icle": 8318,
      "icia": 8319,
      "Ġblown": 8320,
      "Ġtapping": 8321,
      "Ġuntied": 8322,
      "ĠJosie": 8323,
      "Ġchecks": 8324,
      "ctric": 8325,
      "Ġraising": 8326,
      "ÅĵSure": 8327,
      "sol": 8328,
      "ĠNice": 8329,
      "Ġstepping": 8330,
      "ulars": 8331,
      "Ġvisitors": 8332,
      "Ġpetting": 8333,
      "ugging": 8334,
      "Ġriverbank": 8335,
      "Ġwinking": 8336,
      "Ġcourt": 8337,
      "Ġnecks": 8338,
      "Ġcheerfully": 8339,
      "ÅĵIf": 8340,
      "ĠGold": 8341,
      "ĠOnly": 8342,
      "Ġbattle": 8343,
      "Ġbreaths": 8344,
      "Ġchecking": 8345,
      "Ġturtles": 8346,
      "Ġfigures": 8347,
      "Ġterrified": 8348,
      "Ġscares": 8349,
      "Ġlizards": 8350,
      "Ġrats": 8351,
      "Ġknocking": 8352,
      "Ġtraps": 8353,
      "udolph": 8354,
      "Ġbinoc": 8355,
      "Ġvests": 8356,
      "Ġshorts": 8357,
      "Ġapplauding": 8358,
      "Ġfleas": 8359,
      "Ġthumbs": 8360,
      "Ġflaps": 8361,
      "Ġinchworm": 8362,
      "ĠTwinkle": 8363,
      "ĠAnother": 8364,
      "ĠPlaying": 8365,
      "ĠNancy": 8366,
      "Ġembarrassing": 8367,
      "ĠPrince": 8368,
      "Ġnibble": 8369,
      "Ġconquered": 8370,
      "Ġnurses": 8371,
      "ĠPuppy": 8372,
      "Ġprickly": 8373,
      "Ġcompanion": 8374,
      "Ġtheatre": 8375,
      "Ġdarlings": 8376,
      "Ġbinoculars": 8377,
      "Aunt": 8378,
      "Poppy": 8379,
      "Sophia": 8380,
      "ew": 8381,
      "ieter": 8382,
      "jest": 8383,
      "lied": 8384,
      "Ġill": 8385,
      "Ġbas": 8386,
      "Ġcuc": 8387,
      "isdom": 8388,
      "Ġgaz": 8389,
      "atitude": 8390,
      "ani": 8391,
      "Ġrumbling": 8392,
      "rick": 8393,
      "ĠmomÃ¢": 8394,
      "Ġwhales": 8395,
      "ĠMag": 8396,
      "ĠMamma": 8397,
      "Ġboards": 8398,
      "aint": 8399,
      "Ġclerk": 8400,
      "getic": 8401,
      "Ġfaith": 8402,
      "Ġtreas": 8403,
      "Ġchili": 8404,
      "ĠEver": 8405,
      "Ġswat": 8406,
      "Ġbloss": 8407,
      "ĠDoug": 8408,
      "Ġquieter": 8409,
      "empt": 8410,
      "Ġends": 8411,
      "Ġgratitude": 8412,
      "ĠCD": 8413,
      "Ġglittered": 8414,
      "ĠPet": 8415,
      "ĠPretty": 8416,
      "Ġmeaning": 8417,
      "ĠRay": 8418,
      "ĠRos": 8419,
      "ĠRudolph": 8420,
      "Ġsquaw": 8421,
      "Ġsingers": 8422,
      "Ġsets": 8423,
      "Ġslowed": 8424,
      "ĠKevin": 8425,
      "Ġjoyfully": 8426,
      "Ġemb": 8427,
      "Ġattempt": 8428,
      "earl": 8429,
      "Ġtownspe": 8430,
      "Ġteachers": 8431,
      "Ġactive": 8432,
      "Stay": 8433,
      "Everyday": 8434,
      "Ġanswering": 8435,
      "Ġhumming": 8436,
      "Ġwhisk": 8437,
      "ippers": 8438,
      "Ġorders": 8439,
      "Ġcrawls": 8440,
      "Ġgoats": 8441,
      "Ġrescuing": 8442,
      "Ġtoothbrush": 8443,
      "Ġmischie": 8444,
      "Ġgrandbaby": 8445,
      "Ġquestioned": 8446,
      "Ġotters": 8447,
      "ĠFinny": 8448,
      "ĠTrust": 8449,
      "ĠPeggy": 8450,
      "Ġstudent": 8451,
      "Ġfloats": 8452,
      "ĠIsn": 8453,
      "Ġcalmer": 8454,
      "ĠJonny": 8455,
      "Ġwounds": 8456,
      "ĠBirdie": 8457,
      "Freddy": 8458,
      "Ġrobbers": 8459,
      "Ġbeaming": 8460,
      "ĠQuackers": 8461,
      "Ġmatey": 8462,
      "Ġtownspeople": 8463,
      "Ġmischievous": 8464,
      "Mon": 8465,
      "Red": 8466,
      "bu": 8467,
      "oor": 8468,
      "ping": 8469,
      "Ġtips": 8470,
      "Ġbitten": 8471,
      "Ġwaking": 8472,
      "Ġpouch": 8473,
      "omb": 8474,
      "Ġgrip": 8475,
      "enn": 8476,
      "Ġhab": 8477,
      "anie": 8478,
      "onnie": 8479,
      "oto": 8480,
      "Ġriddle": 8481,
      "Ġweighing": 8482,
      "ĠBang": 8483,
      "endant": 8484,
      "Ġwhimp": 8485,
      "ĠMan": 8486,
      "Ġlevers": 8487,
      "Ġflashed": 8488,
      "ĠDin": 8489,
      "ĠDot": 8490,
      "apot": 8491,
      "Ġposes": 8492,
      "Ġpeep": 8493,
      "Ġskies": 8494,
      "Ġoverhead": 8495,
      "Ġbubbly": 8496,
      "Ġsnug": 8497,
      "Ġgrumbled": 8498,
      "ĠCro": 8499,
      "Ġgardens": 8500,
      "Ġteapot": 8501,
      "Ġdoorbell": 8502,
      "Ġunfortunately": 8503,
      "Ġbluebird": 8504,
      "ĠSpanish": 8505,
      "ĠRiley": 8506,
      "Ġsandy": 8507,
      "Ġmesses": 8508,
      "Ġmessages": 8509,
      "Jacky": 8510,
      "Ġpolar": 8511,
      "Ġelectric": 8512,
      "Ġwelcoming": 8513,
      "Ġexpert": 8514,
      "Ġreturning": 8515,
      "Ġzooms": 8516,
      "Ġsupplied": 8517,
      "Ġreminds": 8518,
      "Ġburns": 8519,
      "Ġdecoration": 8520,
      "ĠZee": 8521,
      "Ġapology": 8522,
      "Ġawhile": 8523,
      "keepers": 8524,
      "Ġargument": 8525,
      "Ġsqueezes": 8526,
      "undred": 8527,
      "Ġsupported": 8528,
      "Ġkayaking": 8529,
      "Ġscolds": 8530,
      "Ġenergetic": 8531,
      "ĠPatches": 8532,
      "Ġstrokes": 8533,
      "Ġsqueaky": 8534,
      "Ġmosquitoes": 8535,
      "Ġfascinating": 8536,
      "Ġspilling": 8537,
      "Robbie": 8538,
      "etchup": 8539,
      "Ġclicked": 8540,
      "Ġswaying": 8541,
      "Ġcowboys": 8542,
      "ĠAuntie": 8543,
      "Ġcommunicate": 8544,
      "Ġexpression": 8545,
      "Ġmanager": 8546,
      "Ġsoothing": 8547,
      "Ġdiscou": 8548,
      "Ġtreasured": 8549,
      "Gina": 8550,
      "Mat": 8551,
      "Nice": 8552,
      "car": 8553,
      "please": 8554,
      "rough": 8555,
      "uice": 8556,
      "vince": 8557,
      "ware": 8558,
      "Ġwig": 8559,
      "Ġbuddy": 8560,
      "Ġhood": 8561,
      "Ġhike": 8562,
      "Ġwaded": 8563,
      "ĠTurt": 8564,
      "ĠTerry": 8565,
      "Ġnapped": 8566,
      "aning": 8567,
      "orking": 8568,
      "ormed": 8569,
      "lle": 8570,
      "llas": 8571,
      "Ġinvent": 8572,
      "Ġforce": 8573,
      "Ġformed": 8574,
      "ended": 8575,
      "Ġketchup": 8576,
      "Ġrewards": 8577,
      "ĠMother": 8578,
      "Ġashes": 8579,
      "Ġjing": 8580,
      "Ġclue": 8581,
      "ĠwhatÃ¢": 8582,
      "ĠLion": 8583,
      "ĠLots": 8584,
      "ĠEric": 8585,
      "ĠMomma": 8586,
      "emon": 8587,
      "Ġflowing": 8588,
      "ĠCla": 8589,
      "Yesterday": 8590,
      "Ġcheated": 8591,
      "Ġglisten": 8592,
      "Ġgliding": 8593,
      "ÅĵPlease": 8594,
      "Ġfinishes": 8595,
      "Ġconcent": 8596,
      "Ġconvince": 8597,
      "Ġdiso": 8598,
      "Josh": 8599,
      "Ġbaa": 8600,
      "Ġinstantly": 8601,
      "balls": 8602,
      "Ġpreschool": 8603,
      "Goodnight": 8604,
      "Ġwildflowers": 8605,
      "Ġminds": 8606,
      "Ġpleas": 8607,
      "Ġstirs": 8608,
      "Ġtesting": 8609,
      "Beep": 8610,
      "ĠBehind": 8611,
      "Ġtickling": 8612,
      "Ġteams": 8613,
      "Ġcheckout": 8614,
      "ĠFreddie": 8615,
      "Ġcheaper": 8616,
      "Ġlabels": 8617,
      "udged": 8618,
      "Ġumbrellas": 8619,
      "Ġimproving": 8620,
      "ĠPeep": 8621,
      "Ġscurrying": 8622,
      "Ġpedaling": 8623,
      "Ġannounced": 8624,
      "Ġparticularly": 8625,
      "Ġchoosing": 8626,
      "Ġannoying": 8627,
      "Ġyumm": 8628,
      "ĠMonkey": 8629,
      "ĠAshley": 8630,
      "Ġresponsibility": 8631,
      "Betty": 8632,
      "Ġroutine": 8633,
      "Ġgazing": 8634,
      "Ġembra": 8635,
      "Ġdiscouraged": 8636,
      "Ġconcentr": 8637,
      "Deal": 8638,
      "Hop": 8639,
      "Lucky": 8640,
      "Lizzy": 8641,
      "Ol": 8642,
      "Put": 8643,
      "Ralph": 8644,
      "Snow": 8645,
      "Zoe": 8646,
      "cuit": 8647,
      "fly": 8648,
      "five": 8649,
      "rite": 8650,
      "rupt": 8651,
      "ulp": 8652,
      "xophone": 8653,
      "Ãĥ": 8654,
      "Ġbis": 8655,
      "Ġfet": 8656,
      "Ġfade": 8657,
      "Ġlim": 8658,
      "Ġlump": 8659,
      "Ġcages": 8660,
      "ĠTiger": 8661,
      "ĠToto": 8662,
      "Ġodd": 8663,
      "Ġsaxophone": 8664,
      "ĠSummer": 8665,
      "ĠHold": 8666,
      "ĠIzzy": 8667,
      "elve": 8668,
      "elope": 8669,
      "Ġwhined": 8670,
      "Ġwhipped": 8671,
      "Ġkit": 8672,
      "ĠMin": 8673,
      "Ġsmelt": 8674,
      "ĠAr": 8675,
      "hings": 8676,
      "ĠJelly": 8677,
      "Ġclut": 8678,
      "arefully": 8679,
      "Ġsculp": 8680,
      "Ġroast": 8681,
      "Ġsometime": 8682,
      "Ġbirdhouse": 8683,
      "agine": 8684,
      "ift": 8685,
      "ĠLy": 8686,
      "Ġchill": 8687,
      "Ġswallow": 8688,
      "Ġswitched": 8689,
      "ĠDra": 8690,
      "oured": 8691,
      "Ġoverwhe": 8692,
      "Thomas": 8693,
      "Ġhardest": 8694,
      "Ġrocky": 8695,
      "Ġcons": 8696,
      "ĠPen": 8697,
      "ĠPearl": 8698,
      "Ġunco": 8699,
      "Ġwrit": 8700,
      "Ġmajest": 8701,
      "Ġdev": 8702,
      "Ġdears": 8703,
      "ĠRight": 8704,
      "Ġcris": 8705,
      "Ġtricycle": 8706,
      "Ġbowing": 8707,
      "asha": 8708,
      "Ġguide": 8709,
      "Ġguards": 8710,
      "Ġdryer": 8711,
      "Ġdrying": 8712,
      "ĠOink": 8713,
      "izza": 8714,
      "Ġtunes": 8715,
      "Everything": 8716,
      "ĠStella": 8717,
      "Ġcooper": 8718,
      "Ġships": 8719,
      "Ġcherish": 8720,
      "Ġharmony": 8721,
      "Alright": 8722,
      "Ġcops": 8723,
      "Ġlowered": 8724,
      "Ġscratching": 8725,
      "Ġtorto": 8726,
      "Ġmelody": 8727,
      "ĠPatch": 8728,
      "Ġquarre": 8729,
      "Ġburnt": 8730,
      "Ġsprinkle": 8731,
      "Ġoffering": 8732,
      "Ġairplanes": 8733,
      "ĠReady": 8734,
      "ibly": 8735,
      "Ġappearance": 8736,
      "Ġcontainer": 8737,
      "Ġhonks": 8738,
      "ĠElsie": 8739,
      "Ġgasps": 8740,
      "Ġinstrument": 8741,
      "Ġdetails": 8742,
      "Ġjuggling": 8743,
      "Ġslithered": 8744,
      "Ġcharacters": 8745,
      "Ġblonde": 8746,
      "elieve": 8747,
      "Ġsurvive": 8748,
      "Ġgallop": 8749,
      "Ġgranddaughter": 8750,
      "Ġbiscuit": 8751,
      "Ġsculpture": 8752,
      "Ġoverwhel": 8753,
      "Arrr": 8754,
      "Bu": 8755,
      "Big": 8756,
      "Feeling": 8757,
      "Got": 8758,
      "Never": 8759,
      "lo": 8760,
      "lor": 8761,
      "off": 8762,
      "Ġouch": 8763,
      "Ġicky": 8764,
      "rest": 8765,
      "Ġmunched": 8766,
      "Ġpuck": 8767,
      "Ġpipes": 8768,
      "ĠTy": 8769,
      "ĠTin": 8770,
      "ative": 8771,
      "ĠSil": 8772,
      "Ġplumber": 8773,
      "sty": 8774,
      "stantly": 8775,
      "Ġrebu": 8776,
      "ĠMoo": 8777,
      "ĠAng": 8778,
      "ics": 8779,
      "Ġknit": 8780,
      "ĠJet": 8781,
      "icking": 8782,
      "ĠWas": 8783,
      "Ġprank": 8784,
      "elle": 8785,
      "ooks": 8786,
      "Ġblushed": 8787,
      "Ġblades": 8788,
      "ĠDe": 8789,
      "aps": 8790,
      "Ġhoot": 8791,
      "Ġpeas": 8792,
      "Ġslipping": 8793,
      "Ġslapping": 8794,
      "Ġbund": 8795,
      "ĠSofia": 8796,
      "Ġglared": 8797,
      "Ġunderwater": 8798,
      "Ġcleans": 8799,
      "ĠPaw": 8800,
      "Ġrealizes": 8801,
      "Ġunable": 8802,
      "ĠGabby": 8803,
      "Ġsurely": 8804,
      "ĠRoo": 8805,
      "Ġsquinted": 8806,
      "Ġdifferently": 8807,
      "Ġfloppy": 8808,
      "Ġsweetly": 8809,
      "iggle": 8810,
      "Ġbuckled": 8811,
      "Ġbenches": 8812,
      "Ġinvites": 8813,
      "Ġpatients": 8814,
      "ĠOak": 8815,
      "ĠOuch": 8816,
      "Ġfeathered": 8817,
      "Ġfootprin": 8818,
      "Ġpasses": 8819,
      "Ġservant": 8820,
      "ĠStill": 8821,
      "ĠDonÃ¢": 8822,
      "ĠBea": 8823,
      "Ġchews": 8824,
      "Ġmiracle": 8825,
      "Ġsharks": 8826,
      "Ġzips": 8827,
      "ĠAlexa": 8828,
      "Ġsupporting": 8829,
      "Ġmayor": 8830,
      "Ġcrystals": 8831,
      "Ġbackpacks": 8832,
      "Ġhaircuts": 8833,
      "Ġunlocking": 8834,
      "Ġpressing": 8835,
      "Choo": 8836,
      "Ġmeatballs": 8837,
      "Quack": 8838,
      "ĠCatty": 8839,
      "Ġopinions": 8840,
      "Mikey": 8841,
      "ĠJonathan": 8842,
      "ĠOutside": 8843,
      "Ġattacked": 8844,
      "ĠSmokey": 8845,
      "Ġpossess": 8846,
      "Ġdefeated": 8847,
      "Ġpositive": 8848,
      "Ġwriggled": 8849,
      "Ġdodged": 8850,
      "Ġcollapsed": 8851,
      "Ġcorrectly": 8852,
      "Ġpeeped": 8853,
      "Ġglistening": 8854,
      "Ġdisobey": 8855,
      "Ġwriter": 8856,
      ",'": 8857,
      "Gre": 8858,
      "Gabby": 8859,
      "Jacob": 8860,
      "Kayla": 8861,
      "Mabel": 8862,
      "Papa": 8863,
      "abr": 8864,
      "ders": 8865,
      "just": 8866,
      "mie": 8867,
      "Ġ5": 8868,
      "Ġtum": 8869,
      "nded": 8870,
      "Ġtopp": 8871,
      "Ġbomb": 8872,
      "Ġhundred": 8873,
      "Ġlar": 8874,
      "erg": 8875,
      "Ġwashes": 8876,
      "ĠTime": 8877,
      "Ġhaven": 8878,
      "Ġthump": 8879,
      "ĠHoney": 8880,
      "Ġinches": 8881,
      "Ġroo": 8882,
      "aming": 8883,
      "Ġbeast": 8884,
      "chy": 8885,
      "Ġshines": 8886,
      "Ġnoticing": 8887,
      "Ġwhine": 8888,
      "ĠMine": 8889,
      "Ġspare": 8890,
      "ĠJason": 8891,
      "Ġbacks": 8892,
      "Ġfunn": 8893,
      "Ġroamed": 8894,
      "ĠWoo": 8895,
      "ĠWisdom": 8896,
      "Ġworst": 8897,
      "ddie": 8898,
      "Ġparks": 8899,
      "ĠLenny": 8900,
      "Ġblob": 8901,
      "uster": 8902,
      "Ġsleds": 8903,
      "Ġfoam": 8904,
      "ĠJackÃ¢": 8905,
      "Ġglided": 8906,
      "Ġglimmering": 8907,
      "Ġracer": 8908,
      "ÅĵHow": 8909,
      "Ġbadger": 8910,
      "ĠPink": 8911,
      "ĠPup": 8912,
      "ĠRuth": 8913,
      "Ġstores": 8914,
      "Ġcrops": 8915,
      "ĠDove": 8916,
      "shadow": 8917,
      "Ġstew": 8918,
      "Ġhotter": 8919,
      "Ġcountries": 8920,
      "ĠGrand": 8921,
      "angle": 8922,
      "idents": 8923,
      "Ġsprang": 8924,
      "Ġsmoking": 8925,
      "Ġpractised": 8926,
      "Ġzookeepers": 8927,
      "Ġprotection": 8928,
      "Ġserving": 8929,
      "Ġharvest": 8930,
      "Ġmeadows": 8931,
      "Ġpostc": 8932,
      "Emmy": 8933,
      "Ġguarding": 8934,
      "Ġcurl": 8935,
      "faction": 8936,
      "Ġengines": 8937,
      "Ġcompliment": 8938,
      "Ġexercising": 8939,
      "aitlyn": 8940,
      "Ġpoisonous": 8941,
      "ccidents": 8942,
      "ĠVery": 8943,
      "Ġsatisfaction": 8944,
      "ĠMegan": 8945,
      "ĠJean": 8946,
      "Ġrevealing": 8947,
      "Ġbehaviour": 8948,
      "annon": 8949,
      "ĠPoor": 8950,
      "Which": 8951,
      "Someone": 8952,
      "Ġscenery": 8953,
      "Ġinju": 8954,
      "Suzy": 8955,
      "Ġcrafts": 8956,
      "Ġpounds": 8957,
      "ĠBrian": 8958,
      "Ġlocal": 8959,
      "Ġopportunity": 8960,
      "Ġbeaver": 8961,
      "Ġelectricity": 8962,
      "ĠClaus": 8963,
      "Ġoverwhelmed": 8964,
      "abrina": 8965,
      "Ġtummies": 8966,
      "!'.": 8967,
      "Curious": 8968,
      "David": 8969,
      "Fro": 8970,
      "Hold": 8971,
      "Hmm": 8972,
      "Im": 8973,
      "Moo": 8974,
      "Nick": 8975,
      "Sc": 8976,
      "Zoom": 8977,
      "aving": 8978,
      "gar": 8979,
      "oard": 8980,
      "pr": 8981,
      "ww": 8982,
      "Ġicing": 8983,
      "ĠYum": 8984,
      "Ġborn": 8985,
      "rent": 8986,
      "Ġfaint": 8987,
      "Ġlull": 8988,
      "Ġdou": 8989,
      "Ġdashed": 8990,
      "ering": 8991,
      "Ġheels": 8992,
      "ĠTe": 8993,
      "ĠTre": 8994,
      "aron": 8995,
      "iliar": 8996,
      "Ġgorge": 8997,
      "Ġnarrow": 8998,
      "ĠSweet": 8999,
      "Ġthie": 9000,
      "lest": 9001,
      "lephant": 9002,
      "ĠHar": 9003,
      "ĠHello": 9004,
      "igger": 9005,
      "Ġripp": 9006,
      "amiliar": 9007,
      "Ġstalk": 9008,
      "ppies": 9009,
      "stand": 9010,
      "ĠweÃ¢": 9011,
      "ĠBad": 9012,
      "Ġshattered": 9013,
      "Ġwhizz": 9014,
      "Ġkilled": 9015,
      "ĠAna": 9016,
      "ĠAgain": 9017,
      "ĠButt": 9018,
      "Ġgoodness": 9019,
      "ĠLand": 9020,
      "ĠDeal": 9021,
      "Ġability": 9022,
      "Ġaboard": 9023,
      "Ġhollow": 9024,
      "Ġhoses": 9025,
      "Ġpeac": 9026,
      "Ġtraded": 9027,
      "Ġtrigger": 9028,
      "Ġmoat": 9029,
      "Ġcheat": 9030,
      "ÅĵOk": 9031,
      "ĠPick": 9032,
      "Ġunless": 9033,
      "Ġthrill": 9034,
      "ĠGoose": 9035,
      "Ġfishy": 9036,
      "ĠRani": 9037,
      "Ġamused": 9038,
      "Ġsweeter": 9039,
      "ship": 9040,
      "Ġsleeps": 9041,
      "rench": 9042,
      "Ġclaw": 9043,
      "Ġmovement": 9044,
      "Ġhunger": 9045,
      "Ġcompromise": 9046,
      "Ġcupboards": 9047,
      "ounce": 9048,
      "Ġpresence": 9049,
      "Ġpills": 9050,
      "Ġshrank": 9051,
      "Ġhummed": 9052,
      "ĠStartled": 9053,
      "Ġcoolest": 9054,
      "Ġbats": 9055,
      "Ġhonesty": 9056,
      "Ġpriv": 9057,
      "Ġstuffing": 9058,
      "Ġtickles": 9059,
      "Ġtentacles": 9060,
      "Although": 9061,
      "Ġbullies": 9062,
      "Ġcuddling": 9063,
      "Ġpantry": 9064,
      "Ġdesks": 9065,
      "Ġcurrent": 9066,
      "Ġspringtime": 9067,
      "Ġmiller": 9068,
      "ĠTrina": 9069,
      "Remy": 9070,
      "Ġchains": 9071,
      "Ġmugs": 9072,
      "Ġproviding": 9073,
      "abra": 9074,
      "Ġweighs": 9075,
      "Ġsincere": 9076,
      "Ġweapons": 9077,
      "Ġnightmares": 9078,
      "ÅĵWeÃ¢": 9079,
      "ĠRobin": 9080,
      "Ġheavily": 9081,
      "Ġcommon": 9082,
      "ĠPippa": 9083,
      "Ġecho": 9084,
      "Ġtypes": 9085,
      "Ġswirls": 9086,
      "Ġunfamiliar": 9087,
      "Ġexperiences": 9088,
      "Ġdefeat": 9089,
      "Ġproperty": 9090,
      "Ġinjured": 9091,
      "Julie": 9092,
      "Ġsnorted": 9093,
      "Ġmagnifying": 9094,
      "Ġcoughed": 9095,
      "Ġpleasant": 9096,
      "Ġtortoise": 9097,
      "Ġlarger": 9098,
      "Ġgorgeous": 9099,
      "Both": 9100,
      "Bird": 9101,
      "Je": 9102,
      "Jon": 9103,
      "Keep": 9104,
      "Mother": 9105,
      "Mimi": 9106,
      "Pam": 9107,
      "Paula": 9108,
      "Santa": 9109,
      "Ted": 9110,
      "Vroom": 9111,
[...]
