{
  "version": "1.0",
  "truncation": null,
  "padding": null,
  "added_tokens": [
    {
      "id": 0,
      "content": "<UNK>",
      "single_word": false,
      "lstrip": false,
      "rstrip": false,
      "normalized": false,
      "special": true
    },
    {
      "id": 1,
      "content": "<CLS>",
      "single_word": false,
      "lstrip": false,
      "rstrip": false,
      "normalized": false,
      "special": true
    },
    {
      "id": 2,
      "content": "<SEP>",
      "single_word": false,
      "lstrip": false,
      "rstrip": false,
      "normalized": false,
      "special": true
    },
    {
      "id": 3,
      "content": "<EN>",
      "single_word": false,
      "lstrip": false,
      "rstrip": false,
      "normalized": false,
      "special": true
    },
    {
      "id": 4,
      "content": "</EN>",
      "single_word": false,
      "lstrip": false,
      "rstrip": false,
      "normalized": false,
      "special": true
    },
    {
      "id": 5,
      "content": "<ES>",
      "single_word": false,
      "lstrip": false,
      "rstrip": false,
      "normalized": false,
      "special": true
    },
    {
      "id": 6,
      "content": "</ES>",
      "single_word": false,
      "lstrip": false,
      "rstrip": false,
      "normalized": false,
      "special": true
    },
    {
      "id": 7,
      "content": "<ZH>",
      "single_word": false,
      "lstrip": false,
      "rstrip": false,
      "normalized": false,
      "special": true
    },
    {
      "id": 8,
      "content": "</ZH>",
      "single_word": false,
      "lstrip": false,
      "rstrip": false,
      "normalized": false,
      "special": true
    },
    {
      "id": 9,
      "content": "<HI>",
      "single_word": false,
      "lstrip": false,
      "rstrip": false,
      "normalized": false,
      "special": true
    },
    {
      "id": 10,
      "content": "</HI>",
      "single_word": false,
      "lstrip": false,
      "rstrip": false,
      "normalized": false,
      "special": true
    }
  ],
  "normalizer": null,
  "pre_tokenizer": {
    "type": "ByteLevel",
    "add_prefix_space": false,
    "trim_offsets": true,
    "use_regex": true
  },
  "post_processor": {
    "type": "ByteLevel",
    "add_prefix_space": true,
    "trim_offsets": false,
    "use_regex": true
  },
  "decoder": {
    "type": "ByteLevel",
    "add_prefix_space": true,
    "trim_offsets": true,
    "use_regex": true
  },
  "model": {
    "type": "BPE",
    "dropout": null,
    "unk_token": null,
    "continuing_subword_prefix": null,
    "end_of_word_suffix": null,
    "fuse_unk": false,
    "byte_fallback": false,
    "ignore_merges": false,
    "vocab": {
      "<UNK>": 0,
      "<CLS>": 1,
      "<SEP>": 2,
      "<EN>": 3,
      "</EN>": 4,
      "<ES>": 5,
      "</ES>": 6,
      "<ZH>": 7,
      "</ZH>": 8,
      "<HI>": 9,
      "</HI>": 10,
      "!": 11,
      "\"": 12,
      "#": 13,
      "$": 14,
      "%": 15,
      "&": 16,
      "'": 17,
      "(": 18,
      ")": 19,
      "*": 20,
      "+": 21,
      ",": 22,
      "-": 23,
      ".": 24,
      "/": 25,
      "0": 26,
      "1": 27,
      "2": 28,
      "3": 29,
      "4": 30,
      "5": 31,
      "6": 32,
      "7": 33,
      "8": 34,
      "9": 35,
      ":": 36,
      ";": 37,
      "<": 38,
      "=": 39,
      ">": 40,
      "?": 41,
      "@": 42,
      "A": 43,
      "B": 44,
      "C": 45,
      "D": 46,
      "E": 47,
      "F": 48,
      "G": 49,
      "H": 50,
      "I": 51,
      "J": 52,
      "K": 53,
      "L": 54,
      "M": 55,
      "N": 56,
      "O": 57,
      "P": 58,
      "Q": 59,
      "R": 60,
      "S": 61,
      "T": 62,
      "U": 63,
      "V": 64,
      "W": 65,
      "X": 66,
      "Y": 67,
      "Z": 68,
      "[": 69,
      "\\": 70,
      "]": 71,
      "^": 72,
      "_": 73,
      "`": 74,
      "a": 75,
      "b": 76,
      "c": 77,
      "d": 78,
      "e": 79,
      "f": 80,
      "g": 81,
      "h": 82,
      "i": 83,
      "j": 84,
      "k": 85,
      "l": 86,
      "m": 87,
      "n": 88,
      "o": 89,
      "p": 90,
      "q": 91,
      "r": 92,
      "s": 93,
      "t": 94,
      "u": 95,
      "v": 96,
      "w": 97,
      "x": 98,
      "y": 99,
      "z": 100,
      "{": 101,
      "|": 102,
      "}": 103,
      "~": 104,
      "¡": 105,
      "¢": 106,
      "£": 107,
      "¤": 108,
      "¥": 109,
      "¦": 110,
      "§": 111,
      "¨": 112,
      "©": 113,
      "ª": 114,
      "«": 115,
      "¬": 116,
      "®": 117,
      "¯": 118,
      "°": 119,
      "±": 120,
      "²": 121,
      "³": 122,
      "´": 123,
      "µ": 124,
      "¶": 125,
      "·": 126,
      "¸": 127,
      "¹": 128,
      "º": 129,
      "»": 130,
      "¼": 131,
      "½": 132,
      "¾": 133,
      "¿": 134,
      "À": 135,
      "Á": 136,
      "Â": 137,
      "Ã": 138,
      "Ä": 139,
      "Å": 140,
      "Æ": 141,
      "Ç": 142,
      "È": 143,
      "É": 144,
      "Ê": 145,
      "Ë": 146,
      "Ì": 147,
      "Í": 148,
      "Î": 149,
      "Ï": 150,
      "Ð": 151,
      "Ñ": 152,
      "Ò": 153,
      "Ó": 154,
      "Ô": 155,
      "Õ": 156,
      "Ö": 157,
      "×": 158,
      "Ø": 159,
      "Ù": 160,
      "Ú": 161,
      "Û": 162,
      "Ü": 163,
      "Ý": 164,
      "Þ": 165,
      "ß": 166,
      "à": 167,
      "á": 168,
      "â": 169,
      "ã": 170,
      "ä": 171,
      "å": 172,
      "æ": 173,
      "ç": 174,
      "è": 175,
      "é": 176,
      "ê": 177,
      "ë": 178,
      "ì": 179,
      "í": 180,
      "î": 181,
      "ï": 182,
      "ð": 183,
      "ñ": 184,
      "ò": 185,
      "ó": 186,
      "ô": 187,
      "õ": 188,
      "ö": 189,
      "÷": 190,
      "ø": 191,
      "ù": 192,
      "ú": 193,
      "û": 194,
      "ü": 195,
      "ý": 196,
      "þ": 197,
      "ÿ": 198,
      "Ā": 199,
      "ā": 200,
      "Ă": 201,
      "ă": 202,
      "Ą": 203,
      "ą": 204,
      "Ć": 205,
      "ć": 206,
      "Ĉ": 207,
      "ĉ": 208,
      "Ċ": 209,
      "ċ": 210,
      "Č": 211,
      "č": 212,
      "Ď": 213,
      "ď": 214,
      "Đ": 215,
      "đ": 216,
      "Ē": 217,
      "ē": 218,
      "Ĕ": 219,
      "ĕ": 220,
      "Ė": 221,
      "ė": 222,
      "Ę": 223,
      "ę": 224,
      "Ě": 225,
      "ě": 226,
      "Ĝ": 227,
      "ĝ": 228,
      "Ğ": 229,
      "ğ": 230,
      "Ġ": 231,
      "ġ": 232,
      "Ģ": 233,
      "ģ": 234,
      "Ĥ": 235,
      "ĥ": 236,
      "Ħ": 237,
      "ħ": 238,
      "Ĩ": 239,
      "ĩ": 240,
      "Ī": 241,
      "ī": 242,
      "Ĭ": 243,
      "ĭ": 244,
      "Į": 245,
      "į": 246,
      "İ": 247,
      "ı": 248,
      "Ĳ": 249,
      "ĳ": 250,
      "Ĵ": 251,
      "ĵ": 252,
      "Ķ": 253,
      "ķ": 254,
      "ĸ": 255,
      "Ĺ": 256,
      "ĺ": 257,
      "Ļ": 258,
      "ļ": 259,
      "Ľ": 260,
      "ľ": 261,
      "Ŀ": 262,
      "ŀ": 263,
      "Ł": 264,
      "ł": 265,
      "Ń": 266,
      "à¤": 267,
      "Ġà¤": 268,
      "à¥": 269,
      "à¤¾": 270,
      "à¥ĩ": 271,
      "à¤°": 272,
      "à¥Ģ": 273,
      "à¤¨": 274,
      "Ġà¤ķ": 275,
      "à¤¹": 276,
      "à¤¿": 277,
      "à¤ķ": 278,
      "à¤Ĥ": 279,
      "à¤¸": 280,
      "à¥ĭ": 281,
      "à¥į": 282,
      "à¤¤": 283,
      "à¥¤": 284,
      "à¤²": 285,
      "à¥ģ": 286,
      "Ġà¤¹": 287,
      "Ġà¤¸": 288,
      "Ġà¤®": 289,
      "Ġà¤¬": 290,
      "Ġà¤ī": 291,
      "à¤¯": 292,
      "à¤®": 293,
      "Ġà¤ª": 294,
      "à¥Ī": 295,
      "Ġà¤¥": 296,
      "Ķà¤°": 297,
      "Ġà¤Ķà¤°": 298,
      "Ġà¤¦": 299,
      "Ġà¤²": 300,
      "à¤¼": 301,
      "Ġà¤¨": 302,
      "Ġà¤µ": 303,
      "à¤¦": 304,
      "à¤¾à¥¤": 305,
      "Ġà¤īà¤¸": 306,
      "ıà¤ķ": 307,
      "Ġà¤ľ": 308,
      "à¥Ĥ": 309,
      "à¤¡": 310,
      "à¤ª": 311,
      "à¥ĩà¤Ĥ": 312,
      "Ġà¤ħ": 313,
      "Ġà¤ıà¤ķ": 314,
      "à¤Ĺ": 315,
      "Ġà¤ĸ": 316,
      "Ġà¤µà¤¹": 317,
      "Ġà¤Ĺ": 318,
      "Ġà¤°": 319,
      "Ġà¤ķà¤°": 320,
      "Ġà¤ļ": 321,
      "à¤Ł": 322,
      "à¤ľ": 323,
      "à¤ı": 324,
      "à¤ĸ": 325,
      "Ġà¤¤": 326,
      "à¥ĭà¤Ĥ": 327,
      "à¤µ": 328,
      "à¤¬": 329,
      "à¤ģ": 330,
      "à¤¶": 331,
      "à¤ļ": 332,
      "à¤ªà¤¨": 333,
      "à¤¾,": 334,
      "Ġà¤ħà¤ªà¤¨": 335,
      "Ġà¤īà¤¸à¤¨": 336,
      "à¥Īà¤Ĥ": 337,
      "Ġà¤Ĩ": 338,
      "à¥Ģà¥¤": 339,
      "à¤Ī": 340,
      "à¤¾à¤ģ": 341,
      "Ġà¤¬à¤¹": 342,
      "à¤Ľ": 343,
      "à¥Ģà¤Ĥ": 344,
      "Ġà¤ķà¤¹": 345,
      "Ġà¤°à¤¹": 346,
      "à¥Īà¥¤": 347,
      "Ġ\"": 348,
      "Ġà¤īà¤¨": 349,
      "Ġà¤Ł": 350,
      "Ġà¤Ń": 351,
      "Ġà¤¨à¤¹": 352,
      "Ġà¤ªà¤°": 353,
      "Ġà¤¯": 354,
      "Ġà¤«": 355,
      "à¥ī": 356,
      "Ġà¤ĩ": 357,
      "Ġà¤īà¤¸à¤ķ": 358,
      "à¤¥": 359,
      "Ġà¤Ľ": 360,
      "à¥ĩà¥¤": 361,
      "Ġà¤¯à¤¹": 362,
      "Ġà¤¸à¤ķ": 363,
      "à¥Īà¤Ĥà¥¤": 364,
      "Ġà¤²à¤Ĺ": 365,
      "à¤¼à¤¾": 366,
      "Ġà¤ķà¤°à¤¤": 367,
      "à¤Ń": 368,
      "Ġà¤ķà¤°à¤¨": 369,
      "Ġà¤ĩà¤¸": 370,
      "à¥Į": 371,
      "Ġà¤¶": 372,
      "à¤ıà¤ķ": 373,
      "à¤¹à¤¤": 374,
      "à¥Ģ,": 375,
      "à¤«": 376,
      "Ġà¤Ĺà¤¯": 377,
      "Ġà¤¸à¤ķà¤¤": 378,
      "à¤ķà¤°": 379,
      "à¤¼à¥ĩ": 380,
      "Ġà¤²à¤¡": 381,
      "à¤²à¤¨": 382,
      "Ġà¤ĺ": 383,
      "Ġà¤ªà¤¸": 384,
      "Ġà¤¡": 385,
      "Ġà¤¬à¤¡": 386,
      "Ġà¤¹à¤®": 387,
      "Ġà¤Ĺà¤Ī": 388,
      "!\"": 389,
      "à¤·": 390,
      "à¤Ŀ": 391,
      "à¤¼à¥Ģ": 392,
      "ĠĊ": 393,
      "à¤ł": 394,
      "à¤¹à¤°": 395,
      "Ġà¤¬à¤¨": 396,
      "à¤Ĩ": 397,
      "à¤§": 398,
      "Ġà¤®à¤¹": 399,
      "à¥Ī,": 400,
      "Ġà¤ħà¤ļ": 401,
      "Ġà¤ªà¤¹": 402,
      "à¤ĩ": 403,
      "à¤¾à¤Ĥ": 404,
      "à¥ĩ,": 405,
      "Ġà¤ļà¤²": 406,
      "Ġà¤®à¤ľ": 407,
      "à¤¢": 408,
      "Ġà¤ĵ": 409,
      "Ġà¤ľà¤¬": 410,
      "?\"": 411,
      "à¤¸à¤ķ": 412,
      "Ġà¤ªà¤ķ": 413,
      "Ġà¤®à¤¹à¤¸": 414,
      "Ġà¤¸à¤®": 415,
      "Ġà¤ĺà¤°": 416,
      "Ġà¤ĵà¤°": 417,
      "à¤¦à¤¦": 418,
      "à¤¦à¤°": 419,
      "Ġà¤®à¤¦à¤¦": 420,
      "Ġà¤°à¤ĸ": 421,
      "Ġà¤§": 422,
      "à¥Ĥà¤ģ": 423,
      "à¤ī": 424,
      "Ġà¤ªà¤¤": 425,
      "à¤°à¤¤": 426,
      "Ġà¤Ĺà¤ı": 427,
      "Ġà¤īà¤¤": 428,
      "Ġà¤ķà¤¹à¤¤": 429,
      "à¤¸à¤°": 430,
      "Ġà¤īà¤¨à¤ķ": 431,
      "Ġà¤Ĺà¤²": 432,
      "à¤ħ": 433,
      "à¥¤\"": 434,
      "à¤¤à¤¨": 435,
      "à¤¾!": 436,
      "Ġà¤¡à¤°": 437,
      "Ġà¤¸à¤¬": 438,
      "à¤¿à¤Ĥ": 439,
      "à¤ĸà¤¤": 440,
      "à¤¸à¤²": 441,
      "Ġà¤¤à¤ķ": 442,
      "Ġà¤¸à¤Ń": 443,
      "à¤°à¤ķ": 444,
      "Ġà¤ļà¤®": 445,
      "Ġà¤ħà¤¨": 446,
      "Ġà¤Ĩà¤ª": 447,
      "à¤¨à¤¤": 448,
      "à¥ĭ,": 449,
      "à¤ĸà¤¨": 450,
      "Ġà¤Ĺà¤°": 451,
      "à¤£": 452,
      "Ġà¤ĩà¤¸à¤²": 453,
      "à¤²à¤¤": 454,
      "Ġà¤ļà¤®à¤ķ": 455,
      "Ġà¤¹à¤°": 456,
      "à¤Ĺà¤²": 457,
      "à¥ģà¤Ĥ": 458,
      "à¤¯à¤µ": 459,
      "Ġà¤Ĭ": 460,
      "Ġà¤¤à¤°": 461,
      "à¤µà¤°": 462,
      "à¤¦à¤®": 463,
      "Ġà¤¬à¤ļ": 464,
      "Ġà¤ł": 465,
      "Ġà¤Ĩà¤¯": 466,
      "Ġà¤Ŀ": 467,
      "Ġà¤ı": 468,
      "à¥Ĥà¤Ĥ": 469,
      "Ġà¤Ĩà¤µ": 470,
      "Ġà¤ªà¤ķà¤¡": 471,
      "à¤ªà¤¸": 472,
      "Ġà¤¸à¤®à¤¯": 473,
      "Ġà¤īà¤¡": 474,
      "à¤¾à¤ģ,": 475,
      "à¤¼à¤¿": 476,
      "à¥Ģà¤Ĥà¥¤": 477,
      "Ġà¤ľà¤²": 478,
      "Ġà¤ĸà¤°": 479,
      "à¥ģà¤ģ": 480,
      "à¥ĭà¥¤": 481,
      "à¤ĵ": 482,
      "à¥Īà¥¤\"": 483,
      "Ġà¤Ńà¤°": 484,
      "à¤ªà¤°": 485,
      "Ġà¤Ĳ": 486,
      "Ġà¤ħà¤¬": 487,
      "à¤ķà¤²": 488,
      "Ġà¤īà¤ł": 489,
      "à¥ĩà¤Ĥ,": 490,
      "à¤®à¤¨": 491,
      "Ġà¤Ĩà¤¦à¤®": 492,
      "à¤Łà¤°": 493,
      "Ġà¤ķà¤Ń": 494,
      "à¤µà¤§": 495,
      "Ġà¤ķà¤Ī": 496,
      "Ġà¤§à¤¨": 497,
      "à¤µà¤¹": 498,
      "Ġà¤¸à¤¬à¤¸": 499,
      "à¤¯à¤¹": 500,
      "Ġà¤¢": 501,
      "à¤¸à¤®": 502,
      "Ġà¤Ĳà¤¸": 503,
      "Ġà¤¬à¤¤": 504,
      "à¥Īà¤Ĥ,": 505,
      "Ġà¤ķà¤®": 506,
      "à¥Ī!\"": 507,
      "Ġà¤Ĩà¤¨": 508,
      "Ġà¤ªà¤¹à¤²": 509,
      "à¤ľà¤¬": 510,
      "à¤ľà¤¨": 511,
      "Ġà¤°à¤¹à¤¤": 512,
      "Ġà¤Ĩà¤ªà¤ķ": 513,
      "Ġà¤ĩà¤¤à¤¨": 514,
      "Ġà¤īà¤¦": 515,
      "à¤¨à¤¨": 516,
      "à¤°à¤°": 517,
      "Ġà¤¤à¤°à¤¹": 518,
      "à¤¸à¤¨": 519,
      "Ġà¤ħà¤²": 520,
      "à¤¤à¤°": 521,
      "à¤¨à¤µà¤°": 522,
      "à¥Ģà¤Ĥ,": 523,
      "Ġà¤Ĭà¤ªà¤°": 524,
      "à¤Ĺà¤¨": 525,
      "à¤¼à¥ĭà¤Ĥ": 526,
      "Ġà¤¦à¤°": 527,
      "Ġà¤ľà¤Ĺ": 528,
      "à¥Ģ!": 529,
      "à¤īà¤¨": 530,
      "Ġà¤ľà¤Ĺà¤¹": 531,
      "Ġà¤ķà¤®à¤°": 532,
      "Ġà¤ªà¤¡": 533,
      "à¤¯à¤°": 534,
      "Ġà¤¬à¤Ĺ": 535,
      "à¥Īà¤Ĥà¥¤\"": 536,
      "à¤¾à¥¤\"": 537,
      "Ġà¤¨à¤¯": 538,
      "à¤ĩà¤¡": 539,
      "à¤Łà¤¨": 540,
      "à¤ıà¤Ĺ": 541,
      "Ġà¤Ĩà¤Ī": 542,
      "à¤īà¤¸à¤ķ": 543,
      "Ġà¤ľà¤µ": 544,
      "à¤Ĺà¤°": 545,
      "à¤°à¤ľ": 546,
      "Ġà¤ħà¤Ń": 547,
      "ãĤ": 548,
      "à¤®à¤¤": 549,
      "Ġà¤°à¤¹à¤¨": 550,
      "à¤µà¤¨": 551,
      "Ġà¤ļà¤¢": 552,
      "Ġà¤¨à¤ı": 553,
      "à¥Ī?\"": 554,
      "Ġà¤ĸà¤°à¤Ĺ": 555,
      "à¥ĥ": 556,
      "à¤¾.": 557,
      "Ġà¤¸à¤¹": 558,
      "à¤ļà¤°": 559,
      "à¤¤à¤²": 560,
      "à¤¹à¤¤à¤°": 561,
      "à¤ļà¤¨": 562,
      "à¥ĭà¥¤\"": 563,
      "Ġà¤¬à¤ľ": 564,
      "Ġà¤¶à¤°": 565,
      "à¤¤à¤ľ": 566,
      "à¤¾!\"": 567,
      "à¥ĭ!\"": 568,
      "Ġà¤¤à¤²": 569,
      "Ġà¤®à¤®": 570,
      "à¤¥à¤°": 571,
      "à¤®à¤¸": 572,
      "Ġà¤¹à¤µ": 573,
      "à¤ķà¤¨": 574,
      "Ġà¤¸à¤®à¤Ŀ": 575,
      "Ġà¤īà¤¸à¤¸": 576,
      "Ġà¤ķà¤ª": 577,
      "à¤ķà¤¡": 578,
      "à¤¼à¥ĩà¤Ĥ": 579,
      "Ġà¤ľà¤¹": 580,
      "Ġà¤Ĩà¤¸à¤®": 581,
      "à¤Ĺà¤¤": 582,
      "à¤ļà¤¤": 583,
      "Ġà¤¦à¤°à¤µ": 584,
      "à¤¯à¤ķ": 585,
      "à¤¨à¤ķ": 586,
      "Ġà¤Ĩà¤¤": 587,
      "à¤¯à¤¦": 588,
      "Ġà¤¤à¤¸": 589,
      "à¤¨à¤¹": 590,
      "à¤¨à¤¦": 591,
      "à¤¤à¤Ń": 592,
      "à¤²à¤ķà¤°": 593,
      "Ġà¤ħà¤ķ": 594,
      "à¤°à¤®": 595,
      "à¤¼à¥ĭ": 596,
      "Ġà¤ľà¤®": 597,
      "à¤ľà¤°": 598,
      "à¤Ľà¤²": 599,
      "Ġà¤ªà¤¹à¤¨": 600,
      "à¤¸à¤¤": 601,
      "Ġà¤°à¤ĸà¤¨": 602,
      "à¤īà¤¸à¤¨": 603,
      "à¤¬à¤¸": 604,
      "à¥ĩà¤Ĥà¥¤": 605,
      "Ġà¤Ĩà¤°": 606,
      "à¤¶à¤¨": 607,
      "à¤¼à¥į": 608,
      "à¤¦à¤¨": 609,
      "à¤ħà¤¨": 610,
      "Ġà¤¬à¤°": 611,
      "Ġà¤²à¤Ĺà¤¤": 612,
      "à¥Ģ-": 613,
      "Ġà¤®à¤¤": 614,
      "à¤¹à¤¸": 615,
      "Ġà¤®à¤Ľà¤²": 616,
      "à¥ĭ?\"": 617,
      "à¤ĩà¤¨": 618,
      "à¤ĩà¤ķ": 619,
      "à¤°à¤°à¤°à¤°": 620,
      "Ġà¤¬à¤¢": 621,
      "à¥Ĥà¤ģà¥¤": 622,
      "ãĤ¢": 623,
      "à¥ĩ-": 624,
      "à¤ªà¤ķ": 625,
      "Ġà¤¬à¤¸": 626,
      "Ġà¤Ĩà¤Ĺ": 627,
      "à¤¬à¤²": 628,
      "Ġà¤®à¤¹à¤¤": 629,
      "Ġà¤ıà¤®": 630,
      "Ġà¤ħà¤²à¤Ĺ": 631,
      "Ġà¤¤à¤Ń": 632,
      "à¤°à¤¨": 633,
      "Ġà¤¸à¤«": 634,
      "à¤ªà¤¯": 635,
      "à¤°à¤¦": 636,
      "Ġà¤°à¤¸": 637,
      "à¤¹à¤®": 638,
      "Ġà¤ħà¤¦": 639,
      "à¥Īà¤Ĥ?\"": 640,
      "à¤¾-": 641,
      "à¤µà¤ª": 642,
      "Ġà¤Ĺà¤²à¤¤": 643,
      "à¤ĺ": 644,
      "à¤¦à¤²": 645,
      "à¤Ĩà¤Ĩ": 646,
      "Ġà¤®à¤¨": 647,
      "Ġà¤ħà¤Ĺà¤°": 648,
      "Ġà¤Ĩà¤ķ": 649,
      "à¥Ī!": 650,
      "à¤Ľà¤¤": 651,
      "Ġà¤Ĩà¤ľ": 652,
      "Ġà¤ķà¤ªà¤¡": 653,
      "à¤¦à¤¤": 654,
      "à¤ĸà¤ķà¤°": 655,
      "à¤Ĥà¥¤": 656,
      "à¥Ģà¥¤\"": 657,
      "Ġà¤¬à¤ķ": 658,
      "à¥Ĥà¤ģà¥¤\"": 659,
      "à¥Īà¤Ĥ!\"": 660,
      "Ġà¤Ĩà¤¸": 661,
      "Ġà¤¸à¤°": 662,
      "Ġà¤ĸà¤¤": 663,
      "à¤¬à¤¹": 664,
      "Ġà¤¥à¤ķ": 665,
      "à¤²à¤¡": 666,
      "Ġà¤«à¤°": 667,
      "Ġà¤īà¤¸à¤®": 668,
      "Ġà¤ļà¤®à¤ķà¤¦": 669,
      "Ġà¤ĩà¤¸à¤ķ": 670,
      "Ġà¤¦à¤¯": 671,
      "Ġà¤¤à¤¯": 672,
      "à¤¼à¤¾à¥¤": 673,
      "à¤ķà¤¤": 674,
      "à¤°à¤£": 675,
      "Ġà¤ĩà¤¸à¤¸": 676,
      "à¤ĩà¤¸": 677,
      "Ġà¤ħà¤ľ": 678,
      "à¤ŀ": 679,
      "à¤ķà¤Ń": 680,
      "à¤Ĭ": 681,
      "Ġà¤ķà¤²": 682,
      "à¤¡à¤µ": 683,
      "Ġà¤°à¤ĸà¤¤": 684,
      "à¤ļà¤ķ": 685,
      "Ġ-": 686,
      "à¤¬à¤°": 687,
      "Ġà¤Ĩà¤ĸ": 688,
      "à¤ļà¤²": 689,
      "à¤®à¤®": 690,
      "Ġà¤ªà¤¢": 691,
      "Ġà¤¨à¤Ī": 692,
      "à¥ĭ!": 693,
      "à¤µà¤²": 694,
      "Ġà¤¸à¤¬à¤ķ": 695,
      "Ġà¤¨à¤°à¤®": 696,
      "Ġà¤īà¤®": 697,
      "Ġà¤®à¤ľà¤¬": 698,
      "Ġà¤¤à¤°à¤«": 699,
      "Ġà¤Ĩà¤ı": 700,
      "à¤¸à¤ķà¤°": 701,
      "à¥Ĥà¤ģ?\"": 702,
      "à¤Ĺà¤ľ": 703,
      "à¤īà¤¸": 704,
      "à¥ĩà¥¤\"": 705,
      "à¤®à¤¦": 706,
      "à¤ĩà¤¸à¤ķ": 707,
      "Ġà¤Ľà¤¡": 708,
      "à¤°à¤²": 709,
      "à¥ĩ!": 710,
      "à¥Ĥà¤ģ,": 711,
      "à¥Ģ!\"": 712,
      "Ġà¤¸à¤ªà¤¨": 713,
      "Ġà¤ıà¤¹à¤¸": 714,
      "à¤¬à¤¡": 715,
      "à¤¾?\"": 716,
      "à¤ķà¤Ł": 717,
      "à¤¯à¤®": 718,
      "à¤®à¤ļ": 719,
      "à¤¹à¤¨à¤¤": 720,
      "Ġà¤Ĩà¤Ń": 721,
      "à¤¢à¤ķ": 722,
      "Ġà¤¬à¤¨à¤¨": 723,
      "à¤¼à¥Ģà¥¤": 724,
      "à¥Ĥà¤ģ!\"": 725,
      "Ġà¤Ĺà¤¡": 726,
      "Ġà¤ļà¤²à¤¤": 727,
      "à¤²à¤Ĺ": 728,
      "Ġà¤ĸà¤¡": 729,
      "Ġà¤ħà¤Ĺà¤²": 730,
      "Ġà¤ķà¤°à¤ķ": 731,
      "à¥Ī,\"": 732,
      "à¥Ģ.": 733,
      "à¤Łà¤ķ": 734,
      "à¤¡à¤°": 735,
      "Ġà¤¤à¤Ł": 736,
      "à¤ĵà¤¹": 737,
      "Ġà¤Ĩà¤ĵ": 738,
      "Ġà¤ļà¤²à¤¨": 739,
      "Ġà¤ħà¤«": 740,
      "Ġà¤Ĩà¤¶": 741,
      "à¤¼à¤¾,": 742,
      "Ġà¤§à¤ķ": 743,
      "à¤¢à¤¨": 744,
      "à¤¨à¤®à¤¸": 745,
      "Ġà¤¤à¤¬": 746,
      "Ġà¤¶à¤¬": 747,
      "à¥Įà¤Ĥ": 748,
      "Ġà¤¸à¤¡": 749,
      "ãĥ": 750,
      "à¤°à¤°à¤°à¤°à¤°à¤°à¤°à¤°": 751,
      "ãĤ¤": 752,
      "ãĤ¢ãĤ¤": 753,
      "à¤§à¤¨": 754,
      "à¥ĩ?\"": 755,
      "ĩãĤ¢": 756,
      "ãĥĩãĤ¢": 757,
      "ãĤ¢ãĤ¤ãĥĩãĤ¢": 758,
      "à¤ħà¤²à¤Ĺ": 759,
      "Ġà¤ıà¤²": 760,
      "à¤ľà¤ķ": 761,
      "Ġà¤®à¤¹à¤²": 762,
      "Ġà¤ıà¤¡à¤µ": 763,
      "Ġà¤¶à¤¹à¤°": 764,
      "Ġà¤ħà¤²à¤µ": 765,
      "à¤¯à¤¬": 766,
      "à¤ĩà¤ľ": 767,
      "Ġà¤ħà¤§": 768,
      "Ġà¤ĩà¤ļ": 769,
      "Ġà¤Ĩà¤ĩà¤¸à¤ķ": 770,
      "Ġà¤ĸà¤¤à¤°": 771,
      "Ġà¤ĩà¤ķà¤Ł": 772,
      "à¤¹à¤«": 773,
      "à¤¼à¥ĩà¥¤": 774,
      "à¤¸à¤¸": 775,
      "à¤¯à¤²": 776,
      "Ġà¤īà¤¤à¤¨": 777,
      "à¥ĩà¤Ĥà¥¤\"": 778,
      "à¤Ĩà¤Ĩà¤Ĩà¤Ĩ": 779,
      "Ġà¤ĩà¤¶": 780,
      "Ġà¤ªà¤²": 781,
      "à¤ħà¤Ĺà¤²": 782,
      "à¥ĭà¤Ĥ,": 783,
      "à¤¾à¤ģ-": 784,
      "à¤ķà¤²à¤¨": 785,
      "Ġà¤ĩà¤¸à¤®": 786,
      "Ġà¤¬à¤¹à¤¨": 787,
      "à¤łà¤ķà¤°": 788,
      "à¤ĸà¤°": 789,
      "Ġà¤ħà¤«à¤¸": 790,
      "Ġà¤¸à¤°à¤ª": 791,
      "à¤¬à¤¨": 792,
      "à¤¾à¤ģà¥¤": 793,
      "à¤®à¤¡": 794,
      "Ġà¤Ĺà¤¹à¤°": 795,
      "Ġà¤ļà¤Ł": 796,
      "Ġà¤²à¤¹à¤°": 797,
      "Ġà¤¨à¤¦": 798,
      "Ġà¤ħà¤²à¤®": 799,
      ",\"": 800,
      "à¤ķà¤ķà¤°": 801,
      "Ġà¤¸à¤¹à¤®à¤¤": 802,
      "Ġà¤ĸà¤ľ": 803,
      "Ġà¤ªà¤¹à¤¨à¤¨": 804,
      "Ġà¤ħà¤¸": 805,
      "Ġà¤¬à¤²": 806,
      "à¤µà¤¸": 807,
      "à¤ĸà¤Ń": 808,
      "Ġà¤ķà¤¸à¤ķà¤°": 809,
      "à¤²à¤ļ": 810,
      "à¤°à¤¶": 811,
      "à¥Ģ?\"": 812,
      "Ġà¤¬à¤¦": 813,
      "Ġà¤«à¤²": 814,
      "Ġà¤ĸà¤¤à¤°à¤¨": 815,
      "à¤®à¤ķ": 816,
      "à¤²à¤¬": 817,
      "Ġà¤īà¤²": 818,
      "Ġà¤ķà¤¦à¤®": 819,
      "à¤¡à¤²": 820,
      "Ġà¤ĳ": 821,
      "Ġà¤Ĩà¤ĩà¤¡": 822,
      ".\"": 823,
      "à¤¨à¤°": 824,
      "Ġà¤¬à¤Łà¤¨": 825,
      "à¤Ĺà¤¡": 826,
      "Ġà¤¬à¤¦à¤²": 827,
      "Ġà¤īà¤ªà¤¯": 828,
      "Ġà¤ķà¤Ł": 829,
      "à¤¯à¤µà¤¹": 830,
      "Ġà¤Ī": 831,
      "à¤¸à¤°à¤£": 832,
      "Ġà¤®à¤¶": 833,
      "à¥ĩà¤Ĥ!\"": 834,
      "Ġà¤Ĳà¤¨": 835,
      "à¤ľà¤²": 836,
      "à¤¾:": 837,
      "Ġà¤ıà¤ķãĤ¢ãĤ¤ãĥĩãĤ¢": 838,
      "Ġà¤ĩà¤¨": 839,
      "Ġà¤¸à¤µ": 840,
      "Ġà¤°à¤¹à¤¸": 841,
      "à¤¯à¤¸": 842,
      "Ġà¤īà¤¨à¤¸": 843,
      "à¤łà¤¨": 844,
      "à¤¦à¤ķà¤°": 845,
      "à¤µà¤¤": 846,
      "à¤ªà¤¹à¤°": 847,
      "à¤Łà¤¬": 848,
      "Ġà¤¸à¤ľ": 849,
      "Ġà¤Ľà¤²": 850,
      "à¤¤à¤ķ": 851,
      "à¤ĩà¤²": 852,
      "Ġà¤¹à¤®à¤¨": 853,
      "Ġà¤ļà¤ķ": 854,
      "à¤¶à¤¬": 855,
      "à¤¾,\"": 856,
      "Ġà¤ľà¤°": 857,
      "Ġà¤®à¤ļ": 858,
      "Ġà¤Ĩà¤ķà¤°": 859,
      "à¤²à¤«": 860,
      "Ġà¤ħà¤¸à¤²": 861,
      "à¤ħà¤¬": 862,
      "Ġà¤®à¤¤à¤²": 863,
      "Ġà¤®à¤ķ": 864,
      "Ġà¤®à¤¤à¤²à¤¬": 865,
      "à¤°à¤¸": 866,
      "Ġà¤ķà¤¡": 867,
      "à¥ĩ!\"": 868,
      "à¤¨à¤®": 869,
      "à¤°à¤¹": 870,
      "à¤¹à¤Ł": 871,
      "à¤¼à¥Ģ,": 872,
      "à¤Ĩà¤¦à¤®": 873,
      "Ġà¤īà¤ª": 874,
      "à¤¹à¤¨": 875,
      "à¤ªà¤¤": 876,
      "à¤¦à¤Ĺ": 877,
      "Ġà¤¬à¤°à¤¤": 878,
      "Ġà¤Ŀà¤ªà¤ķ": 879,
      "à¤·à¤ķ": 880,
      "à¤Łà¤¤": 881,
      "à¤²à¤ļà¤¸": 882,
      "Ġà¤¶à¤ķ": 883,
      "à¥Īà¤Ĥ,\"": 884,
      "à¤µà¤ķ": 885,
      "à¤¨à¤Ł": 886,
      "Ġà¤¦à¤¬": 887,
      "Ġà¤Ĩà¤²": 888,
      "à¤Ńà¤µ": 889,
      "à¤²à¤°": 890,
      "à¤ĥ": 891,
      "Ġà¤¦à¤¸": 892,
      "Ġà¤ľà¤¨": 893,
      "à¤¤à¤ĸ": 894,
      "à¤¼à¥Ĥ": 895,
      "Ġà¤īà¤Ľ": 896,
      "à¤·à¤¸": 897,
      "à¤°à¤°à¤°à¤°à¤°à¤°à¤°à¤°à¤°à¤°à¤°à¤°à¤°à¤°à¤°à¤°": 898,
      "à¤ıà¤®": 899,
      "à¤¶à¤¹": 900,
      "à¥ĭ?": 901,
      "à¤¬à¤ļ": 902,
      "à¤ħà¤°": 903,
      "Ġà¤¸à¤²": 904,
      "à¤Łà¤²": 905,
      "Ġà¤Łà¤ķà¤°": 906,
      "Ġà¤¹à¤²": 907,
      "Ġà¤ĺà¤¡": 908,
      "à¤Ķà¤°": 909,
      "Ġà¤Ńà¤¯": 910,
      "Ġà¤ªà¤Ł": 911,
      "à¤²à¤¯": 912,
      "Ġà¤ĵà¤µà¤¨": 913,
      "Ġà¤¸à¤«à¤²": 914,
      "Ġà¤Ľà¤¤": 915,
      "Ġà¤¸à¤ļ": 916,
      "à¤ĩà¤µà¤°": 917,
      "Ġà¤¸à¤®à¤¸": 918,
      "à¥Ī.": 919,
      "à¤Ľà¤¨": 920,
      "à¤ķà¤¸": 921,
      "à¤°à¤Ń": 922,
      "à¤¾à¤Ĥ-": 923,
      "à¤ħà¤ļ": 924,
      "à¥Ģà¤Ĥ!": 925,
      "Ġà¤ªà¤°à¤«": 926,
      "à¤¯à¤®à¤¯": 927,
      "à¤¼,": 928,
      "Ġà¤²à¤ķà¤¡": 929,
      "à¤Ĩà¤Ĩà¤Ĩà¤Ĩà¤Ĩà¤Ĩà¤Ĩà¤Ĩ": 930,
      "à¤ĩà¤Ł": 931,
      "à¤ªà¤ļ": 932,
      "Ġà¤Ĩà¤ıà¤Ĺ": 933,
      "Ġà¤ľà¤¤": 934,
      "Ġà¤ĸà¤Ł": 935,
      "Ġà¤ªà¤°à¤µ": 936,
      "à¤ĺà¤°": 937,
      "à¤¼à¥ĩ,": 938,
      "à¤¯à¤¨": 939,
      "Ġà¤Ńà¤²": 940,
      "Ġà¤ªà¤Ľà¤¤": 941,
      "à¥ĩ.": 942,
      "à¤¸à¤ª": 943,
      "à¤ħà¤ªà¤¨": 944,
      "à¤ģà¥¤": 945,
      "à¤®à¤°": 946,
      "à¥Ģ,\"": 947,
      "à¤¤à¤µ": 948,
      "âĢ": 949,
      "à¤¬à¤¤": 950,
      "à¤ĩà¤ı": 951,
      "Ġà¤ħà¤®": 952,
      "Ġà¤ªà¤¹à¤¨à¤¤": 953,
      "à¤ľà¤¨à¤¬": 954,
      "Ġà¤īà¤¨à¤®": 955,
      "Ġà¤²à¤ª": 956,
      "Ġà¤¢à¤ķ": 957,
      "à¥ĭ,\"": 958,
      "Ġà¤ķà¤¹à¤¨": 959,
      "à¤¾?": 960,
      "Ġà¤ķà¤¬": 961,
      "Ġà¤¹à¤Ł": 962,
      "Ġà¤īà¤¬": 963,
      "Ġà¤®à¤¦à¤¦à¤Ĺ": 964,
      "Ġà¤¡à¤°à¤¤": 965,
      "à¤·à¤®": 966,
      "Ġà¤¯à¤ķ": 967,
      "à¤°à¤µ": 968,
      "Ġà¤¨à¤ľ": 969,
      "à¤ĸà¤°à¤Ĺ": 970,
      "à¤²à¤ķ": 971,
      "Ġà¤¨à¤°": 972,
      "à¤¥à¤¨": 973,
      "à¥Ĥà¤Ĥà¥¤": 974,
      "Ġà¤ķà¤ļà¤°": 975,
      "Ġà¤°à¤¤": 976,
      "à¥Ĥà¤Ĥ?\"": 977,
      "Ġà¤Ĺà¤¤": 978,
      "à¤ķà¤°à¤£": 979,
      "Ġà¤ļà¤ĸ": 980,
      "Ġà¤Ĩà¤Ł": 981,
      "à¤¯à¤µà¤¸": 982,
      "à¤ıà¤²": 983,
      "à¤¤à¤¤": 984,
      "Ġà¤ħà¤ľà¤¨à¤¬": 985,
      "à¥ĭà¤Ĥà¥¤": 986,
      "Ġà¤¹à¤¡": 987,
      "âĢĭ": 988,
      "Ġà¤īà¤ªà¤ķà¤°à¤£": 989,
      "à¤ļà¤ķà¤°": 990,
      "Ġà¤°à¤Ĺà¤¡": 991,
      "à¤¸à¤«": 992,
      "à¤Ĺà¤°à¤®à¤ļ": 993,
      "Ġà¤Ĩà¤ªà¤¨": 994,
      "à¤¹à¤¦": 995,
      "à¤µà¤¸à¤¨": 996,
      "Ġà¤Īà¤®": 997,
      "Ġà¤²à¤Ĺà¤¨": 998,
      "Ġà¤ªà¤¨": 999,
      "Ġ3": 1000,
      "à¤°à¤¦à¤°": 1001,
      "à¥Īà¤Ĥ!": 1002,
      "Ġà¤īà¤¤à¤°": 1003,
      "Ġà¤ķà¤ł": 1004,
      "Ġà¤ľà¤¬à¤ķ": 1005,
      "à¤īà¤¨à¤ķ": 1006,
      "à¥Ī?": 1007,
      "Ġà¤¨à¤ķà¤²": 1008,
      "à¤¨à¤ķà¤°": 1009,
      "à¤ļà¤¡": 1010,
      "Ġ'": 1011,
      "Ġà¤®à¤Ĺà¤°à¤®à¤ļ": 1012,
      "Ġà¤īà¤§": 1013,
      "Ġà¤¬à¤¹à¤¸": 1014,
      "Ġà¤ľà¤²à¤¨": 1015,
      "Ġà¤Ĩà¤§": 1016,
      "à¤ľà¤¤": 1017,
      "Ġà¤ĩà¤®": 1018,
      "à¤¯à¤¶": 1019,
      "à¤¶à¤ķ": 1020,
      "à¤ĩà¤ª": 1021,
      "à¤¾à¤ģ!": 1022,
      "Ġà¤¨à¤®à¤¸": 1023,
      "Ġà¤ļà¤¬": 1024,
      "à¤ķà¤²à¤¤": 1025,
      "Ġà¤®à¤§": 1026,
      "à¤ĵà¤Ĺ": 1027,
      "à¥Ĥà¤Ĥà¥¤\"": 1028,
      "Ġà¤ķà¤¦": 1029,
      "à¤ĩà¤µ": 1030,
      "à¤«à¤¡": 1031,
      "Ġà¤ıà¤¨": 1032,
      "à¥ģà¤ĥ": 1033,
      "à¤°à¤ķà¤Ł": 1034,
      "à¤°à¤¯": 1035,
      "Ġà¤µà¤«": 1036,
      "Ġà¤¸à¤«à¤²à¤¤": 1037,
      "à¤µà¤Ł": 1038,
      "Ġà¤Ĩà¤®": 1039,
      "Ġà¤¸à¤®à¤Ŀà¤¤": 1040,
      "Ġà¤ķà¤Ľ": 1041,
      "Ġà¤¨à¤ľà¤°": 1042,
      "Ġà¤²à¤Łà¤ķ": 1043,
      "Ġà¤°à¤ķ": 1044,
      "à¤Łà¤ķà¤°": 1045,
      "à¤¢à¤¤": 1046,
      "Ġà¤¬à¤¦à¤¬": 1047,
      "à¤Ĥ,": 1048,
      "Ġà¤Ķà¤°à¤¤": 1049,
      "Ġà¤Ńà¤Ĺ": 1050,
      "Ġà¤¬à¤°à¤¤à¤¨": 1051,
      "Ġà¤Ĩà¤²à¤¸": 1052,
      "à¥ĩ,\"": 1053,
      "à¤¨à¤¹à¤°": 1054,
      "à¤·à¤£": 1055,
      "Ġà¤¶à¤¹à¤¦": 1056,
      "à¤£à¤¯": 1057,
      "à¤ķà¤ª": 1058,
      "Ġà¤ķà¤®à¤ľ": 1059,
      "Ġà¤ľà¤¶": 1060,
      "Ġà¤°à¤ļà¤¨": 1061,
      "Ġà¤ľà¤¡": 1062,
      "Ġà¤¦à¤µ": 1063,
      "Ġà¤¨à¤ķ": 1064,
      "Ġà¤ªà¤¤à¤²": 1065,
      "à¥Ģà¤Ĥ!\"": 1066,
      "à¤²à¤µ": 1067,
      "Ġà¤®à¤¸": 1068,
      "à¤²à¤®": 1069,
      "à¥Ĥ,": 1070,
      "à¤¯à¤¤": 1071,
      "à¤łà¤¤": 1072,
      "Ġà¤ĩà¤¸à¤¨": 1073,
      "à¤Ŀà¤ķà¤°": 1074,
      "à¥Ĥà¤Ĥ,": 1075,
      "Ġà¤«à¤¡": 1076,
      "à¤¾à¤ģ!\"": 1077,
      "à¤®à¤¬à¤¤": 1078,
      "à¤²à¤Ŀ": 1079,
      "à¤ªà¤¡": 1080,
      "à¤°à¤°à¤°à¤°à¤°à¤°à¤°à¤°à¤°à¤°à¤°à¤°à¤°à¤°à¤°à¤°à¤°à¤°à¤°à¤°à¤°à¤°à¤°à¤°à¤°à¤°à¤°à¤°à¤°à¤°à¤°à¤°": 1081,
      "Ġà¤Łà¤®": 1082,
      "Ġà¤¸à¤¨": 1083,
      "Ġà¤²à¤ķ": 1084,
      "Ġà¤Łà¤¹à¤¨": 1085,
      "à¤ĩà¤¸à¤²": 1086,
      "à¤®à¤Ĺ": 1087,
      "à¤¡à¤¬": 1088,
      "à¥Īà¤Ĥ.": 1089,
      "à¤Ĩà¤ª": 1090,
      "Ġà¤«à¤Ł": 1091,
      "à¤ªà¤°à¤µ": 1092,
      "Ġà¤ħà¤¸à¤¹": 1093,
      "à¤Ĩà¤ĩà¤ı": 1094,
      "à¤²à¤Ń": 1095,
      "à¤¾.\"": 1096,
      "à¥Ĥà¤ģ,\"": 1097,
      "à¤Ŀà¤¸": 1098,
      "à¤ķà¤²à¤ķà¤°": 1099,
      "Ġà¤Ĩà¤¸à¤ª": 1100,
      "à¤¼-": 1101,
      "Ġà¤ļà¤°": 1102,
      "Ġà¤¡à¤ķ": 1103,
      "à¤®à¤¹": 1104,
      "Ġà¤Ĺà¤®": 1105,
      "à¤µà¤ļ": 1106,
      "Ġà¤Łà¤¬": 1107,
      "Ġà¤ļà¤®à¤ķà¤¨": 1108,
      "à¤Ĩà¤Ĩà¤Ĩà¤Ĩà¤Ĩà¤Ĩà¤Ĩà¤Ĩà¤Ĩà¤Ĩà¤Ĩà¤Ĩà¤Ĩà¤Ĩà¤Ĩà¤Ĩ": 1109,
      "à¤ľà¤¹": 1110,
      "Ġà¤¤à¤²à¤µ": 1111,
      "à¤°à¤ķà¤°": 1112,
      "à¤¸à¤¬": 1113,
      "Ġà¤¹à¤«": 1114,
      "à¤īà¤²": 1115,
      "à¤Ĩà¤ľ": 1116,
      "à¤¯à¤°à¤®": 1117,
      "à¤«à¤²": 1118,
      "à¤¸à¤²à¤¨": 1119,
      "à¥Ī:": 1120,
      "Ġà¤¦à¤¹": 1121,
      "à¤¨à¤ı": 1122,
      "Ġà¤¨à¤·": 1123,
      "Ġà¤¹à¤¥": 1124,
      "Ġà¤¦à¤«": 1125,
      "Ġà¤¸à¤¸": 1126,
      "à¤µà¤¶": 1127,
      "à¤Ńà¤Ĺ": 1128,
      "à¤¼à¥ī": 1129,
      "à¤¶à¤®": 1130,
      "à¤¨à¤¬": 1131,
      "Ġà¤¬à¤ķà¤°": 1132,
      "Ġà¤ĳà¤«": 1133,
      "à¥ĩà¤Ĥ?\"": 1134,
      "à¤¾à¤Ĥ,": 1135,
      "Ġà¤®à¤°": 1136,
      "Ġà¤²à¤Ĺà¤Ńà¤Ĺ": 1137,
      "Ġà¤¬à¤¦à¤¸": 1138,
      "à¤Ĩà¤ªà¤ķ": 1139,
      "Ġà¤¡à¤°à¤¨": 1140,
      "Ġà¤ļà¤ĸà¤¨": 1141,
      "Ġà¤Ĩà¤ľà¤®": 1142,
      "à¤Ĳ": 1143,
      "à¤¬à¤ķ": 1144,
      "Ġà¤«à¤µ": 1145,
      "Ġà¤µà¤°": 1146,
      "à¤ıà¤Ł": 1147,
      "à¤ªà¤ķà¤²": 1148,
      "à¤ĸà¤¦": 1149,
      "à¤ľà¤¨à¤ķ": 1150,
      "Ġà¤Ĭà¤¬": 1151,
      "Ġà¤īà¤łà¤¤": 1152,
      "à¥Īà¤Ĥ?": 1153,
      "Ġà¤¥à¤ª": 1154,
      "à¤¦à¤¸": 1155,
      "à¤ªà¤£": 1156,
      "à¤ĩà¤¯": 1157,
      "Ġà¤µà¤ľà¤¹": 1158,
      "Ġà¤µà¤ľà¤¨": 1159,
      "Ġà¤ĺà¤¨": 1160,
      "Ġà¤īà¤Ľà¤²à¤¨": 1161,
      "à¤¶à¤°": 1162,
      "Ġà¤¸à¤¤": 1163,
      "à¥Ģà¤Ĥà¥¤\"": 1164,
      "à¤ģà¥¤\"": 1165,
      "à¤¦à¤°à¤¤": 1166,
      "à¥ĭà¤Ĥ-": 1167,
      "à¤²à¤¨à¤¸": 1168,
      "Ġà¤Ĭà¤°": 1169,
      "ĠâĢĭ": 1170,
      "à¥Ĥà¤ģ!": 1171,
      "à¤°à¤ľà¤®": 1172,
      "à¤ĺà¤Łà¤¨": 1173,
      "Ġà¤¸à¤¤à¤¹": 1174,
      "ĠâĢĭâĢĭ": 1175,
      "à¥Ģ.\"": 1176,
      "à¤ħà¤Ĺà¤°": 1177,
      "Ġà¤¬à¤¦à¤²à¤¨": 1178,
      "à¥Ī.\"": 1179,
      "Ġà¤¨à¤Ł": 1180,
      "Ġà¤µà¤¸": 1181,
      "à¤¦à¤°à¤Ĺ": 1182,
      "Ġà¤ªà¤¶": 1183,
      "Ġà¤°à¤¬à¤°": 1184,
      "à¤¶à¤ķà¤¶": 1185,
      "Ġà¤¨à¤²": 1186,
      "à¥Ģ:": 1187,
      "Ġà¤²à¤ļ": 1188,
      "à¤¹à¤ļ": 1189,
      "Ġà¤Ńà¤°à¤¨": 1190,
      "Ġà¤¨à¤®à¤ķ": 1191,
      "à¤¹à¤®à¤¨": 1192,
      "Ġà¤ĳà¤ķ": 1193,
      "Ġà¤¨à¤«": 1194,
      "à¤ħà¤ª": 1195,
      "à¤ªà¤¦": 1196,
      "à¤¯à¤²à¤Ł": 1197,
      "Ġà¤¨à¤«à¤°à¤¤": 1198,
      "Ġà¤®à¤Ĺ": 1199,
      "Ġà¤ļà¤¹à¤ļ": 1200,
      "Ġà¤ĵà¤¹": 1201,
      "Ġà¤ļà¤¹à¤ļà¤¹": 1202,
      "Ġà¤ªà¤ľ": 1203,
      "à¤¼à¥ĩ-": 1204,
      "à¤¼à¥Ģ-": 1205,
      "Ġà¤ķà¤ķ": 1206,
      "Ġà¤¸à¤ĸ": 1207,
      "Ġà¤Ĩà¤ĩà¤ı": 1208,
      "à¤®à¤²": 1209,
      "à¤¸à¤®à¤°": 1210,
      "à¥ĩ?": 1211,
      "Ġà¤ªà¤¦": 1212,
      "à¤¼à¥ģ": 1213,
      "Ġà¤¦à¤«à¤¨": 1214,
      "Ġà¤ķà¤µ": 1215,
      "Ġà¤Ĩà¤ĩà¤¨": 1216,
      "Ġà¤ĺà¤¬à¤°": 1217,
      "Ġà¤īà¤Ĺ": 1218,
      "Ġà¤¬à¤¤à¤ĸ": 1219,
      "Ġà¤Ńà¤Ĺà¤µ": 1220,
      "à¤¦à¤¯": 1221,
      "Ġà¤§à¤¬": 1222,
      "à¤¸à¤®à¤Ŀà¤ķà¤°": 1223,
      "Ġà¤ħà¤ª": 1224,
      "Ġà¤ħà¤¨à¤¦": 1225,
      "à¤ĩà¤¡à¤°": 1226,
      "à¤Ĺà¤ķà¤°": 1227,
      "Ġà¤īà¤ªà¤²à¤¬": 1228,
      "Ġà¤ħà¤¸à¤¹à¤ľ": 1229,
      "Ġà¤īà¤Ľà¤²à¤¤": 1230,
      "Ġà¤ĳà¤°": 1231,
      "à¤¾à¤ģà¥¤\"": 1232,
      "Ġà¤ķà¤¯": 1233,
      "Ġà¤ħà¤µ": 1234,
      "à¤Łà¤¸": 1235,
      "à¤§à¤°": 1236,
      "à¤ĺà¤²": 1237,
      "à¤¡à¤¨": 1238,
      "à¤Ĩà¤ĵ": 1239,
      "à¤Ĺà¤ł": 1240,
      "Ġà¤Łà¤°": 1241,
      "Ġà¤ĩà¤²": 1242,
      "Ġà¤¦à¤²": 1243,
      "à¥ĩà¤Ĥ,\"": 1244,
      "à¤°ãĤ¢ãĤ¤ãĥĩãĤ¢": 1245,
      "Ġà¤²à¤¤": 1246,
      "Ġà¤¬à¤¹à¤°": 1247,
      "à¤ıà¤Łà¤°": 1248,
      "Ġà¤ĩà¤ľ": 1249,
      "Ġà¤Ĺà¤£": 1250,
      "à¤¶à¤²": 1251,
      "Ġà¤®à¤«": 1252,
      "Ġà¤°à¤«": 1253,
      "Ġà¤ªà¤¥": 1254,
      "Ġà¤ħà¤Ł": 1255,
      "à¤ªà¤Ł": 1256,
      "Ġà¤¬à¤ļà¤¨": 1257,
      "Ġà¤¬à¤¬à¤²": 1258,
      "à¤īà¤¡à¤°": 1259,
      "à¥Ģ?": 1260,
      "à¤¿,": 1261,
      "à¤¾à¤ģ,\"": 1262,
      "à¤µà¤¡": 1263,
      "à¤Ĳà¤¨": 1264,
      "Ġà¤ıà¤ķà¤¦à¤®": 1265,
      "à¤Łà¤«": 1266,
      "à¥ĩ.\"": 1267,
      "Ġà¤ķà¤µà¤°": 1268,
      "Ġà¤ħà¤¡": 1269,
      "à¤µà¤¦": 1270,
      "Ġà¤ĵà¤²": 1271,
      "Ġà¤ĩà¤Ĺ": 1272,
      "à¤ĩà¤¬": 1273,
      "à¤¯à¤ļà¤ķ": 1274,
      "à¤°à¤°à¤°à¤°à¤°à¤°à¤°à¤°à¤°à¤°à¤°à¤°à¤°à¤°à¤°à¤°à¤°à¤°à¤°à¤°à¤°à¤°à¤°à¤°à¤°à¤°à¤°à¤°à¤°à¤°à¤°à¤°à¤°à¤°à¤°à¤°à¤°à¤°à¤°à¤°à¤°à¤°à¤°à¤°à¤°à¤°à¤°à¤°à¤°à¤°à¤°à¤°à¤°à¤°à¤°à¤°à¤°à¤°à¤°à¤°à¤°à¤°à¤°à¤°": 1275,
      "Ġà¤ªà¤¹à¤ļ": 1276,
      "Ġà¤ħà¤¹à¤¸": 1277,
      "à¤ģ!\"": 1278,
      "..": 1279,
      "à¤Ĩà¤°": 1280,
      "Ġà¤°à¤µ": 1281,
      "Ġà¤Łà¤ķ": 1282,
      "à¤ıà¤¡": 1283,
      "Ġà¤¸à¤®à¤Ŀà¤¨": 1284,
      "à¤Ĩà¤¤": 1285,
      "à¤¾\"": 1286,
      "Ġà¤ªà¤ľà¤²": 1287,
      "Ġà¤Ĭà¤¨": 1288,
      "à¤·à¤°": 1289,
      "à¥ĭ.\"": 1290,
      "à¥Īà¤Ĥ.\"": 1291,
      "Ġà¤¶à¤¤à¤°": 1292,
      "Ġà¤ļà¤²à¤ķà¤°": 1293,
      "Ġà¤®à¤¶à¤°": 1294,
      "à¤Ľà¤°": 1295,
      "Ġà¤ħà¤¨à¤ľ": 1296,
      "à¤ªà¤°à¤¹": 1297,
      "à¤¾;": 1298,
      "Ġà¤¸à¤ª": 1299,
      "Ġà¤Ĩà¤¦": 1300,
      "Ġà¤Ńà¤µ": 1301,
      "à¤ľà¤°à¤¤": 1302,
      "Ġà¤īà¤¤à¤°à¤¨": 1303,
      "Ġà¤Ĺà¤°à¤®": 1304,
      "Ġà¤ħà¤ĸ": 1305,
      "à¤¸à¤Ń": 1306,
      "à¤Ĩà¤Ĩà¤Ĩà¤Ĩà¤Ĩà¤Ĩà¤Ĩà¤Ĩà¤Ĩà¤Ĩà¤Ĩà¤Ĩà¤Ĩà¤Ĩà¤Ĩà¤Ĩà¤Ĩà¤Ĩà¤Ĩà¤Ĩà¤Ĩà¤Ĩà¤Ĩà¤Ĩà¤Ĩà¤Ĩà¤Ĩà¤Ĩà¤Ĩà¤Ĩà¤Ĩà¤Ĩ": 1307,
      "Ġà¤ĵà¤Ł": 1308,
      "Ġà¤°à¤¬à¤¡": 1309,
      "à¤¬à¤¹à¤¨": 1310,
      "à¥Ĥà¤Ĥ!\"": 1311,
      "à¤¼à¥Ģà¤Ĥà¥¤": 1312,
      "à¤¾à¤ģ?\"": 1313,
      "à¤ıà¤¸": 1314,
      "Ġà¤ľà¤¹à¤°": 1315,
      "in": 1316,
      "Ġà¤µà¤ķ": 1317,
      "Ġà¤ĸà¤ļ": 1318,
      "à¤ģ,": 1319,
      "Ġà¤Ńà¤Ł": 1320,
      "à¤¥à¤ª": 1321,
      "Ġà¤¦à¤²à¤¦à¤²": 1322,
      "Ġà¤°à¤ľ": 1323,
      "Ġà¤Łà¤¹": 1324,
      "à¤¥à¤¡": 1325,
      "à¤ĩà¤°": 1326,
      "Ġà¤ĵà¤ıà¤¸": 1327,
      "à¤Ĥ!\"": 1328,
      "à¤ĸà¤Ł": 1329,
      "à¥ĭ.": 1330,
      "à¤¦à¤¬": 1331,
      "Ġà¤®à¤¶à¤¹": 1332,
      "Ġà¤¸à¤¨à¤Ĺ": 1333,
      "Ġà¤Ĺà¤¨": 1334,
      "à¤µà¤ľ": 1335,
      "Ġà¤°à¤ĸà¤ķà¤°": 1336,
      "at": 1337,
      "à¤¨à¤µ": 1338,
      "à¤Łà¤¯": 1339,
      "Ġà¤ĵà¤ª": 1340,
      "an": 1341,
      "Ġà¤ĸà¤Łà¤ĸà¤Ł": 1342,
      "Ġà¤¸à¤®à¤Ŀà¤¦": 1343,
      "à¤ķà¤ħà¤ª": 1344,
      "à¥Ģ\"": 1345,
      "Ġà¤ľà¤²à¤¤": 1346,
      "Ġà¤°à¤Ĺ": 1347,
      "Ġà¤Ŀà¤Ĺà¤¡": 1348,
      "Ġà¤īà¤ļà¤ķ": 1349,
      "Ġà¤¥à¤°": 1350,
      "à¤Łà¤°à¤¸": 1351,
      "à¤ķà¤¶": 1352,
      "Ġà¤ħà¤µà¤¤à¤²": 1353,
      "à¤¨à¤Ĺ": 1354,
      "Ġà¤¬à¤¦à¤¤": 1355,
      "Ġà¤ĸà¤¬à¤°": 1356,
      "io": 1357,
      "sl": 1358,
      "à¥Ĥ!\"": 1359,
      "à¤ıà¤¨": 1360,
      "à¤īà¤ľ": 1361,
      "Ġà¤¬à¤¦à¤¤à¤®": 1362,
      "à¤ªà¤¹": 1363,
      "à¤ªà¤ķà¤°": 1364,
      "atio": 1365,
      "ation": 1366,
      "di": 1367,
      "hin": 1368,
      "ran": 1369,
      "tran": 1370,
      "à¤°à¤ª": 1371,
      "slation": 1372,
      "hindi": 1373,
      "translation": 1374,
      "à¤ļà¤¯": 1375,
      "Ġà¤¸à¤®à¤°": 1376,
      "Ġà¤ĸà¤¨": 1377,
      "Ġà¤ĵà¤µ": 1378,
      "à¥ĩà¤Ĥ!": 1379,
      "Ġà¤¸à¤¹à¤²": 1380,
      "à¤¨à¤ľà¤¨à¤ķ": 1381,
      "à¤°à¤¸à¤¨": 1382,
      "Ġà¤¹à¤Ĺ": 1383,
      "Ġà¤Łà¤¹à¤²à¤¨": 1384,
      "Ġà¤®à¤Ľ": 1385,
      "à¤¶à¤µ": 1386,
      "à¤¯à¤°à¤ķà¤Ł": 1387,
      "à¤®à¤µ": 1388,
      "à¤®à¤ķà¤°": 1389,
      "à¥ĭà¤Ĥ!": 1390,
      "à¤²à¤ļà¤Ł": 1391,
      "Ġà¤ªà¤ª": 1392,
      "Ġà¤¹à¤®à¤²": 1393,
      "à¤Ĩà¤ªà¤¨": 1394,
      "Ġà¤Īà¤°": 1395,
      "à¤Łà¤ª": 1396,
      "à¤¯à¤ľà¤¨à¤ķ": 1397,
      "Ġà¤ħà¤¸à¤®à¤°": 1398,
      "à¤·à¤®à¤¤": 1399,
      "à¤¨à¤²": 1400,
      "Ġà¤Ĩà¤Ĭ": 1401,
      "à¤Ĩà¤µ": 1402,
      "à¥ĩà¤Ĥ?": 1403,
      "Ġà¤ıà¤ª": 1404,
      "à¤¨à¤¸": 1405,
      "Ġà¤¤à¤¨": 1406,
      "Ġà¤Ŀà¤Łà¤ķ": 1407,
      "Ġà¤¸à¤¦à¤¸": 1408,
      "à¤ĩà¤Łà¤°": 1409,
      "Ġà¤°à¤¹à¤ķà¤°": 1410,
      "Ġà¤ķà¤¸": 1411,
      "à¤¼!\"": 1412,
      "à¤ħà¤Ń": 1413,
      "à¤¨à¤¡": 1414,
      "à¤®à¤Ľà¤²": 1415,
      "à¤¼à¥¤": 1416,
      "Ġà¤ĩà¤°": 1417,
      "à¥Ĥà¤ģ?": 1418,
      "à¤¨à¤«": 1419,
      "Ġà¤ħà¤¤": 1420,
      "à¤¯à¤°à¤ª": 1421,
      "à¤Ĺà¤°à¤¨": 1422,
      "à¤ĵà¤µ": 1423,
      "Ġà¤ªà¤²à¤ķ": 1424,
      "à¤¸à¤µ": 1425,
      "à¤¦à¤ķ": 1426,
      "à¤®à¤¦à¤¦": 1427,
      "à¤ªà¤·": 1428,
      "Ġà¤¬à¤¨à¤ķà¤°": 1429,
      "Ġà¤īà¤łà¤ķà¤°": 1430,
      "à¤ĺà¤¤": 1431,
      "à¤¨à¤¯": 1432,
      "à¤Ĺà¤«à¤²": 1433,
      "à¤ķà¤¬": 1434,
      "à¤īà¤ļ": 1435,
      "à¥Ģà¤Ĥ.": 1436,
      "Ġà¤¬à¤ķà¤²": 1437,
      "à¤«à¤°": 1438,
      "Ġà¤ıà¤¡": 1439,
      "à¤®à¤¸à¤®à¤°": 1440,
      "à¤īà¤§à¤°": 1441,
      "Ġà¤Ĳà¤¬": 1442,
      "Ġà¤¹à¤¨": 1443,
      "à¤¼à¤¾-": 1444,
      "à¤¼à¥ĭà¤Ĥ,": 1445,
      "Ġà¤ĩà¤§à¤°": 1446,
      "Ġà¤ļà¤®à¤¤": 1447,
      "à¤ļà¤²à¤¤": 1448,
      "à¥Ĥà¥¤": 1449,
      "Ġà¤ħà¤¨à¤ª": 1450,
      "à¤ĺà¤¨": 1451,
      "à¤ªà¤¹à¤²": 1452,
      "Ġà¤īà¤Ľà¤²": 1453,
      "Ġà¤ªà¤¦à¤ķ": 1454,
      "à¤ĳ": 1455,
      "à¤¸à¤¬à¤¸": 1456,
      "Ġà¤¬à¤Łà¤°": 1457,
      "à¤®à¤µà¤°": 1458,
      "à¤¼à¥ĩà¤Ĥ,": 1459,
      "Ġà¤ķà¤¹à¤ķà¤°": 1460,
      "Ġà¤ĩà¤¤": 1461,
      "à¤§à¤²": 1462,
      "à¤°à¤ļà¤¨": 1463,
      "à¤¨à¤¸à¤¨": 1464,
      "Ġà¤ķà¤£": 1465,
      "à¤łà¤ķ": 1466,
      "à¤µà¤µ": 1467,
      "à¤¸à¤²à¤¤": 1468,
      "à¤ķà¤¤à¤µà¤°": 1469,
      "à¤¹à¤ª": 1470,
      "Ġà¤ķà¤Łà¤µ": 1471,
      "à¤¯à¤¯à¤¨": 1472,
      "Ġà¤ıà¤ķà¤®": 1473,
      "à¤¶à¤ª": 1474,
      "à¤ľà¤ķà¤°": 1475,
      "Ġà¤Ĩà¤ĩà¤¸": 1476,
      "Ġà¤§à¤¡": 1477,
      "à¤Ĺà¤²à¤µ": 1478,
      "à¤°à¤°à¤°à¤°à¤°à¤°à¤°à¤°à¤°à¤°à¤°à¤°à¤°à¤°à¤°à¤°à¤°à¤°à¤°à¤°à¤°à¤°à¤°à¤°à¤°à¤°à¤°à¤°à¤°à¤°à¤°à¤°à¤°à¤°à¤°à¤°à¤°à¤°à¤°à¤°à¤°à¤°à¤°à¤°à¤°à¤°à¤°à¤°à¤°à¤°à¤°à¤°à¤°à¤°à¤°à¤°à¤°à¤°à¤°à¤°à¤°à¤°à¤°à¤°à¤°à¤°à¤°à¤°à¤°à¤°à¤°à¤°à¤°à¤°à¤°à¤°à¤°à¤°à¤°à¤°à¤°à¤°à¤°à¤°à¤°à¤°à¤°à¤°à¤°à¤°à¤°à¤°à¤°à¤°à¤°à¤°à¤°à¤°à¤°à¤°à¤°à¤°à¤°à¤°à¤°à¤°à¤°à¤°à¤°à¤°à¤°à¤°à¤°à¤°à¤°à¤°à¤°à¤°à¤°à¤°à¤°à¤°à¤°à¤°à¤°à¤°à¤°à¤°": 1479,
      "Ġà¤īà¤ªà¤¨": 1480,
      "Ġà¤¹à¤Łà¤¨": 1481,
      "à¥Ĥ!": 1482,
      "à¤Ńà¤°": 1483,
      "à¤²à¤¹à¤°": 1484,
      "Ġà¤¤à¤°à¤¬": 1485,
      "à¤µà¤°à¤£": 1486,
      "à¤Łà¤¨à¤°": 1487,
      "Ġà¤Ńà¤Łà¤ķà¤¤": 1488,
      "à¤¼à¤¿à¤Ĥ": 1489,
      "Ġà¤ªà¤¹à¤¨à¤ķà¤°": 1490,
      "à¤Ĥà¥¤\"": 1491,
      "à¥ĭà¤Ĥ!\"": 1492,
      "Ġà¤¶à¤°à¤£": 1493,
      "Ġà¤ıà¤ķà¤ľ": 1494,
      "à¤¾à¤ģ:": 1495,
      "à¤¡à¤ķ": 1496,
      "à¤ķà¤Ī": 1497,
      "à¤Ĥ!": 1498,
      "Ġà¤ĺà¤Łà¤¨": 1499,
      "à¤ĵà¤īà¤ļ": 1500,
      "Ġà¤ĳà¤ªà¤°": 1501,
      "Ġà¤¥à¤ªà¤¥à¤ª": 1502,
      "à¤§à¤¤": 1503,
      "Ġà¤Ĺà¤°à¤ľ": 1504,
      "Ġà¤®à¤°à¤®": 1505,
      "à¤¼à¥Ī": 1506,
      "à¥ĩà¤Ĥ.": 1507,
      "à¤ĩà¤®": 1508,
      "Ġà¤īà¤¤à¤°à¤¤": 1509,
      "Ġà¤¬à¤¦à¤²à¤¤": 1510,
      "Ġà¤ĳà¤Ł": 1511,
      "à¤µà¤¯": 1512,
      "à¤¼à¥ĩà¤Ĥà¥¤": 1513,
      "à¤°à¤¬": 1514,
      "à¤²à¤¦à¤¸": 1515,
      "à¤ĩà¤®à¤°": 1516,
      "Ġà¤łà¤¹à¤°": 1517,
      "à¤Ĩà¤Ĩà¤Ĩà¤Ĩà¤Ĩà¤Ĩà¤Ĩà¤Ĩà¤Ĩà¤Ĩà¤Ĩà¤Ĩà¤Ĩà¤Ĩà¤Ĩà¤Ĩà¤Ĩà¤Ĩà¤Ĩà¤Ĩà¤Ĩà¤Ĩà¤Ĩà¤Ĩà¤Ĩà¤Ĩà¤Ĩà¤Ĩà¤Ĩà¤Ĩà¤Ĩà¤Ĩà¤Ĩà¤Ĩà¤Ĩà¤Ĩà¤Ĩà¤Ĩà¤Ĩà¤Ĩà¤Ĩà¤Ĩà¤Ĩà¤Ĩà¤Ĩà¤Ĩà¤Ĩà¤Ĩà¤Ĩà¤Ĩà¤Ĩà¤Ĩà¤Ĩà¤Ĩà¤Ĩà¤Ĩà¤Ĩà¤Ĩà¤Ĩà¤Ĩà¤Ĩà¤Ĩà¤Ĩà¤Ĩ": 1518,
      "à¤ĺà¤²à¤¨": 1519,
      "Ġà¤¤à¤¹": 1520,
      "Ġà¤¸à¤¤à¤°": 1521,
      "à¤ĸà¤¤à¤®": 1522,
      "Ġà¤¯à¤¹ãĤ¢ãĤ¤ãĥĩãĤ¢": 1523,
      "Ġà¤¹à¤®à¤¸": 1524,
      "Ġà¤®à¤¹à¤ķ": 1525,
      "à¤²à¤¹": 1526,
      "à¥ĩà¤Ĥ.\"": 1527,
      "Ġà¤ļà¤¤": 1528,
      "à¤ħà¤²à¤µ": 1529,
      "Ġà¤īà¤łà¤¨": 1530,
      "à¤¹à¤¬": 1531,
      "à¥ĭà¤Ĥà¥¤\"": 1532,
      "à¤¯à¤°à¤«": 1533,
      "à¤¯à¤°à¤¨": 1534,
      "Ġ1": 1535,
      "à¤¼à¥Ĥà¤Ĥ": 1536,
      "à¤ĸà¤²": 1537,
      "Ġà¤Ĩà¤¡": 1538,
      "à¤§à¤µ": 1539,
      "Ġà¤ĵà¤ķ": 1540,
      "Ġà¤Ŀà¤°à¤¨": 1541,
      "ĊĊ": 1542,
      "à¥Ī\"": 1543,
      "Ġà¤ļà¤ĸà¤ķà¤°": 1544,
      "à¥Ģà¤Ĥ?\"": 1545,
      "Ġà¤Ľà¤¹": 1546,
      "Ġà¤¬à¤¹à¤¤": 1547,
      "Ġà¤Ńà¤Łà¤ķ": 1548,
      "Ġà¤ļà¤®à¤¡": 1549,
      "à¤ķà¤ĺà¤°": 1550,
      "à¤¤à¤ļ": 1551,
      "à¤¼!": 1552,
      "à¥Ģà¤Ĥ,\"": 1553,
      "Ġà¤°à¤ĸà¤µ": 1554,
      "Ġà¤Ńà¤¦": 1555,
      "Ġà¤¬à¤ľà¤¤": 1556,
      "âĢĿ": 1557,
      "à¤®à¤ª": 1558,
      "à¤®à¤ķà¤¤": 1559,
      "à¤Łà¤µà¤°": 1560,
      "Ġà¤ªà¤°à¤µà¤°": 1561,
      "à¤ħà¤®": 1562,
      "Ġà¤ħà¤¸à¤¹à¤®à¤¤": 1563,
      "à¤ģ?\"": 1564,
      "à¤¸à¤ķà¤¤": 1565,
      "à¤¨à¤ļ": 1566,
      "Ġà¤īà¤ľ": 1567,
      "Ġà¤ħà¤°": 1568,
      "à¥ĭà¤Ĥ?\"": 1569,
      "à¤Ńà¤¨": 1570,
      "Ġà¤ķà¤²à¤®": 1571,
      "à¥ĭ\"": 1572,
      "à¤¼à¥ĭ,": 1573,
      "Ġà¤ľà¤ľ": 1574,
      "Ġà¤Ĩà¤®à¤¤": 1575,
      "à¤ĩà¤®à¤¨": 1576,
      "à¤¸à¤®à¤¸": 1577,
      "à¥ĩ:": 1578,
      "à¥Īà¤Ĥ:": 1579,
      "à¥Ĥà¤Ĥ,\"": 1580,
      "Ġà¤ķà¤ªà¤ķ": 1581,
      "à¤¼à¥ĩà¤Ĥ!\"": 1582,
      "Ġà¤²à¤ªà¤Ł": 1583,
      "Ġà¤Ĺà¤®à¤²": 1584,
      "à¥ĩ\"": 1585,
      "à¤¼à¤¾!": 1586,
      "à¤ħà¤ľà¤¨à¤¬": 1587,
      "à¤¸à¤²à¤ķà¤°": 1588,
      "à¤¯à¤ª": 1589,
      "à¤®à¤¯": 1590,
      "à¤ħà¤²": 1591,
      "à¤ľà¤°à¤¨": 1592,
      "Ġà¤¬à¤°à¤¤à¤¤": 1593,
      "Ġà¤µà¤°à¤¨": 1594,
      "à¥Ĥ\"": 1595,
      "Ġà¤ķà¤°à¤µ": 1596,
      "Ġà¤īà¤²à¤Ł": 1597,
      "Ġà¤Ńà¤Łà¤ķà¤¨": 1598,
      "à¤¼à¥Ģà¤Ĥ": 1599,
      "à¤°à¤¤à¤®": 1600,
      "Ġà¤ļà¤®à¤ķà¤¤": 1601,
      "à¤¹à¤ķ": 1602,
      "Ġà¤īà¤ļ": 1603,
      "à¤¼à¥ĭ!\"": 1604,
      "Ġà¤Ĩà¤ł": 1605,
      "Ġà¤Ĩà¤µà¤¶": 1606,
      "à¤²à¤ķà¤®": 1607,
      "à¤¹à¤µ": 1608,
      "Ġà¤Ĺà¤§": 1609,
      "à¤¬à¤°à¤¦": 1610,
      "à¤Ńà¤ķ": 1611,
      "à¤¬à¤°à¤¦à¤¸": 1612,
      "Ġà¤ķà¤¤": 1613,
      "à¤ªà¤²": 1614,
      "Ġà¤ļà¤¶": 1615,
      "Ġà¤¬à¤ľà¤¨": 1616,
      "Ġà¤¸à¤¬à¤µ": 1617,
      "Ġà¤īà¤ªà¤¹": 1618,
      "Ġà¤²à¤¥à¤ª": 1619,
      "à¤¥à¤Łà¤¬": 1620,
      "Ġà¤ıà¤¬": 1621,
      "Ġà¤ıà¤¶": 1622,
      "Ġà¤²à¤¥à¤ªà¤¥": 1623,
      "à¤¾'": 1624,
      "à¥Ģ;": 1625,
      "Ġà¤ļà¤ª": 1626,
      "à¤īà¤¡": 1627,
      "Ġà¤Ĺà¤¹à¤¨": 1628,
      "à¤¥à¤²": 1629,
      "à¥Ĥà¤Ĥ?": 1630,
      "à¤¯à¤ķà¤¤": 1631,
      "à¤¸à¤°à¤¸": 1632,
      "à¤®à¤Ł": 1633,
      "Ġà¤ħà¤¶": 1634,
      "à¤ģ,\"": 1635,
      "Ġà¤Ĩà¤¹à¤¤": 1636,
      "Ġà¤Ńà¤°à¤¤": 1637,
      "Ġà¤¸à¤«à¤°": 1638,
      "Ġà¤¹à¤°à¤ķ": 1639,
      "à¤ªà¤®": 1640,
      "Ġà¤¬à¤¨à¤¤": 1641,
      "Ġà¤¨à¤ľà¤°à¤ħ": 1642,
      "à¤²à¤¸": 1643,
      "Ġà¤ıà¤µ": 1644,
      "Ġà¤¥à¤ķà¤ķà¤°": 1645,
      "Ġà¤ĩà¤¨à¤¸": 1646,
      "Ġà¤¹à¤°à¤ķà¤¤": 1647,
      "Ġà¤Łà¤¨à¤²": 1648,
      "Ġà¤ķà¤²à¤°": 1649,
      "Ġà¤īà¤¤à¤°à¤ķà¤°": 1650,
      "à¤¯à¤ķà¤°": 1651,
      "à¤¼\"": 1652,
      "Ġà¤µà¤ľ": 1653,
      "à¤Ĺà¤¶": 1654,
      "Ġà¤°à¤¯": 1655,
      "à¤¯à¤°à¤µà¤°": 1656,
      "Ġà¤ıà¤¶à¤Ł": 1657,
      "Ġà¤Ľà¤ķ": 1658,
      "à¤¼à¤¾!\"": 1659,
      "Ġà¤¸à¤¨à¤¸": 1660,
      "...": 1661,
      "à¤Ĥ.": 1662,
      "Ġà¤§à¤®": 1663,
      "Ġà¤§à¤°à¤¤": 1664,
      "Ġà¤ĩà¤¨à¤®": 1665,
      "à¤°à¤«": 1666,
      "Ġà¤Ľà¤µ": 1667,
      "Ġà¤ªà¤Łà¤°": 1668,
      "à¤¶à¤¹à¤°": 1669,
      "Ġà¤ķà¤ļ": 1670,
      "à¤ķà¤¥": 1671,
      "Ġà¤¬à¤§": 1672,
      "à¥Ģà¤Ĥ?": 1673,
      "à¤Ĩà¤ķ": 1674,
      "à¥Ĥà¤ģ.\"": 1675,
      "Ġà¤¤à¤°à¤²": 1676,
      "Ġà¤ıà¤¡à¤®": 1677,
      "à¤¼?\"": 1678,
      "Ġà¤«à¤ľ": 1679,
      "Ġà¤Ĩà¤ªà¤¸": 1680,
      "à¥ĭà¤Ĥ,\"": 1681,
      "Ġà¤¹à¤Łà¤ķà¤°": 1682,
      "à¤²à¤ķà¤¨": 1683,
      "Ġà¤¹à¤ķ": 1684,
      "Ġà¤ıà¤ķà¤¤": 1685,
      "Ġà¤ĸà¤²": 1686,
      "à¤Ĩà¤Ĺ": 1687,
      "à¤ĩà¤ķà¤²": 1688,
      "à¤°à¤°à¤°à¤°à¤°à¤°à¤°à¤°à¤°à¤°à¤°à¤°à¤°à¤°à¤°à¤°à¤°à¤°à¤°à¤°à¤°à¤°à¤°à¤°à¤°à¤°à¤°à¤°à¤°à¤°à¤°à¤°à¤°à¤°à¤°à¤°à¤°à¤°à¤°à¤°à¤°à¤°à¤°à¤°à¤°à¤°à¤°à¤°à¤°à¤°à¤°à¤°à¤°à¤°à¤°à¤°à¤°à¤°à¤°à¤°à¤°à¤°à¤°à¤°à¤°à¤°à¤°à¤°à¤°à¤°à¤°à¤°à¤°à¤°à¤°à¤°à¤°à¤°à¤°à¤°à¤°à¤°à¤°à¤°à¤°à¤°à¤°à¤°à¤°à¤°à¤°à¤°à¤°à¤°à¤°à¤°à¤°à¤°à¤°à¤°à¤°à¤°à¤°à¤°à¤°à¤°à¤°à¤°à¤°à¤°à¤°à¤°à¤°à¤°à¤°à¤°à¤°à¤°à¤°à¤°à¤°à¤°à¤°à¤°à¤°à¤°à¤°à¤°à¤°à¤°à¤°à¤°à¤°à¤°à¤°à¤°à¤°à¤°à¤°à¤°à¤°à¤°à¤°à¤°à¤°à¤°à¤°à¤°à¤°à¤°à¤°à¤°à¤°à¤°à¤°à¤°à¤°à¤°à¤°à¤°à¤°à¤°à¤°à¤°à¤°à¤°à¤°à¤°à¤°à¤°à¤°à¤°à¤°à¤°à¤°à¤°à¤°à¤°à¤°à¤°à¤°à¤°à¤°à¤°à¤°à¤°à¤°à¤°à¤°à¤°à¤°à¤°à¤°à¤°à¤°à¤°à¤°à¤°à¤°à¤°à¤°à¤°à¤°à¤°à¤°à¤°à¤°à¤°à¤°à¤°à¤°à¤°à¤°à¤°à¤°à¤°à¤°à¤°à¤°à¤°à¤°à¤°à¤°à¤°à¤°à¤°à¤°à¤°à¤°à¤°à¤°à¤°à¤°à¤°à¤°à¤°à¤°à¤°à¤°à¤°à¤°à¤°à¤°à¤°à¤°à¤°à¤°à¤°à¤°à¤°à¤°à¤°à¤°à¤°à¤°à¤°": 1689,
      "Ġà¤®à¤Łà¤ķ": 1690,
      "Ġà¤īà¤Ĺà¤¤": 1691,
      "à¤Ĺà¤µ": 1692,
      "Ġà¤ļà¤ļ": 1693,
      "Ġà¤¡à¤¸": 1694,
      "à¤¯à¤µà¤¶": 1695,
      "Ġà¤Ńà¤°à¤®": 1696,
      "à¤°à¤®à¤£": 1697,
      "Ġà¤ªà¤²à¤Ł": 1698,
      "à¤²à¤¦": 1699,
      "à¤¼à¥Ģ!": 1700,
      "à¤łà¤²": 1701,
      "à¤ĵà¤²": 1702,
      "Ġà¤¸à¤°à¤²": 1703,
      "Ġà¤īà¤Ĺà¤¨": 1704,
      "à¤®à¤Ĺà¤°à¤®à¤ļ": 1705,
      "à¤¡à¤®": 1706,
      "à¤Īà¤¯": 1707,
      "à¤¾à¤ģ\"": 1708,
      "Ġà¤ĳà¤¨": 1709,
      "...\"": 1710,
      "à¤¼à¥Ģà¤Ĥ,": 1711,
      "Ġà¤¹à¤¸": 1712,
      "Ġà¤ĸà¤¦": 1713,
      "à¤Īà¤ĺà¤°": 1714,
      "à¤Ĩà¤Ĩà¤Ĩà¤Ĩà¤Ĩà¤Ĩà¤Ĩà¤Ĩà¤Ĩà¤Ĩà¤Ĩà¤Ĩà¤Ĩà¤Ĩà¤Ĩà¤Ĩà¤Ĩà¤Ĩà¤Ĩà¤Ĩà¤Ĩà¤Ĩà¤Ĩà¤Ĩà¤Ĩà¤Ĩà¤Ĩà¤Ĩà¤Ĩà¤Ĩà¤Ĩà¤Ĩà¤Ĩà¤Ĩà¤Ĩà¤Ĩà¤Ĩà¤Ĩà¤Ĩà¤Ĩà¤Ĩà¤Ĩà¤Ĩà¤Ĩà¤Ĩà¤Ĩà¤Ĩà¤Ĩà¤Ĩà¤Ĩà¤Ĩà¤Ĩà¤Ĩà¤Ĩà¤Ĩà¤Ĩà¤Ĩà¤Ĩà¤Ĩà¤Ĩà¤Ĩà¤Ĩà¤Ĩà¤Ĩà¤Ĩà¤Ĩà¤Ĩà¤Ĩà¤Ĩà¤Ĩà¤Ĩà¤Ĩà¤Ĩà¤Ĩà¤Ĩà¤Ĩà¤Ĩà¤Ĩà¤Ĩà¤Ĩà¤Ĩà¤Ĩà¤Ĩà¤Ĩà¤Ĩà¤Ĩà¤Ĩà¤Ĩà¤Ĩà¤Ĩà¤Ĩà¤Ĩà¤Ĩà¤Ĩà¤Ĩà¤Ĩà¤Ĩà¤Ĩà¤Ĩà¤Ĩà¤Ĩà¤Ĩà¤Ĩà¤Ĩà¤Ĩà¤Ĩà¤Ĩà¤Ĩà¤Ĩà¤Ĩà¤Ĩà¤Ĩà¤Ĩà¤Ĩà¤Ĩà¤Ĩà¤Ĩà¤Ĩà¤Ĩà¤Ĩà¤Ĩà¤Ĩà¤Ĩà¤Ĩà¤Ĩà¤Ĩà¤Ĩà¤Ĩ": 1715,
      "à¤ķà¤¯": 1716,
      "Ġà¤ħà¤Łà¤ķ": 1717,
      "Ġà¤¯à¤¦": 1718,
      "à¤¼à¤¾.": 1719,
      "à¤Ĩà¤¹": 1720,
      "à¤ĩà¤Ĺà¤°": 1721,
      "à¤īà¤Ł": 1722,
      "à¤ħà¤¹": 1723,
      "Ġà¤Ĩà¤ĵà¤Ĺ": 1724,
      "Ġà¤¬à¤¦à¤¤à¤°": 1725,
      "Ġà¤ħà¤µà¤¸à¤°": 1726,
      "Ġà¤łà¤¹à¤°à¤¨": 1727,
      "à¥Į,": 1728,
      "Ġà¤¶à¤ĸ": 1729,
      "à¤·à¤¤": 1730,
      "à¤Ŀà¤¨": 1731,
      "à¤Ĩà¤¯": 1732,
      "Ġà¤¬à¤ļà¤¤": 1733,
      "Ġ10": 1734,
      "à¤®à¤ľ": 1735,
      "Ġà¤¦à¤®": 1736,
      "à¤Ĳà¤¬": 1737,
      "Ġà¤¨à¤®": 1738,
      "Ġà¤Ĺà¤¦": 1739,
      "Ġà¤«à¤¨": 1740,
      "Ġà¤«à¤¸à¤²": 1741,
      "à¤Ĩà¤¨": 1742,
      "à¤īà¤¬": 1743,
      "Ġà¤¬à¤ļà¤ªà¤¨": 1744,
      "à¤ķà¤¹": 1745,
      "à¤«à¤¬": 1746,
      "à¤¢à¤ķà¤°": 1747,
      "Ġà¤Ĩà¤ªà¤¤": 1748,
      "Ġà¤¢à¤ķà¤¨": 1749,
      "à¤Ĥ-": 1750,
      "Ġà¤Ĩà¤¦à¤¤": 1751,
      "à¤¦à¤°à¤µ": 1752,
      "à¤Łà¤®": 1753,
      "à¤ľà¤Ĺ": 1754,
      "à¤¶à¤¶": 1755,
      "à¤ļà¤µ": 1756,
      "à¥Ĥà¤ģ.": 1757,
      "Ġà¤ĳà¤²": 1758,
      "à¤Ĳà¤¸": 1759,
      "my": 1760,
      "Ġà¤Ķ": 1761,
      "à¤°à¤Ĺ": 1762,
      "Ġà¤¬à¤Ĺà¤²": 1763,
      "à¤ģ!": 1764,
      "à¤Łà¤°à¤ª": 1765,
      "à¤°à¤µà¤¤": 1766,
      "à¤¤à¤¬": 1767,
      "Ġà¤¬à¤¶à¤°": 1768,
      "à¤µà¤Ń": 1769,
      "à¤¬à¤ķà¤°": 1770,
      "à¥Ģà¤Ĥ\"": 1771,
      "Ġà¤¯à¤®": 1772,
      "à¤¼à¥ĩà¤Ĥà¥¤\"": 1773,
      "Ġà¤ıà¤ķãĤ¢ãĤ¤ãĥĩãĤ¢à¤Ĩà¤¯": 1774,
      "Ġà¤ļà¤¯à¤¨": 1775,
      "à¤¬à¤Ĺ": 1776,
      "à¤Ĥ?\"": 1777,
      "Ġà¤Ĩà¤ī": 1778,
      "à¤Īà¤¸": 1779,
      "à¥Ģà¤Ĥ:": 1780,
      "Ġà¤¢à¤²": 1781,
      "à¤ĩà¤Łà¤®": 1782,
      "à¤¦à¤¨à¤¶": 1783,
      "à¤Ľà¤¡": 1784,
      "à¤Ĩà¤īà¤Ł": 1785,
      "à¤ĩà¤¸à¤¸": 1786,
      "à¤Ĭà¤ªà¤°": 1787,
      "Ġà¤¬à¤¦à¤®": 1788,
      "Ġà¤µà¤¯à¤¸": 1789,
      "Ġà¤ĩà¤¨à¤ķ": 1790,
      "Ġà¤¶à¤¨": 1791,
      "à¤«à¤ľ": 1792,
      "à¤Ĺà¤²à¤ªà¤¨": 1793,
      "Ġà¤ıà¤°": 1794,
      "ĠA": 1795,
      "à¤°à¤§à¤¨": 1796,
      "à¤¸à¤ļ": 1797,
      "Ġà¤¬à¤Ł": 1798,
      "Ġà¤īà¤ªà¤¸": 1799,
      "à¤®à¤§": 1800,
      "à¤ªà¤¶": 1801,
      "à¤Ľà¤Ł": 1802,
      "à¤Ĩà¤¸à¤®": 1803,
      "à¤¸à¤°à¤ª": 1804,
      "à¤ħà¤¸à¤²": 1805,
      "Ġà¤ħà¤¨à¤¸": 1806,
      "Ġà¤¸à¤¹à¤ľ": 1807,
      "Ġà¤Ķà¤ľ": 1808,
      "Ġ(": 1809,
      "à¤ķà¤Ľ": 1810,
      "Ġà¤®à¤ķà¤¡": 1811,
      "à¤¼à¥ĭà¥¤\"": 1812,
      "à¤¼à¥ĩ!": 1813,
      "Ġà¤¸à¤ļà¤®": 1814,
      "Ġà¤®à¤Ĺà¤¤à¤°": 1815,
      "Ġà¤Ĩà¤īà¤Łà¤«": 1816,
      "Ġà¤®à¤Łà¤°": 1817,
      "Ġà¤ªà¤Ĺà¤¡": 1818,
      "à¥ĩà¤Ĥ\"": 1819,
      "Ġà¤°à¤¥": 1820,
      "Ġà¤¡à¤Ĺ": 1821,
      "à¤ħà¤¸": 1822,
      "Ġà¤ĸà¤°à¤ªà¤¤": 1823,
      "à¤¸à¤®à¤Ŀ": 1824,
      "Ġà¤¸à¤¹à¤¨": 1825,
      "Ġà¤¸à¤¹à¤¯": 1826,
      "Ġà¤ĸà¤°à¤ªà¤¤à¤µ": 1827,
      "Ġ2": 1828,
      "à¤¨à¤Ī": 1829,
      "Ġà¤īà¤Ĺà¤²": 1830,
      "à¤¼à¥ĭà¥¤": 1831,
      "Ġà¤īà¤²à¤Ŀ": 1832,
      "à¤ĩà¤µà¤µ": 1833,
      "Ġà¤ĩà¤¸ãĤ¢ãĤ¤ãĥĩãĤ¢": 1834,
      "à¤łà¤°": 1835,
      "à¤Ĩà¤²à¤¸": 1836,
      "Ġà¤§à¤®à¤ķ": 1837,
      "à¤īà¤¦": 1838,
      "Ġà¤¢à¤ķà¤¤": 1839,
      "Ġà¤¸à¤¨à¤¶": 1840,
      "\",": 1841,
      "à¤¸à¤ªà¤°": 1842,
      "Ġà¤°à¤¬": 1843,
      "Ġà¤Ĩà¤ĩà¤Łà¤®": 1844,
      "Ġà¤«à¤Łà¤¨": 1845,
      "Ġà¤¸à¤ķà¤¨": 1846,
      "à¤ħà¤ľ": 1847,
      "Ġà¤¤à¤²à¤Ľà¤Ł": 1848,
      "à¤¡à¤°à¤Ĺ": 1849,
      "Ġà¤²à¤Łà¤ķà¤ķà¤°": 1850,
      "à¥Ī\",": 1851,
      "Ġà¤¹à¤ķà¤¦": 1852,
      "Ġà¤¡à¤Ĺà¤®à¤Ĺ": 1853,
      "\"à¥¤": 1854,
      "à¥Ģ'": 1855,
      "Ġà¤®à¤²": 1856,
      "Ġà¤¥à¤®": 1857,
      "à¤¼à¥¤\"": 1858,
      "à¤¦à¤¡": 1859,
      "Ġà¤ľà¤ķà¤¡": 1860,
      "Ġà¤Ĩà¤¹": 1861,
      "à¤¼à¥ĩ.": 1862,
      "à¤¸à¤®à¤¯": 1863,
      "âĢľ": 1864,
      "Ġà¤ĩà¤®à¤°à¤ľ": 1865,
      "Ġà¤ħà¤¸à¤¹à¤ľà¤¤": 1866,
      "Ġà¤®à¤°à¤¹à¤®": 1867,
      "à¤ĳà¤«": 1868,
      "Ġà¤ļà¤ªà¤²à¤¤": 1869,
      "à¤¸à¤¡": 1870,
      "à¤²à¤ĸ": 1871,
      "à¤ªà¤ķà¤¡": 1872,
      "à¤ľà¤µ": 1873,
      "à¤¬à¤¦": 1874,
      "à¤Ľà¤ķà¤°": 1875,
      "Ġà¤Łà¤ªà¤ķ": 1876,
      "Ġà¤«à¤«": 1877,
      "à¤¼à¤¾?\"": 1878,
      "Ġà¤ĺà¤®": 1879,
      "Ġà¤¡à¤°à¤ª": 1880,
      "Ġà¤ıà¤¯à¤°à¤ª": 1881,
      "à¥Ĥà¤Ĥ!": 1882,
      "Ġà¤¬à¤°à¤¸": 1883,
      "à¤ŀà¤¤": 1884,
      "à¤ĳà¤ķ": 1885,
      "à¤Ĥ,\"": 1886,
      "Ġà¤¬à¤®": 1887,
      "à¤®à¤Ľ": 1888,
      "à¤¼'": 1889,
      "à¤Ĺà¤¦à¤°": 1890,
      "Ġà¤¤à¤ĸ": 1891,
      "à¤¬à¤¬à¤²": 1892,
      "à¤¾à¤ģ?": 1893,
      "à¥ī.": 1894,
      "Ġà¤¬à¤¨à¤µ": 1895,
      "Ġà¤ļà¤®à¤Ĺ": 1896,
      "Ġà¤Ŀà¤ķ": 1897,
      "Ġà¤Ĳà¤²": 1898,
      "à¤ķà¤Łà¤¤": 1899,
      "Ġà¤ĳà¤¡": 1900,
      "à¤¾/": 1901,
      "Ġà¤ľà¤ĸ": 1902,
      "à¤ıà¤¬": 1903,
      "à¤¬à¤ľ": 1904,
      "Ġà¤ĵà¤¸": 1905,
      "Ġà¤ħà¤¨à¤²": 1906,
      "à¤£à¤¨": 1907,
      "Ġà¤¦à¤°à¤ħà¤¸à¤²": 1908,
      "à¤¶à¤¨à¤¸": 1909,
      "à¤ĺà¤²à¤¤": 1910,
      "Ġà¤ªà¤²à¤Łà¤¤": 1911,
      "à¤Ĳà¤²": 1912,
      "à¤°à¤°à¤°à¤°à¤°à¤°à¤°à¤°à¤°à¤°à¤°à¤°à¤°à¤°à¤°à¤°à¤°à¤°à¤°à¤°à¤°à¤°à¤°à¤°à¤°à¤°à¤°à¤°à¤°à¤°à¤°à¤°à¤°à¤°à¤°à¤°à¤°à¤°à¤°à¤°à¤°à¤°à¤°à¤°à¤°à¤°à¤°à¤°à¤°à¤°à¤°à¤°à¤°à¤°à¤°à¤°à¤°à¤°à¤°à¤°à¤°à¤°à¤°à¤°à¤°à¤°à¤°à¤°à¤°à¤°à¤°à¤°à¤°à¤°à¤°à¤°à¤°à¤°à¤°à¤°à¤°à¤°à¤°à¤°à¤°à¤°à¤°à¤°à¤°à¤°à¤°à¤°à¤°à¤°à¤°à¤°à¤°à¤°à¤°à¤°à¤°à¤°à¤°à¤°à¤°à¤°à¤°à¤°à¤°à¤°à¤°à¤°à¤°à¤°à¤°à¤°à¤°à¤°à¤°à¤°à¤°à¤°à¤°à¤°à¤°à¤°à¤°à¤°à¤°à¤°à¤°à¤°à¤°à¤°à¤°à¤°à¤°à¤°à¤°à¤°à¤°à¤°à¤°à¤°à¤°à¤°à¤°à¤°à¤°à¤°à¤°à¤°à¤°à¤°à¤°à¤°à¤°à¤°à¤°à¤°à¤°à¤°à¤°à¤°à¤°à¤°à¤°à¤°à¤°à¤°à¤°à¤°à¤°à¤°à¤°à¤°à¤°à¤°à¤°à¤°à¤°à¤°à¤°à¤°à¤°à¤°à¤°à¤°à¤°à¤°à¤°à¤°à¤°à¤°à¤°à¤°à¤°à¤°à¤°à¤°à¤°à¤°à¤°à¤°à¤°à¤°à¤°à¤°à¤°à¤°à¤°à¤°à¤°à¤°à¤°à¤°à¤°à¤°à¤°à¤°à¤°à¤°à¤°à¤°à¤°à¤°à¤°à¤°à¤°à¤°à¤°à¤°à¤°à¤°à¤°à¤°à¤°à¤°à¤°à¤°à¤°à¤°à¤°à¤°à¤°à¤°à¤°à¤°à¤°à¤°à¤°à¤°à¤°à¤°à¤°à¤°à¤°à¤°à¤°à¤°à¤°à¤°à¤°à¤°à¤°à¤°à¤°à¤°à¤°à¤°à¤°à¤°à¤°à¤°à¤°à¤°à¤°à¤°à¤°à¤°à¤°à¤°à¤°à¤°à¤°à¤°à¤°à¤°à¤°à¤°à¤°à¤°à¤°à¤°à¤°à¤°à¤°à¤°à¤°à¤°à¤°à¤°à¤°à¤°à¤°à¤°à¤°à¤°à¤°à¤°à¤°à¤°à¤°à¤°à¤°à¤°à¤°à¤°à¤°à¤°à¤°à¤°à¤°à¤°à¤°à¤°à¤°à¤°à¤°à¤°à¤°à¤°à¤°à¤°à¤°à¤°à¤°à¤°à¤°à¤°à¤°à¤°à¤°à¤°à¤°à¤°à¤°à¤°à¤°à¤°à¤°à¤°à¤°à¤°à¤°à¤°à¤°à¤°à¤°à¤°à¤°à¤°à¤°à¤°à¤°à¤°à¤°à¤°à¤°à¤°à¤°à¤°à¤°à¤°à¤°à¤°à¤°à¤°à¤°à¤°à¤°à¤°à¤°à¤°à¤°à¤°à¤°à¤°à¤°à¤°à¤°à¤°à¤°à¤°à¤°à¤°à¤°à¤°à¤°à¤°à¤°à¤°à¤°à¤°à¤°à¤°à¤°à¤°à¤°à¤°à¤°à¤°à¤°à¤°à¤°à¤°à¤°à¤°à¤°à¤°à¤°à¤°à¤°à¤°à¤°à¤°à¤°à¤°à¤°à¤°à¤°à¤°à¤°à¤°à¤°à¤°à¤°à¤°à¤°à¤°à¤°à¤°à¤°à¤°à¤°à¤°à¤°à¤°à¤°à¤°à¤°à¤°à¤°à¤°à¤°à¤°à¤°à¤°à¤°à¤°à¤°à¤°à¤°à¤°à¤°à¤°à¤°à¤°à¤°à¤°à¤°à¤°à¤°à¤°à¤°à¤°à¤°à¤°à¤°à¤°à¤°à¤°à¤°à¤°à¤°à¤°à¤°à¤°à¤°à¤°à¤°à¤°à¤°à¤°à¤°à¤°à¤°à¤°à¤°à¤°à¤°à¤°à¤°à¤°à¤°à¤°à¤°à¤°à¤°à¤°à¤°à¤°": 1913,
      "à¥ĩ;": 1914,
      "à¤¤à¤¸": 1915,
      "à¤²à¤Ł": 1916,
      "Ġà¤ªà¤®": 1917,
      "à¤¼à¤¾à¥¤\"": 1918,
      "Ġà¤¨à¤¤": 1919,
      "à¤¡à¤¸à¤®": 1920,
      "à¤ªà¤«": 1921,
      "à¤ªà¤ķà¤¨": 1922,
      "Ġà¤ħà¤Ĺ": 1923,
      "à¤Ĺà¤¦": 1924,
      "à¤¼à¥Ģ!\"": 1925,
      "à¤¹à¤°à¤£": 1926,
      "à¤ĩà¤«": 1927,
      "à¤°à¤ķà¤ª": 1928,
      "à¤¨à¤°à¤¹": 1929,
      "Ġà¤īà¤¬à¤²à¤¨": 1930,
      "Ġà¤Ŀà¤ķà¤Ŀ": 1931,
      "à¤¹à¤²": 1932,
      "à¤ķà¤ļà¤°": 1933,
      "à¥ĭ-": 1934,
      "à¤¯à¤ľ": 1935,
      "à¤Ĩà¤ĩà¤¸à¤ķ": 1936,
      "à¤¾à¤Ĥà¥¤": 1937,
      "à¤Ĩà¤Ĩà¤Ĩà¤Ĩà¤Ĩà¤Ĩà¤Ĩà¤Ĩà¤Ĩà¤Ĩà¤Ĩà¤Ĩà¤Ĩà¤Ĩà¤Ĩà¤Ĩà¤Ĩà¤Ĩà¤Ĩà¤Ĩà¤Ĩà¤Ĩà¤Ĩà¤Ĩà¤Ĩà¤Ĩà¤Ĩà¤Ĩà¤Ĩà¤Ĩà¤Ĩà¤Ĩà¤Ĩà¤Ĩà¤Ĩà¤Ĩà¤Ĩà¤Ĩà¤Ĩà¤Ĩà¤Ĩà¤Ĩà¤Ĩà¤Ĩà¤Ĩà¤Ĩà¤Ĩà¤Ĩà¤Ĩà¤Ĩà¤Ĩà¤Ĩà¤Ĩà¤Ĩà¤Ĩà¤Ĩà¤Ĩà¤Ĩà¤Ĩà¤Ĩà¤Ĩà¤Ĩà¤Ĩà¤Ĩà¤Ĩà¤Ĩà¤Ĩà¤Ĩà¤Ĩà¤Ĩà¤Ĩà¤Ĩà¤Ĩà¤Ĩà¤Ĩà¤Ĩà¤Ĩà¤Ĩà¤Ĩà¤Ĩà¤Ĩà¤Ĩà¤Ĩà¤Ĩà¤Ĩà¤Ĩà¤Ĩà¤Ĩà¤Ĩà¤Ĩà¤Ĩà¤Ĩà¤Ĩà¤Ĩà¤Ĩà¤Ĩà¤Ĩà¤Ĩà¤Ĩà¤Ĩà¤Ĩà¤Ĩà¤Ĩà¤Ĩà¤Ĩà¤Ĩà¤Ĩà¤Ĩà¤Ĩà¤Ĩà¤Ĩà¤Ĩà¤Ĩà¤Ĩà¤Ĩà¤Ĩà¤Ĩà¤Ĩà¤Ĩà¤Ĩà¤Ĩà¤Ĩà¤Ĩà¤Ĩà¤Ĩà¤Ĩà¤Ĩà¤Ĩà¤Ĩà¤Ĩà¤Ĩà¤Ĩà¤Ĩà¤Ĩà¤Ĩà¤Ĩà¤Ĩà¤Ĩà¤Ĩà¤Ĩà¤Ĩà¤Ĩà¤Ĩà¤Ĩà¤Ĩà¤Ĩà¤Ĩà¤Ĩà¤Ĩà¤Ĩà¤Ĩà¤Ĩà¤Ĩà¤Ĩà¤Ĩà¤Ĩà¤Ĩà¤Ĩà¤Ĩà¤Ĩà¤Ĩà¤Ĩà¤Ĩà¤Ĩà¤Ĩà¤Ĩà¤Ĩà¤Ĩà¤Ĩà¤Ĩà¤Ĩà¤Ĩà¤Ĩà¤Ĩà¤Ĩà¤Ĩà¤Ĩà¤Ĩà¤Ĩà¤Ĩà¤Ĩà¤Ĩà¤Ĩà¤Ĩà¤Ĩà¤Ĩà¤Ĩà¤Ĩà¤Ĩà¤Ĩà¤Ĩà¤Ĩà¤Ĩà¤Ĩà¤Ĩà¤Ĩà¤Ĩà¤Ĩà¤Ĩà¤Ĩà¤Ĩà¤Ĩà¤Ĩà¤Ĩà¤Ĩà¤Ĩà¤Ĩà¤Ĩà¤Ĩà¤Ĩà¤Ĩà¤Ĩà¤Ĩà¤Ĩà¤Ĩà¤Ĩà¤Ĩà¤Ĩà¤Ĩà¤Ĩà¤Ĩà¤Ĩà¤Ĩà¤Ĩà¤Ĩà¤Ĩà¤Ĩà¤Ĩà¤Ĩà¤Ĩà¤Ĩà¤Ĩà¤Ĩà¤Ĩà¤Ĩà¤Ĩà¤Ĩà¤Ĩà¤Ĩà¤Ĩà¤Ĩà¤Ĩà¤Ĩà¤Ĩà¤Ĩà¤Ĩà¤Ĩà¤Ĩà¤Ĩà¤Ĩà¤Ĩà¤Ĩà¤Ĩà¤Ĩà¤Ĩà¤Ĩ": 1938,
      "'à¥¤": 1939,
      "Ġ4": 1940,
      "à¤¨à¤Ŀà¤¨": 1941,
      "à¤¸à¤ľ": 1942,
      "à¤¯à¤Ł": 1943,
      "à¤¯à¤ľà¤¨": 1944,
      "Ġà¤ħà¤ªà¤°": 1945,
      "à¤Łà¤¡": 1946,
      "à¤¶à¤Ń": 1947,
      "Ġà¤Ńà¤µà¤¨": 1948,
      "Ġà¤Ľà¤Ł": 1949,
      "Ġà¤Ŀà¤¨à¤Ŀà¤¨": 1950,
      "Ġà¤Īà¤Ĺà¤²": 1951,
      "Ġà¤¤à¤¹à¤ĸ": 1952,
      "mmy": 1953,
      "rr": 1954,
      "ummy": 1955,
      "Ġ|": 1956,
      "ĠâĢľ": 1957,
      "à¤°à¤ļ": 1958,
      "Ġà¤ķà¤µà¤ļ": 1959,
      "à¤®à¤¶": 1960,
      "Ġà¤Ĺà¤¸": 1961,
      "à¤ľà¤®": 1962,
      "Ġà¤¤à¤¡": 1963,
      "à¥ĭà¤Ĥ?": 1964,
      "Ġà¤Ľà¤ª": 1965,
      "à¤§à¤¬": 1966,
      "Ġà¤¤à¤ķà¤²": 1967,
      "à¤ªà¤°à¤®": 1968,
      "à¤¨à¤µà¤°à¤¹": 1969,
      "à¤¾...": 1970,
      "Ġà¤Ľà¤²à¤ķ": 1971,
      "Ġà¤¬à¤Łà¤°à¤ķà¤ª": 1972,
      "ĠX": 1973,
      "ĭà¤¤": 1974,
      "Ġà¤ĭà¤¤": 1975,
      "à¤ķà¤ĸ": 1976,
      "Ġà¤²à¤¯": 1977,
      "Ġà¤²à¤ľ": 1978,
      "à¤¼,\"": 1979,
      "à¤ªà¤ª": 1980,
      "à¤Ĺà¤¸": 1981,
      "à¤Ĺà¤łà¤¨": 1982,
      "à¤ģ?": 1983,
      "à¥Īà¤Ĥ\"": 1984,
      "Ġà¤ĩà¤µ": 1985,
      "Ġà¤Ŀà¤²à¤ķ": 1986,
      "à¤¶à¤¨à¤°": 1987,
      "Ġà¤Īà¤µ": 1988,
      "Ġà¤ĳà¤«à¤°": 1989,
      "à¤ķà¤¤à¤°": 1990,
      "Ġà¤īà¤¬à¤¡": 1991,
      "Ġà¤²à¤Ł": 1992,
      "Ġà¤ľà¤Ł": 1993,
      "à¤¡à¤°à¤¨": 1994,
      "à¤ªà¤Łà¤¨": 1995,
      "Ġà¤ķà¤°à¤µà¤Ł": 1996,
      "à¤¶à¤¤": 1997,
      "Ġà¤¨à¤¹à¤²": 1998,
      "à¤ķà¤°à¤¤": 1999,
      "à¤Ĩà¤²": 2000,
      "à¤¯à¤°à¤¡": 2001,
      "Ġà¤ĳà¤¸": 2002,
      "Ġà¤ħà¤Łà¤ªà¤Ł": 2003,
      "à¤ıà¤¡à¤®": 2004,
      "Ø¯": 2005,
      "ãĢ": 2006,
      "à¥ĭ'": 2007,
      "Ġà¤¬à¤Ľà¤¡": 2008,
      "Ġà¤īà¤¥à¤²": 2009,
      "Ġà¤°à¤¨": 2010,
      "à¤ıà¤°": 2011,
      "à¤ģ-": 2012,
      "à¤¥à¤¬": 2013,
      "à¤·à¤¯": 2014,
      "à¤¼à¥Ģ.": 2015,
      "à¤¸à¤ķà¤¨": 2016,
      "à¤īà¤Ľ": 2017,
      "Ġà¤Ĩà¤¯à¤°à¤¨": 2018,
      "Ġà¤ıà¤¯à¤°": 2019,
      "Ġà¤ĸà¤°à¤¬": 2020,
      "à¤¤à¤°à¤¹": 2021,
      "Ġà¤¶à¤°à¤¦": 2022,
      "à¤Łà¤ķà¤ķà¤°": 2023,
      "Ġà¤¦à¤¬à¤¦à¤¬": 2024,
      "Ġà¤Łà¤¹à¤²à¤¤": 2025,
      "ãĢĤ": 2026,
      "as": 2027,
      "à¤¹à¤¡": 2028,
      "à¤¯ummy": 2029,
      "à¤¦à¤¹": 2030,
      "à¥Ĥ'": 2031,
      "à¥Ĥ-": 2032,
      "Ġà¤ħà¤µà¤°": 2033,
      "à¤ľà¤¯": 2034,
      "à¤ĸà¤ķ": 2035,
      "Ġà¤Łà¤ķà¤Ł": 2036,
      "Ġà¤ªà¤°à¤¤": 2037,
      "à¤īà¤¤": 2038,
      "Ġà¤ıà¤µà¤°": 2039,
      "à¤ĩà¤¨à¤°": 2040,
      "Ġà¤ļà¤ķà¤®": 2041,
      "Ġà¤īà¤¬à¤²à¤¤": 2042,
      "à¤ĳà¤°": 2043,
      "Ġà¤Łà¤ķà¤Łà¤ķ": 2044,
      "à¥ĩ'": 2045,
      "à¤°à¤Ĺà¤¤": 2046,
      "à¤¿à¥¤": 2047,
      "à¤ķà¤®à¤°": 2048,
      "à¥ģ,": 2049,
      "Ġà¤®à¤¤à¤Ń": 2050,
      "Ġà¤ªà¤«": 2051,
      "à¤¡à¤ª": 2052,
      "Ġà¤¤à¤¥": 2053,
      "Ġà¤Ĩà¤¸à¤¨": 2054,
      "à¤Īà¤®": 2055,
      "à¤Īà¤Ł": 2056,
      "à¤§à¤ķà¤°": 2057,
      "Ġà¤ĵà¤ĩ": 2058,
      "Ġà¤ĵà¤µà¤°": 2059,
      "à¤¯à¤°à¤¸": 2060,
      "à¤ĩà¤¡à¤µ": 2061,
      "à¤¯à¤²à¤°": 2062,
      "Ġà¤¬à¤¦à¤²à¤ķà¤°": 2063,
      "Ġà¤ĳà¤ª": 2064,
      "Ġà¤īà¤Ľà¤²à¤ķà¤°": 2065,
      "Ġà¤¹à¤²à¤ļà¤²": 2066,
      "à¤¾\"à¥¤": 2067,
      "à¤ĳà¤ªà¤°": 2068,
      "Ġà¤¬à¤Łà¤°à¤«": 2069,
      "à¤ľà¤Ĺà¤¹": 2070,
      "ĠAmy": 2071,
      "à¤°à¤¹à¤¸": 2072,
      "à¤Ĥ?": 2073,
      "à¤²à¤¶": 2074,
      "à¤²à¤Łà¤°": 2075,
      "Ġà¤®à¤°à¤¨": 2076,
      "à¤¦à¤¶": 2077,
      "à¤ľà¤¡": 2078,
      "à¤ģ.": 2079,
      "à¤Īà¤µ": 2080,
      "à¤¾à¤ģ.": 2081,
      "Ġà¤ªà¤°à¤ĸà¤¨": 2082,
      "à¤¼à¤¾à¤Ĥ": 2083,
      "ĠĊĊ": 2084,
      "à¤Ĩà¤ĸ": 2085,
      "à¤ĩà¤¤à¤¨": 2086,
      "à¤ĩà¤°à¤²": 2087,
      "à¤ħà¤§": 2088,
      "à¤ĵà¤ļ": 2089,
      "Ġà¤¬à¤ķà¤µ": 2090,
      "Ġà¤ĳà¤¬": 2091,
      "à¤Ķà¤°à¤¤": 2092,
      "à¤²à¤¯à¤ķà¤°": 2093,
      "Ġà¤ĸà¤Łà¤ªà¤Ł": 2094,
      "Ġà¥¤": 2095,
      "à¤¸à¤¹": 2096,
      "à¤¼à¥Ĥà¤ģ": 2097,
      "à¥Ĥ,\"": 2098,
      "Ġà¤ħà¤¹à¤®": 2099,
      "Ġà¤ĸà¤¸": 2100,
      "à¤Łà¤ħà¤ª": 2101,
      "à¤ĸà¤ľ": 2102,
      "à¥ĭà¤Ĥ.": 2103,
      "à¤¬à¤§": 2104,
      "à¤¬à¤¦à¤²": 2105,
      "à¤Ľà¤µ": 2106,
      "à¥Ģà¤Ĥ.\"": 2107,
      "à¤ĵà¤ª": 2108,
      "à¥Ī!\",": 2109,
      "ãĤ¢ãĤ¤à¤¡": 2110,
      "Ġà¤ªà¤²à¤Łà¤ķà¤°": 2111,
      "Ġà¤ħà¤¸à¤«à¤²": 2112,
      "Ġà¤ĩà¤¨à¤µ": 2113,
      "à¤ķà¤Łà¤¤à¤®": 2114,
      "!'": 2115,
      "à¤°à¤¬à¤°": 2116,
      "à¤¨à¤µà¤¸": 2117,
      "Ġà¤®à¤²à¤¬": 2118,
      "Ġà¤Ķà¤°ãĤ¢ãĤ¤ãĥĩãĤ¢": 2119,
      "à¤ªà¤¤à¤²": 2120,
      "Ġà¤ıà¤ķà¤®à¤¤": 2121,
      "à¤ļà¤Ł": 2122,
      "à¤ļà¤®à¤ķ": 2123,
      "à¤Īà¤ľ": 2124,
      "Ġà¤Ńà¤¤": 2125,
      "Ġà¤Ńà¤¡": 2126,
      "Ġà¤ĩà¤ľà¤¹": 2127,
      "à¤«à¤¨": 2128,
      "à¤Ŀà¤¡": 2129,
      "à¤ĩà¤Ĺ": 2130,
      "à¤ĩà¤ªà¤°": 2131,
      "Ġà¤ªà¤ķà¤µ": 2132,
      "Ġà¤ªà¤¤à¤Ŀà¤¡": 2133,
      "Ġà¤ıà¤¸": 2134,
      "Ġà¤ıà¤²à¤¨": 2135,
      "Ġà¤Ńà¤°à¤ª": 2136,
      "à¤ĺà¤¡": 2137,
      "Ġà¤ıà¤²à¤°": 2138,
      "Ġà¤ħà¤¸à¤Ń": 2139,
      "à¤²à¤ļà¤¡": 2140,
      "à¤ĩà¤«à¤Ĺ": 2141,
      "cin": 2142,
      "ed": 2143,
      "·ãĥ": 2144,
      "Ø§": 2145,
      "ĥãĤ": 2146,
      "à¤¨à¤ļà¤°": 2147,
      "Ġà¤ķà¤¦à¤°": 2148,
      "à¤¹à¤µà¤°": 2149,
      "Ġà¤¬à¤¬": 2150,
      "à¥Ī;": 2151,
      "Ġà¤Ĺà¤ľ": 2152,
      "à¤·à¤ľ": 2153,
      "à¤¾à¤Ĥ!": 2154,
      "Ġà¤Ĺà¤°à¤ľà¤¤": 2155,
      "ãĥĥãĤ": 2156,
      "Ġà¤ªà¤²à¤Łà¤¨": 2157,
      "à¤°à¤¹à¤ª": 2158,
      "à¤ĥ,": 2159,
      "Ġà¤¸à¤¨à¤¬à¤°": 2160,
      "à¤®à¤¹à¤²": 2161,
      "ascin": 2162,
      "ãĥĥãĤ·ãĥ": 2163,
      "¥à¤°": 2164,
      "Ø¨": 2165,
      "Ġ6": 2166,
      "Ġ8": 2167,
      "Ġà¤ķà¤«": 2168,
      "à¤ķà¤¦": 2169,
      "Ġà¤®ãĥĥãĤ·ãĥ": 2170,
      "Ġà¤īà¤ĸ": 2171,
      "Ġà¤²à¤¦": 2172,
      "à¤¼à¥ĩà¥¤\"": 2173,
      "Ġà¤ľà¤¯à¤ķ": 2174,
      "à¤¡à¤¹à¤°": 2175,
      "Ġà¤ħà¤¸à¤°": 2176,
      "à¤Ĺà¤¬": 2177,
      "à¤Ĺà¤²à¤¨": 2178,
      "à¤Łà¤µ": 2179,
      "à¤ĸà¤ļ": 2180,
      "à¤ĪãĤ¢ãĤ¤ãĥĩãĤ¢": 2181,
      "à¤Ńà¤¤": 2182,
      "à¥Ģ,âĢĿ": 2183,
      "à¤¼à¥ĩ!\"": 2184,
      "!\",": 2185,
      "à¤ĩà¤¶": 2186,
      "à¥Ĥà¤ģ\"": 2187,
      "Ġà¤Ĺà¤°à¤ľà¤¨": 2188,
      "Ġà¤ıà¤ªà¤°": 2189,
      "à¤ĵà¤µà¤¨": 2190,
      "à¤Ĺà¤¨à¤«": 2191,
      "à¤¼à¥ĭ!": 2192,
      "Ġà¤¬à¤°à¤ķà¤°": 2193,
      "ated": 2194,
      "ascinated": 2195,
      "Ġà¤®ãĥĥãĤ·ãĥ¥à¤°": 2196,
      "Ġà¤ıà¤ªà¤°à¤¨": 2197,
      "..\"": 2198,
      "Ġà¤ķà¤Łà¤°": 2199,
      "à¤ķà¤ķ": 2200,
      "à¤¸à¤Ł": 2201,
      "Ġà¤¹à¤ľ": 2202,
      "Ġà¤²à¤²à¤ļ": 2203,
      "Ġà¤¨à¤Ĺ": 2204,
      "Ġà¤µà¤¨": 2205,
      "Ġà¤ľà¤®à¤¨": 2206,
      "à¥Ĥ?\"": 2207,
      "Ġà¤ħà¤ĸà¤°": 2208,
      "à¤Ĺà¤®": 2209,
      "à¤Ĺà¤¤à¤¨": 2210,
      "à¤ľà¤¹à¤°": 2211,
      "à¤¬à¤µ": 2212,
      "à¤¬à¤Łà¤¨": 2213,
      "à¤¬à¤¤à¤ĸ": 2214,
      "à¤ļà¤²à¤¨": 2215,
      "Ġà¤²à¤Ĺà¤µ": 2216,
      "Ġà¤¶à¤¶": 2217,
      "Ġà¤¡à¤Ł": 2218,
      "à¤§à¤¯": 2219,
      "Ġà¤ĵà¤Łà¤°": 2220,
      "Ġà¤ĵà¤īà¤ļ": 2221,
      "Ġà¤ªà¤ķà¤¨": 2222,
      "à¤ħà¤Ł": 2223,
      "à¤ħà¤²à¤®": 2224,
      "à¤ĸà¤¤à¤°": 2225,
      "Ġà¤ļà¤®à¤ķà¤ķà¤°": 2226,
      "Ġà¤Ŀà¤ªà¤Ł": 2227,
      "Ġà¤¸à¤®à¤Ŀà¤ķà¤°": 2228,
      "à¥ĭ?!\"": 2229,
      "à¤¾\",": 2230,
      "Ġà¤ħà¤ĸà¤¬": 2231,
      "Ġà¤²à¤Łà¤ķà¤¤": 2232,
      "Ø§Ù": 2233,
      "am": 2234,
      "Ø±": 2235,
      "à¤ķà¤ļ": 2236,
      "à¤ķà¤Ĩà¤īà¤Ł": 2237,
      "Ġà¤¸à¤Ł": 2238,
      "Ġà¤®à¤Ł": 2239,
      "Ġà¤¬à¤Łà¤°à¤¸": 2240,
      "à¤¯à¤¥": 2241,
      "Ġà¤ªà¤Łà¤ķ": 2242,
      "à¤¼à¤Ĥ": 2243,
      "à¤¡à¤ķà¤°": 2244,
      "à¤ªà¤¥": 2245,
      "Ġà¤ļà¤°à¤£": 2246,
      "Ġà¤ļà¤Łà¤ķ": 2247,
      "Ġà¤ļà¤ªà¤¤": 2248,
      "à¤ľà¤¸": 2249,
      "à¤ļà¤ª": 2250,
      "Ġà¤ķà¤¹à¤²": 2251,
      "Ġà¤Łà¤Ł": 2252,
      "à¤¼à¤¾?": 2253,
      "à¤Ńà¤¯": 2254,
      "à¤¼à¥Ģ:": 2255,
      "à¤ħà¤ķ": 2256,
      "Ġà¤Ĩà¤ªà¤¦": 2257,
      "à¥ĩà¤Ĥ,âĢĿ": 2258,
      "à¤¤à¤°à¤¨": 2259,
      "à¤°à¤®à¤°": 2260,
      "à¤ĩà¤ķà¤«": 2261,
      "à¥Ī?!\"": 2262,
      "à¤Ńà¤Ĺà¤µ": 2263,
      "ink": 2264,
      "à¥Ģ\"à¥¤": 2265,
      "à¥Ī\"à¥¤": 2266,
      "Ġ20": 2267,
      "à¤°à¤°à¤°à¤°à¤°à¤°à¤°à¤°à¤°à¤°à¤°à¤°à¤°à¤°à¤°à¤°à¤°à¤°à¤°à¤°à¤°à¤°à¤°à¤°à¤°à¤°à¤°à¤°à¤°à¤°à¤°à¤°à¤°à¤°à¤°à¤°à¤°à¤°à¤°à¤°à¤°à¤°à¤°à¤°à¤°à¤°à¤°à¤°à¤°à¤°à¤°à¤°à¤°à¤°à¤°à¤°à¤°à¤°à¤°à¤°à¤°à¤°à¤°à¤°à¤°à¤°à¤°à¤°à¤°à¤°à¤°à¤°à¤°à¤°à¤°à¤°à¤°à¤°à¤°à¤°à¤°à¤°à¤°à¤°à¤°à¤°à¤°à¤°à¤°à¤°à¤°à¤°à¤°à¤°à¤°à¤°à¤°à¤°à¤°à¤°à¤°à¤°à¤°à¤°à¤°à¤°à¤°à¤°à¤°à¤°à¤°à¤°à¤°à¤°à¤°à¤°à¤°à¤°à¤°à¤°à¤°à¤°à¤°à¤°à¤°à¤°à¤°à¤°à¤°à¤°à¤°à¤°à¤°à¤°à¤°à¤°à¤°à¤°à¤°à¤°à¤°à¤°à¤°à¤°à¤°à¤°à¤°à¤°à¤°à¤°à¤°à¤°à¤°à¤°à¤°à¤°à¤°à¤°à¤°à¤°à¤°à¤°à¤°à¤°à¤°à¤°à¤°à¤°à¤°à¤°à¤°à¤°à¤°à¤°à¤°à¤°à¤°à¤°à¤°à¤°à¤°à¤°à¤°à¤°à¤°à¤°à¤°à¤°à¤°à¤°à¤°à¤°à¤°à¤°à¤°à¤°à¤°à¤°à¤°à¤°à¤°à¤°à¤°à¤°à¤°à¤°à¤°à¤°à¤°à¤°à¤°à¤°à¤°à¤°à¤°à¤°à¤°à¤°à¤°à¤°à¤°à¤°à¤°à¤°à¤°à¤°à¤°à¤°à¤°à¤°à¤°à¤°à¤°à¤°à¤°à¤°à¤°à¤°à¤°à¤°à¤°à¤°à¤°à¤°à¤°à¤°à¤°à¤°à¤°à¤°à¤°à¤°à¤°à¤°à¤°à¤°à¤°à¤°à¤°à¤°à¤°à¤°à¤°à¤°à¤°à¤°à¤°à¤°à¤°à¤°à¤°à¤°à¤°à¤°à¤°à¤°à¤°à¤°à¤°à¤°à¤°à¤°à¤°à¤°à¤°à¤°à¤°à¤°à¤°à¤°à¤°à¤°à¤°à¤°à¤°à¤°à¤°à¤°à¤°à¤°à¤°à¤°à¤°à¤°à¤°à¤°à¤°à¤°à¤°à¤°à¤°à¤°à¤°à¤°à¤°à¤°à¤°à¤°à¤°à¤°à¤°à¤°à¤°à¤°à¤°à¤°à¤°à¤°à¤°à¤°à¤°à¤°à¤°à¤°à¤°à¤°à¤°à¤°à¤°à¤°à¤°à¤°à¤°à¤°à¤°à¤°à¤°à¤°à¤°à¤°à¤°à¤°à¤°à¤°à¤°à¤°à¤°à¤°à¤°à¤°à¤°à¤°à¤°à¤°à¤°à¤°à¤°à¤°à¤°à¤°à¤°à¤°à¤°à¤°à¤°à¤°à¤°à¤°à¤°à¤°à¤°à¤°à¤°à¤°à¤°à¤°à¤°à¤°à¤°à¤°à¤°à¤°à¤°à¤°à¤°à¤°à¤°à¤°à¤°à¤°à¤°à¤°à¤°à¤°à¤°à¤°à¤°à¤°à¤°à¤°à¤°à¤°à¤°à¤°à¤°à¤°à¤°à¤°à¤°à¤°à¤°à¤°à¤°à¤°à¤°à¤°à¤°à¤°à¤°à¤°à¤°à¤°à¤°à¤°à¤°à¤°à¤°à¤°à¤°à¤°à¤°à¤°à¤°à¤°à¤°à¤°à¤°à¤°à¤°à¤°à¤°à¤°à¤°à¤°à¤°à¤°à¤°à¤°à¤°à¤°à¤°à¤°à¤°à¤°à¤°à¤°à¤°à¤°à¤°à¤°à¤°à¤°à¤°à¤°à¤°à¤°à¤°à¤°à¤°à¤°à¤°à¤°à¤°à¤°à¤°à¤°à¤°à¤°à¤°à¤°à¤°à¤°à¤°à¤°à¤°à¤°à¤°à¤°à¤°à¤°à¤°à¤°à¤°à¤°à¤°à¤°à¤°à¤°à¤°à¤°à¤°à¤°à¤°à¤°à¤°à¤°à¤°à¤°à¤°à¤°à¤°à¤°à¤°à¤°à¤°à¤°à¤°à¤°à¤°à¤°à¤°à¤°à¤°à¤°à¤°à¤°à¤°à¤°à¤°à¤°à¤°à¤°à¤°à¤°à¤°à¤°à¤°à¤°à¤°à¤°à¤°à¤°à¤°à¤°à¤°à¤°à¤°à¤°à¤°à¤°à¤°à¤°à¤°à¤°à¤°à¤°à¤°à¤°à¤°à¤°à¤°à¤°à¤°à¤°à¤°à¤°à¤°à¤°à¤°à¤°à¤°à¤°à¤°à¤°à¤°à¤°à¤°à¤°à¤°à¤°à¤°à¤°à¤°à¤°à¤°à¤°à¤°à¤°à¤°à¤°à¤°à¤°à¤°à¤°à¤°à¤°à¤°à¤°à¤°à¤°à¤°à¤°à¤°à¤°à¤°à¤°à¤°à¤°à¤°à¤°à¤°à¤°à¤°à¤°à¤°à¤°à¤°à¤°à¤°à¤°à¤°à¤°à¤°à¤°à¤°à¤°à¤°à¤°à¤°à¤°à¤°à¤°à¤°à¤°à¤°à¤°à¤°à¤°à¤°à¤°à¤°à¤°à¤°à¤°à¤°à¤°à¤°à¤°à¤°à¤°à¤°à¤°à¤°à¤°à¤°à¤°à¤°à¤°à¤°à¤°à¤°à¤°à¤°à¤°à¤°à¤°à¤°à¤°à¤°à¤°à¤°à¤°à¤°à¤°à¤°à¤°à¤°à¤°à¤°à¤°à¤°à¤°à¤°à¤°à¤°à¤°à¤°à¤°à¤°à¤°à¤°à¤°à¤°à¤°à¤°à¤°à¤°à¤°à¤°à¤°à¤°à¤°à¤°à¤°à¤°à¤°à¤°à¤°à¤°à¤°à¤°à¤°à¤°à¤°à¤°à¤°à¤°à¤°à¤°à¤°à¤°à¤°à¤°à¤°à¤°à¤°à¤°à¤°à¤°à¤°à¤°à¤°à¤°à¤°à¤°à¤°à¤°à¤°à¤°à¤°à¤°à¤°à¤°à¤°à¤°à¤°à¤°à¤°à¤°à¤°à¤°à¤°à¤°à¤°à¤°à¤°à¤°à¤°à¤°à¤°à¤°à¤°à¤°à¤°à¤°à¤°à¤°à¤°à¤°à¤°à¤°à¤°à¤°à¤°à¤°à¤°à¤°à¤°à¤°à¤°à¤°à¤°à¤°à¤°à¤°à¤°à¤°à¤°à¤°à¤°à¤°à¤°à¤°à¤°à¤°à¤°à¤°à¤°à¤°à¤°à¤°à¤°à¤°à¤°à¤°à¤°à¤°à¤°à¤°à¤°à¤°à¤°à¤°à¤°à¤°à¤°à¤°à¤°à¤°à¤°à¤°à¤°à¤°à¤°à¤°à¤°à¤°à¤°à¤°à¤°à¤°à¤°à¤°à¤°à¤°à¤°à¤°à¤°à¤°à¤°à¤°à¤°à¤°à¤°à¤°à¤°à¤°à¤°à¤°à¤°à¤°à¤°à¤°à¤°à¤°à¤°à¤°à¤°à¤°à¤°à¤°à¤°à¤°à¤°à¤°à¤°à¤°à¤°à¤°à¤°à¤°à¤°à¤°à¤°à¤°à¤°à¤°à¤°à¤°à¤°à¤°à¤°à¤°à¤°à¤°à¤°à¤°à¤°à¤°à¤°à¤°à¤°à¤°à¤°à¤°à¤°à¤°à¤°à¤°à¤°à¤°à¤°à¤°à¤°à¤°à¤°à¤°à¤°à¤°à¤°à¤°à¤°à¤°à¤°à¤°à¤°à¤°à¤°à¤°à¤°à¤°à¤°à¤°à¤°à¤°à¤°à¤°à¤°à¤°à¤°à¤°à¤°à¤°à¤°à¤°à¤°à¤°à¤°à¤°à¤°à¤°à¤°à¤°à¤°à¤°à¤°à¤°à¤°à¤°à¤°à¤°à¤°à¤°à¤°à¤°à¤°à¤°à¤°à¤°à¤°à¤°à¤°à¤°à¤°à¤°à¤°à¤°à¤°à¤°à¤°à¤°à¤°à¤°à¤°à¤°à¤°à¤°à¤°à¤°à¤°à¤°à¤°à¤°à¤°à¤°à¤°à¤°à¤°à¤°à¤°à¤°à¤°à¤°à¤°à¤°à¤°à¤°à¤°à¤°à¤°à¤°à¤°à¤°à¤°à¤°à¤°à¤°à¤°à¤°à¤°à¤°à¤°à¤°à¤°": 2268,
      "à¤Ĩà¤Ĩà¤Ĩà¤Ĩà¤Ĩà¤Ĩà¤Ĩà¤Ĩà¤Ĩà¤Ĩà¤Ĩà¤Ĩà¤Ĩà¤Ĩà¤Ĩà¤Ĩà¤Ĩà¤Ĩà¤Ĩà¤Ĩà¤Ĩà¤Ĩà¤Ĩà¤Ĩà¤Ĩà¤Ĩà¤Ĩà¤Ĩà¤Ĩà¤Ĩà¤Ĩà¤Ĩà¤Ĩà¤Ĩà¤Ĩà¤Ĩà¤Ĩà¤Ĩà¤Ĩà¤Ĩà¤Ĩà¤Ĩà¤Ĩà¤Ĩà¤Ĩà¤Ĩà¤Ĩà¤Ĩà¤Ĩà¤Ĩà¤Ĩà¤Ĩà¤Ĩà¤Ĩà¤Ĩà¤Ĩà¤Ĩà¤Ĩà¤Ĩà¤Ĩà¤Ĩà¤Ĩà¤Ĩà¤Ĩà¤Ĩà¤Ĩà¤Ĩà¤Ĩà¤Ĩà¤Ĩà¤Ĩà¤Ĩà¤Ĩà¤Ĩà¤Ĩà¤Ĩà¤Ĩà¤Ĩà¤Ĩà¤Ĩà¤Ĩà¤Ĩà¤Ĩà¤Ĩà¤Ĩà¤Ĩà¤Ĩà¤Ĩà¤Ĩà¤Ĩà¤Ĩà¤Ĩà¤Ĩà¤Ĩà¤Ĩà¤Ĩà¤Ĩà¤Ĩà¤Ĩà¤Ĩà¤Ĩà¤Ĩà¤Ĩà¤Ĩà¤Ĩà¤Ĩà¤Ĩà¤Ĩà¤Ĩà¤Ĩà¤Ĩà¤Ĩà¤Ĩà¤Ĩà¤Ĩà¤Ĩà¤Ĩà¤Ĩà¤Ĩà¤Ĩà¤Ĩà¤Ĩà¤Ĩà¤Ĩà¤Ĩà¤Ĩà¤Ĩà¤Ĩà¤Ĩà¤Ĩà¤Ĩà¤Ĩà¤Ĩà¤Ĩà¤Ĩà¤Ĩà¤Ĩà¤Ĩà¤Ĩà¤Ĩà¤Ĩà¤Ĩà¤Ĩà¤Ĩà¤Ĩà¤Ĩà¤Ĩà¤Ĩà¤Ĩà¤Ĩà¤Ĩà¤Ĩà¤Ĩà¤Ĩà¤Ĩà¤Ĩà¤Ĩà¤Ĩà¤Ĩà¤Ĩà¤Ĩà¤Ĩà¤Ĩà¤Ĩà¤Ĩà¤Ĩà¤Ĩà¤Ĩà¤Ĩà¤Ĩà¤Ĩà¤Ĩà¤Ĩà¤Ĩà¤Ĩà¤Ĩà¤Ĩà¤Ĩà¤Ĩà¤Ĩà¤Ĩà¤Ĩà¤Ĩà¤Ĩà¤Ĩà¤Ĩà¤Ĩà¤Ĩà¤Ĩà¤Ĩà¤Ĩà¤Ĩà¤Ĩà¤Ĩà¤Ĩà¤Ĩà¤Ĩà¤Ĩà¤Ĩà¤Ĩà¤Ĩà¤Ĩà¤Ĩà¤Ĩà¤Ĩà¤Ĩà¤Ĩà¤Ĩà¤Ĩà¤Ĩà¤Ĩà¤Ĩà¤Ĩà¤Ĩà¤Ĩà¤Ĩà¤Ĩà¤Ĩà¤Ĩà¤Ĩà¤Ĩà¤Ĩà¤Ĩà¤Ĩà¤Ĩà¤Ĩà¤Ĩà¤Ĩà¤Ĩà¤Ĩà¤Ĩà¤Ĩà¤Ĩà¤Ĩà¤Ĩà¤Ĩà¤Ĩà¤Ĩà¤Ĩà¤Ĩà¤Ĩà¤Ĩà¤Ĩà¤Ĩà¤Ĩà¤Ĩà¤Ĩà¤Ĩà¤Ĩà¤Ĩà¤Ĩà¤Ĩà¤Ĩà¤Ĩà¤Ĩà¤Ĩà¤Ĩà¤Ĩà¤Ĩà¤Ĩà¤Ĩà¤Ĩà¤Ĩà¤Ĩà¤Ĩà¤Ĩà¤Ĩà¤Ĩà¤Ĩà¤Ĩà¤Ĩà¤Ĩà¤Ĩà¤Ĩà¤Ĩà¤Ĩà¤Ĩà¤Ĩà¤Ĩà¤Ĩà¤Ĩà¤Ĩà¤Ĩà¤Ĩà¤Ĩà¤Ĩà¤Ĩà¤Ĩà¤Ĩà¤Ĩà¤Ĩà¤Ĩà¤Ĩà¤Ĩà¤Ĩà¤Ĩà¤Ĩà¤Ĩà¤Ĩà¤Ĩà¤Ĩà¤Ĩà¤Ĩà¤Ĩà¤Ĩà¤Ĩà¤Ĩà¤Ĩà¤Ĩà¤Ĩà¤Ĩà¤Ĩà¤Ĩà¤Ĩà¤Ĩà¤Ĩà¤Ĩà¤Ĩà¤Ĩà¤Ĩà¤Ĩà¤Ĩà¤Ĩà¤Ĩà¤Ĩà¤Ĩà¤Ĩà¤Ĩà¤Ĩà¤Ĩà¤Ĩà¤Ĩà¤Ĩà¤Ĩà¤Ĩà¤Ĩà¤Ĩà¤Ĩà¤Ĩà¤Ĩà¤Ĩà¤Ĩà¤Ĩà¤Ĩà¤Ĩà¤Ĩà¤Ĩà¤Ĩà¤Ĩà¤Ĩà¤Ĩà¤Ĩà¤Ĩà¤Ĩà¤Ĩà¤Ĩà¤Ĩà¤Ĩà¤Ĩà¤Ĩà¤Ĩà¤Ĩà¤Ĩà¤Ĩà¤Ĩà¤Ĩà¤Ĩà¤Ĩà¤Ĩà¤Ĩà¤Ĩà¤Ĩà¤Ĩà¤Ĩà¤Ĩà¤Ĩà¤Ĩà¤Ĩà¤Ĩà¤Ĩà¤Ĩà¤Ĩà¤Ĩà¤Ĩà¤Ĩà¤Ĩà¤Ĩà¤Ĩà¤Ĩà¤Ĩà¤Ĩà¤Ĩà¤Ĩà¤Ĩà¤Ĩà¤Ĩà¤Ĩà¤Ĩà¤Ĩà¤Ĩà¤Ĩà¤Ĩà¤Ĩà¤Ĩà¤Ĩà¤Ĩà¤Ĩà¤Ĩà¤Ĩà¤Ĩà¤Ĩà¤Ĩà¤Ĩà¤Ĩà¤Ĩà¤Ĩà¤Ĩà¤Ĩà¤Ĩà¤Ĩà¤Ĩà¤Ĩà¤Ĩà¤Ĩà¤Ĩà¤Ĩà¤Ĩà¤Ĩà¤Ĩà¤Ĩà¤Ĩà¤Ĩà¤Ĩà¤Ĩà¤Ĩà¤Ĩà¤Ĩà¤Ĩà¤Ĩà¤Ĩà¤Ĩà¤Ĩà¤Ĩà¤Ĩà¤Ĩà¤Ĩà¤Ĩà¤Ĩà¤Ĩà¤Ĩà¤Ĩà¤Ĩà¤Ĩà¤Ĩà¤Ĩà¤Ĩà¤Ĩà¤Ĩà¤Ĩà¤Ĩà¤Ĩà¤Ĩà¤Ĩà¤Ĩà¤Ĩà¤Ĩà¤Ĩà¤Ĩà¤Ĩà¤Ĩà¤Ĩà¤Ĩà¤Ĩà¤Ĩà¤Ĩà¤Ĩà¤Ĩà¤Ĩà¤Ĩà¤Ĩà¤Ĩà¤Ĩà¤Ĩà¤Ĩà¤Ĩà¤Ĩà¤Ĩà¤Ĩà¤Ĩà¤Ĩà¤Ĩà¤Ĩà¤Ĩà¤Ĩà¤Ĩà¤Ĩà¤Ĩà¤Ĩà¤Ĩà¤Ĩà¤Ĩà¤Ĩà¤Ĩà¤Ĩà¤Ĩà¤Ĩà¤Ĩà¤Ĩà¤Ĩà¤Ĩà¤Ĩà¤Ĩ": 2269,
      "rrr": 2270,
      "\"ãĢĤ": 2271,
      "ÙĨ": 2272,
      "Ġg": 2273,
      "Ġì": 2274,
      "ĠØ¯": 2275,
      "à¤¨à¤ķà¤²": 2276,
      "à¤ķà¤¦à¤®": 2277,
      "à¤¤à¤®": 2278,
      "à¤¤à¤«à¤°": 2279,
      "Ġà¤īà¤Ń": 2280,
      "à¤¯à¤ªà¤°": 2281,
      "à¤¼à¥Ģà¥¤\"": 2282,
      "Ġà¤¨à¤ļ": 2283,
      "à¥Ĥà¥¤\"": 2284,
      "à¤ıà¤¯à¤°à¤ª": 2285,
      "à¤¬à¤¹à¤°": 2286,
      "à¤ļà¤µà¤°": 2287,
      "à¤¾,âĢĿ": 2288,
      "Ġà¤Ĩà¤ĩà¤°": 2289,
      "à¥Īà¥¤'": 2290,
      "Ġà¤Łà¤«": 2291,
      "à¤«à¤ķ": 2292,
      "à¤«à¤µ": 2293,
      "à¤Ĩà¤ĩà¤¸": 2294,
      "à¥Ī,âĢĿ": 2295,
      "à¤ħà¤µà¤ķ": 2296,
      "Ġà¤ľà¤²à¤ķà¤°": 2297,
      "Ġà¤Ĳà¤®": 2298,
      "Ġà¤¢à¤¹": 2299,
      "Ġà¤¬à¤°à¤¸à¤¤": 2300,
      "Ġà¤®à¤¨à¤ļ": 2301,
      "à¤¡à¤°à¤¸": 2302,
      "à¤¡à¤°à¤µ": 2303,
      "Ġà¤ħà¤«à¤°": 2304,
      "à¤ĩà¤²à¤°": 2305,
      "Ġ15": 2306,
      "à¤¡à¤®à¤¦à¤°": 2307,
      "Ø¨Ø§Ù": 2308,
      "ÙĨØ¨Ø§Ù": 2309,
      "ĠØ¯ÙĨØ¨Ø§Ù": 2310,
      "ĠØ¯ÙĨØ¨Ø§ÙĦ": 2311,
      ":,": 2312,
      "mm": 2313,
      "oink": 2314,
      "Ġ5": 2315,
      "à¤°à¤ĸ": 2316,
      "à¤¨à¤°à¤®": 2317,
      "à¤ķà¤®": 2318,
      "à¤¤à¤ķà¤°": 2319,
      "à¤²à¤ķà¤¡": 2320,
      "à¤²à¤µà¤Ł": 2321,
      "Ġà¤®à¤¡": 2322,
      "Ġà¤®à¤¸à¤²": 2323,
      "Ġà¤¥à¤¡": 2324,
      "Ġà¤ħà¤ľà¤¬": 2325,
      "à¤Ĺà¤§": 2326,
      "Ġà¤°à¤¦": 2327,
      "Ġà¤ļà¤ķà¤¤": 2328,
      "à¤ľà¤ľ": 2329,
      "à¤ıà¤µ": 2330,
      "à¤ıà¤µà¤°": 2331,
      "à¤ģ\"": 2332,
      "à¤¾à¤ģ'": 2333,
      "Ġà¤¬à¤¹à¤ķà¤°": 2334,
      "Ġà¤ªà¤°à¤®": 2335,
      "Ġà¤¯à¤²": 2336,
      "Ġà¤¶à¤µ": 2337,
      "Ġà¤ĺà¤Ł": 2338,
      "à¤·à¤ľà¤¨à¤ķ": 2339,
      "à¤Ŀà¤¤": 2340,
      "à¤Ĩà¤¶": 2341,
      "à¤§à¤¦": 2342,
      "Ġà¤ľà¤¬à¤°à¤¨": 2343,
      "Ġà¤¡à¤°à¤ķà¤°": 2344,
      "Ġà¤¤à¤°à¤¸": 2345,
      "à¤ĵà¤Ł": 2346,
      "Ġà¤Ńà¤°à¤µ": 2347,
      "à¤ķà¤²à¤°": 2348,
      "à¤Łà¤°à¤¨": 2349,
      "à¤Ĺà¤°à¤®": 2350,
      "Ġà¤¸à¤°à¤¸à¤°": 2351,
      "Ġà¤īà¤²à¤Ŀà¤¨": 2352,
      "Ġà¤ĳà¤®à¤²": 2353,
      "Ġà¤ĳà¤¨à¤²": 2354,
      "à¤Ĺà¤¡à¤®": 2355,
      "à¤¾?!\"": 2356,
      "Ġà¤¨à¤ľà¤¦": 2357,
      "à¤ķà¤ªà¤¡": 2358,
      "Ġà¤īà¤Ĺà¤²à¤¨": 2359,
      "ti": 2360,
      "Ú©": 2361,
      "ĠO": 2362,
      "ĠÚ©": 2363,
      "à¤°à¤¬à¤²": 2364,
      "à¤¨à¤ªà¤¨": 2365,
      "Ġà¤ķà¤¢": 2366,
      "à¤ķà¤«": 2367,
      "à¤¸à¤¦": 2368,
      "à¤¸à¤Ĺ": 2369,
      "à¤¸à¤ªà¤¨": 2370,
      "à¥ĭ:": 2371,
      "à¤²à¤®à¤¨": 2372,
      "à¤²à¤¬à¤¹": 2373,
      "Ġà¤¹à¤Łà¤ķ": 2374,
      "Ġà¤¸à¤¦": 2375,
      "à¤®à¤Ĺà¤°": 2376,
      "à¤®à¤°à¤®": 2377,
      "Ġà¤²à¤µ": 2378,
      "à¤¼à¥ĭ,\"": 2379,
      "Ġà¤ħà¤µà¤¤": 2380,
      "Ġà¤ļà¤°à¤®": 2381,
      "à¤µà¤«": 2382,
      "à¤¬à¤®": 2383,
      "à¤¬à¤¢": 2384,
      "Ġà¤Łà¤ļ": 2385,
      "Ġà¤Łà¤ĸà¤¨": 2386,
      "Ġà¤Ľà¤¤à¤°": 2387,
      "à¥Į\"": 2388,
      "à¥Į!\"": 2389,
      "à¤Ĩà¤§": 2390,
      "à¤§à¤ķ": 2391,
      "Ġà¤ľà¤¬à¤¡": 2392,
      "Ġà¤Ĺà¤²à¤µ": 2393,
      "à¤¤à¤¨à¤§": 2394,
      "Ġà¤Ŀà¤Ł": 2395,
      "Ġà¤ıà¤Ĺ": 2396,
      "Ġà¤¢à¤ķà¤ķà¤°": 2397,
      "à¥Ī!'": 2398,
      "à¤¡à¤²à¤°": 2399,
      "Ġà¤¸à¤¨à¤¸à¤¨": 2400,
      "Ġà¤ªà¤¦à¤ļ": 2401,
      "à¥ĭ\",": 2402,
      "à¥ĩ\",": 2403,
      "ĠAb": 2404,
      "Ġà¤īà¤ĸà¤¡": 2405,
      "by": 2406,
      "cti": 2407,
      "le": 2408,
      "th": 2409,
      "Ġ9": 2410,
      "ĠN": 2411,
      "Ġoink": 2412,
      "Ĥ¬": 2413,
      "à¤¨à¤Ńà¤¨": 2414,
      "Ġà¤ķà¤¨": 2415,
      "à¤¿-": 2416,
      "à¤¤à¤°à¤¤": 2417,
      "Ġà¤¹à¤¤": 2418,
      "à¤¯à¤ĳà¤«": 2419,
      "à¤®à¤°à¤¸": 2420,
      "à¤¼?": 2421,
      "Ġà¤¨à¤µ": 2422,
      "Ġà¤µà¤ļà¤¨": 2423,
      "à¤¦à¤µ": 2424,
      "à¥Ĥà¥ĭà¤Ĥ": 2425,
      "à¤¡à¤¸": 2426,
      "à¤¡à¤«": 2427,
      "à¤¡à¤®à¤²": 2428,
      "à¤ªà¤¢": 2429,
      "à¤ªà¤¹à¤ļ": 2430,
      "Ġà¤Ĺà¤¶": 2431,
      "Ġà¤ļà¤ĸà¤¤": 2432,
      "à¤Łà¤¹à¤¨": 2433,
      "à¤Łà¤²à¤°": 2434,
      "à¤ıà¤¶à¤¨": 2435,
      "Ġà¤¤à¤°à¤ķ": 2436,
      "à¤¬à¤Łà¤°": 2437,
      "Ġà¤Łà¤ªà¤ķà¤¨": 2438,
      "Ġà¤Ńà¤¨à¤Ńà¤¨": 2439,
      "à¤Ńà¤²": 2440,
      "à¤«à¤²à¤¤": 2441,
      "à¤Ŀà¤²": 2442,
      "à¤¼à¥Ģ\"": 2443,
      "à¤¼à¥Ģ?\"": 2444,
      "à¤łà¤¦": 2445,
      "à¤Ĩà¤Ń": 2446,
      "à¤§à¤¡": 2447,
      "à¤ĩà¤¸à¤®": 2448,
      "à¤¾à¤Ĥà¥¤\"": 2449,
      "Ġà¤ĵà¤¢": 2450,
      "à¤¸à¤ķà¤ķà¤°": 2451,
      "à¤īà¤ªà¤°": 2452,
      "à¤īà¤Ľà¤ķà¤°": 2453,
      "à¤¾!'": 2454,
      "Ġà¤¬à¤ļà¤ķà¤°": 2455,
      "Ġà¤Ńà¤°à¤ķà¤°": 2456,
      "à¤¤à¤°à¤¬": 2457,
      "Ġà¤¸à¤¹à¤ľà¤¤": 2458,
      "Ġà¤¬à¤°à¤¸à¤¨": 2459,
      "à¥Ģ...": 2460,
      "à¤¡à¤°à¤¸à¤¨": 2461,
      "à¥Ī...": 2462,
      "à¥Ī?'": 2463,
      "à¤Ĳà¤®": 2464,
      "à¤ĳà¤²": 2465,
      "à¤°à¤Ĺà¤®à¤¨": 2466,
      "Ġgrrr": 2467,
      "´à¤®": 2468,
      "Ã¢": 2469,
      "âĤ¬": 2470,
      "ìĿ": 2471,
      "Ġ7": 2472,
      "Ġa": 2473,
      "ĲìĿ": 2474,
      "ĹĲìĿ": 2475,
      "à¤°à¤ħ": 2476,
      "à¤¨à¤ľ": 2477,
      "à¤¨à¤°à¤²": 2478,
      "Ġà¤ķà¤·": 2479,
      "Ġà¤ķà¤¸à¤®": 2480,
      "Ġà¤ķà¤Łà¤°à¤ª": 2481,
      "à¤¹à¤¥": 2482,
      "à¤ķà¤ĳà¤«": 2483,
      "à¤¤à¤¹": 2484,
      "Ġà¤¹à¤¦": 2485,
      "Ġà¤®à¤¢": 2486,
      "Ġà¤®à¤°à¤¤": 2487,
      "Ġà¤®à¤²à¤®": 2488,
      "Ġà¤īà¤Ńà¤°": 2489,
      "à¤¯à¤¡": 2490,
      "Ġà¤ªà¤Łà¤¤": 2491,
      "Ġà¤¦à¤ķ": 2492,
      "Ġà¤²à¤¹à¤¸": 2493,
      "à¥Ĥ.": 2494,
      "à¤¡à¤¹": 2495,
      "à¥ĩà¤Ĥ'": 2496,
      "à¤Ĺà¤ľà¤¬": 2497,
      "Ġà¤ĸà¤¨à¤¨": 2498,
      "Ġà¤ļà¤ªà¤Ł": 2499,
      "à¤ľà¤¶": 2500,
      "Ġà¤¤à¤¬à¤²": 2501,
      "à¤µà¤ķà¤°": 2502,
      "à¤¬à¤°à¤¨": 2503,
      "à¤¶à¤Ł": 2504,
      "à¤ļà¤®": 2505,
      "Ġà¤Ĩà¤¦à¤°": 2506,
      "Ġà¤¬à¤¹à¤²": 2507,
      "à¥Ģà¤Ĥ-": 2508,
      "Ġà¤Łà¤¨": 2509,
      "Ġà¤«à¤Łà¤¤": 2510,
      "Ġà¤ĩà¤¥": 2511,
      "à¤¥à¤®": 2512,
      "à¤Ńà¤¦": 2513,
      "à¥Į!": 2514,
      "à¤ıà¤ķà¤¦à¤®": 2515,
      "à¤«à¤¤": 2516,
      "à¤«à¤Ł": 2517,
      "à¤¼à¥ĩ,\"": 2518,
      "Ġà¤¡à¤«": 2519,
      "à¤Ĩà¤Ī": 2520,
      "à¤Ĩà¤ĩà¤¨": 2521,
      "à¤ĩà¤ļ": 2522,
      "à¤¾à¤Ĥ!\"": 2523,
      "Ġà¤ĵà¤Ŀà¤²": 2524,
      "Ġà¤ªà¤ķà¤¤": 2525,
      "à¤ħà¤µ": 2526,
      "Ġà¤¤à¤ķà¤¨": 2527,
      "à¤£à¤¤": 2528,
      "à¤£à¤µà¤¤": 2529,
      "Ġà¤Ĩà¤¯à¤¤": 2530,
      "à¤ªà¤°à¤ª": 2531,
      "à¤ªà¤°à¤«": 2532,
      "Ġà¤ķà¤ĪãĤ¢ãĤ¤ãĥĩãĤ¢": 2533,
      "à¤®à¤¤à¤µ": 2534,
      "à¥ĥà¤Ĥ": 2535,
      "à¤¹à¤¤à¤°ãĤ¢ãĤ¤ãĥĩãĤ¢": 2536,
      "à¤¾!\",": 2537,
      "à¥ĭ!\",": 2538,
      "à¤¼à¥ĩà¤Ĥ!": 2539,
      "à¤¼à¥ĩà¤Ĥ?\"": 2540,
      "Ġà¤ħà¤²à¤ĹãĤ¢ãĤ¤ãĥĩãĤ¢": 2541,
      "à¤¦à¤²à¤¦à¤²": 2542,
      "Ġà¤®à¤¨à¤ªà¤¸": 2543,
      "à¥Ģ!\",": 2544,
      "à¥Įà¤Ĥ!\"": 2545,
      "Ġà¤«à¤²à¤¦": 2546,
      "Ġà¤¹à¤²à¤ķ": 2547,
      "Ġà¤Ńà¤¯à¤Ń": 2548,
      "à¥ĩ...": 2549,
      "anth": 2550,
      "à¥Ģ\",": 2551,
      "à¤®à¤¦à¤¦à¤Ĺ": 2552,
      "à¥ĩ\"à¥¤": 2553,
      "Ġ40": 2554,
      "Ġà¤ĵà¤µà¤°à¤«": 2555,
      "amanth": 2556,
      "Ø±Ø¯": 2557,
      "à¤¡à¤ķà¤°à¤«": 2558,
      "ĠìĹĲìĿ": 2559,
      "ĠOcti": 2560,
      "ĠÚ©Ø±Ø¯": 2561,
      "Ġà¤®à¤²à¤®à¤²": 2562,
      "amantha": 2563,
      "ĠìĹĲìĿ´à¤®": 2564,
      "GH": 2565,
      "UGH": 2566,
      "ga": 2567,
      "lo": 2568,
      "ĊĠ": 2569,
      "ĠD": 2570,
      "ĠE": 2571,
      "ĠĠ": 2572,
      "à¤¨à¤ĺà¤°": 2573,
      "Ġà¤ķà¤Ĺ": 2574,
      "Ġà¤ķà¤ķà¤¡": 2575,
      "à¤¹mm": 2576,
      "à¤¿!\"": 2577,
      "à¤¸à¤ļà¤°": 2578,
      "à¤²à¤ª": 2579,
      "à¥ģ-": 2580,
      "Ġà¤¸à¤¦à¤®": 2581,
      "Ġà¤¸amantha": 2582,
      "Ġà¤¬à¤«": 2583,
      "à¤¯à¤Łà¤ķ": 2584,
      "à¤¯à¤¥à¤¨": 2585,
      "à¤®à¤¬": 2586,
      "à¤¼.": 2587,
      "à¤¼à¥ĩà¤Ĥ,\"": 2588,
      "à¥Ĥ.\"": 2589,
      "à¤ªà¤¬": 2590,
      "à¤ªà¤Łà¤ķà¤°": 2591,
      "Ġà¤ħà¤µà¤¨": 2592,
      "à¤Ĺà¤£": 2593,
      "Ġà¤°à¤£à¤¨": 2594,
      "Ġà¤ļà¤¹": 2595,
      "à¤Łà¤ķà¤Ł": 2596,
      "à¤µà¤Ĺ": 2597,
      "à¤µà¤¯à¤¸": 2598,
      "à¤¬à¤Ł": 2599,
      "à¤¬à¤¬": 2600,
      "Ġà¤Ĩà¤«": 2601,
      "Ġà¤Ĩà¤ĩà¤¶": 2602,
      "à¥Ģà¥¤âĢĿ": 2603,
      "à¥Ģà¤Ĥ;": 2604,
      "Ġà¤Łà¤²": 2605,
      "Ġà¤Łà¤ª": 2606,
      "Ġà¤ªà¤°à¤¹": 2607,
      "Ġà¤ªà¤°à¤¦": 2608,
      "Ġà¤ªà¤°à¤ĸ": 2609,
      "Ġà¤¡à¤²": 2610,
      "à¤¼à¥Ģ?": 2611,
      "à¤łà¤Ń": 2612,
      "à¤¹à¤°à¤®": 2613,
      "Ġà¤®à¤¹à¤ķà¤¤": 2614,
      "à¤ĩà¤¬à¤²": 2615,
      "à¤¸à¤²à¤°": 2616,
      "à¥ĭ,âĢĿ": 2617,
      "Ġà¤Ĺà¤°à¤ľà¤ķà¤°": 2618,
      "Ġà¤Ĩà¤¯à¤¶": 2619,
      "à¤ĵà¤ĩ": 2620,
      "à¤ĵà¤ıà¤¸": 2621,
      "à¤Łà¤°à¤®": 2622,
      "à¤Łà¤°à¤¬": 2623,
      "Ġà¤¦à¤°à¤¬": 2624,
      "Ġà¤Ĩà¤Īà¤¨": 2625,
      "à¤µà¤¨à¤°à¤ķ": 2626,
      "à¤¾...\"": 2627,
      "à¤¼à¥ĩà¤Ĥ.\"": 2628,
      "à¤¼à¥ĭ.\"": 2629,
      "à¤¶à¤¨à¤²": 2630,
      "à¤ĩà¤¨à¤®": 2631,
      "à¥ĭ!'": 2632,
      "Ġà¤ļà¤Łà¤ķà¤¤": 2633,
      "Ġà¤Īà¤¶": 2634,
      "Ġà¤īà¤Ľà¤ķà¤¨": 2635,
      "Ġà¤īà¤Ľà¤ķà¤¤": 2636,
      "Ġà¤ħà¤®à¤²": 2637,
      "à¤¶à¤®à¤²": 2638,
      "à¤°ãĤ¢ãĤ¤ãĥĩãĤ¢à¤Ĩà¤¯": 2639,
      "Ġà¤Ĩà¤īà¤Łà¤²": 2640,
      "Ġ60": 2641,
      "ĠAbby": 2642,
      "Ġaga": 2643,
      "HE": 2644,
      "ND": 2645,
      "THE": 2646,
      "it": 2647,
      "te": 2648,
      "Ġ$": 2649,
      "ĠB": 2650,
      "ĠT": 2651,
      "ĠãĤ¢ãĤ¤ãĥĩãĤ¢": 2652,
      "à¤°à¤®à¤¸": 2653,
      "à¤¨à¤Ŀ": 2654,
      "à¤¨à¤¸à¤°": 2655,
      "à¤¹à¤®à¤¤": 2656,
      "à¤¿\"": 2657,
      "à¤¿:": 2658,
      "à¤ķà¤µ": 2659,
      "à¤Ĥ:": 2660,
      "à¤¸ãĤ¢ãĤ¤ãĥĩãĤ¢": 2661,
      "à¥¤'": 2662,
      "à¤²à¤°à¤¸": 2663,
      "Ġà¤¹à¤Łà¤¤": 2664,
      "Ġà¤īà¤·": 2665,
      "à¤¯à¤°à¤¤": 2666,
      "à¤®à¤¸à¤²": 2667,
      "à¤®à¤¬à¤°": 2668,
      "Ġà¤ªà¤Łà¤ķà¤ķà¤°": 2669,
      "Ġà¤¦à¤ĸà¤²": 2670,
      "à¤¼:": 2671,
      "Ġà¤ľà¤¸": 2672,
      "à¥Ĥà¤¾,": 2673,
      "à¤Ĺà¤Ł": 2674,
      "Ġà¤°à¤¨à¤µ": 2675,
      "Ġà¤ļà¤°à¤µ": 2676,
      "à¤Łà¤¹": 2677,
      "à¤ľà¤²à¤¨": 2678,
      "à¤ľà¤®à¤°": 2679,
      "à¤ıà¤²à¤¨": 2680,
      "à¤ıà¤ļà¤°": 2681,
      "à¤ĸà¤°à¤¨": 2682,
      "à¤ģ.\"": 2683,
      "à¤ļà¤¦": 2684,
      "à¤ļà¤¢": 2685,
      "à¤ļà¤°à¤°": 2686,
      "Ġà¤Ĩà¤ĩ": 2687,
      "Ġà¤Ĩà¤ĩà¤µ": 2688,
      "à¤¾à¤ģ.\"": 2689,
      "Ġà¤«à¤¹à¤°": 2690,
      "Ġà¤«à¤Łà¤ķ": 2691,
      "Ġà¤ĩà¤§": 2692,
      "à¤¥à¤ķ": 2693,
      "à¤Ńà¤°à¤¨": 2694,
      "Ġà¤¶à¤ªà¤¥": 2695,
      "à¤ķà¤°à¤¦": 2696,
      "à¤·à¤§": 2697,
      "à¤ĩà¤¬à¤°": 2698,
      "à¤¾à¤Ĥ:": 2699,
      "Ġà¤ĵà¤®à¤²": 2700,
      "Ġà¤ªà¤ķà¤ķà¤°": 2701,
      "Ġà¤¸à¤®à¤¤à¤²": 2702,
      "à¤īà¤ł": 2703,
      "à¤īà¤¸à¤®": 2704,
      "à¤°à¤ķà¤¨": 2705,
      "à¤°à¤ķà¤²": 2706,
      "Ġà¤ħà¤¨à¤®": 2707,
      "à¤¨à¤¤à¤®": 2708,
      "Ġà¤łà¤¨à¤ķ": 2709,
      "Ġà¤ıà¤¡à¤¨": 2710,
      "à¥ĭà¥¤!\"": 2711,
      "à¤ĵà¤ķ": 2712,
      "Ġà¤ħà¤²à¤°": 2713,
      "à¥ĩà¤Ĥà¥¤'": 2714,
      "à¤ĩà¤¨à¤¬": 2715,
      "Ġà¤¥à¤ķà¤¤": 2716,
      "Ġà¤ħà¤«à¤µ": 2717,
      "à¤¼à¤¾,\"": 2718,
      "à¥Įà¤Ĥ!": 2719,
      "Ġà¤ħà¤¸à¤«à¤²à¤¤": 2720,
      "Ġà¤Ľà¤²à¤ķà¤¨": 2721,
      "à¤¼à¥Ģ,\"": 2722,
      "à¤¶à¤¹à¤¦": 2723,
      "à¤¸à¤«à¤²à¤¤": 2724,
      "à¤¸à¤¬à¤ķ": 2725,
      "à¤¬à¤ķà¤µ": 2726,
      "Ġà¤ħà¤µà¤Ĺà¤¤": 2727,
      "Ġà¤Łà¤¹à¤²": 2728,
      "à¤ĳà¤¡": 2729,
      "à¥Ĥ!'": 2730,
      "à¥Ī\"ãĢĤ": 2731,
      "Ġà¤¦à¤®à¤ķà¤²": 2732,
      "Ġà¤Ķà¤·à¤§": 2733,
      "à¥Ģà¤Ĥ\",": 2734,
      "Ġà¤Łà¤ªà¤ķà¤¤": 2735,
      "Ġà¤Ľà¤ªà¤µ": 2736,
      "Ġà¤²à¤Łà¤ķà¤¨": 2737,
      "aste": 2738,
      "amaste": 2739,
      "à¤¡à¤ķà¤°à¤ļ": 2740,
      "à¤Ĩà¤Ĩà¤Ĩà¤Ĩà¤Ĩà¤Ĩà¤Ĩà¤Ĩà¤Ĩà¤Ĩà¤Ĩà¤Ĩà¤Ĩà¤Ĩà¤Ĩà¤Ĩà¤Ĩà¤Ĩà¤Ĩà¤Ĩà¤Ĩà¤Ĩà¤Ĩà¤Ĩà¤Ĩà¤Ĩà¤Ĩà¤Ĩà¤Ĩà¤Ĩà¤Ĩà¤Ĩà¤Ĩà¤Ĩà¤Ĩà¤Ĩà¤Ĩà¤Ĩà¤Ĩà¤Ĩà¤Ĩà¤Ĩà¤Ĩà¤Ĩà¤Ĩà¤Ĩà¤Ĩà¤Ĩà¤Ĩà¤Ĩà¤Ĩà¤Ĩà¤Ĩà¤Ĩà¤Ĩà¤Ĩà¤Ĩà¤Ĩà¤Ĩà¤Ĩà¤Ĩà¤Ĩà¤Ĩà¤Ĩà¤Ĩà¤Ĩà¤Ĩà¤Ĩà¤Ĩà¤Ĩà¤Ĩà¤Ĩà¤Ĩà¤Ĩà¤Ĩà¤Ĩà¤Ĩà¤Ĩà¤Ĩà¤Ĩà¤Ĩà¤Ĩà¤Ĩà¤Ĩà¤Ĩà¤Ĩà¤Ĩà¤Ĩà¤Ĩà¤Ĩà¤Ĩà¤Ĩà¤Ĩà¤Ĩà¤Ĩà¤Ĩà¤Ĩà¤Ĩà¤Ĩà¤Ĩà¤Ĩà¤Ĩà¤Ĩà¤Ĩà¤Ĩà¤Ĩà¤Ĩà¤Ĩà¤Ĩà¤Ĩà¤Ĩà¤Ĩà¤Ĩà¤Ĩà¤Ĩà¤Ĩà¤Ĩà¤Ĩà¤Ĩà¤Ĩà¤Ĩà¤Ĩà¤Ĩà¤Ĩà¤Ĩà¤Ĩà¤Ĩà¤Ĩà¤Ĩà¤Ĩà¤Ĩà¤Ĩà¤Ĩà¤Ĩà¤Ĩà¤Ĩà¤Ĩà¤Ĩà¤Ĩà¤Ĩà¤Ĩà¤Ĩà¤Ĩà¤Ĩà¤Ĩà¤Ĩà¤Ĩà¤Ĩà¤Ĩà¤Ĩà¤Ĩà¤Ĩà¤Ĩà¤Ĩà¤Ĩà¤Ĩà¤Ĩà¤Ĩà¤Ĩà¤Ĩà¤Ĩà¤Ĩà¤Ĩà¤Ĩà¤Ĩà¤Ĩà¤Ĩà¤Ĩà¤Ĩà¤Ĩà¤Ĩà¤Ĩà¤Ĩà¤Ĩà¤Ĩà¤Ĩà¤Ĩà¤Ĩà¤Ĩà¤Ĩà¤Ĩà¤Ĩà¤Ĩà¤Ĩà¤Ĩà¤Ĩà¤Ĩà¤Ĩà¤Ĩà¤Ĩà¤Ĩà¤Ĩà¤Ĩà¤Ĩà¤Ĩà¤Ĩà¤Ĩà¤Ĩà¤Ĩà¤Ĩà¤Ĩà¤Ĩà¤Ĩà¤Ĩà¤Ĩà¤Ĩà¤Ĩà¤Ĩà¤Ĩà¤Ĩà¤Ĩà¤Ĩà¤Ĩà¤Ĩà¤Ĩà¤Ĩà¤Ĩà¤Ĩà¤Ĩà¤Ĩà¤Ĩà¤Ĩà¤Ĩà¤Ĩà¤Ĩà¤Ĩà¤Ĩà¤Ĩà¤Ĩà¤Ĩà¤Ĩà¤Ĩà¤Ĩà¤Ĩà¤Ĩà¤Ĩà¤Ĩà¤Ĩà¤Ĩà¤Ĩà¤Ĩà¤Ĩà¤Ĩà¤Ĩà¤Ĩà¤Ĩà¤Ĩà¤Ĩà¤Ĩà¤Ĩà¤Ĩà¤Ĩà¤Ĩà¤Ĩà¤Ĩà¤Ĩà¤Ĩà¤Ĩà¤Ĩà¤Ĩà¤Ĩà¤Ĩà¤Ĩà¤Ĩà¤Ĩà¤Ĩà¤Ĩà¤Ĩà¤Ĩà¤Ĩà¤Ĩà¤Ĩà¤Ĩà¤Ĩà¤Ĩà¤Ĩà¤Ĩà¤Ĩà¤Ĩà¤Ĩà¤Ĩà¤Ĩà¤Ĩà¤Ĩà¤Ĩà¤Ĩà¤Ĩà¤Ĩà¤Ĩà¤Ĩà¤Ĩà¤Ĩà¤Ĩà¤Ĩà¤Ĩà¤Ĩà¤Ĩà¤Ĩà¤Ĩà¤Ĩà¤Ĩà¤Ĩà¤Ĩà¤Ĩà¤Ĩà¤Ĩà¤Ĩà¤Ĩà¤Ĩà¤Ĩà¤Ĩà¤Ĩà¤Ĩà¤Ĩà¤Ĩà¤Ĩà¤Ĩà¤Ĩà¤Ĩà¤Ĩà¤Ĩà¤Ĩà¤Ĩà¤Ĩà¤Ĩà¤Ĩà¤Ĩà¤Ĩà¤Ĩà¤Ĩà¤Ĩà¤Ĩà¤Ĩà¤Ĩà¤Ĩà¤Ĩà¤Ĩà¤Ĩà¤Ĩà¤Ĩà¤Ĩà¤Ĩà¤Ĩà¤Ĩà¤Ĩà¤Ĩà¤Ĩà¤Ĩà¤Ĩà¤Ĩà¤Ĩà¤Ĩà¤Ĩà¤Ĩà¤Ĩà¤Ĩà¤Ĩà¤Ĩà¤Ĩà¤Ĩà¤Ĩà¤Ĩà¤Ĩà¤Ĩà¤Ĩà¤Ĩà¤Ĩà¤Ĩà¤Ĩà¤Ĩà¤Ĩà¤Ĩà¤Ĩà¤Ĩà¤Ĩà¤Ĩà¤Ĩà¤Ĩà¤Ĩà¤Ĩà¤Ĩà¤Ĩà¤Ĩà¤Ĩà¤Ĩà¤Ĩà¤Ĩà¤Ĩà¤Ĩà¤Ĩà¤Ĩà¤Ĩà¤Ĩà¤Ĩà¤Ĩà¤Ĩà¤Ĩà¤Ĩà¤Ĩà¤Ĩà¤Ĩà¤Ĩà¤Ĩà¤Ĩà¤Ĩà¤Ĩà¤Ĩà¤Ĩà¤Ĩà¤Ĩà¤Ĩà¤Ĩà¤Ĩà¤Ĩà¤Ĩà¤Ĩà¤Ĩà¤Ĩà¤Ĩà¤Ĩà¤Ĩà¤Ĩà¤Ĩà¤Ĩà¤Ĩà¤Ĩà¤Ĩà¤Ĩà¤Ĩà¤Ĩà¤Ĩà¤Ĩà¤Ĩà¤Ĩà¤Ĩà¤Ĩà¤Ĩà¤Ĩà¤Ĩà¤Ĩà¤Ĩà¤Ĩà¤Ĩà¤Ĩà¤Ĩà¤Ĩà¤Ĩà¤Ĩà¤Ĩà¤Ĩà¤Ĩà¤Ĩà¤Ĩà¤Ĩà¤Ĩà¤Ĩà¤Ĩà¤Ĩà¤Ĩà¤Ĩà¤Ĩà¤Ĩà¤Ĩà¤Ĩà¤Ĩà¤Ĩà¤Ĩà¤Ĩà¤Ĩà¤Ĩà¤Ĩà¤Ĩà¤Ĩà¤Ĩà¤Ĩà¤Ĩà¤Ĩà¤Ĩà¤Ĩà¤Ĩà¤Ĩà¤Ĩà¤Ĩà¤Ĩà¤Ĩà¤Ĩà¤Ĩà¤Ĩà¤Ĩà¤Ĩà¤Ĩà¤Ĩà¤Ĩà¤Ĩà¤Ĩà¤Ĩà¤Ĩà¤Ĩà¤Ĩà¤Ĩà¤Ĩà¤Ĩà¤Ĩà¤Ĩà¤Ĩà¤Ĩà¤Ĩà¤Ĩà¤Ĩà¤Ĩà¤Ĩà¤Ĩà¤Ĩà¤Ĩà¤Ĩà¤Ĩà¤Ĩà¤Ĩà¤Ĩà¤Ĩà¤Ĩà¤Ĩà¤Ĩà¤Ĩà¤Ĩà¤Ĩà¤Ĩà¤Ĩà¤Ĩà¤Ĩà¤Ĩà¤Ĩà¤Ĩà¤Ĩà¤Ĩà¤Ĩà¤Ĩà¤Ĩà¤Ĩà¤Ĩà¤Ĩà¤Ĩà¤Ĩà¤Ĩà¤Ĩà¤Ĩà¤Ĩà¤Ĩà¤Ĩà¤Ĩà¤Ĩà¤Ĩà¤Ĩà¤Ĩà¤Ĩà¤Ĩà¤Ĩà¤Ĩà¤Ĩà¤Ĩà¤Ĩà¤Ĩà¤Ĩà¤Ĩà¤Ĩà¤Ĩà¤Ĩà¤Ĩà¤Ĩà¤Ĩà¤Ĩà¤Ĩà¤Ĩà¤Ĩà¤Ĩà¤Ĩà¤Ĩà¤Ĩà¤Ĩà¤Ĩà¤Ĩà¤Ĩà¤Ĩà¤Ĩà¤Ĩà¤Ĩà¤Ĩà¤Ĩà¤Ĩà¤Ĩà¤Ĩà¤Ĩà¤Ĩà¤Ĩà¤Ĩà¤Ĩà¤Ĩà¤Ĩà¤Ĩà¤Ĩà¤Ĩà¤Ĩà¤Ĩà¤Ĩà¤Ĩà¤Ĩà¤Ĩà¤Ĩà¤Ĩà¤Ĩà¤Ĩà¤Ĩà¤Ĩà¤Ĩà¤Ĩà¤Ĩà¤Ĩà¤Ĩà¤Ĩà¤Ĩà¤Ĩà¤Ĩà¤Ĩà¤Ĩà¤Ĩà¤Ĩà¤Ĩà¤Ĩà¤Ĩà¤Ĩà¤Ĩà¤Ĩà¤Ĩà¤Ĩà¤Ĩà¤Ĩà¤Ĩà¤Ĩà¤Ĩà¤Ĩà¤Ĩà¤Ĩà¤Ĩà¤Ĩà¤Ĩà¤Ĩà¤Ĩà¤Ĩà¤Ĩà¤Ĩà¤Ĩà¤Ĩà¤Ĩà¤Ĩà¤Ĩà¤Ĩà¤Ĩà¤Ĩà¤Ĩà¤Ĩà¤Ĩà¤Ĩà¤Ĩà¤Ĩà¤Ĩà¤Ĩà¤Ĩà¤Ĩà¤Ĩà¤Ĩà¤Ĩà¤Ĩà¤Ĩà¤Ĩà¤Ĩà¤Ĩà¤Ĩà¤Ĩà¤Ĩà¤Ĩà¤Ĩà¤Ĩà¤Ĩà¤Ĩà¤Ĩà¤Ĩà¤Ĩà¤Ĩà¤Ĩà¤Ĩà¤Ĩà¤Ĩà¤Ĩà¤Ĩà¤Ĩà¤Ĩà¤Ĩà¤Ĩà¤Ĩà¤Ĩà¤Ĩà¤Ĩà¤Ĩà¤Ĩà¤Ĩà¤Ĩà¤Ĩà¤Ĩà¤Ĩà¤Ĩà¤Ĩà¤Ĩà¤Ĩà¤Ĩà¤Ĩà¤Ĩà¤Ĩà¤Ĩà¤Ĩà¤Ĩà¤Ĩà¤Ĩà¤Ĩà¤Ĩà¤Ĩà¤Ĩà¤Ĩà¤Ĩà¤Ĩà¤Ĩà¤Ĩà¤Ĩà¤Ĩà¤Ĩà¤Ĩà¤Ĩà¤Ĩà¤Ĩà¤Ĩà¤Ĩà¤Ĩà¤Ĩà¤Ĩà¤Ĩà¤Ĩà¤Ĩà¤Ĩà¤Ĩà¤Ĩà¤Ĩà¤Ĩà¤Ĩà¤Ĩà¤Ĩà¤Ĩà¤Ĩà¤Ĩà¤Ĩà¤Ĩà¤Ĩà¤Ĩà¤Ĩà¤Ĩà¤Ĩà¤Ĩà¤Ĩà¤Ĩà¤Ĩà¤Ĩà¤Ĩà¤Ĩà¤Ĩà¤Ĩà¤Ĩà¤Ĩà¤Ĩà¤Ĩà¤Ĩà¤Ĩà¤Ĩà¤Ĩà¤Ĩà¤Ĩà¤Ĩà¤Ĩà¤Ĩà¤Ĩà¤Ĩà¤Ĩà¤Ĩà¤Ĩà¤Ĩà¤Ĩà¤Ĩà¤Ĩà¤Ĩà¤Ĩà¤Ĩà¤Ĩà¤Ĩà¤Ĩà¤Ĩà¤Ĩà¤Ĩà¤Ĩà¤Ĩà¤Ĩà¤Ĩà¤Ĩà¤Ĩà¤Ĩà¤Ĩà¤Ĩà¤Ĩà¤Ĩà¤Ĩà¤Ĩà¤Ĩà¤Ĩà¤Ĩà¤Ĩà¤Ĩà¤Ĩà¤Ĩà¤Ĩà¤Ĩà¤Ĩà¤Ĩà¤Ĩà¤Ĩà¤Ĩà¤Ĩà¤Ĩà¤Ĩà¤Ĩà¤Ĩà¤Ĩà¤Ĩà¤Ĩà¤Ĩà¤Ĩà¤Ĩà¤Ĩà¤Ĩà¤Ĩà¤Ĩà¤Ĩà¤Ĩà¤Ĩà¤Ĩà¤Ĩà¤Ĩà¤Ĩà¤Ĩà¤Ĩà¤Ĩà¤Ĩà¤Ĩà¤Ĩà¤Ĩà¤Ĩà¤Ĩà¤Ĩà¤Ĩà¤Ĩà¤Ĩà¤Ĩà¤Ĩà¤Ĩà¤Ĩà¤Ĩà¤Ĩà¤Ĩà¤Ĩà¤Ĩà¤Ĩà¤Ĩà¤Ĩà¤Ĩà¤Ĩà¤Ĩà¤Ĩà¤Ĩà¤Ĩà¤Ĩà¤Ĩà¤Ĩà¤Ĩà¤Ĩà¤Ĩà¤Ĩà¤Ĩà¤Ĩà¤Ĩà¤Ĩà¤Ĩà¤Ĩà¤Ĩà¤Ĩà¤Ĩà¤Ĩà¤Ĩà¤Ĩà¤Ĩà¤Ĩà¤Ĩà¤Ĩà¤Ĩà¤Ĩà¤Ĩà¤Ĩà¤Ĩà¤Ĩà¤Ĩà¤Ĩà¤Ĩà¤Ĩà¤Ĩà¤Ĩà¤Ĩà¤Ĩà¤Ĩà¤Ĩà¤Ĩà¤Ĩà¤Ĩà¤Ĩà¤Ĩà¤Ĩà¤Ĩà¤Ĩà¤Ĩà¤Ĩà¤Ĩà¤Ĩà¤Ĩà¤Ĩà¤Ĩà¤Ĩà¤Ĩà¤Ĩà¤Ĩà¤Ĩà¤Ĩà¤Ĩà¤Ĩà¤Ĩà¤Ĩà¤Ĩà¤Ĩà¤Ĩà¤Ĩà¤Ĩà¤Ĩà¤Ĩà¤Ĩà¤Ĩà¤Ĩà¤Ĩà¤Ĩà¤Ĩà¤Ĩà¤Ĩà¤Ĩà¤Ĩà¤Ĩà¤Ĩà¤Ĩà¤Ĩà¤Ĩà¤Ĩà¤Ĩà¤Ĩà¤Ĩà¤Ĩà¤Ĩà¤Ĩà¤Ĩà¤Ĩà¤Ĩà¤Ĩà¤Ĩà¤Ĩà¤Ĩà¤Ĩà¤Ĩà¤Ĩà¤Ĩà¤Ĩà¤Ĩà¤Ĩà¤Ĩà¤Ĩà¤Ĩà¤Ĩà¤Ĩà¤Ĩà¤Ĩà¤Ĩà¤Ĩà¤Ĩà¤Ĩà¤Ĩà¤Ĩà¤Ĩà¤Ĩà¤Ĩà¤Ĩà¤Ĩà¤Ĩà¤Ĩà¤Ĩà¤Ĩà¤Ĩà¤Ĩà¤Ĩà¤Ĩà¤Ĩà¤Ĩà¤Ĩà¤Ĩà¤Ĩà¤Ĩà¤Ĩ": 2741,
      "lex": 2742,
      "ĠNamaste": 2743,
      "Ġà¤¹à¤¤à¤ª": 2744,
      "Ġà¤ĸà¤¨à¤¨à¤ķ": 2745,
      "Ġà¤Ĩà¤¦à¤°à¤£": 2746,
      "low": 2747,
      "ĠEND": 2748,
      "'à¥¤\"": 2749,
      "?!\"": 2750,
      "Ab": 2751,
      "pit": 2752,
      "re": 2753,
      "yummy": 2754,
      "Ñģ": 2755,
      "ÑĤ": 2756,
      "Ñĥ": 2757,
      "ìŀ": 2758,
      "Ġ×": 2759,
      "Ġ...": 2760,
      "Ġpit": 2761,
      "Ġyummy": 2762,
      "ĠÑĥ": 2763,
      "à¥ĩ/": 2764,
      "à¤°à¤Ł": 2765,
      "Ġà¤ķà¤ľ": 2766,
      "à¤¹à¤Ĺ": 2767,
      "à¤¿!": 2768,
      "à¤¿?\"": 2769,
      "à¤Ĥ\"": 2770,
      "à¤¸à¤µà¤°": 2771,
      "à¤¸à¤Łà¤¤": 2772,
      "à¤¤à¤®à¤¯": 2773,
      "à¤²à¤ľ": 2774,
      "Ġà¤¹à¤ļ": 2775,
      "Ġà¤¬à¤¯": 2776,
      "Ġà¤¬à¤ĸ": 2777,
      "Ġà¤¬à¤µ": 2778,
      "à¤®à¤°à¤¨": 2779,
      "à¤®à¤¶à¤¹": 2780,
      "Ġà¤ªà¤ļ": 2781,
      "Ġà¤ªà¤¥à¤°": 2782,
      "Ġà¤²à¤ªà¤ķ": 2783,
      "à¤¼.\"": 2784,
      "Ġà¤¨à¤¸": 2785,
      "Ġà¤¨à¤Ĺà¤°": 2786,
      "à¤¾à¥¤'": 2787,
      "à¥Ĥ:": 2788,
      "à¤¡à¤²à¤¬": 2789,
      "à¤ªà¤ľà¤²": 2790,
      "à¥ĩà¤Ĥ:": 2791,
      "Ġà¤ħà¤ł": 2792,
      "Ġà¤ħà¤¦à¤°": 2793,
      "Ġà¤ħà¤µà¤§": 2794,
      "Ġà¤ħà¤µà¤¶": 2795,
      "Ġà¤ıà¤ķãĤ¢ãĤ¤à¤¡": 2796,
      "Ġà¤Ĺlow": 2797,
      "à¤ľà¤¯à¤ķ": 2798,
      "à¤ľà¤ķà¤¤": 2799,
      "à¤ıà¤¡à¤µ": 2800,
      "à¤ĸà¤¯": 2801,
      "à¤ĸà¤¡": 2802,
      "Ġà¤¤à¤ª": 2803,
      "Ġà¤¤à¤®à¤¨": 2804,
      "à¤¬à¤¹à¤¸": 2805,
      "à¤¶à¤¸": 2806,
      "à¤ļà¤£": 2807,
      "à¥Īà¤Ĥ\"à¥¤": 2808,
      "Ġà¤Ĩà¤īà¤Ł": 2809,
      "à¥Ģà¤Ĥ'": 2810,
      "à¥ī,": 2811,
      "Ġà¤ĩà¤ķ": 2812,
      "Ġà¤ĩà¤ķà¤²": 2813,
      "à¤¥à¤¤": 2814,
      "à¤¥à¤µ": 2815,
      "à¤¥à¤²à¤Ĺ": 2816,
      "à¥Īà¤Ĥà¥¤'": 2817,
      "à¤Ńà¤¡": 2818,
      "à¤¼à¥ĩ?\"": 2819,
      "à¤Ŀà¤¤à¤¨": 2820,
      "à¤Ĩà¤¸": 2821,
      "à¤Ĩà¤Ł": 2822,
      "à¤Ĩà¤ķà¤°": 2823,
      "à¤§à¤°à¤¤": 2824,
      "Ġà¤®à¤¹à¤ľ": 2825,
      "à¤ĩà¤¤": 2826,
      "Ġà¤ĵà¤Ĺ": 2827,
      "à¤īà¤Ĺà¤°": 2828,
      "à¤īà¤°à¤¸": 2829,
      "à¤ħà¤¦": 2830,
      "à¤ħà¤¸à¤°": 2831,
      "à¤ĸà¤¤à¤°à¤¨": 2832,
      "Ġà¤ħà¤¨à¤«": 2833,
      "à¤£à¤®": 2834,
      "Ġà¤¹à¤°à¤®à¤¨": 2835,
      "Ġà¤Ŀà¤¡": 2836,
      "à¥Ĥà¤Ĥ.": 2837,
      "à¥ĭà¥¤,\"": 2838,
      "à¤ĵà¤µà¤°": 2839,
      "à¤ķà¤²à¤®": 2840,
      "à¥Īà¤Ĥ,âĢĿ": 2841,
      "Ġà¤ķà¤®à¤²": 2842,
      "à¤¨à¤¨à¤µ": 2843,
      "Ġà¤ħà¤²à¤¯": 2844,
      "à¤¤à¤°à¤£": 2845,
      "Ġà¤ľà¤Ĺà¤®à¤Ĺ": 2846,
      "à¤¯à¤°à¤¬": 2847,
      "à¥Ī?\",": 2848,
      "Ġà¤¬à¤ľà¤Ł": 2849,
      "Ġà¤¤à¤²à¤¹à¤Ł": 2850,
      "à¤ķà¤¨à¤ª": 2851,
      "à¤ħà¤¨à¤ľ": 2852,
      "à¥ĭ?\",": 2853,
      "à¥ĭ?\"à¥¤": 2854,
      "Ġà¤Ĩà¤Ĺà¤®à¤¨": 2855,
      "Ġà¤®à¤¨à¤®": 2856,
      "à¥Īà¤Ĥ!\",": 2857,
      "à¤²à¤Ĺà¤Ńà¤Ĺ": 2858,
      "à¥Įà¤Ĥ-": 2859,
      "Ġà¤īà¤²à¤Łà¤ķà¤°": 2860,
      "à¥ĩà¤Ĥ!\",": 2861,
      "à¥ĩ!\",": 2862,
      "Ġà¤¦à¤¬à¤ķà¤°": 2863,
      "à¤ĩà¤Łà¤¸": 2864,
      "à¤ĩà¤Łà¤«": 2865,
      "à¤²à¤ķà¤¦à¤®": 2866,
      "à¥Īà¤Ĥ!'": 2867,
      "Ġà¤«à¤Łà¤ķà¤¨": 2868,
      "Ġà¤ħà¤ªà¤®": 2869,
      "Ġà¤¬à¤¬à¤²à¤Ĺà¤®": 2870,
      "Ġà¤ĵà¤Łà¤®": 2871,
      "à¥Ģ\".": 2872,
      "à¤ĳà¤ª": 2873,
      "à¤īà¤¡à¤¸": 2874,
      "à¤¾à¤ģ\",": 2875,
      "à¥Ģà¤Ĥ\"à¥¤": 2876,
      "ĠAlex": 2877,
      "Ġà¤ıà¤¯à¤°à¤²": 2878,
      "à¤°à¤°à¤°à¤°à¤°à¤°à¤°à¤°à¤°à¤°à¤°à¤°à¤°à¤°à¤°à¤°à¤°à¤°à¤°à¤°à¤°à¤°à¤°à¤°à¤°à¤°à¤°à¤°à¤°à¤°à¤°à¤°à¤°à¤°à¤°à¤°à¤°à¤°à¤°à¤°à¤°à¤°à¤°à¤°à¤°à¤°à¤°à¤°à¤°à¤°à¤°à¤°à¤°à¤°à¤°à¤°à¤°à¤°à¤°à¤°à¤°à¤°à¤°à¤°à¤°à¤°à¤°à¤°à¤°à¤°à¤°à¤°à¤°à¤°à¤°à¤°à¤°à¤°à¤°à¤°à¤°à¤°à¤°à¤°à¤°à¤°à¤°à¤°à¤°à¤°à¤°à¤°à¤°à¤°à¤°à¤°à¤°à¤°à¤°à¤°à¤°à¤°à¤°à¤°à¤°à¤°à¤°à¤°à¤°à¤°à¤°à¤°à¤°à¤°à¤°à¤°à¤°à¤°à¤°à¤°à¤°à¤°à¤°à¤°à¤°à¤°à¤°à¤°à¤°à¤°à¤°à¤°à¤°à¤°à¤°à¤°à¤°à¤°à¤°à¤°à¤°à¤°à¤°à¤°à¤°à¤°à¤°à¤°à¤°à¤°à¤°à¤°à¤°à¤°à¤°à¤°à¤°à¤°à¤°à¤°à¤°à¤°à¤°à¤°à¤°à¤°à¤°à¤°à¤°à¤°à¤°à¤°à¤°à¤°à¤°à¤°à¤°à¤°à¤°à¤°à¤°à¤°à¤°à¤°à¤°à¤°à¤°à¤°à¤°à¤°à¤°à¤°à¤°à¤°à¤°à¤°à¤°à¤°à¤°à¤°à¤°à¤°à¤°à¤°à¤°à¤°à¤°à¤°à¤°à¤°à¤°à¤°à¤°à¤°à¤°à¤°à¤°à¤°à¤°à¤°à¤°à¤°à¤°à¤°à¤°à¤°à¤°à¤°à¤°à¤°à¤°à¤°à¤°à¤°à¤°à¤°à¤°à¤°à¤°à¤°à¤°à¤°à¤°à¤°à¤°à¤°à¤°à¤°à¤°à¤°à¤°à¤°à¤°à¤°à¤°à¤°à¤°à¤°à¤°à¤°à¤°à¤°à¤°à¤°à¤°à¤°à¤°à¤°à¤°à¤°à¤°à¤°à¤°à¤°à¤°à¤°à¤°à¤°à¤°à¤°à¤°à¤°à¤°à¤°à¤°à¤°à¤°à¤°à¤°à¤°à¤°à¤°à¤°à¤°à¤°à¤°à¤°à¤°à¤°à¤°à¤°à¤°à¤°à¤°à¤°à¤°à¤°à¤°à¤°à¤°à¤°à¤°à¤°à¤°à¤°à¤°à¤°à¤°à¤°à¤°à¤°à¤°à¤°à¤°à¤°à¤°à¤°à¤°à¤°à¤°à¤°à¤°à¤°à¤°à¤°à¤°à¤°à¤°à¤°à¤°à¤°à¤°à¤°à¤°à¤°à¤°à¤°à¤°à¤°à¤°à¤°à¤°à¤°à¤°à¤°à¤°à¤°à¤°à¤°à¤°à¤°à¤°à¤°à¤°à¤°à¤°à¤°à¤°à¤°à¤°à¤°à¤°à¤°à¤°à¤°à¤°à¤°à¤°à¤°à¤°à¤°à¤°à¤°à¤°à¤°à¤°à¤°à¤°à¤°à¤°à¤°à¤°à¤°à¤°à¤°à¤°à¤°à¤°à¤°à¤°à¤°à¤°à¤°à¤°à¤°à¤°à¤°à¤°à¤°à¤°à¤°à¤°à¤°à¤°à¤°à¤°à¤°à¤°à¤°à¤°à¤°à¤°à¤°à¤°à¤°à¤°à¤°à¤°à¤°à¤°à¤°à¤°à¤°à¤°à¤°à¤°à¤°à¤°à¤°à¤°à¤°à¤°à¤°à¤°à¤°à¤°à¤°à¤°à¤°à¤°à¤°à¤°à¤°à¤°à¤°à¤°à¤°à¤°à¤°à¤°à¤°à¤°à¤°à¤°à¤°à¤°à¤°à¤°à¤°à¤°à¤°à¤°à¤°à¤°à¤°à¤°à¤°à¤°à¤°à¤°à¤°à¤°à¤°à¤°à¤°à¤°à¤°à¤°à¤°à¤°à¤°à¤°à¤°à¤°à¤°à¤°à¤°à¤°à¤°à¤°à¤°à¤°à¤°à¤°à¤°à¤°à¤°à¤°à¤°à¤°à¤°à¤°à¤°à¤°à¤°à¤°à¤°à¤°à¤°à¤°à¤°à¤°à¤°à¤°à¤°à¤°à¤°à¤°à¤°à¤°à¤°à¤°à¤°à¤°à¤°à¤°à¤°à¤°à¤°à¤°à¤°à¤°à¤°à¤°à¤°à¤°à¤°à¤°à¤°à¤°à¤°à¤°à¤°à¤°à¤°à¤°à¤°à¤°à¤°à¤°à¤°à¤°à¤°à¤°à¤°à¤°à¤°à¤°à¤°à¤°à¤°à¤°à¤°à¤°à¤°à¤°à¤°à¤°à¤°à¤°à¤°à¤°à¤°à¤°à¤°à¤°à¤°à¤°à¤°à¤°à¤°à¤°à¤°à¤°à¤°à¤°à¤°à¤°à¤°à¤°à¤°à¤°à¤°à¤°à¤°à¤°à¤°à¤°à¤°à¤°à¤°à¤°à¤°à¤°à¤°à¤°à¤°à¤°à¤°à¤°à¤°à¤°à¤°à¤°à¤°à¤°à¤°à¤°à¤°à¤°à¤°à¤°à¤°à¤°à¤°à¤°à¤°à¤°à¤°à¤°à¤°à¤°à¤°à¤°à¤°à¤°à¤°à¤°à¤°à¤°à¤°à¤°à¤°à¤°à¤°à¤°à¤°à¤°à¤°à¤°à¤°à¤°à¤°à¤°à¤°à¤°à¤°à¤°à¤°à¤°à¤°à¤°à¤°à¤°à¤°à¤°à¤°à¤°à¤°à¤°à¤°à¤°à¤°à¤°à¤°à¤°à¤°à¤°à¤°à¤°à¤°à¤°à¤°à¤°à¤°à¤°à¤°à¤°à¤°à¤°à¤°à¤°à¤°à¤°à¤°à¤°à¤°à¤°à¤°à¤°à¤°à¤°à¤°à¤°à¤°à¤°à¤°à¤°à¤°à¤°à¤°à¤°à¤°à¤°à¤°à¤°à¤°à¤°à¤°à¤°à¤°à¤°à¤°à¤°à¤°à¤°à¤°à¤°à¤°à¤°à¤°à¤°à¤°à¤°à¤°à¤°à¤°à¤°à¤°à¤°à¤°à¤°à¤°à¤°à¤°à¤°à¤°à¤°à¤°à¤°à¤°à¤°à¤°à¤°à¤°à¤°à¤°à¤°à¤°à¤°à¤°à¤°à¤°à¤°à¤°à¤°à¤°à¤°à¤°à¤°à¤°à¤°à¤°à¤°à¤°à¤°à¤°à¤°à¤°à¤°à¤°à¤°à¤°à¤°à¤°à¤°à¤°à¤°à¤°à¤°à¤°à¤°à¤°à¤°à¤°à¤°à¤°à¤°à¤°à¤°à¤°à¤°à¤°à¤°à¤°à¤°à¤°à¤°à¤°à¤°à¤°à¤°à¤°à¤°à¤°à¤°à¤°à¤°à¤°à¤°à¤°à¤°à¤°à¤°à¤°à¤°à¤°à¤°à¤°à¤°à¤°à¤°à¤°à¤°à¤°à¤°à¤°à¤°à¤°à¤°à¤°à¤°à¤°à¤°à¤°à¤°à¤°à¤°à¤°à¤°à¤°à¤°à¤°à¤°à¤°à¤°à¤°à¤°à¤°à¤°à¤°à¤°à¤°à¤°à¤°à¤°à¤°à¤°à¤°à¤°à¤°à¤°à¤°à¤°à¤°à¤°à¤°à¤°à¤°à¤°à¤°à¤°à¤°à¤°à¤°à¤°à¤°à¤°à¤°à¤°à¤°à¤°à¤°à¤°à¤°à¤°à¤°à¤°à¤°à¤°à¤°à¤°à¤°à¤°à¤°à¤°à¤°à¤°à¤°à¤°à¤°à¤°à¤°à¤°à¤°à¤°à¤°à¤°à¤°à¤°à¤°à¤°à¤°à¤°à¤°à¤°à¤°à¤°à¤°à¤°à¤°à¤°à¤°à¤°à¤°à¤°à¤°à¤°à¤°à¤°à¤°à¤°à¤°à¤°à¤°à¤°à¤°à¤°à¤°à¤°à¤°à¤°à¤°à¤°à¤°à¤°à¤°à¤°à¤°à¤°à¤°à¤°à¤°à¤°à¤°à¤°à¤°à¤°à¤°à¤°à¤°à¤°à¤°à¤°à¤°à¤°à¤°à¤°à¤°à¤°à¤°à¤°à¤°à¤°à¤°à¤°à¤°à¤°à¤°à¤°à¤°à¤°à¤°à¤°à¤°à¤°à¤°à¤°à¤°à¤°à¤°à¤°à¤°à¤°à¤°à¤°à¤°à¤°à¤°à¤°à¤°à¤°à¤°à¤°à¤°à¤°à¤°à¤°à¤°à¤°à¤°à¤°à¤°à¤°à¤°à¤°à¤°à¤°à¤°à¤°à¤°à¤°à¤°à¤°à¤°à¤°à¤°à¤°à¤°à¤°à¤°à¤°à¤°à¤°à¤°à¤°à¤°à¤°à¤°à¤°à¤°à¤°à¤°à¤°à¤°à¤°à¤°à¤°à¤°à¤°à¤°à¤°à¤°à¤°à¤°à¤°à¤°à¤°à¤°à¤°à¤°à¤°à¤°à¤°à¤°à¤°à¤°à¤°à¤°à¤°à¤°à¤°à¤°à¤°à¤°à¤°à¤°à¤°à¤°à¤°à¤°à¤°à¤°à¤°à¤°à¤°à¤°à¤°à¤°à¤°à¤°à¤°à¤°à¤°à¤°à¤°à¤°à¤°à¤°à¤°à¤°à¤°à¤°à¤°à¤°à¤°à¤°à¤°à¤°à¤°à¤°à¤°à¤°à¤°à¤°à¤°à¤°à¤°à¤°à¤°à¤°à¤°à¤°à¤°à¤°à¤°à¤°à¤°à¤°à¤°à¤°à¤°à¤°à¤°à¤°à¤°à¤°à¤°à¤°à¤°à¤°à¤°à¤°à¤°à¤°à¤°à¤°à¤°à¤°à¤°à¤°à¤°à¤°à¤°à¤°à¤°à¤°à¤°à¤°à¤°à¤°à¤°à¤°à¤°à¤°à¤°à¤°à¤°à¤°à¤°à¤°à¤°à¤°à¤°à¤°à¤°à¤°à¤°à¤°à¤°à¤°à¤°à¤°à¤°à¤°à¤°à¤°à¤°à¤°à¤°à¤°à¤°à¤°à¤°à¤°à¤°à¤°à¤°à¤°à¤°à¤°à¤°à¤°à¤°à¤°à¤°à¤°à¤°à¤°à¤°à¤°à¤°à¤°à¤°à¤°à¤°à¤°à¤°à¤°à¤°à¤°à¤°à¤°à¤°à¤°à¤°à¤°à¤°à¤°à¤°à¤°à¤°à¤°à¤°à¤°à¤°à¤°à¤°à¤°à¤°à¤°à¤°à¤°à¤°à¤°à¤°à¤°à¤°à¤°à¤°à¤°à¤°à¤°à¤°à¤°à¤°à¤°à¤°à¤°à¤°à¤°à¤°à¤°à¤°à¤°à¤°à¤°à¤°à¤°à¤°à¤°à¤°à¤°à¤°à¤°à¤°à¤°à¤°à¤°à¤°à¤°à¤°à¤°à¤°à¤°à¤°à¤°à¤°à¤°à¤°à¤°à¤°à¤°à¤°à¤°à¤°à¤°à¤°à¤°à¤°à¤°à¤°à¤°à¤°à¤°à¤°à¤°à¤°à¤°à¤°à¤°à¤°à¤°à¤°à¤°à¤°à¤°à¤°à¤°à¤°à¤°à¤°à¤°à¤°à¤°à¤°à¤°à¤°à¤°à¤°à¤°à¤°à¤°à¤°à¤°à¤°à¤°à¤°à¤°à¤°à¤°à¤°à¤°à¤°à¤°à¤°à¤°à¤°à¤°à¤°à¤°à¤°à¤°à¤°à¤°à¤°à¤°à¤°à¤°à¤°à¤°à¤°à¤°à¤°à¤°à¤°à¤°à¤°à¤°à¤°à¤°à¤°à¤°à¤°à¤°à¤°à¤°à¤°à¤°à¤°à¤°à¤°à¤°à¤°à¤°à¤°à¤°à¤°à¤°à¤°à¤°à¤°à¤°à¤°à¤°à¤°à¤°à¤°à¤°à¤°à¤°à¤°à¤°à¤°à¤°à¤°à¤°à¤°à¤°à¤°à¤°à¤°à¤°à¤°à¤°à¤°à¤°à¤°à¤°à¤°à¤°à¤°à¤°à¤°à¤°à¤°à¤°à¤°à¤°à¤°à¤°à¤°à¤°à¤°à¤°à¤°à¤°à¤°à¤°à¤°à¤°à¤°à¤°à¤°à¤°à¤°à¤°à¤°à¤°à¤°à¤°à¤°à¤°à¤°à¤°à¤°à¤°à¤°à¤°à¤°à¤°à¤°à¤°à¤°à¤°à¤°à¤°à¤°à¤°à¤°à¤°à¤°à¤°à¤°à¤°à¤°à¤°à¤°à¤°à¤°à¤°à¤°à¤°à¤°à¤°à¤°à¤°à¤°à¤°à¤°à¤°à¤°à¤°à¤°à¤°à¤°à¤°à¤°à¤°à¤°à¤°à¤°à¤°à¤°à¤°à¤°à¤°à¤°à¤°à¤°à¤°à¤°à¤°à¤°à¤°à¤°à¤°à¤°à¤°à¤°à¤°à¤°à¤°à¤°à¤°à¤°à¤°à¤°à¤°à¤°à¤°à¤°à¤°à¤°à¤°à¤°à¤°à¤°à¤°à¤°à¤°à¤°à¤°à¤°à¤°à¤°à¤°à¤°à¤°à¤°à¤°à¤°à¤°à¤°à¤°à¤°à¤°à¤°à¤°à¤°à¤°à¤°à¤°à¤°à¤°à¤°à¤°à¤°à¤°à¤°à¤°à¤°à¤°à¤°à¤°à¤°à¤°à¤°à¤°à¤°à¤°à¤°à¤°à¤°à¤°à¤°à¤°à¤°à¤°à¤°à¤°à¤°à¤°à¤°à¤°à¤°à¤°à¤°à¤°à¤°à¤°à¤°à¤°à¤°à¤°à¤°à¤°à¤°à¤°à¤°à¤°à¤°à¤°à¤°à¤°à¤°à¤°à¤°à¤°à¤°à¤°à¤°à¤°à¤°à¤°à¤°à¤°à¤°à¤°à¤°à¤°à¤°à¤°à¤°à¤°à¤°à¤°à¤°à¤°à¤°à¤°à¤°à¤°à¤°à¤°à¤°à¤°à¤°à¤°à¤°à¤°à¤°à¤°à¤°à¤°à¤°à¤°à¤°à¤°à¤°à¤°à¤°à¤°à¤°à¤°à¤°à¤°à¤°à¤°à¤°à¤°à¤°à¤°à¤°à¤°à¤°à¤°à¤°à¤°à¤°à¤°à¤°à¤°à¤°à¤°à¤°à¤°à¤°à¤°à¤°à¤°à¤°à¤°à¤°à¤°à¤°à¤°à¤°à¤°à¤°à¤°à¤°à¤°à¤°à¤°à¤°à¤°à¤°à¤°à¤°à¤°à¤°à¤°à¤°à¤°à¤°à¤°à¤°à¤°à¤°à¤°à¤°à¤°à¤°à¤°à¤°à¤°à¤°à¤°à¤°à¤°à¤°à¤°à¤°à¤°à¤°à¤°à¤°à¤°à¤°à¤°à¤°à¤°à¤°à¤°à¤°à¤°à¤°à¤°à¤°à¤°à¤°à¤°à¤°à¤°à¤°à¤°à¤°à¤°à¤°à¤°à¤°à¤°à¤°à¤°à¤°à¤°à¤°à¤°à¤°à¤°à¤°à¤°à¤°à¤°à¤°à¤°à¤°à¤°à¤°à¤°à¤°à¤°à¤°à¤°à¤°à¤°à¤°à¤°à¤°à¤°à¤°à¤°à¤°à¤°à¤°à¤°à¤°à¤°à¤°à¤°à¤°à¤°à¤°à¤°à¤°à¤°à¤°à¤°à¤°à¤°à¤°à¤°à¤°à¤°à¤°à¤°à¤°à¤°à¤°à¤°à¤°à¤°à¤°à¤°à¤°à¤°à¤°à¤°à¤°à¤°à¤°à¤°à¤°à¤°à¤°à¤°à¤°à¤°à¤°à¤°à¤°à¤°à¤°à¤°à¤°à¤°à¤°à¤°à¤°à¤°à¤°à¤°à¤°à¤°à¤°à¤°à¤°à¤°à¤°à¤°à¤°à¤°à¤°à¤°à¤°à¤°à¤°à¤°à¤°à¤°à¤°à¤°à¤°à¤°à¤°à¤°à¤°à¤°à¤°à¤°à¤°à¤°à¤°à¤°à¤°à¤°à¤°à¤°à¤°à¤°à¤°à¤°à¤°à¤°à¤°à¤°à¤°à¤°à¤°à¤°à¤°à¤°à¤°à¤°à¤°à¤°à¤°à¤°à¤°à¤°à¤°à¤°à¤°à¤°à¤°à¤°à¤°à¤°à¤°à¤°à¤°à¤°à¤°à¤°à¤°à¤°à¤°à¤°à¤°à¤°à¤°à¤°à¤°à¤°à¤°à¤°à¤°à¤°à¤°à¤°à¤°à¤°à¤°à¤°à¤°à¤°à¤°à¤°à¤°à¤°à¤°à¤°à¤°à¤°à¤°à¤°à¤°à¤°à¤°à¤°à¤°à¤°à¤°à¤°à¤°à¤°à¤°à¤°à¤°à¤°à¤°à¤°à¤°à¤°à¤°à¤°à¤°à¤°à¤°à¤°à¤°à¤°à¤°à¤°à¤°à¤°à¤°à¤°à¤°à¤°à¤°à¤°à¤°à¤°à¤°à¤°à¤°à¤°à¤°à¤°à¤°à¤°à¤°à¤°à¤°à¤°à¤°à¤°à¤°à¤°à¤°à¤°à¤°à¤°à¤°à¤°à¤°à¤°à¤°à¤°à¤°à¤°à¤°à¤°à¤°à¤°à¤°": 2879,
      "à¤¬à¤Łà¤°à¤«": 2880,
      "ÑģÑĤ": 2881,
      "ìŀī": 2882,
      "ĠÑĥÑģÑĤ": 2883,
      "Ġà¤ħà¤¦à¤°à¤ķ": 2884,
      "''": 2885,
      "',": 2886,
      "al": 2887,
      "en": 2888,
      "ra": 2889,
      "se": 2890,
      "¶Ķ": 2891,
      "×Ŀ": 2892,
      "ìĥ": 2893,
      "ĠL": 2894,
      "ĠM": 2895,
      "Ġu": 2896,
      "ĠØ": 2897,
      "ĠÙ": 2898,
      "ĠâĢĿ": 2899,
      "à¤°à¤¥": 2900,
      "à¤°à¤Ŀ": 2901,
      "à¤°à¤¸à¤¤": 2902,
      "à¤¨à¤Ĺà¤²": 2903,
      "à¤¨à¤ļà¤¨": 2904,
      "à¤¨ãĤ¢ãĤ¤ãĥĩãĤ¢": 2905,
      "Ġà¤ķà¤ļà¤¡": 2906,
      "à¤¹à¤²à¤¤": 2907,
      "à¤ķà¤µà¤°": 2908,
      "à¤ķà¤Łà¤°": 2909,
      "à¤ķãĤ¢ãĤ¤ãĥĩãĤ¢": 2910,
      "à¤¸à¤¶": 2911,
      "à¤¸à¤Łà¤¨": 2912,
      "à¤¤à¤Ł": 2913,
      "à¥ģà¥¤": 2914,
      "à¥ģ!\"": 2915,
      "Ġà¤¹à¤ķà¤²": 2916,
      "Ġà¤¸à¤¶à¤ķ": 2917,
      "Ġà¤®à¤®à¤¤": 2918,
      "Ġà¤¬à¤¸à¤¨": 2919,
      "Ġà¤īà¤«": 2920,
      "Ġà¤īà¤ķà¤¸": 2921,
      "à¤®à¤¹à¤¤": 2922,
      "à¤®à¤²à¤¤": 2923,
      "à¤®à¤ľà¤¬": 2924,
      "à¤®à¤°à¤£": 2925,
      "à¤®à¤°à¤¹": 2926,
      "à¤®à¤¶à¤°": 2927,
      "Ġà¤ªà¤µ": 2928,
      "Ġà¤¥à¤®à¤¨": 2929,
      "Ġà¤¦à¤ĸ": 2930,
      "à¤¼à¥Į": 2931,
      "à¤¼à¥Ĥà¤ģ?\"": 2932,
      "à¤¼à¥Ģà¤Ĥ!": 2933,
      "à¤¦à¤ª": 2934,
      "à¤¾à¥¤âĢĿ": 2935,
      "Ġà¤ľà¤¯": 2936,
      "à¤ªà¤ľ": 2937,
      "à¤ªà¤µ": 2938,
      "à¤Ĺà¤¹": 2939,
      "à¤Ĺà¤²à¤¤": 2940,
      "Ġà¤ĸà¤²à¤¨": 2941,
      "Ġà¤ĸà¤²à¤¤": 2942,
      "Ġà¤Ĺà¤¬": 2943,
      "Ġà¤Ĺà¤²à¤¨": 2944,
      "Ġà¤Ĺà¤ł": 2945,
      "Ġà¤Ĺà¤łà¤¨": 2946,
      "Ġà¤ķà¤°à¤ķà¤°": 2947,
      "à¤Łà¤¦": 2948,
      "à¤Łà¤Ł": 2949,
      "à¤Łà¤ķà¤¤": 2950,
      "à¤ľà¤¤à¤¨": 2951,
      "à¤ľà¤²à¤¤": 2952,
      "à¤ıà¤¡à¤¨": 2953,
      "à¤ıà¤¶à¤Ł": 2954,
      "à¤ĸà¤µ": 2955,
      "à¤ĸãĤ¢ãĤ¤ãĥĩãĤ¢": 2956,
      "Ġà¤¤à¤¤": 2957,
      "à¤¬à¤ĸ": 2958,
      "à¤¬à¤¦à¤®": 2959,
      "à¤¬à¤ķà¤²": 2960,
      "à¤¶à¤¯": 2961,
      "à¤¶à¤Ĺ": 2962,
      "à¤¶à¤ĸ": 2963,
      "à¤¶à¤¤à¤°": 2964,
      "à¤ļà¤ħà¤ª": 2965,
      "à¤ªà¤¨à¤°": 2966,
      "Ġà¤Ĩà¤®à¤¨": 2967,
      "à¤Īà¤¦": 2968,
      "à¤Ľà¤ķ": 2969,
      "Ġà¤ķà¤¹à¤°": 2970,
      "Ġà¤Łà¤Ĺ": 2971,
      "Ġà¤«à¤²à¤¨": 2972,
      "Ġà¤«à¤Łà¤ķà¤°": 2973,
      "Ġà¤ĩà¤¯à¤°": 2974,
      "Ġà¤²à¤Ĺà¤ķà¤°": 2975,
      "à¤¼à¤¾'": 2976,
      "à¤¼à¤¾:": 2977,
      "à¤Ńà¤°à¤¤": 2978,
      "à¤Ńà¤µà¤¤": 2979,
      "Ġà¤ĩà¤¸ãĤ¢ãĤ¤à¤¡": 2980,
      "à¤ıà¤ķà¤ľ": 2981,
      "à¤¼à¥ĩ\"": 2982,
      "à¤¼à¥ĩ?": 2983,
      "Ġà¤ĺà¤¸": 2984,
      "Ġà¤ªà¤¸à¤¨": 2985,
      "Ġà¤¡à¤¨": 2986,
      "Ġà¤¡à¤¯": 2987,
      "à¤·à¤ķà¤°": 2988,
      "à¤Ŀà¤ªà¤ķ": 2989,
      "à¤¹à¤°à¤¨": 2990,
      "à¤Ĩà¤¬": 2991,
      "Ġà¤®à¤¹à¤ķà¤¨": 2992,
      "Ġà¤ħà¤ļà¤°à¤ľ": 2993,
      "à¤ĩà¤Łà¤¨": 2994,
      "à¤¾à¤Ĥ\"": 2995,
      "à¤¾à¤Ĥ,\"": 2996,
      "à¤¢à¤µ": 2997,
      "Ġà¤ĵà¤¶à¤¨": 2998,
      "Ġà¤ĵà¤ķà¤ª": 2999,
      "?\",": 3000,
      "à¥Ĥà¤ģ\",": 3001,
      "à¤ħà¤Ĺ": 3002,
      "à¤ħà¤²à¤¯": 3003,
      "à¤ĸà¤¨à¤¨à¤ķ": 3004,
      "Ġà¤¹à¤°à¤®": 3005,
      "Ġà¤¤à¤°à¤ľ": 3006,
      "Ġà¤¤à¤°à¤Ľ": 3007,
      "à¤¦à¤®à¤ķà¤²": 3008,
      "Ġà¤Ĩà¤¯à¤°à¤²": 3009,
      "Ġà¤ıà¤Ł": 3010,
      "Ġà¤ıà¤ľ": 3011,
      "Ġà¤ıà¤¥à¤²": 3012,
      "à¥Ĥà¤Ĥ.\"": 3013,
      "Ġà¤ľà¤²à¤®à¤Ĺ": 3014,
      "à¥ĭà¥¤'": 3015,
      "Ġà¤Ńà¤°à¤£": 3016,
      "à¤ªà¤°à¤¸": 3017,
      "Ġà¤Ĳà¤Īà¤¯": 3018,
      "Ġà¤Ĳà¤¶à¤Ł": 3019,
      "à¤Łà¤°à¤Ł": 3020,
      "à¤µà¤¹à¤¨": 3021,
      "Ġà¤¢à¤¹à¤¨": 3022,
      "à¤°à¤°à¤°": 3023,
      "à¤¯à¤°à¤µ": 3024,
      "à¤®à¤¤à¤²à¤¬": 3025,
      "à¤ļà¤°à¤¸": 3026,
      "à¤Ĺà¤¤à¤¯": 3027,
      "à¤¬à¤²à¤ķ": 3028,
      "à¤¹à¤®à¤²": 3029,
      "à¤¾--": 3030,
      "à¤ĺà¤ķà¤°": 3031,
      "Ġà¤®à¤¨à¤®à¤°": 3032,
      "à¤ļà¤ķà¤¸": 3033,
      "Ġ--": 3034,
      "à¥Ģ...\"": 3035,
      "Ġà¤¸à¤¡à¤²": 3036,
      "ãĥ³": 3037,
      "Ġà¤ļà¤Łà¤ķà¤¨": 3038,
      "Ġà¤Īà¤Ĺà¤°": 3039,
      "Ġà¤®à¤ķà¤¸à¤¦": 3040,
      "à¤°à¤¹à¤ķà¤°": 3041,
      "à¤¼à¥Ĥ,": 3042,
      "à¤ĩà¤Łà¤Ĺ": 3043,
      "Ġà¤īà¤¬à¤°à¤¨": 3044,
      "à¤°à¤µà¤ļà¤¨": 3045,
      "à¤²à¤®à¤Ł": 3046,
      "Ġà¤¸à¤¨à¤¬": 3047,
      "à¥Īà¤Ĥ...": 3048,
      "Ġà¤Ĺà¤®à¤¬": 3049,
      "Ġà¤¦à¤¹à¤¶à¤¤": 3050,
      "Ġà¤ħà¤ªà¤µ": 3051,
      "Ġà¤ħà¤µà¤ľ": 3052,
      "Ġà¤Ńà¤Łà¤²à¤¨": 3053,
      "Ġà¤ĵà¤ªà¤²": 3054,
      "Ġà¤¥à¤°à¤¥à¤°": 3055,
      "à¥Ĥà¤ģ?!\"": 3056,
      "Ġà¤ıà¤¡à¤µà¤°": 3057,
      "à¤ĳà¤¨": 3058,
      "à¤ĳà¤¸": 3059,
      "Ġà¤¤à¤°à¤¬à¤¤à¤°": 3060,
      "Ġ11": 3061,
      "à¥Ĥà¤Ĥ?'": 3062,
      "Ġà¤ĸà¤²à¤²": 3063,
      "à¥ĩà¤Ĥ\"à¥¤": 3064,
      "à¤¸à¤®à¤Ŀà¤¦": 3065,
      "à¤²à¤Łà¤°à¤¬": 3066,
      "Ø±Ø±": 3067,
      "Ġì¶Ķ": 3068,
      "à¥Īà¥¤'\"": 3069,
      "Ġà¤Ŀà¤Łà¤ķà¤¤": 3070,
      "ĠAbi": 3071,
      "ĠDan": 3072,
      "Ġà¤ļà¤¹à¤ķà¤¤": 3073,
      "Ġà¤ļà¤¹à¤²à¤ķà¤¦à¤®": 3074,
      "à¤¬à¤Łà¤°à¤ķà¤ª": 3075,
      "à¤Łà¤¹à¤²à¤¨": 3076,
      "Ġà¤Ĩà¤ĩà¤ķà¤¨": 3077,
      "ìĥģ": 3078,
      "Ġì¶Ķìĥģ": 3079,
      "!!\"": 3080,
      "!âĢĿ": 3081,
      "\"!": 3082,
      "11": 3083,
      "50": 3084,
      "99": 3085,
      "?'à¥¤": 3086,
      "Amy": 3087,
      "BC": 3088,
      "Grrr": 3089,
      "aj": 3090,
      "ex": 3091,
      "fo": 3092,
      "grrr": 3093,
      "im": 3094,
      "mo": 3095,
      "op": 3096,
      "wal": 3097,
      "ymo": 3098,
      "~~": 3099,
      "¢×Ŀ": 3100,
      "ªģ": 3101,
      "Åĵ": 3102,
      "Ø²": 3103,
      "ØĮ": 3104,
      "Ùħ": 3105,
      "çªģ": 3106,
      "Ġ,": 3107,
      "ĠC": 3108,
      "ĠK": 3109,
      "ĠS": 3110,
      "Ġn": 3111,
      "Ġë": 3112,
      "Ġan": 3113,
      "ĠØ¨": 3114,
      "ĠÃ¢": 3115,
      "ĠGrrr": 3116,
      "Ġex": 3117,
      "Ġwal": 3118,
      "à¤°à¤§": 3119,
      "à¤°à¤¬à¤¡": 3120,
      "à¤°à¤Ĺà¤¡": 3121,
      "à¤°à¤ļà¤ķà¤°": 3122,
      "à¤°ãĤ¢ãĤ¤à¤¡": 3123,
      "à¥Ģà¤ģ": 3124,
      "à¤¨à¤ª": 3125,
      "à¤¨à¤®à¤ķ": 3126,
      "Ġà¤ķà¤¸à¤¨": 3127,
      "Ġà¤ķà¤¤à¤°": 3128,
      "Ġà¤ķaj": 3129,
      "à¤¹à¤ľ": 3130,
      "à¤¿,\"": 3131,
      "à¤¿...": 3132,
      "à¤ķà¤ķà¤¤": 3133,
      "à¤Ĥ.\"": 3134,
      "à¤¸à¤ĸ": 3135,
      "à¤¸à¤¦à¤®": 3136,
      "à¥ĭ;": 3137,
      "à¥ĭ..": 3138,
      "à¤¤à¤¡": 3139,
      "à¤¤ãĤ¢ãĤ¤ãĥĩãĤ¢": 3140,
      "à¥¤âĢĿ": 3141,
      "à¥ģ!": 3142,
      "à¥ģ\"": 3143,
      "Ġà¤¹à¤²à¤¨": 3144,
      "Ġà¤¹mm": 3145,
      "Ġà¤¸à¤ľà¤¨": 3146,
      "Ġà¤®à¤Ĺà¤°": 3147,
      "Ġà¤®à¤Łà¤®": 3148,
      "Ġà¤¬à¤¦à¤¨": 3149,
      "Ġà¤īà¤ķ": 3150,
      "Ġà¤īà¤¬à¤²": 3151,
      "Ġà¤īà¤¬à¤°": 3152,
      "à¤¯à¤°à¤ķ": 3153,
      "à¤®à¤«": 3154,
      "à¤®à¤°à¤ķ": 3155,
      "à¤®à¤¸à¤®": 3156,
      "à¤®à¤Łà¤ķà¤°": 3157,
      "Ġà¤ªà¤µà¤¨": 3158,
      "Ġà¤ªà¤łà¤¨": 3159,
      "Ġà¤²à¤¹à¤ľ": 3160,
      "Ġà¤¨à¤¨": 3161,
      "Ġà¤¨à¤®à¤¨": 3162,
      "à¥Ĥ?": 3163,
      "à¤¡à¤Ł": 3164,
      "à¤¡à¤¶": 3165,
      "à¤¡à¤µà¤°": 3166,
      "à¤ªà¤Łà¤°": 3167,
      "à¤ªà¤ĵà¤µà¤°": 3168,
      "à¥ĩà¤Ĥ;": 3169,
      "à¥ĩà¤Ĥ'à¥¤": 3170,
      "Ġà¤ħà¤ªà¤ķ": 3171,
      "Ġà¤ħà¤µà¤²": 3172,
      "Ġà¤ħà¤µà¤¸": 3173,
      "Ġà¤ħà¤ªà¤¹à¤°": 3174,
      "Ġà¤ħà¤µà¤ķ": 3175,
      "Ġà¤ıà¤ķà¤¹": 3176,
      "Ġà¤ıà¤ķà¤¸": 3177,
      "Ġà¤ıà¤ķà¤¡": 3178,
      "à¤Ĺà¤¹à¤°": 3179,
      "à¤Ĺà¤®à¤²": 3180,
      "à¤Ĺà¤Ńà¤°à¤¨": 3181,
      "Ġà¤ĸà¤®": 3182,
      "à¤ŁãĤ¢ãĤ¤ãĥĩãĤ¢": 3183,
      "à¤ıà¤ª": 3184,
      "à¤ıà¤¨à¤¨": 3185,
      "à¤ĸà¤¬à¤°": 3186,
      "à¥ĭà¤Ĥ\"": 3187,
      "à¥ĭà¤Ĥ.\"": 3188,
      "à¥ĭà¤ĤØĮ": 3189,
      "à¤µà¤®": 3190,
      "à¤µà¤ľà¤¨": 3191,
      "à¤¬à¤«": 3192,
      "à¤¬à¤¦à¤¦": 3193,
      "à¤¬à¤°à¤ľ": 3194,
      "à¤¬à¤ĸà¤°": 3195,
      "à¤¬à¤¦à¤¸": 3196,
      "à¤ģ:": 3197,
      "à¤¶à¤²à¤¤": 3198,
      "à¤¶à¤®à¤¨": 3199,
      "à¤¶à¤¨à¤ķ": 3200,
      "à¤ļà¤®à¤Ĺ": 3201,
      "à¤¾,à¥¤": 3202,
      "à¥Īà¤Ĥ-": 3203,
      "à¥Īà¤Ĥ\",": 3204,
      "Ġà¤Ĩà¤°à¤ķ": 3205,
      "Ġà¤Ĩà¤ĩà¤²": 3206,
      "à¥Ģà¥¤'": 3207,
      "à¤Īà¤°": 3208,
      "à¤Īà¤ķà¤°": 3209,
      "à¤Īà¤Ĺà¤²": 3210,
      "à¤Īà¤Ĺà¤°": 3211,
      "à¤Ľà¤¹": 3212,
      "à¥Ģà¤Ĥà¤¾à¥¤": 3213,
      "à¥Ģà¤Ĥà¥ĩà¤Ĥ": 3214,
      "à¥Ģà¤Ĥà¥Ĥà¤Ĥ": 3215,
      "à¥Īà¥¤âĢĿ": 3216,
      "Ġà¤īà¤¨à¤ªà¤°": 3217,
      "Ġà¤Łà¤¡": 3218,
      "Ġà¤Ńà¤Łà¤ķà¤°": 3219,
      "Ġà¤ªà¤°à¤ĸà¤¤": 3220,
      "à¤¥à¤Ĺ": 3221,
      "Ġà¤Ľà¤ł": 3222,
      "à¤¼à¤¾\"": 3223,
      "à¤¼à¤¾.\"": 3224,
      "à¤Ńà¤²à¤ķà¤°": 3225,
      "à¤Ńà¤Łà¤ķ": 3226,
      "à¥Į-": 3227,
      "à¥Į...": 3228,
      "à¤¹à¤¤à¤®": 3229,
      "à¤«à¤«": 3230,
      "à¤«à¤¹à¤®": 3231,
      "à¤¼à¥ĩ:": 3232,
      "Ġà¤¡à¤®": 3233,
      "Ġà¤¡à¤²à¤¨": 3234,
      "Ġà¤¡à¤Łà¤ķà¤°": 3235,
      "à¤·à¤°à¤¤": 3236,
      "à¤Ŀà¤°": 3237,
      "à¤Ŀà¤®": 3238,
      "à¤Ŀà¤ªà¤°": 3239,
      "à¤Ŀà¤Łà¤ķ": 3240,
      "à¤¼à¥Ģ'": 3241,
      "à¤¼à¥Ģ.\"": 3242,
      "à¤¹à¤°à¤¬": 3243,
      "à¤Ĩà¤®": 3244,
      "à¤Ĩà¤¦": 3245,
      "à¤Ĩà¤¦à¤°": 3246,
      "à¤Ĩà¤¯à¤¨": 3247,
      "à¤Ĩà¤ĩà¤µ": 3248,
      "à¤§à¤¹": 3249,
      "à¤§à¤°à¤¨": 3250,
      "à¤§à¤ķà¤¤": 3251,
      "à¤§à¤²à¤ķ": 3252,
      "à¤ĩà¤¸à¤¨": 3253,
      "à¤ĩà¤¨à¤ķ": 3254,
      "à¤ĩà¤Łà¤¬": 3255,
      "à¤ĩà¤Łà¤²": 3256,
      "à¤¾à¤Ĥ?": 3257,
      "à¤¾à¤Ĥ?\"": 3258,
      "Ġà¤ĵà¤ªà¤¨à¤°": 3259,
      "Ġà¤®à¤¦à¤¦à¤¹": 3260,
      "Ġà¤§à¤§à¤ķà¤¤": 3261,
      "à¥Ĥà¤ģ'à¥¤": 3262,
      "à¤īà¤¹": 3263,
      "à¤īà¤®": 3264,
      "à¤īà¤ªà¤¨": 3265,
      "à¤īà¤«": 3266,
      "à¤īà¤¨à¤µà¤°": 3267,
      "à¤īà¤¥à¤µ": 3268,
      "à¤°à¤¤à¤Ł": 3269,
      "à¤ħà¤ĸ": 3270,
      "Ġà¤¸à¤¬à¤¨": 3271,
      "Ġà¤¸à¤¬à¤®": 3272,
      "Ġà¤ħà¤¨à¤ķ": 3273,
      "à¥ĭ,!\"": 3274,
      "à¤¯à¤µà¤°": 3275,
      "Ġà¤Ĭà¤¹": 3276,
      "Ġà¤¤à¤°à¤¸à¤¤": 3277,
      "à¤µà¤°à¤¨": 3278,
      "Ġà¤łà¤Ĺ": 3279,
      "Ġà¤Ŀà¤®": 3280,
      "à¥Ĥà¤Ĥ'": 3281,
      "à¥Ĥà¤Ĥ...\"": 3282,
      "Ġà¤ľà¤²à¤¸": 3283,
      "à¥ĭà¥¤à¥¤\"": 3284,
      "à¤ĵà¤¸": 3285,
      "Ġà¤Ĳà¤ª": 3286,
      "Ġà¤Ĳà¤Ī": 3287,
      "Ġà¤¢à¤²à¤¨": 3288,
      "Ġà¤ķà¤®à¤¤à¤°": 3289,
      "à¤¨à¤¨à¤¬": 3290,
      "à¤¸à¤¨à¤¶": 3291,
      "Ġà¤ľà¤Ĺà¤¤": 3292,
      "Ġà¤ľà¤Ĺà¤ķà¤°": 3293,
      "à¥Ģ!'": 3294,
      "à¤īà¤¨à¤®": 3295,
      "Ġà¤ķà¤®à¤°à¤¬": 3296,
      "à¤Łà¤¨à¤Ł": 3297,
      "à¤Ĺà¤°à¤ľ": 3298,
      "à¤®à¤¤à¤ķà¤°": 3299,
      "Ġà¤¸à¤¹à¤ª": 3300,
      "Ġà¤¸à¤¹à¤ķà¤°": 3301,
      "à¤ļà¤°à¤«": 3302,
      "Ġà¤ľà¤¹à¤®à¤¤": 3303,
      "à¤°à¤®à¤®": 3304,
      "à¤¼à¥ĭ\"": 3305,
      "à¤ľà¤°à¤¸": 3306,
      "à¥Ģ--": 3307,
      "à¤ĩà¤¨à¤ıà¤ª": 3308,
      "à¤°à¤°à¤°à¤°à¤°": 3309,
      "à¤°à¤°à¤°à¤°à¤°à¤°à¤°": 3310,
      "à¤ªà¤ķà¤ķà¤°": 3311,
      "Ġà¤Ĩà¤Ĺà¤§": 3312,
      "à¤¬à¤²à¤¬à¤²": 3313,
      "Ġà¤Ĺà¤²à¤¤à¤«à¤¹à¤®": 3314,
      "à¤ĺà¤²à¤ķà¤°": 3315,
      "à¥Ī!'à¥¤": 3316,
      "Ġà¤Ĩà¤ľà¤ķà¤²": 3317,
      "à¤Ĭà¤¹": 3318,
      "à¤īà¤¸à¤¸": 3319,
      "à¥ĩ!'": 3320,
      "à¤ķà¤Łà¤µà¤°": 3321,
      "ãĥ¼": 3322,
      "Ġà¤ļà¤Łà¤ĸ": 3323,
      "Ġà¤²à¤¹à¤°à¤¦": 3324,
      "Ġà¤ħà¤¸à¤¬": 3325,
      "à¤°à¤¶à¤¸": 3326,
      "à¤®à¤ķãĤ¢ãĤ¤ãĥĩãĤ¢": 3327,
      "à¤¨à¤°à¤¸": 3328,
      "Ġà¤ķà¤Łà¤Ĩà¤īà¤Ł": 3329,
      "Ġà¤®à¤¶à¤Ĺ": 3330,
      "Ġà¤īà¤ªà¤ľ": 3331,
      "Ġà¤īà¤ªà¤ļ": 3332,
      "Ġà¤īà¤ªà¤²à¤ķ": 3333,
      "Ġà¤¦à¤¸à¤µ": 3334,
      "Ġà¤īà¤Ľà¤ķ": 3335,
      "à¤ıà¤®à¤µ": 3336,
      "à¤ıà¤®à¤ĵ": 3337,
      "à¤Łà¤²à¤®": 3338,
      "à¥Ī.'": 3339,
      "à¥Ī...\"": 3340,
      "à¤¾?!": 3341,
      "à¤°à¤µà¤¶": 3342,
      "Ġà¤¨à¤°à¤®à¤¤": 3343,
      "Ġà¤ļà¤ĸà¤µ": 3344,
      "à¤¸à¤«à¤²": 3345,
      "Ġà¤ªà¤¨à¤ªà¤¨": 3346,
      "Ġ30": 3347,
      "à¥Ī?!": 3348,
      "à¤¾à¤ģ!'": 3349,
      "à¤¾à¤ģ!\",": 3350,
      "à¤®à¤Ĺà¤¤à¤°": 3351,
      "Ġà¤«à¤Łà¤ķà¤¤": 3352,
      "Ġà¤ħà¤¸à¤¹à¤¯": 3353,
      "à¥ĩ?!\"": 3354,
      "à¥ĩ?âĢĿ": 3355,
      "Ġà¤īà¤Ĺà¤ķà¤°": 3356,
      "à¤°ãĤ¢ãĤ¤ãĥĩãĤ¢à¤µ": 3357,
      "Ġà¤Ĺà¤£à¤¨": 3358,
      "à¤ıà¤¡à¤µà¤°": 3359,
      "à¤¾\".": 3360,
      "Ġà¤Łà¤¹à¤²à¤ķà¤°": 3361,
      "à¤ĸà¤Łà¤ĸà¤Ł": 3362,
      "à¤¦à¤¬à¤¦à¤¬": 3363,
      "à¥ĩà¤Ĥ!'": 3364,
      "Ġà¤ıà¤¡à¤ľà¤¸": 3365,
      "à¤¼à¥ĩà¤Ĥ,âĢĿ": 3366,
      "Ġ12": 3367,
      "Ġ14": 3368,
      "Ġ16": 3369,
      "ĊĊĠĠ": 3370,
      "à¥Ī\".": 3371,
      "Ġà¤Ńà¤Łà¤ķà¤ķà¤°": 3372,
      "à¥ĭ\".": 3373,
      "à¥ĭ\"à¥¤": 3374,
      "Ġà¤ķà¤¤à¤Ī": 3375,
      "à¤¾'.": 3376,
      "à¤¶à¤¹à¤°à¤µ": 3377,
      "à¥Ģà¤Ĥ?!\"": 3378,
      "Ġ100": 3379,
      "ĠABC": 3380,
      "à¥ĩà¤Ĥ\".": 3381,
      "à¥Ģ'à¥¤": 3382,
      "à¤¬à¤¦à¤²à¤ķà¤°": 3383,
      "à¤¾à¤ģ?!\"": 3384,
      "Ġà¤ħà¤¨à¤²à¤ª": 3385,
      "à¤°à¤°à¤°à¤°à¤°à¤°à¤°à¤°à¤°à¤°à¤°à¤°à¤°à¤°à¤°à¤°à¤°à¤°à¤°à¤°à¤°à¤°à¤°à¤°à¤°à¤°à¤°à¤°à¤°à¤°à¤°à¤°à¤°à¤°à¤°à¤°à¤°à¤°à¤°à¤°à¤°à¤°à¤°à¤°à¤°à¤°à¤°à¤°à¤°à¤°à¤°à¤°à¤°à¤°à¤°à¤°à¤°à¤°à¤°à¤°à¤°à¤°à¤°à¤°à¤°à¤°à¤°à¤°à¤°à¤°à¤°à¤°à¤°à¤°à¤°à¤°à¤°à¤°à¤°à¤°à¤°à¤°à¤°à¤°à¤°à¤°à¤°à¤°à¤°à¤°à¤°à¤°à¤°à¤°à¤°à¤°à¤°à¤°à¤°à¤°à¤°à¤°à¤°à¤°à¤°à¤°à¤°à¤°à¤°à¤°à¤°à¤°à¤°à¤°à¤°à¤°à¤°à¤°à¤°à¤°à¤°à¤°à¤°à¤°à¤°à¤°à¤°à¤°à¤°à¤°à¤°à¤°à¤°à¤°à¤°à¤°à¤°à¤°à¤°à¤°à¤°à¤°à¤°à¤°à¤°à¤°à¤°à¤°à¤°à¤°à¤°à¤°à¤°à¤°à¤°à¤°à¤°à¤°à¤°à¤°à¤°à¤°à¤°à¤°à¤°à¤°à¤°à¤°à¤°à¤°à¤°à¤°à¤°à¤°à¤°à¤°à¤°à¤°à¤°à¤°à¤°à¤°à¤°à¤°à¤°à¤°à¤°à¤°à¤°à¤°à¤°à¤°à¤°à¤°à¤°à¤°à¤°à¤°à¤°à¤°à¤°à¤°à¤°à¤°à¤°à¤°à¤°à¤°à¤°à¤°à¤°à¤°à¤°à¤°à¤°à¤°à¤°à¤°à¤°à¤°à¤°à¤°à¤°à¤°à¤°à¤°à¤°à¤°à¤°à¤°à¤°à¤°à¤°à¤°à¤°à¤°à¤°à¤°à¤°à¤°à¤°à¤°à¤°à¤°à¤°à¤°à¤°à¤°à¤°à¤°à¤°à¤°à¤°à¤°à¤°à¤°à¤°à¤°à¤°à¤°à¤°à¤°à¤°à¤°à¤°à¤°à¤°à¤°à¤°à¤°à¤°à¤°à¤°à¤°à¤°à¤°à¤°à¤°à¤°à¤°à¤°à¤°à¤°à¤°à¤°à¤°à¤°à¤°à¤°à¤°à¤°à¤°à¤°à¤°à¤°à¤°à¤°à¤°à¤°à¤°à¤°à¤°à¤°à¤°à¤°à¤°à¤°à¤°à¤°à¤°à¤°à¤°à¤°à¤°à¤°à¤°à¤°à¤°à¤°à¤°à¤°à¤°à¤°à¤°à¤°à¤°à¤°à¤°à¤°à¤°à¤°à¤°à¤°à¤°à¤°à¤°à¤°à¤°à¤°à¤°à¤°à¤°à¤°à¤°à¤°à¤°à¤°à¤°à¤°à¤°à¤°à¤°à¤°à¤°à¤°à¤°à¤°à¤°à¤°à¤°à¤°à¤°à¤°à¤°à¤°à¤°à¤°à¤°à¤°à¤°à¤°à¤°à¤°à¤°à¤°à¤°à¤°à¤°à¤°à¤°à¤°à¤°à¤°à¤°à¤°à¤°à¤°à¤°à¤°à¤°à¤°à¤°à¤°à¤°à¤°à¤°à¤°à¤°à¤°à¤°à¤°à¤°à¤°à¤°à¤°à¤°à¤°à¤°à¤°à¤°à¤°à¤°à¤°à¤°à¤°à¤°à¤°à¤°à¤°à¤°à¤°à¤°à¤°à¤°à¤°à¤°à¤°à¤°à¤°à¤°à¤°à¤°à¤°à¤°à¤°à¤°à¤°à¤°à¤°à¤°à¤°à¤°à¤°à¤°à¤°à¤°à¤°à¤°à¤°à¤°à¤°à¤°à¤°à¤°à¤°à¤°à¤°à¤°à¤°à¤°à¤°à¤°à¤°à¤°à¤°à¤°à¤°à¤°à¤°à¤°à¤°à¤°à¤°à¤°à¤°à¤°à¤°à¤°à¤°à¤°à¤°à¤°à¤°à¤°à¤°à¤°à¤°à¤°à¤°à¤°à¤°à¤°à¤°à¤°à¤°à¤°à¤°à¤°à¤°à¤°à¤°à¤°à¤°à¤°à¤°à¤°à¤°à¤°à¤°à¤°à¤°à¤°à¤°à¤°à¤°à¤°à¤°à¤°à¤°à¤°à¤°à¤°à¤°à¤°à¤°à¤°à¤°à¤°à¤°à¤°à¤°à¤°à¤°à¤°à¤°à¤°à¤°à¤°à¤°à¤°à¤°à¤°à¤°à¤°à¤°à¤°à¤°à¤°à¤°à¤°à¤°à¤°à¤°à¤°à¤°à¤°à¤°à¤°à¤°à¤°à¤°à¤°à¤°à¤°à¤°à¤°à¤°à¤°à¤°à¤°à¤°à¤°à¤°à¤°à¤°à¤°à¤°à¤°à¤°à¤°à¤°à¤°à¤°à¤°à¤°à¤°à¤°à¤°à¤°à¤°à¤°à¤°à¤°à¤°à¤°à¤°à¤°à¤°à¤°à¤°à¤°à¤°à¤°à¤°à¤°à¤°à¤°à¤°à¤°à¤°à¤°à¤°à¤°à¤°à¤°à¤°à¤°à¤°à¤°à¤°à¤°à¤°à¤°à¤°à¤°à¤°à¤°à¤°à¤°à¤°à¤°à¤°à¤°à¤°à¤°à¤°à¤°à¤°à¤°à¤°à¤°à¤°à¤°à¤°à¤°à¤°à¤°à¤°à¤°à¤°à¤°à¤°à¤°à¤°à¤°à¤°à¤°à¤°à¤°à¤°à¤°à¤°à¤°à¤°à¤°à¤°à¤°à¤°à¤°à¤°à¤°à¤°à¤°à¤°à¤°à¤°à¤°à¤°à¤°à¤°à¤°à¤°à¤°à¤°à¤°à¤°à¤°à¤°à¤°à¤°à¤°à¤°à¤°à¤°à¤°à¤°à¤°à¤°à¤°à¤°à¤°à¤°à¤°à¤°à¤°à¤°à¤°à¤°à¤°à¤°à¤°à¤°à¤°à¤°à¤°à¤°à¤°à¤°à¤°à¤°à¤°à¤°à¤°à¤°à¤°à¤°à¤°à¤°à¤°à¤°à¤°à¤°à¤°à¤°à¤°à¤°à¤°à¤°à¤°à¤°à¤°à¤°à¤°à¤°à¤°à¤°à¤°à¤°à¤°à¤°à¤°à¤°à¤°à¤°à¤°à¤°à¤°à¤°à¤°à¤°à¤°à¤°à¤°à¤°à¤°à¤°à¤°à¤°": 3386,
      "Ġ|\"": 3387,
      "à¤¸à¤¹à¤®à¤¤": 3388,
      "à¤°à¤°à¤°à¤°à¤°à¤°à¤°à¤°à¤°à¤°à¤°à¤°à¤°à¤°à¤°à¤°à¤°à¤°à¤°à¤°à¤°à¤°à¤°à¤°à¤°à¤°à¤°à¤°à¤°à¤°à¤°à¤°à¤°à¤°à¤°à¤°à¤°à¤°à¤°à¤°à¤°à¤°à¤°à¤°à¤°à¤°à¤°à¤°à¤°à¤°à¤°à¤°à¤°à¤°à¤°à¤°à¤°à¤°à¤°à¤°à¤°à¤°à¤°à¤°à¤°à¤°à¤°à¤°à¤°à¤°à¤°à¤°à¤°à¤°à¤°à¤°à¤°à¤°à¤°à¤°à¤°à¤°à¤°à¤°à¤°à¤°à¤°à¤°à¤°à¤°à¤°à¤°à¤°à¤°à¤°à¤°à¤°à¤°à¤°à¤°à¤°à¤°à¤°à¤°à¤°à¤°à¤°à¤°à¤°à¤°à¤°à¤°à¤°à¤°à¤°à¤°à¤°à¤°à¤°à¤°à¤°à¤°à¤°à¤°à¤°à¤°à¤°à¤°à¤°à¤°à¤°à¤°à¤°à¤°à¤°à¤°à¤°à¤°à¤°à¤°à¤°à¤°à¤°à¤°à¤°à¤°à¤°à¤°à¤°à¤°à¤°à¤°à¤°à¤°à¤°à¤°à¤°à¤°à¤°à¤°à¤°à¤°à¤°à¤°à¤°à¤°à¤°à¤°à¤°à¤°à¤°à¤°à¤°à¤°à¤°à¤°à¤°à¤°à¤°à¤°à¤°à¤°à¤°à¤°à¤°à¤°à¤°à¤°à¤°à¤°à¤°à¤°à¤°à¤°à¤°à¤°à¤°à¤°à¤°à¤°à¤°à¤°à¤°à¤°à¤°à¤°à¤°à¤°à¤°à¤°à¤°à¤°à¤°à¤°à¤°à¤°à¤°à¤°à¤°à¤°à¤°à¤°à¤°à¤°à¤°à¤°à¤°à¤°à¤°à¤°à¤°à¤°à¤°à¤°à¤°à¤°à¤°à¤°à¤°à¤°à¤°à¤°à¤°à¤°à¤°à¤°à¤°à¤°à¤°à¤°à¤°à¤°à¤°à¤°à¤°à¤°à¤°à¤°à¤°à¤°à¤°à¤°à¤°à¤°à¤°à¤°à¤°à¤°à¤°à¤°à¤°à¤°à¤°à¤°à¤°à¤°à¤°à¤°à¤°à¤°à¤°à¤°à¤°à¤°à¤°à¤°à¤°à¤°à¤°à¤°à¤°à¤°à¤°à¤°à¤°à¤°à¤°à¤°à¤°à¤°à¤°à¤°à¤°à¤°à¤°à¤°à¤°à¤°à¤°à¤°à¤°à¤°à¤°à¤°à¤°à¤°à¤°à¤°à¤°à¤°à¤°à¤°à¤°à¤°à¤°à¤°à¤°à¤°à¤°à¤°à¤°à¤°à¤°à¤°à¤°à¤°à¤°à¤°à¤°à¤°à¤°à¤°à¤°à¤°à¤°à¤°à¤°à¤°à¤°à¤°à¤°à¤°à¤°à¤°à¤°à¤°à¤°à¤°à¤°à¤°à¤°à¤°à¤°à¤°à¤°à¤°à¤°à¤°à¤°à¤°à¤°à¤°à¤°à¤°à¤°à¤°à¤°à¤°à¤°à¤°à¤°à¤°à¤°à¤°à¤°à¤°à¤°à¤°à¤°à¤°à¤°à¤°à¤°à¤°à¤°à¤°à¤°à¤°à¤°à¤°à¤°à¤°à¤°à¤°à¤°à¤°à¤°à¤°à¤°à¤°à¤°à¤°à¤°à¤°à¤°à¤°à¤°à¤°à¤°à¤°à¤°à¤°à¤°à¤°à¤°à¤°à¤°à¤°à¤°à¤°à¤°à¤°à¤°à¤°à¤°à¤°à¤°à¤°à¤°à¤°à¤°à¤°à¤°à¤°à¤°à¤°à¤°à¤°à¤°à¤°à¤°à¤°à¤°à¤°à¤°à¤°à¤°à¤°à¤°à¤°à¤°à¤°à¤°à¤°à¤°à¤°à¤°à¤°à¤°à¤°à¤°à¤°à¤°à¤°à¤°à¤°à¤°à¤°à¤°à¤°à¤°à¤°à¤°à¤°à¤°à¤°à¤°à¤°à¤°à¤°à¤°à¤°à¤°à¤°à¤°à¤°à¤°à¤°à¤°à¤°à¤°à¤°à¤°à¤°à¤°à¤°à¤°à¤°à¤°à¤°à¤°à¤°à¤°à¤°à¤°à¤°à¤°à¤°à¤°à¤°à¤°à¤°à¤°à¤°à¤°à¤°à¤°à¤°à¤°à¤°à¤°à¤°à¤°à¤°à¤°à¤°à¤°à¤°à¤°à¤°à¤°à¤°à¤°à¤°à¤°à¤°à¤°à¤°à¤°à¤°à¤°à¤°à¤°à¤°à¤°à¤°à¤°à¤°à¤°à¤°à¤°à¤°à¤°à¤°à¤°à¤°à¤°à¤°à¤°à¤°à¤°à¤°à¤°à¤°à¤°à¤°à¤°à¤°à¤°à¤°à¤°à¤°à¤°à¤°à¤°à¤°à¤°à¤°à¤°à¤°à¤°à¤°à¤°à¤°à¤°à¤°à¤°à¤°à¤°à¤°à¤°à¤°à¤°à¤°à¤°à¤°à¤°à¤°à¤°à¤°à¤°à¤°à¤°à¤°à¤°à¤°à¤°à¤°à¤°à¤°à¤°à¤°à¤°à¤°à¤°à¤°à¤°à¤°à¤°à¤°à¤°à¤°à¤°à¤°à¤°à¤°à¤°à¤°à¤°à¤°à¤°à¤°à¤°à¤°à¤°à¤°à¤°à¤°à¤°à¤°à¤°à¤°à¤°à¤°à¤°à¤°à¤°à¤°à¤°à¤°à¤°à¤°à¤°à¤°à¤°à¤°à¤°à¤°à¤°à¤°à¤°à¤°à¤°à¤°à¤°à¤°à¤°à¤°à¤°à¤°à¤°à¤°à¤°à¤°à¤°à¤°à¤°à¤°à¤°à¤°à¤°à¤°à¤°à¤°à¤°à¤°à¤°à¤°à¤°à¤°à¤°à¤°à¤°à¤°à¤°à¤°à¤°à¤°à¤°à¤°à¤°à¤°à¤°à¤°à¤°à¤°à¤°à¤°à¤°à¤°à¤°à¤°à¤°à¤°à¤°à¤°à¤°à¤°à¤°à¤°à¤°à¤°à¤°à¤°à¤°à¤°à¤°à¤°à¤°à¤°à¤°à¤°à¤°à¤°à¤°à¤°à¤°à¤°à¤°à¤°à¤°à¤°à¤°à¤°à¤°à¤°à¤°à¤°à¤°à¤°à¤°à¤°à¤°à¤°à¤°à¤°à¤°à¤°à¤°à¤°à¤°à¤°à¤°à¤°à¤°à¤°à¤°à¤°à¤°à¤°à¤°à¤°à¤°à¤°à¤°à¤°à¤°à¤°à¤°à¤°à¤°à¤°à¤°à¤°à¤°à¤°à¤°à¤°à¤°à¤°à¤°à¤°à¤°à¤°à¤°à¤°à¤°à¤°à¤°à¤°à¤°à¤°à¤°à¤°à¤°à¤°à¤°à¤°à¤°à¤°à¤°à¤°à¤°à¤°à¤°à¤°à¤°à¤°à¤°à¤°à¤°à¤°à¤°à¤°à¤°à¤°à¤°à¤°à¤°à¤°à¤°à¤°à¤°à¤°à¤°à¤°à¤°à¤°à¤°à¤°à¤°à¤°à¤°à¤°à¤°à¤°à¤°à¤°à¤°à¤°à¤°à¤°à¤°à¤°à¤°à¤°à¤°à¤°à¤°à¤°à¤°à¤°à¤°à¤°à¤°à¤°à¤°à¤°à¤°à¤°à¤°à¤°à¤°à¤°à¤°à¤°à¤°à¤°à¤°à¤°à¤°à¤°à¤°à¤°à¤°à¤°à¤°à¤°à¤°à¤°à¤°à¤°à¤°à¤°à¤°à¤°à¤°à¤°à¤°à¤°à¤°à¤°à¤°à¤°à¤°à¤°à¤°à¤°à¤°à¤°à¤°à¤°à¤°à¤°à¤°à¤°à¤°à¤°à¤°à¤°à¤°à¤°à¤°à¤°à¤°à¤°à¤°à¤°à¤°à¤°à¤°à¤°à¤°à¤°à¤°à¤°à¤°à¤°à¤°à¤°à¤°à¤°à¤°à¤°à¤°à¤°à¤°à¤°à¤°à¤°à¤°à¤°à¤°à¤°à¤°à¤°à¤°à¤°à¤°à¤°à¤°à¤°à¤°à¤°à¤°à¤°à¤°à¤°à¤°à¤°à¤°à¤°à¤°à¤°à¤°à¤°à¤°à¤°à¤°à¤°à¤°à¤°à¤°à¤°à¤°à¤°à¤°à¤°à¤°à¤°à¤°à¤°à¤°à¤°à¤°à¤°à¤°à¤°à¤°à¤°à¤°à¤°à¤°à¤°à¤°à¤°à¤°à¤°à¤°à¤°à¤°à¤°à¤°à¤°à¤°à¤°à¤°à¤°à¤°à¤°à¤°à¤°à¤°à¤°à¤°à¤°à¤°à¤°à¤°à¤°à¤°à¤°à¤°à¤°à¤°à¤°à¤°à¤°à¤°à¤°à¤°à¤°à¤°à¤°à¤°à¤°à¤°à¤°à¤°à¤°à¤°à¤°à¤°à¤°à¤°à¤°à¤°à¤°à¤°à¤°à¤°à¤°à¤°à¤°à¤°à¤°à¤°à¤°à¤°à¤°à¤°à¤°à¤°à¤°à¤°à¤°à¤°à¤°à¤°à¤°à¤°à¤°à¤°à¤°à¤°à¤°à¤°à¤°à¤°à¤°à¤°à¤°à¤°à¤°à¤°à¤°à¤°à¤°à¤°à¤°à¤°à¤°à¤°à¤°à¤°à¤°à¤°à¤°à¤°à¤°à¤°à¤°à¤°à¤°à¤°à¤°à¤°à¤°à¤°à¤°à¤°à¤°à¤°à¤°à¤°à¤°à¤°à¤°à¤°à¤°à¤°à¤°à¤°à¤°à¤°à¤°à¤°à¤°à¤°à¤°à¤°à¤°à¤°à¤°à¤°à¤°à¤°à¤°à¤°à¤°à¤°à¤°à¤°à¤°à¤°à¤°à¤°à¤°à¤°à¤°à¤°à¤°à¤°à¤°à¤°à¤°à¤°à¤°à¤°à¤°à¤°à¤°à¤°à¤°à¤°à¤°à¤°à¤°à¤°à¤°à¤°à¤°à¤°à¤°à¤°à¤°à¤°à¤°à¤°à¤°à¤°à¤°à¤°à¤°à¤°à¤°à¤°à¤°à¤°à¤°à¤°à¤°à¤°à¤°à¤°à¤°à¤°à¤°à¤°à¤°à¤°à¤°à¤°à¤°à¤°à¤°à¤°à¤°à¤°à¤°à¤°à¤°à¤°à¤°à¤°à¤°à¤°à¤°à¤°à¤°à¤°à¤°à¤°à¤°à¤°à¤°à¤°à¤°à¤°à¤°à¤°à¤°à¤°à¤°à¤°à¤°à¤°à¤°à¤°à¤°à¤°à¤°à¤°à¤°à¤°à¤°à¤°à¤°à¤°à¤°à¤°à¤°à¤°à¤°à¤°à¤°à¤°à¤°à¤°à¤°à¤°à¤°à¤°à¤°à¤°à¤°à¤°à¤°à¤°à¤°à¤°à¤°à¤°à¤°à¤°à¤°à¤°à¤°à¤°à¤°à¤°à¤°à¤°à¤°à¤°à¤°à¤°à¤°à¤°à¤°à¤°à¤°à¤°à¤°à¤°à¤°à¤°à¤°à¤°à¤°à¤°à¤°à¤°à¤°à¤°à¤°à¤°à¤°à¤°à¤°à¤°à¤°à¤°à¤°à¤°à¤°à¤°à¤°à¤°à¤°à¤°à¤°à¤°à¤°à¤°à¤°à¤°à¤°à¤°à¤°à¤°à¤°à¤°à¤°à¤°à¤°à¤°à¤°à¤°à¤°à¤°à¤°à¤°à¤°à¤°à¤°à¤°à¤°à¤°à¤°à¤°à¤°à¤°à¤°à¤°à¤°à¤°à¤°à¤°à¤°à¤°à¤°à¤°à¤°à¤°à¤°à¤°à¤°à¤°à¤°à¤°à¤°à¤°à¤°à¤°à¤°à¤°à¤°à¤°à¤°à¤°à¤°à¤°à¤°à¤°à¤°à¤°à¤°à¤°à¤°à¤°à¤°à¤°à¤°à¤°à¤°à¤°à¤°à¤°à¤°à¤°à¤°à¤°à¤°à¤°à¤°à¤°à¤°à¤°à¤°à¤°à¤°à¤°à¤°à¤°à¤°à¤°à¤°à¤°à¤°à¤°à¤°à¤°à¤°à¤°à¤°à¤°à¤°à¤°à¤°à¤°à¤°à¤°à¤°à¤°à¤°à¤°à¤°à¤°à¤°à¤°à¤°à¤°à¤°à¤°à¤°à¤°à¤°à¤°à¤°à¤°à¤°à¤°à¤°à¤°à¤°à¤°à¤°à¤°à¤°à¤°à¤°à¤°à¤°à¤°à¤°à¤°à¤°à¤°à¤°à¤°à¤°à¤°à¤°à¤°à¤°à¤°à¤°à¤°à¤°à¤°à¤°à¤°à¤°à¤°à¤°à¤°à¤°à¤°à¤°à¤°à¤°à¤°à¤°à¤°à¤°à¤°à¤°à¤°à¤°à¤°à¤°à¤°à¤°à¤°à¤°à¤°à¤°à¤°à¤°à¤°à¤°à¤°à¤°à¤°à¤°à¤°à¤°à¤°à¤°à¤°à¤°à¤°à¤°à¤°à¤°à¤°à¤°à¤°à¤°à¤°à¤°à¤°à¤°à¤°à¤°à¤°à¤°à¤°à¤°à¤°à¤°à¤°à¤°à¤°à¤°à¤°à¤°à¤°à¤°à¤°à¤°à¤°à¤°à¤°à¤°à¤°à¤°à¤°à¤°à¤°à¤°à¤°à¤°à¤°à¤°à¤°à¤°à¤°à¤°à¤°à¤°à¤°à¤°à¤°à¤°à¤°à¤°à¤°à¤°à¤°à¤°à¤°à¤°à¤°à¤°à¤°à¤°à¤°à¤°à¤°à¤°à¤°à¤°à¤°à¤°à¤°à¤°à¤°à¤°à¤°à¤°à¤°à¤°à¤°à¤°à¤°à¤°à¤°à¤°à¤°à¤°à¤°à¤°à¤°à¤°à¤°à¤°à¤°à¤°à¤°à¤°à¤°à¤°à¤°à¤°à¤°à¤°à¤°à¤°à¤°à¤°à¤°à¤°à¤°à¤°à¤°à¤°à¤°à¤°à¤°à¤°à¤°à¤°à¤°à¤°à¤°à¤°à¤°à¤°à¤°à¤°à¤°à¤°à¤°à¤°à¤°à¤°à¤°à¤°à¤°à¤°à¤°à¤°à¤°à¤°à¤°à¤°à¤°à¤°à¤°à¤°à¤°à¤°à¤°à¤°à¤°à¤°à¤°à¤°à¤°à¤°à¤°à¤°à¤°à¤°à¤°à¤°à¤°à¤°à¤°à¤°à¤°à¤°à¤°à¤°à¤°à¤°à¤°à¤°à¤°à¤°à¤°à¤°à¤°à¤°à¤°à¤°à¤°à¤°à¤°à¤°à¤°à¤°à¤°à¤°à¤°à¤°à¤°à¤°à¤°à¤°à¤°à¤°à¤°à¤°à¤°à¤°à¤°à¤°à¤°à¤°à¤°à¤°à¤°à¤°à¤°à¤°à¤°à¤°à¤°à¤°à¤°à¤°à¤°à¤°à¤°à¤°à¤°à¤°à¤°à¤°à¤°à¤°à¤°à¤°à¤°à¤°à¤°à¤°à¤°à¤°à¤°à¤°à¤°à¤°à¤°à¤°à¤°à¤°à¤°à¤°": 3389,
      "Ġà¤īà¤Ńà¤°à¤¤": 3390,
      "à¤°à¤ĸà¤µ": 3391,
      "ĠOink": 3392,
      "ĠÚ©Ùħ": 3393,
      "Ġ911": 3394,
      "à¥Ī?',": 3395,
      "à¤ħà¤µà¤¤à¤²": 3396,
      "Ġ400": 3397,
      "ĠTim": 3398,
      "à¤Ĩà¤Ĩà¤Ĩà¤Ĩà¤Ĩà¤Ĩà¤Ĩà¤Ĩà¤Ĩà¤Ĩà¤Ĩà¤Ĩà¤Ĩà¤Ĩà¤Ĩà¤Ĩà¤Ĩà¤Ĩà¤Ĩà¤Ĩà¤Ĩà¤Ĩà¤Ĩà¤Ĩà¤Ĩà¤Ĩà¤Ĩà¤Ĩà¤Ĩà¤Ĩà¤Ĩà¤Ĩà¤Ĩà¤Ĩà¤Ĩà¤Ĩà¤Ĩà¤Ĩà¤Ĩà¤Ĩà¤Ĩà¤Ĩà¤Ĩà¤Ĩà¤Ĩà¤Ĩà¤Ĩà¤Ĩà¤Ĩà¤Ĩà¤Ĩà¤Ĩà¤Ĩà¤Ĩà¤Ĩà¤Ĩà¤Ĩà¤Ĩà¤Ĩà¤Ĩà¤Ĩà¤Ĩà¤Ĩà¤Ĩà¤Ĩà¤Ĩà¤Ĩà¤Ĩà¤Ĩà¤Ĩà¤Ĩà¤Ĩà¤Ĩà¤Ĩà¤Ĩà¤Ĩà¤Ĩà¤Ĩà¤Ĩà¤Ĩà¤Ĩà¤Ĩà¤Ĩà¤Ĩà¤Ĩà¤Ĩà¤Ĩà¤Ĩà¤Ĩà¤Ĩà¤Ĩà¤Ĩà¤Ĩà¤Ĩà¤Ĩà¤Ĩà¤Ĩà¤Ĩà¤Ĩà¤Ĩà¤Ĩà¤Ĩà¤Ĩà¤Ĩà¤Ĩà¤Ĩà¤Ĩà¤Ĩà¤Ĩà¤Ĩà¤Ĩà¤Ĩà¤Ĩà¤Ĩà¤Ĩà¤Ĩà¤Ĩà¤Ĩà¤Ĩà¤Ĩà¤Ĩà¤Ĩà¤Ĩà¤Ĩà¤Ĩà¤Ĩà¤Ĩà¤Ĩà¤Ĩà¤Ĩà¤Ĩà¤Ĩà¤Ĩà¤Ĩà¤Ĩà¤Ĩà¤Ĩà¤Ĩà¤Ĩà¤Ĩà¤Ĩà¤Ĩà¤Ĩà¤Ĩà¤Ĩà¤Ĩà¤Ĩà¤Ĩà¤Ĩà¤Ĩà¤Ĩà¤Ĩà¤Ĩà¤Ĩà¤Ĩà¤Ĩà¤Ĩà¤Ĩà¤Ĩà¤Ĩà¤Ĩà¤Ĩà¤Ĩà¤Ĩà¤Ĩà¤Ĩà¤Ĩà¤Ĩà¤Ĩà¤Ĩà¤Ĩà¤Ĩà¤Ĩà¤Ĩà¤Ĩà¤Ĩà¤Ĩà¤Ĩà¤Ĩà¤Ĩà¤Ĩà¤Ĩà¤Ĩà¤Ĩà¤Ĩà¤Ĩà¤Ĩà¤Ĩà¤Ĩà¤Ĩà¤Ĩà¤Ĩà¤Ĩà¤Ĩà¤Ĩà¤Ĩà¤Ĩà¤Ĩà¤Ĩà¤Ĩà¤Ĩà¤Ĩà¤Ĩà¤Ĩà¤Ĩà¤Ĩà¤Ĩà¤Ĩà¤Ĩà¤Ĩà¤Ĩà¤Ĩà¤Ĩà¤Ĩà¤Ĩà¤Ĩà¤Ĩà¤Ĩà¤Ĩà¤Ĩà¤Ĩà¤Ĩà¤Ĩà¤Ĩà¤Ĩà¤Ĩà¤Ĩà¤Ĩà¤Ĩà¤Ĩà¤Ĩà¤Ĩà¤Ĩà¤Ĩà¤Ĩà¤Ĩà¤Ĩà¤Ĩà¤Ĩà¤Ĩà¤Ĩà¤Ĩà¤Ĩà¤Ĩà¤Ĩà¤Ĩà¤Ĩà¤Ĩà¤Ĩà¤Ĩà¤Ĩà¤Ĩà¤Ĩà¤Ĩà¤Ĩà¤Ĩà¤Ĩà¤Ĩà¤Ĩà¤Ĩà¤Ĩà¤Ĩà¤Ĩà¤Ĩà¤Ĩà¤Ĩà¤Ĩà¤Ĩà¤Ĩà¤Ĩà¤Ĩà¤Ĩà¤Ĩà¤Ĩà¤Ĩà¤Ĩà¤Ĩà¤Ĩà¤Ĩà¤Ĩà¤Ĩà¤Ĩà¤Ĩà¤Ĩà¤Ĩà¤Ĩà¤Ĩà¤Ĩà¤Ĩà¤Ĩà¤Ĩà¤Ĩà¤Ĩà¤Ĩà¤Ĩà¤Ĩà¤Ĩà¤Ĩà¤Ĩà¤Ĩà¤Ĩà¤Ĩà¤Ĩà¤Ĩà¤Ĩà¤Ĩà¤Ĩà¤Ĩà¤Ĩà¤Ĩà¤Ĩà¤Ĩà¤Ĩà¤Ĩà¤Ĩà¤Ĩà¤Ĩà¤Ĩà¤Ĩà¤Ĩà¤Ĩà¤Ĩà¤Ĩà¤Ĩà¤Ĩà¤Ĩà¤Ĩà¤Ĩà¤Ĩà¤Ĩà¤Ĩà¤Ĩà¤Ĩà¤Ĩà¤Ĩà¤Ĩà¤Ĩà¤Ĩà¤Ĩà¤Ĩà¤Ĩà¤Ĩà¤Ĩà¤Ĩà¤Ĩà¤Ĩà¤Ĩà¤Ĩà¤Ĩà¤Ĩà¤Ĩà¤Ĩà¤Ĩà¤Ĩà¤Ĩà¤Ĩà¤Ĩà¤Ĩà¤Ĩà¤Ĩà¤Ĩà¤Ĩà¤Ĩà¤Ĩà¤Ĩà¤Ĩà¤Ĩà¤Ĩà¤Ĩà¤Ĩà¤Ĩà¤Ĩà¤Ĩà¤Ĩà¤Ĩà¤Ĩà¤Ĩà¤Ĩà¤Ĩà¤Ĩà¤Ĩà¤Ĩà¤Ĩà¤Ĩà¤Ĩà¤Ĩà¤Ĩà¤Ĩà¤Ĩà¤Ĩà¤Ĩà¤Ĩà¤Ĩà¤Ĩà¤Ĩà¤Ĩà¤Ĩà¤Ĩà¤Ĩà¤Ĩà¤Ĩà¤Ĩà¤Ĩà¤Ĩà¤Ĩà¤Ĩà¤Ĩà¤Ĩà¤Ĩà¤Ĩà¤Ĩà¤Ĩà¤Ĩà¤Ĩà¤Ĩà¤Ĩà¤Ĩà¤Ĩà¤Ĩà¤Ĩà¤Ĩà¤Ĩà¤Ĩà¤Ĩà¤Ĩà¤Ĩà¤Ĩà¤Ĩà¤Ĩà¤Ĩà¤Ĩà¤Ĩà¤Ĩà¤Ĩà¤Ĩà¤Ĩà¤Ĩà¤Ĩà¤Ĩà¤Ĩà¤Ĩà¤Ĩà¤Ĩà¤Ĩà¤Ĩà¤Ĩà¤Ĩà¤Ĩà¤Ĩà¤Ĩà¤Ĩà¤Ĩà¤Ĩà¤Ĩà¤Ĩà¤Ĩà¤Ĩà¤Ĩà¤Ĩà¤Ĩà¤Ĩà¤Ĩà¤Ĩà¤Ĩà¤Ĩà¤Ĩà¤Ĩà¤Ĩà¤Ĩà¤Ĩà¤Ĩà¤Ĩà¤Ĩà¤Ĩà¤Ĩà¤Ĩà¤Ĩà¤Ĩà¤Ĩà¤Ĩà¤Ĩà¤Ĩà¤Ĩà¤Ĩà¤Ĩà¤Ĩà¤Ĩà¤Ĩà¤Ĩà¤Ĩà¤Ĩà¤Ĩà¤Ĩà¤Ĩà¤Ĩà¤Ĩà¤Ĩà¤Ĩà¤Ĩà¤Ĩà¤Ĩà¤Ĩà¤Ĩà¤Ĩà¤Ĩà¤Ĩà¤Ĩà¤Ĩà¤Ĩà¤Ĩà¤Ĩà¤Ĩà¤Ĩà¤Ĩà¤Ĩà¤Ĩà¤Ĩà¤Ĩà¤Ĩà¤Ĩà¤Ĩà¤Ĩà¤Ĩà¤Ĩà¤Ĩà¤Ĩà¤Ĩà¤Ĩà¤Ĩà¤Ĩà¤Ĩà¤Ĩà¤Ĩà¤Ĩà¤Ĩà¤Ĩà¤Ĩà¤Ĩà¤Ĩà¤Ĩà¤Ĩà¤Ĩà¤Ĩà¤Ĩà¤Ĩà¤Ĩà¤Ĩà¤Ĩà¤Ĩà¤Ĩà¤Ĩà¤Ĩà¤Ĩà¤Ĩà¤Ĩà¤Ĩà¤Ĩà¤Ĩà¤Ĩà¤Ĩà¤Ĩà¤Ĩà¤Ĩà¤Ĩà¤Ĩà¤Ĩà¤Ĩà¤Ĩà¤Ĩà¤Ĩà¤Ĩà¤Ĩà¤Ĩà¤Ĩà¤Ĩà¤Ĩà¤Ĩà¤Ĩà¤Ĩà¤Ĩà¤Ĩà¤Ĩà¤Ĩà¤Ĩà¤Ĩà¤Ĩà¤Ĩà¤Ĩà¤Ĩà¤Ĩà¤Ĩà¤Ĩà¤Ĩà¤Ĩà¤Ĩà¤Ĩà¤Ĩà¤Ĩà¤Ĩà¤Ĩà¤Ĩà¤Ĩà¤Ĩà¤Ĩà¤Ĩà¤Ĩà¤Ĩà¤Ĩà¤Ĩà¤Ĩà¤Ĩà¤Ĩà¤Ĩà¤Ĩà¤Ĩà¤Ĩà¤Ĩà¤Ĩà¤Ĩà¤Ĩà¤Ĩà¤Ĩà¤Ĩà¤Ĩà¤Ĩà¤Ĩà¤Ĩà¤Ĩà¤Ĩà¤Ĩà¤Ĩà¤Ĩà¤Ĩà¤Ĩà¤Ĩà¤Ĩà¤Ĩà¤Ĩà¤Ĩà¤Ĩà¤Ĩà¤Ĩà¤Ĩà¤Ĩà¤Ĩà¤Ĩà¤Ĩà¤Ĩà¤Ĩà¤Ĩà¤Ĩà¤Ĩà¤Ĩà¤Ĩà¤Ĩà¤Ĩà¤Ĩà¤Ĩà¤Ĩà¤Ĩà¤Ĩà¤Ĩà¤Ĩà¤Ĩà¤Ĩà¤Ĩà¤Ĩà¤Ĩà¤Ĩà¤Ĩà¤Ĩà¤Ĩà¤Ĩà¤Ĩà¤Ĩà¤Ĩà¤Ĩà¤Ĩà¤Ĩà¤Ĩà¤Ĩà¤Ĩà¤Ĩà¤Ĩà¤Ĩà¤Ĩà¤Ĩà¤Ĩà¤Ĩà¤Ĩà¤Ĩà¤Ĩà¤Ĩà¤Ĩà¤Ĩà¤Ĩà¤Ĩà¤Ĩà¤Ĩà¤Ĩà¤Ĩà¤Ĩà¤Ĩà¤Ĩà¤Ĩà¤Ĩà¤Ĩà¤Ĩà¤Ĩà¤Ĩà¤Ĩà¤Ĩà¤Ĩà¤Ĩà¤Ĩà¤Ĩà¤Ĩà¤Ĩà¤Ĩà¤Ĩà¤Ĩà¤Ĩà¤Ĩà¤Ĩà¤Ĩà¤Ĩà¤Ĩà¤Ĩà¤Ĩà¤Ĩà¤Ĩà¤Ĩà¤Ĩà¤Ĩà¤Ĩà¤Ĩà¤Ĩà¤Ĩà¤Ĩà¤Ĩà¤Ĩà¤Ĩà¤Ĩà¤Ĩà¤Ĩà¤Ĩà¤Ĩà¤Ĩà¤Ĩà¤Ĩà¤Ĩà¤Ĩà¤Ĩà¤Ĩà¤Ĩà¤Ĩà¤Ĩà¤Ĩà¤Ĩà¤Ĩà¤Ĩà¤Ĩà¤Ĩà¤Ĩà¤Ĩà¤Ĩà¤Ĩà¤Ĩà¤Ĩà¤Ĩà¤Ĩà¤Ĩà¤Ĩà¤Ĩà¤Ĩà¤Ĩà¤Ĩà¤Ĩà¤Ĩà¤Ĩà¤Ĩà¤Ĩà¤Ĩà¤Ĩà¤Ĩà¤Ĩà¤Ĩà¤Ĩà¤Ĩà¤Ĩà¤Ĩà¤Ĩà¤Ĩà¤Ĩà¤Ĩà¤Ĩà¤Ĩà¤Ĩà¤Ĩà¤Ĩà¤Ĩà¤Ĩà¤Ĩà¤Ĩà¤Ĩà¤Ĩà¤Ĩà¤Ĩà¤Ĩà¤Ĩà¤Ĩà¤Ĩà¤Ĩà¤Ĩà¤Ĩà¤Ĩà¤Ĩà¤Ĩà¤Ĩà¤Ĩà¤Ĩà¤Ĩà¤Ĩà¤Ĩà¤Ĩà¤Ĩà¤Ĩà¤Ĩà¤Ĩà¤Ĩà¤Ĩà¤Ĩà¤Ĩà¤Ĩà¤Ĩà¤Ĩà¤Ĩà¤Ĩà¤Ĩà¤Ĩà¤Ĩà¤Ĩà¤Ĩà¤Ĩà¤Ĩà¤Ĩà¤Ĩà¤Ĩà¤Ĩà¤Ĩà¤Ĩà¤Ĩà¤Ĩà¤Ĩà¤Ĩà¤Ĩà¤Ĩà¤Ĩà¤Ĩà¤Ĩà¤Ĩà¤Ĩà¤Ĩà¤Ĩà¤Ĩà¤Ĩà¤Ĩà¤Ĩà¤Ĩà¤Ĩà¤Ĩà¤Ĩà¤Ĩà¤Ĩà¤Ĩà¤Ĩà¤Ĩà¤Ĩà¤Ĩà¤Ĩà¤Ĩà¤Ĩà¤Ĩà¤Ĩà¤Ĩà¤Ĩà¤Ĩà¤Ĩà¤Ĩà¤Ĩà¤Ĩà¤Ĩà¤Ĩà¤Ĩà¤Ĩà¤Ĩà¤Ĩà¤Ĩà¤Ĩà¤Ĩà¤Ĩà¤Ĩà¤Ĩà¤Ĩà¤Ĩà¤Ĩà¤Ĩà¤Ĩà¤Ĩà¤Ĩà¤Ĩà¤Ĩà¤Ĩà¤Ĩà¤Ĩà¤Ĩà¤Ĩà¤Ĩà¤Ĩà¤Ĩà¤Ĩà¤Ĩà¤Ĩà¤Ĩà¤Ĩà¤Ĩà¤Ĩà¤Ĩà¤Ĩà¤Ĩà¤Ĩà¤Ĩà¤Ĩà¤Ĩà¤Ĩà¤Ĩà¤Ĩà¤Ĩà¤Ĩà¤Ĩà¤Ĩà¤Ĩà¤Ĩà¤Ĩà¤Ĩà¤Ĩà¤Ĩà¤Ĩà¤Ĩà¤Ĩà¤Ĩà¤Ĩà¤Ĩà¤Ĩà¤Ĩà¤Ĩà¤Ĩà¤Ĩà¤Ĩà¤Ĩà¤Ĩà¤Ĩà¤Ĩà¤Ĩà¤Ĩà¤Ĩà¤Ĩà¤Ĩà¤Ĩà¤Ĩà¤Ĩà¤Ĩà¤Ĩà¤Ĩà¤Ĩà¤Ĩà¤Ĩà¤Ĩà¤Ĩà¤Ĩà¤Ĩà¤Ĩà¤Ĩà¤Ĩà¤Ĩà¤Ĩà¤Ĩà¤Ĩà¤Ĩà¤Ĩà¤Ĩà¤Ĩà¤Ĩà¤Ĩà¤Ĩà¤Ĩà¤Ĩà¤Ĩà¤Ĩà¤Ĩà¤Ĩà¤Ĩà¤Ĩà¤Ĩà¤Ĩà¤Ĩà¤Ĩà¤Ĩà¤Ĩà¤Ĩà¤Ĩà¤Ĩà¤Ĩà¤Ĩà¤Ĩà¤Ĩà¤Ĩà¤Ĩà¤Ĩà¤Ĩà¤Ĩà¤Ĩà¤Ĩà¤Ĩà¤Ĩà¤Ĩà¤Ĩà¤Ĩà¤Ĩà¤Ĩà¤Ĩà¤Ĩà¤Ĩà¤Ĩà¤Ĩà¤Ĩà¤Ĩà¤Ĩà¤Ĩà¤Ĩà¤Ĩà¤Ĩà¤Ĩà¤Ĩà¤Ĩà¤Ĩà¤Ĩà¤Ĩà¤Ĩà¤Ĩà¤Ĩà¤Ĩà¤Ĩà¤Ĩà¤Ĩà¤Ĩà¤Ĩà¤Ĩà¤Ĩà¤Ĩà¤Ĩà¤Ĩà¤Ĩà¤Ĩà¤Ĩà¤Ĩà¤Ĩà¤Ĩà¤Ĩà¤Ĩà¤Ĩà¤Ĩà¤Ĩà¤Ĩà¤Ĩà¤Ĩà¤Ĩà¤Ĩà¤Ĩà¤Ĩà¤Ĩà¤Ĩà¤Ĩà¤Ĩà¤Ĩà¤Ĩà¤Ĩà¤Ĩà¤Ĩà¤Ĩà¤Ĩà¤Ĩà¤Ĩà¤Ĩà¤Ĩà¤Ĩà¤Ĩà¤Ĩà¤Ĩà¤Ĩà¤Ĩà¤Ĩà¤Ĩà¤Ĩà¤Ĩà¤Ĩà¤Ĩà¤Ĩà¤Ĩà¤Ĩà¤Ĩà¤Ĩà¤Ĩà¤Ĩà¤Ĩà¤Ĩà¤Ĩà¤Ĩà¤Ĩà¤Ĩà¤Ĩà¤Ĩà¤Ĩà¤Ĩà¤Ĩà¤Ĩà¤Ĩà¤Ĩà¤Ĩà¤Ĩà¤Ĩà¤Ĩà¤Ĩà¤Ĩà¤Ĩà¤Ĩà¤Ĩà¤Ĩà¤Ĩà¤Ĩà¤Ĩà¤Ĩà¤Ĩà¤Ĩà¤Ĩà¤Ĩà¤Ĩà¤Ĩà¤Ĩà¤Ĩà¤Ĩà¤Ĩà¤Ĩà¤Ĩà¤Ĩà¤Ĩà¤Ĩà¤Ĩà¤Ĩà¤Ĩà¤Ĩà¤Ĩà¤Ĩà¤Ĩà¤Ĩà¤Ĩà¤Ĩà¤Ĩà¤Ĩà¤Ĩà¤Ĩà¤Ĩà¤Ĩà¤Ĩà¤Ĩà¤Ĩà¤Ĩà¤Ĩà¤Ĩà¤Ĩà¤Ĩà¤Ĩà¤Ĩà¤Ĩà¤Ĩà¤Ĩà¤Ĩà¤Ĩà¤Ĩà¤Ĩà¤Ĩà¤Ĩà¤Ĩà¤Ĩà¤Ĩà¤Ĩà¤Ĩà¤Ĩà¤Ĩà¤Ĩà¤Ĩà¤Ĩà¤Ĩà¤Ĩà¤Ĩà¤Ĩà¤Ĩà¤Ĩà¤Ĩà¤Ĩà¤Ĩà¤Ĩà¤Ĩà¤Ĩà¤Ĩà¤Ĩà¤Ĩà¤Ĩà¤Ĩà¤Ĩà¤Ĩà¤Ĩà¤Ĩà¤Ĩà¤Ĩà¤Ĩà¤Ĩà¤Ĩà¤Ĩà¤Ĩà¤Ĩà¤Ĩà¤Ĩà¤Ĩà¤Ĩà¤Ĩà¤Ĩà¤Ĩà¤Ĩà¤Ĩà¤Ĩà¤Ĩà¤Ĩà¤Ĩà¤Ĩà¤Ĩà¤Ĩà¤Ĩà¤Ĩà¤Ĩà¤Ĩà¤Ĩà¤Ĩà¤Ĩà¤Ĩà¤Ĩà¤Ĩà¤Ĩà¤Ĩà¤Ĩà¤Ĩà¤Ĩà¤Ĩà¤Ĩà¤Ĩà¤Ĩà¤Ĩà¤Ĩà¤Ĩà¤Ĩà¤Ĩà¤Ĩà¤Ĩà¤Ĩà¤Ĩà¤Ĩà¤Ĩà¤Ĩà¤Ĩà¤Ĩà¤Ĩà¤Ĩà¤Ĩà¤Ĩà¤Ĩà¤Ĩà¤Ĩà¤Ĩà¤Ĩà¤Ĩà¤Ĩà¤Ĩà¤Ĩà¤Ĩà¤Ĩà¤Ĩà¤Ĩà¤Ĩà¤Ĩà¤Ĩà¤Ĩà¤Ĩà¤Ĩà¤Ĩà¤Ĩà¤Ĩà¤Ĩà¤Ĩà¤Ĩà¤Ĩà¤Ĩà¤Ĩà¤Ĩà¤Ĩà¤Ĩà¤Ĩà¤Ĩà¤Ĩà¤Ĩà¤Ĩà¤Ĩà¤Ĩà¤Ĩà¤Ĩà¤Ĩà¤Ĩà¤Ĩà¤Ĩà¤Ĩà¤Ĩà¤Ĩà¤Ĩà¤Ĩà¤Ĩà¤Ĩà¤Ĩà¤Ĩà¤Ĩà¤Ĩà¤Ĩà¤Ĩà¤Ĩà¤Ĩà¤Ĩà¤Ĩà¤Ĩà¤Ĩà¤Ĩà¤Ĩà¤Ĩà¤Ĩà¤Ĩà¤Ĩà¤Ĩà¤Ĩà¤Ĩà¤Ĩà¤Ĩà¤Ĩà¤Ĩà¤Ĩà¤Ĩà¤Ĩà¤Ĩà¤Ĩà¤Ĩà¤Ĩà¤Ĩà¤Ĩà¤Ĩà¤Ĩà¤Ĩà¤Ĩà¤Ĩà¤Ĩà¤Ĩà¤Ĩà¤Ĩà¤Ĩà¤Ĩà¤Ĩà¤Ĩà¤Ĩà¤Ĩà¤Ĩà¤Ĩà¤Ĩà¤Ĩà¤Ĩà¤Ĩà¤Ĩà¤Ĩà¤Ĩà¤Ĩà¤Ĩà¤Ĩà¤Ĩà¤Ĩà¤Ĩà¤Ĩà¤Ĩà¤Ĩà¤Ĩà¤Ĩà¤Ĩà¤Ĩà¤Ĩà¤Ĩà¤Ĩà¤Ĩà¤Ĩà¤Ĩà¤Ĩà¤Ĩà¤Ĩà¤Ĩà¤Ĩà¤Ĩà¤Ĩà¤Ĩà¤Ĩà¤Ĩà¤Ĩà¤Ĩà¤Ĩà¤Ĩà¤Ĩà¤Ĩà¤Ĩà¤Ĩà¤Ĩà¤Ĩà¤Ĩà¤Ĩà¤Ĩà¤Ĩà¤Ĩà¤Ĩà¤Ĩà¤Ĩà¤Ĩà¤Ĩà¤Ĩà¤Ĩà¤Ĩà¤Ĩà¤Ĩà¤Ĩà¤Ĩà¤Ĩà¤Ĩà¤Ĩà¤Ĩà¤Ĩà¤Ĩà¤Ĩà¤Ĩà¤Ĩà¤Ĩà¤Ĩà¤Ĩà¤Ĩà¤Ĩà¤Ĩà¤Ĩà¤Ĩà¤Ĩà¤Ĩà¤Ĩà¤Ĩà¤Ĩà¤Ĩà¤Ĩà¤Ĩà¤Ĩà¤Ĩà¤Ĩà¤Ĩà¤Ĩà¤Ĩà¤Ĩà¤Ĩà¤Ĩà¤Ĩà¤Ĩà¤Ĩà¤Ĩà¤Ĩà¤Ĩà¤Ĩà¤Ĩà¤Ĩà¤Ĩà¤Ĩà¤Ĩà¤Ĩà¤Ĩà¤Ĩà¤Ĩà¤Ĩà¤Ĩà¤Ĩà¤Ĩà¤Ĩà¤Ĩà¤Ĩà¤Ĩà¤Ĩà¤Ĩà¤Ĩà¤Ĩà¤Ĩà¤Ĩà¤Ĩà¤Ĩà¤Ĩà¤Ĩà¤Ĩà¤Ĩà¤Ĩà¤Ĩà¤Ĩà¤Ĩà¤Ĩà¤Ĩà¤Ĩà¤Ĩà¤Ĩà¤Ĩà¤Ĩà¤Ĩà¤Ĩà¤Ĩà¤Ĩà¤Ĩà¤Ĩà¤Ĩà¤Ĩà¤Ĩà¤Ĩà¤Ĩà¤Ĩà¤Ĩà¤Ĩà¤Ĩà¤Ĩà¤Ĩà¤Ĩà¤Ĩà¤Ĩà¤Ĩà¤Ĩà¤Ĩà¤Ĩà¤Ĩà¤Ĩà¤Ĩà¤Ĩà¤Ĩà¤Ĩà¤Ĩà¤Ĩà¤Ĩà¤Ĩà¤Ĩà¤Ĩà¤Ĩà¤Ĩà¤Ĩà¤Ĩà¤Ĩà¤Ĩà¤Ĩà¤Ĩà¤Ĩà¤Ĩà¤Ĩà¤Ĩà¤Ĩà¤Ĩà¤Ĩà¤Ĩà¤Ĩà¤Ĩà¤Ĩà¤Ĩà¤Ĩà¤Ĩà¤Ĩà¤Ĩà¤Ĩà¤Ĩà¤Ĩà¤Ĩà¤Ĩà¤Ĩà¤Ĩà¤Ĩà¤Ĩà¤Ĩà¤Ĩà¤Ĩà¤Ĩà¤Ĩà¤Ĩà¤Ĩà¤Ĩà¤Ĩà¤Ĩà¤Ĩà¤Ĩà¤Ĩà¤Ĩà¤Ĩà¤Ĩà¤Ĩà¤Ĩà¤Ĩà¤Ĩà¤Ĩà¤Ĩà¤Ĩà¤Ĩà¤Ĩà¤Ĩà¤Ĩà¤Ĩà¤Ĩà¤Ĩà¤Ĩà¤Ĩà¤Ĩà¤Ĩà¤Ĩà¤Ĩà¤Ĩà¤Ĩà¤Ĩà¤Ĩà¤Ĩà¤Ĩà¤Ĩà¤Ĩà¤Ĩà¤Ĩà¤Ĩà¤Ĩà¤Ĩà¤Ĩà¤Ĩà¤Ĩà¤Ĩà¤Ĩà¤Ĩà¤Ĩà¤Ĩà¤Ĩà¤Ĩà¤Ĩà¤Ĩà¤Ĩà¤Ĩà¤Ĩà¤Ĩà¤Ĩà¤Ĩà¤Ĩà¤Ĩà¤Ĩà¤Ĩà¤Ĩà¤Ĩà¤Ĩà¤Ĩà¤Ĩà¤Ĩà¤Ĩà¤Ĩà¤Ĩà¤Ĩà¤Ĩà¤Ĩà¤Ĩà¤Ĩà¤Ĩà¤Ĩà¤Ĩà¤Ĩà¤Ĩà¤Ĩà¤Ĩà¤Ĩà¤Ĩà¤Ĩà¤Ĩà¤Ĩà¤Ĩà¤Ĩà¤Ĩà¤Ĩà¤Ĩà¤Ĩà¤Ĩà¤Ĩà¤Ĩà¤Ĩà¤Ĩà¤Ĩà¤Ĩà¤Ĩà¤Ĩà¤Ĩà¤Ĩà¤Ĩà¤Ĩà¤Ĩà¤Ĩà¤Ĩà¤Ĩà¤Ĩà¤Ĩà¤Ĩà¤Ĩà¤Ĩà¤Ĩà¤Ĩà¤Ĩà¤Ĩà¤Ĩà¤Ĩà¤Ĩà¤Ĩà¤Ĩà¤Ĩà¤Ĩà¤Ĩà¤Ĩà¤Ĩà¤Ĩà¤Ĩà¤Ĩà¤Ĩà¤Ĩà¤Ĩà¤Ĩà¤Ĩà¤Ĩà¤Ĩà¤Ĩà¤Ĩà¤Ĩà¤Ĩà¤Ĩà¤Ĩà¤Ĩà¤Ĩà¤Ĩà¤Ĩà¤Ĩà¤Ĩà¤Ĩà¤Ĩà¤Ĩà¤Ĩà¤Ĩà¤Ĩà¤Ĩà¤Ĩà¤Ĩà¤Ĩà¤Ĩà¤Ĩà¤Ĩà¤Ĩà¤Ĩà¤Ĩà¤Ĩà¤Ĩà¤Ĩà¤Ĩà¤Ĩà¤Ĩà¤Ĩà¤Ĩà¤Ĩà¤Ĩà¤Ĩà¤Ĩà¤Ĩà¤Ĩà¤Ĩà¤Ĩà¤Ĩà¤Ĩà¤Ĩà¤Ĩà¤Ĩà¤Ĩà¤Ĩà¤Ĩà¤Ĩà¤Ĩà¤Ĩà¤Ĩà¤Ĩà¤Ĩà¤Ĩà¤Ĩà¤Ĩà¤Ĩà¤Ĩà¤Ĩà¤Ĩà¤Ĩà¤Ĩà¤Ĩà¤Ĩà¤Ĩà¤Ĩà¤Ĩà¤Ĩà¤Ĩà¤Ĩà¤Ĩà¤Ĩà¤Ĩà¤Ĩà¤Ĩà¤Ĩà¤Ĩà¤Ĩà¤Ĩà¤Ĩà¤Ĩà¤Ĩà¤Ĩà¤Ĩà¤Ĩà¤Ĩà¤Ĩà¤Ĩà¤Ĩà¤Ĩà¤Ĩà¤Ĩà¤Ĩà¤Ĩà¤Ĩà¤Ĩà¤Ĩà¤Ĩà¤Ĩà¤Ĩà¤Ĩà¤Ĩà¤Ĩà¤Ĩà¤Ĩà¤Ĩà¤Ĩà¤Ĩà¤Ĩà¤Ĩà¤Ĩà¤Ĩà¤Ĩà¤Ĩà¤Ĩà¤Ĩà¤Ĩà¤Ĩà¤Ĩà¤Ĩà¤Ĩà¤Ĩà¤Ĩà¤Ĩà¤Ĩà¤Ĩà¤Ĩà¤Ĩà¤Ĩà¤Ĩà¤Ĩà¤Ĩà¤Ĩà¤Ĩà¤Ĩà¤Ĩà¤Ĩà¤Ĩà¤Ĩà¤Ĩà¤Ĩà¤Ĩà¤Ĩà¤Ĩà¤Ĩà¤Ĩà¤Ĩà¤Ĩà¤Ĩà¤Ĩà¤Ĩà¤Ĩà¤Ĩà¤Ĩà¤Ĩà¤Ĩà¤Ĩà¤Ĩà¤Ĩà¤Ĩà¤Ĩà¤Ĩà¤Ĩà¤Ĩà¤Ĩà¤Ĩà¤Ĩà¤Ĩà¤Ĩà¤Ĩà¤Ĩà¤Ĩà¤Ĩà¤Ĩà¤Ĩà¤Ĩà¤Ĩà¤Ĩà¤Ĩà¤Ĩà¤Ĩà¤Ĩà¤Ĩà¤Ĩà¤Ĩà¤Ĩà¤Ĩà¤Ĩà¤Ĩà¤Ĩà¤Ĩà¤Ĩà¤Ĩà¤Ĩà¤Ĩà¤Ĩà¤Ĩà¤Ĩà¤Ĩà¤Ĩà¤Ĩà¤Ĩà¤Ĩà¤Ĩà¤Ĩà¤Ĩà¤Ĩà¤Ĩà¤Ĩà¤Ĩà¤Ĩà¤Ĩà¤Ĩà¤Ĩà¤Ĩà¤Ĩà¤Ĩà¤Ĩà¤Ĩà¤Ĩà¤Ĩà¤Ĩà¤Ĩà¤Ĩà¤Ĩà¤Ĩà¤Ĩà¤Ĩà¤Ĩà¤Ĩà¤Ĩà¤Ĩà¤Ĩà¤Ĩà¤Ĩà¤Ĩà¤Ĩà¤Ĩà¤Ĩà¤Ĩà¤Ĩà¤Ĩà¤Ĩà¤Ĩà¤Ĩà¤Ĩà¤Ĩà¤Ĩà¤Ĩà¤Ĩà¤Ĩà¤Ĩà¤Ĩà¤Ĩà¤Ĩà¤Ĩà¤Ĩà¤Ĩà¤Ĩà¤Ĩà¤Ĩà¤Ĩà¤Ĩà¤Ĩà¤Ĩà¤Ĩà¤Ĩà¤Ĩà¤Ĩà¤Ĩà¤Ĩà¤Ĩà¤Ĩà¤Ĩà¤Ĩà¤Ĩà¤Ĩà¤Ĩà¤Ĩà¤Ĩà¤Ĩà¤Ĩà¤Ĩà¤Ĩà¤Ĩà¤Ĩà¤Ĩà¤Ĩà¤Ĩà¤Ĩà¤Ĩà¤Ĩà¤Ĩà¤Ĩà¤Ĩ": 3399,
      "Abi": 3400,
      "Abby": 3401,
      "Ġ×¢×Ŀ": 3402,
      "à¤°à¤°à¤°à¤°à¤°à¤°à¤°à¤°à¤°à¤°à¤°à¤°à¤°à¤°à¤°à¤°à¤°à¤°à¤°à¤°à¤°à¤°à¤°à¤°à¤°à¤°à¤°à¤°à¤°à¤°à¤°à¤°à¤°à¤°à¤°à¤°à¤°à¤°à¤°à¤°à¤°à¤°à¤°à¤°à¤°à¤°à¤°à¤°à¤°à¤°à¤°à¤°à¤°à¤°à¤°à¤°à¤°à¤°à¤°à¤°à¤°à¤°à¤°à¤°à¤°à¤°à¤°à¤°à¤°à¤°à¤°à¤°à¤°à¤°à¤°à¤°à¤°à¤°à¤°à¤°à¤°à¤°à¤°à¤°à¤°à¤°à¤°à¤°à¤°à¤°à¤°à¤°à¤°à¤°à¤°à¤°à¤°à¤°à¤°à¤°à¤°à¤°à¤°à¤°à¤°à¤°à¤°à¤°à¤°à¤°à¤°à¤°à¤°à¤°à¤°à¤°à¤°à¤°à¤°à¤°à¤°à¤°à¤°à¤°à¤°à¤°à¤°à¤°à¤°à¤°à¤°à¤°à¤°à¤°à¤°à¤°à¤°à¤°à¤°à¤°à¤°à¤°à¤°à¤°à¤°à¤°à¤°à¤°à¤°à¤°à¤°à¤°à¤°à¤°à¤°à¤°à¤°à¤°à¤°à¤°à¤°à¤°à¤°à¤°à¤°à¤°à¤°à¤°à¤°à¤°à¤°à¤°à¤°à¤°à¤°à¤°à¤°à¤°à¤°à¤°à¤°à¤°à¤°à¤°à¤°à¤°à¤°à¤°à¤°à¤°à¤°à¤°à¤°à¤°à¤°à¤°à¤°à¤°à¤°à¤°à¤°à¤°à¤°à¤°à¤°à¤°à¤°à¤°à¤°à¤°à¤°à¤°à¤°à¤°à¤°à¤°à¤°à¤°à¤°à¤°à¤°à¤°à¤°à¤°à¤°à¤°à¤°à¤°à¤°à¤°à¤°à¤°à¤°à¤°à¤°à¤°à¤°à¤°à¤°à¤°à¤°à¤°à¤°à¤°à¤°à¤°à¤°à¤°à¤°à¤°à¤°à¤°à¤°à¤°à¤°à¤°à¤°à¤°à¤°à¤°à¤°à¤°à¤°à¤°à¤°à¤°à¤°à¤°à¤°à¤°à¤°à¤°à¤°à¤°à¤°à¤°à¤°à¤°à¤°à¤°à¤°à¤°à¤°à¤°à¤°à¤°à¤°à¤°à¤°à¤°à¤°à¤°à¤°à¤°à¤°à¤°à¤°à¤°à¤°à¤°à¤°à¤°à¤°à¤°à¤°à¤°à¤°à¤°à¤°à¤°à¤°à¤°à¤°à¤°à¤°à¤°à¤°à¤°à¤°à¤°à¤°à¤°à¤°à¤°à¤°à¤°à¤°à¤°à¤°à¤°à¤°à¤°à¤°à¤°à¤°à¤°à¤°à¤°à¤°à¤°à¤°à¤°à¤°à¤°à¤°à¤°à¤°à¤°à¤°à¤°à¤°à¤°à¤°à¤°à¤°à¤°à¤°à¤°à¤°à¤°à¤°à¤°à¤°à¤°à¤°à¤°à¤°à¤°à¤°à¤°à¤°à¤°à¤°à¤°à¤°à¤°à¤°à¤°à¤°à¤°à¤°à¤°à¤°à¤°à¤°à¤°à¤°à¤°à¤°à¤°à¤°à¤°à¤°à¤°à¤°à¤°à¤°à¤°à¤°à¤°à¤°à¤°à¤°à¤°à¤°à¤°à¤°à¤°à¤°à¤°à¤°à¤°à¤°à¤°à¤°à¤°à¤°à¤°à¤°à¤°à¤°à¤°à¤°à¤°à¤°à¤°à¤°à¤°à¤°à¤°à¤°à¤°à¤°à¤°à¤°à¤°à¤°à¤°à¤°à¤°à¤°à¤°à¤°à¤°à¤°à¤°à¤°à¤°à¤°à¤°à¤°à¤°à¤°à¤°à¤°à¤°à¤°à¤°à¤°à¤°à¤°à¤°à¤°à¤°à¤°à¤°à¤°à¤°à¤°à¤°à¤°à¤°à¤°à¤°à¤°à¤°à¤°à¤°à¤°à¤°à¤°à¤°à¤°à¤°à¤°à¤°à¤°à¤°à¤°à¤°à¤°à¤°à¤°à¤°à¤°à¤°à¤°à¤°à¤°à¤°à¤°à¤°à¤°à¤°à¤°à¤°à¤°à¤°à¤°à¤°à¤°à¤°à¤°à¤°à¤°à¤°à¤°à¤°à¤°à¤°à¤°à¤°à¤°à¤°à¤°à¤°à¤°à¤°à¤°à¤°à¤°à¤°à¤°à¤°à¤°à¤°à¤°à¤°à¤°à¤°à¤°à¤°à¤°à¤°à¤°à¤°à¤°à¤°à¤°à¤°à¤°à¤°à¤°à¤°à¤°à¤°à¤°à¤°à¤°à¤°à¤°à¤°à¤°à¤°à¤°à¤°à¤°à¤°à¤°à¤°à¤°à¤°à¤°à¤°à¤°à¤°à¤°à¤°à¤°à¤°à¤°à¤°à¤°à¤°à¤°à¤°à¤°à¤°à¤°à¤°à¤°à¤°à¤°à¤°à¤°à¤°à¤°à¤°à¤°à¤°à¤°à¤°à¤°à¤°à¤°à¤°à¤°à¤°à¤°à¤°à¤°à¤°à¤°à¤°à¤°à¤°à¤°à¤°à¤°à¤°à¤°à¤°à¤°à¤°à¤°à¤°à¤°à¤°à¤°à¤°à¤°à¤°à¤°à¤°à¤°à¤°à¤°à¤°à¤°à¤°à¤°à¤°à¤°à¤°à¤°à¤°à¤°à¤°à¤°à¤°à¤°à¤°à¤°à¤°à¤°à¤°à¤°à¤°à¤°à¤°à¤°à¤°à¤°à¤°à¤°à¤°à¤°à¤°à¤°à¤°à¤°à¤°à¤°à¤°à¤°à¤°à¤°à¤°à¤°à¤°à¤°à¤°à¤°à¤°à¤°à¤°à¤°à¤°à¤°à¤°à¤°à¤°à¤°à¤°à¤°à¤°à¤°à¤°à¤°à¤°à¤°à¤°à¤°à¤°à¤°à¤°à¤°à¤°à¤°à¤°à¤°à¤°à¤°à¤°à¤°à¤°à¤°à¤°à¤°à¤°à¤°à¤°à¤°à¤°à¤°à¤°à¤°à¤°à¤°à¤°à¤°à¤°à¤°à¤°à¤°à¤°à¤°à¤°à¤°à¤°à¤°à¤°à¤°à¤°à¤°à¤°à¤°à¤°à¤°à¤°à¤°à¤°à¤°à¤°à¤°à¤°à¤°à¤°à¤°à¤°à¤°à¤°à¤°à¤°à¤°à¤°à¤°à¤°à¤°à¤°à¤°à¤°à¤°à¤°à¤°à¤°à¤°à¤°à¤°à¤°à¤°à¤°à¤°à¤°à¤°à¤°à¤°à¤°à¤°à¤°à¤°à¤°à¤°à¤°à¤°à¤°à¤°à¤°à¤°à¤°à¤°à¤°à¤°à¤°à¤°à¤°à¤°à¤°à¤°à¤°à¤°à¤°à¤°à¤°à¤°à¤°à¤°à¤°à¤°à¤°à¤°à¤°à¤°à¤°à¤°à¤°à¤°à¤°à¤°à¤°à¤°à¤°à¤°à¤°à¤°à¤°à¤°à¤°à¤°à¤°à¤°à¤°à¤°à¤°à¤°à¤°à¤°à¤°à¤°à¤°à¤°à¤°à¤°à¤°à¤°à¤°à¤°à¤°à¤°à¤°à¤°à¤°à¤°à¤°à¤°à¤°à¤°à¤°à¤°à¤°à¤°à¤°à¤°à¤°à¤°à¤°à¤°à¤°à¤°à¤°à¤°à¤°à¤°à¤°à¤°à¤°à¤°à¤°à¤°à¤°à¤°à¤°à¤°à¤°à¤°à¤°à¤°à¤°à¤°à¤°à¤°à¤°à¤°à¤°à¤°à¤°à¤°à¤°à¤°à¤°à¤°à¤°à¤°à¤°à¤°à¤°à¤°à¤°à¤°à¤°à¤°à¤°à¤°à¤°à¤°à¤°à¤°à¤°à¤°à¤°à¤°à¤°à¤°à¤°à¤°à¤°à¤°à¤°à¤°à¤°à¤°à¤°à¤°à¤°à¤°à¤°à¤°à¤°à¤°à¤°à¤°à¤°à¤°à¤°à¤°à¤°à¤°à¤°à¤°à¤°à¤°à¤°à¤°à¤°à¤°à¤°à¤°à¤°à¤°à¤°à¤°à¤°à¤°à¤°à¤°à¤°à¤°à¤°à¤°à¤°à¤°à¤°à¤°à¤°à¤°à¤°à¤°à¤°à¤°à¤°à¤°à¤°à¤°à¤°à¤°à¤°à¤°à¤°à¤°à¤°à¤°à¤°à¤°à¤°à¤°à¤°à¤°à¤°à¤°à¤°à¤°à¤°à¤°à¤°à¤°à¤°à¤°à¤°à¤°à¤°à¤°à¤°à¤°à¤°à¤°à¤°à¤°à¤°à¤°à¤°à¤°à¤°à¤°à¤°à¤°à¤°à¤°à¤°à¤°à¤°à¤°à¤°à¤°à¤°à¤°à¤°à¤°à¤°à¤°à¤°à¤°à¤°à¤°à¤°à¤°à¤°à¤°à¤°à¤°à¤°à¤°à¤°à¤°à¤°à¤°à¤°à¤°à¤°à¤°à¤°à¤°à¤°à¤°à¤°à¤°à¤°à¤°à¤°à¤°à¤°à¤°à¤°à¤°à¤°à¤°à¤°à¤°à¤°à¤°à¤°à¤°à¤°à¤°à¤°à¤°à¤°à¤°à¤°à¤°à¤°à¤°à¤°à¤°à¤°à¤°à¤°à¤°à¤°à¤°à¤°à¤°à¤°à¤°à¤°à¤°à¤°à¤°à¤°à¤°à¤°à¤°à¤°à¤°à¤°à¤°à¤°à¤°à¤°à¤°à¤°à¤°à¤°à¤°à¤°à¤°à¤°à¤°à¤°à¤°à¤°à¤°à¤°à¤°à¤°à¤°à¤°à¤°à¤°à¤°à¤°à¤°à¤°à¤°à¤°à¤°à¤°à¤°à¤°à¤°à¤°à¤°à¤°à¤°à¤°à¤°à¤°à¤°à¤°à¤°à¤°à¤°à¤°à¤°à¤°à¤°à¤°à¤°à¤°à¤°à¤°à¤°à¤°à¤°à¤°à¤°à¤°à¤°à¤°à¤°à¤°à¤°à¤°à¤°à¤°à¤°à¤°à¤°à¤°à¤°à¤°à¤°à¤°à¤°à¤°à¤°à¤°à¤°à¤°à¤°à¤°à¤°à¤°à¤°à¤°à¤°à¤°à¤°à¤°à¤°à¤°à¤°à¤°à¤°à¤°à¤°à¤°à¤°à¤°à¤°à¤°à¤°à¤°à¤°à¤°à¤°à¤°à¤°à¤°à¤°à¤°à¤°à¤°à¤°à¤°à¤°à¤°à¤°à¤°à¤°à¤°à¤°à¤°à¤°à¤°à¤°à¤°à¤°à¤°à¤°à¤°à¤°à¤°à¤°à¤°à¤°à¤°à¤°à¤°à¤°à¤°à¤°à¤°à¤°à¤°à¤°à¤°à¤°à¤°à¤°à¤°à¤°à¤°à¤°à¤°à¤°à¤°à¤°à¤°à¤°à¤°à¤°à¤°à¤°à¤°à¤°à¤°à¤°à¤°à¤°à¤°à¤°à¤°à¤°à¤°à¤°à¤°à¤°à¤°à¤°à¤°à¤°à¤°à¤°à¤°à¤°à¤°à¤°à¤°à¤°à¤°à¤°à¤°à¤°à¤°à¤°à¤°à¤°à¤°à¤°à¤°à¤°à¤°à¤°à¤°à¤°à¤°à¤°à¤°à¤°à¤°à¤°à¤°à¤°à¤°à¤°à¤°à¤°à¤°à¤°à¤°à¤°à¤°à¤°à¤°à¤°à¤°à¤°à¤°à¤°à¤°à¤°à¤°à¤°à¤°à¤°à¤°à¤°à¤°à¤°à¤°à¤°à¤°à¤°à¤°à¤°à¤°à¤°à¤°à¤°à¤°à¤°à¤°à¤°à¤°à¤°à¤°à¤°à¤°à¤°à¤°à¤°à¤°à¤°à¤°à¤°à¤°à¤°à¤°à¤°à¤°à¤°à¤°à¤°à¤°à¤°à¤°à¤°à¤°à¤°à¤°à¤°à¤°à¤°à¤°à¤°à¤°à¤°à¤°à¤°à¤°à¤°à¤°à¤°à¤°à¤°à¤°à¤°à¤°à¤°à¤°à¤°à¤°à¤°à¤°à¤°à¤°à¤°à¤°à¤°à¤°à¤°à¤°à¤°à¤°à¤°à¤°à¤°à¤°à¤°à¤°à¤°à¤°à¤°à¤°à¤°à¤°à¤°à¤°à¤°à¤°à¤°à¤°à¤°à¤°à¤°à¤°à¤°à¤°à¤°à¤°à¤°à¤°à¤°à¤°à¤°à¤°à¤°à¤°à¤°à¤°à¤°à¤°à¤°à¤°à¤°à¤°à¤°à¤°à¤°à¤°à¤°à¤°à¤°à¤°à¤°à¤°à¤°à¤°à¤°à¤°à¤°à¤°à¤°à¤°à¤°à¤°à¤°à¤°à¤°à¤°à¤°à¤°à¤°à¤°à¤°à¤°à¤°à¤°à¤°à¤°à¤°à¤°à¤°à¤°à¤°à¤°à¤°à¤°à¤°à¤°à¤°à¤°à¤°à¤°à¤°à¤°à¤°à¤°à¤°à¤°à¤°à¤°à¤°à¤°à¤°à¤°à¤°à¤°à¤°à¤°à¤°à¤°à¤°à¤°à¤°à¤°à¤°à¤°à¤°à¤°à¤°à¤°à¤°à¤°à¤°à¤°à¤°à¤°à¤°à¤°à¤°à¤°à¤°à¤°à¤°à¤°à¤°à¤°à¤°à¤°à¤°à¤°à¤°à¤°à¤°à¤°à¤°à¤°à¤°à¤°à¤°à¤°à¤°à¤°à¤°à¤°à¤°à¤°à¤°à¤°à¤°à¤°à¤°à¤°à¤°à¤°à¤°à¤°à¤°à¤°à¤°à¤°à¤°à¤°à¤°à¤°à¤°à¤°à¤°à¤°à¤°à¤°à¤°à¤°à¤°à¤°à¤°à¤°à¤°à¤°à¤°à¤°à¤°à¤°à¤°à¤°à¤°à¤°à¤°à¤°à¤°à¤°à¤°à¤°à¤°à¤°à¤°à¤°à¤°à¤°à¤°à¤°à¤°à¤°à¤°à¤°à¤°à¤°à¤°à¤°à¤°à¤°à¤°à¤°à¤°à¤°à¤°à¤°à¤°à¤°à¤°à¤°à¤°à¤°à¤°à¤°à¤°à¤°à¤°à¤°à¤°à¤°à¤°à¤°à¤°à¤°à¤°à¤°à¤°à¤°à¤°à¤°à¤°à¤°à¤°à¤°à¤°à¤°à¤°à¤°à¤°à¤°à¤°à¤°à¤°à¤°à¤°à¤°à¤°à¤°à¤°à¤°à¤°à¤°à¤°à¤°à¤°à¤°à¤°à¤°à¤°à¤°à¤°à¤°à¤°à¤°à¤°à¤°à¤°à¤°à¤°à¤°à¤°à¤°à¤°à¤°à¤°à¤°à¤°à¤°à¤°à¤°à¤°à¤°à¤°à¤°à¤°à¤°à¤°à¤°à¤°à¤°à¤°à¤°à¤°à¤°à¤°à¤°à¤°à¤°à¤°à¤°à¤°à¤°à¤°à¤°à¤°à¤°à¤°à¤°à¤°à¤°à¤°à¤°à¤°à¤°à¤°à¤°à¤°à¤°à¤°à¤°à¤°à¤°à¤°à¤°à¤°à¤°à¤°à¤°à¤°à¤°à¤°à¤°à¤°à¤°à¤°à¤°à¤°à¤°à¤°à¤°à¤°à¤°à¤°à¤°à¤°à¤°à¤°à¤°à¤°à¤°à¤°à¤°à¤°à¤°à¤°à¤°à¤°à¤°à¤°à¤°à¤°à¤°à¤°à¤°à¤°à¤°à¤°à¤°à¤°à¤°à¤°à¤°à¤°à¤°à¤°à¤°à¤°à¤°à¤°à¤°à¤°à¤°à¤°à¤°à¤°à¤°à¤°à¤°à¤°à¤°à¤°à¤°à¤°à¤°à¤°à¤°à¤°à¤°à¤°à¤°à¤°à¤°à¤°à¤°à¤°à¤°à¤°à¤°à¤°à¤°à¤°à¤°à¤°à¤°à¤°à¤°à¤°à¤°à¤°à¤°à¤°à¤°à¤°à¤°à¤°à¤°à¤°à¤°à¤°à¤°à¤°à¤°à¤°à¤°à¤°à¤°à¤°à¤°à¤°à¤°à¤°à¤°à¤°à¤°à¤°à¤°à¤°à¤°à¤°à¤°à¤°à¤°à¤°à¤°à¤°à¤°à¤°à¤°à¤°à¤°à¤°à¤°à¤°à¤°à¤°à¤°à¤°à¤°à¤°à¤°à¤°à¤°à¤°à¤°à¤°à¤°à¤°à¤°à¤°à¤°à¤°à¤°à¤°à¤°à¤°à¤°à¤°à¤°à¤°à¤°à¤°à¤°à¤°à¤°à¤°à¤°à¤°à¤°à¤°à¤°à¤°à¤°à¤°à¤°à¤°à¤°à¤°à¤°à¤°à¤°à¤°à¤°à¤°à¤°à¤°à¤°à¤°à¤°à¤°à¤°à¤°à¤°à¤°à¤°à¤°à¤°à¤°à¤°à¤°à¤°à¤°à¤°à¤°à¤°à¤°à¤°à¤°à¤°à¤°à¤°à¤°à¤°à¤°à¤°à¤°à¤°à¤°à¤°à¤°à¤°à¤°à¤°à¤°à¤°à¤°à¤°à¤°à¤°à¤°à¤°à¤°à¤°à¤°à¤°à¤°à¤°à¤°à¤°à¤°à¤°à¤°à¤°à¤°à¤°à¤°à¤°à¤°à¤°à¤°à¤°à¤°à¤°à¤°à¤°à¤°à¤°à¤°à¤°à¤°à¤°à¤°à¤°à¤°à¤°à¤°à¤°à¤°à¤°à¤°à¤°à¤°à¤°à¤°à¤°à¤°à¤°à¤°à¤°à¤°à¤°à¤°à¤°à¤°à¤°à¤°à¤°à¤°à¤°à¤°à¤°à¤°à¤°à¤°à¤°à¤°à¤°à¤°à¤°à¤°à¤°à¤°à¤°à¤°à¤°à¤°à¤°à¤°à¤°à¤°à¤°à¤°à¤°à¤°à¤°à¤°à¤°à¤°à¤°à¤°à¤°à¤°à¤°à¤°à¤°à¤°à¤°à¤°à¤°à¤°à¤°à¤°à¤°à¤°à¤°à¤°à¤°à¤°à¤°à¤°à¤°à¤°à¤°à¤°à¤°à¤°à¤°à¤°à¤°à¤°à¤°à¤°à¤°à¤°à¤°à¤°à¤°à¤°à¤°à¤°à¤°à¤°à¤°à¤°à¤°à¤°à¤°à¤°à¤°à¤°à¤°à¤°à¤°à¤°à¤°à¤°à¤°à¤°à¤°à¤°à¤°à¤°à¤°à¤°à¤°à¤°à¤°à¤°à¤°à¤°à¤°à¤°à¤°à¤°à¤°à¤°à¤°à¤°à¤°à¤°à¤°à¤°à¤°à¤°à¤°à¤°à¤°à¤°à¤°à¤°à¤°à¤°à¤°à¤°à¤°à¤°à¤°à¤°à¤°à¤°à¤°à¤°à¤°à¤°à¤°à¤°à¤°à¤°à¤°à¤°à¤°à¤°à¤°à¤°à¤°à¤°à¤°à¤°à¤°à¤°à¤°à¤°à¤°à¤°à¤°à¤°à¤°à¤°à¤°à¤°à¤°à¤°à¤°à¤°à¤°à¤°à¤°à¤°à¤°à¤°à¤°à¤°à¤°à¤°à¤°à¤°à¤°à¤°à¤°à¤°à¤°à¤°à¤°à¤°à¤°à¤°à¤°à¤°à¤°à¤°à¤°à¤°à¤°à¤°à¤°à¤°à¤°à¤°à¤°à¤°à¤°à¤°à¤°à¤°à¤°à¤°à¤°à¤°à¤°à¤°à¤°à¤°à¤°à¤°à¤°à¤°à¤°à¤°à¤°à¤°à¤°à¤°à¤°à¤°à¤°à¤°à¤°à¤°à¤°à¤°à¤°à¤°à¤°à¤°à¤°à¤°à¤°à¤°à¤°à¤°à¤°à¤°à¤°à¤°à¤°à¤°à¤°à¤°à¤°à¤°à¤°à¤°à¤°à¤°à¤°à¤°à¤°à¤°à¤°à¤°à¤°à¤°à¤°à¤°à¤°à¤°à¤°à¤°à¤°à¤°à¤°à¤°à¤°à¤°à¤°à¤°à¤°à¤°à¤°à¤°à¤°à¤°à¤°à¤°à¤°à¤°à¤°à¤°à¤°à¤°à¤°à¤°à¤°à¤°à¤°à¤°à¤°à¤°à¤°à¤°à¤°à¤°à¤°à¤°à¤°à¤°à¤°à¤°à¤°à¤°à¤°à¤°à¤°à¤°à¤°à¤°à¤°à¤°à¤°à¤°à¤°à¤°à¤°à¤°à¤°à¤°à¤°à¤°à¤°à¤°à¤°à¤°à¤°à¤°à¤°à¤°à¤°à¤°à¤°à¤°à¤°à¤°à¤°à¤°à¤°à¤°à¤°à¤°à¤°à¤°à¤°à¤°à¤°à¤°à¤°à¤°à¤°à¤°à¤°à¤°à¤°à¤°à¤°à¤°à¤°à¤°à¤°à¤°à¤°à¤°à¤°à¤°à¤°à¤°à¤°à¤°à¤°à¤°à¤°à¤°à¤°à¤°à¤°à¤°à¤°à¤°à¤°à¤°à¤°à¤°à¤°à¤°à¤°à¤°à¤°à¤°à¤°à¤°à¤°à¤°à¤°à¤°à¤°à¤°à¤°à¤°à¤°à¤°à¤°à¤°à¤°à¤°à¤°à¤°à¤°à¤°à¤°à¤°à¤°à¤°à¤°à¤°à¤°à¤°à¤°à¤°à¤°à¤°à¤°à¤°à¤°à¤°à¤°à¤°à¤°à¤°à¤°à¤°à¤°à¤°à¤°à¤°à¤°à¤°à¤°à¤°à¤°à¤°à¤°à¤°à¤°à¤°à¤°à¤°à¤°à¤°à¤°à¤°à¤°à¤°à¤°à¤°à¤°à¤°à¤°à¤°à¤°à¤°à¤°à¤°à¤°à¤°à¤°à¤°à¤°à¤°à¤°à¤°à¤°à¤°à¤°à¤°à¤°à¤°à¤°à¤°à¤°à¤°à¤°à¤°à¤°à¤°à¤°à¤°à¤°à¤°à¤°à¤°à¤°à¤°à¤°à¤°à¤°à¤°à¤°à¤°à¤°à¤°à¤°à¤°à¤°à¤°à¤°à¤°à¤°à¤°à¤°à¤°à¤°à¤°à¤°à¤°à¤°à¤°à¤°à¤°à¤°à¤°à¤°à¤°à¤°à¤°à¤°à¤°à¤°à¤°à¤°à¤°à¤°à¤°à¤°à¤°à¤°à¤°à¤°à¤°à¤°à¤°à¤°à¤°à¤°à¤°à¤°à¤°à¤°à¤°à¤°à¤°à¤°à¤°à¤°à¤°à¤°à¤°à¤°à¤°à¤°à¤°à¤°à¤°à¤°à¤°à¤°à¤°à¤°à¤°à¤°à¤°à¤°à¤°à¤°à¤°à¤°à¤°à¤°à¤°à¤°à¤°à¤°à¤°à¤°à¤°à¤°à¤°à¤°à¤°à¤°à¤°à¤°à¤°à¤°à¤°à¤°à¤°à¤°à¤°à¤°à¤°à¤°à¤°à¤°à¤°à¤°à¤°à¤°à¤°à¤°à¤°à¤°à¤°à¤°à¤°à¤°à¤°à¤°à¤°à¤°à¤°à¤°à¤°à¤°à¤°à¤°à¤°à¤°à¤°à¤°à¤°à¤°à¤°à¤°à¤°à¤°à¤°à¤°à¤°à¤°à¤°à¤°à¤°à¤°à¤°à¤°à¤°à¤°à¤°à¤°à¤°à¤°à¤°à¤°à¤°à¤°à¤°à¤°à¤°à¤°à¤°à¤°à¤°à¤°à¤°à¤°à¤°à¤°à¤°à¤°à¤°à¤°à¤°à¤°à¤°à¤°à¤°à¤°à¤°à¤°à¤°à¤°à¤°à¤°à¤°à¤°à¤°à¤°à¤°à¤°à¤°à¤°à¤°à¤°à¤°à¤°à¤°à¤°à¤°à¤°à¤°à¤°à¤°à¤°à¤°à¤°à¤°à¤°à¤°à¤°à¤°à¤°à¤°à¤°à¤°à¤°à¤°à¤°à¤°à¤°à¤°à¤°à¤°à¤°à¤°à¤°à¤°à¤°à¤°à¤°à¤°à¤°à¤°à¤°à¤°à¤°à¤°à¤°à¤°à¤°à¤°à¤°à¤°à¤°à¤°à¤°à¤°à¤°à¤°à¤°à¤°à¤°à¤°à¤°à¤°à¤°à¤°à¤°à¤°à¤°à¤°à¤°à¤°à¤°à¤°à¤°à¤°à¤°à¤°à¤°à¤°à¤°à¤°à¤°à¤°à¤°à¤°à¤°à¤°à¤°à¤°à¤°à¤°à¤°à¤°à¤°à¤°à¤°à¤°à¤°à¤°à¤°à¤°à¤°à¤°à¤°à¤°à¤°à¤°à¤°à¤°à¤°à¤°à¤°à¤°à¤°à¤°à¤°à¤°à¤°à¤°à¤°à¤°à¤°à¤°à¤°à¤°à¤°à¤°à¤°à¤°à¤°à¤°à¤°à¤°à¤°à¤°à¤°à¤°à¤°à¤°à¤°à¤°à¤°à¤°à¤°à¤°à¤°à¤°à¤°à¤°à¤°à¤°à¤°à¤°à¤°à¤°à¤°à¤°à¤°à¤°à¤°à¤°à¤°à¤°à¤°à¤°à¤°à¤°à¤°à¤°à¤°à¤°à¤°à¤°à¤°à¤°à¤°à¤°à¤°à¤°à¤°à¤°à¤°à¤°à¤°à¤°à¤°à¤°à¤°à¤°à¤°à¤°à¤°à¤°à¤°à¤°à¤°à¤°à¤°à¤°à¤°à¤°à¤°à¤°à¤°à¤°à¤°à¤°à¤°à¤°à¤°à¤°à¤°à¤°à¤°à¤°à¤°à¤°à¤°à¤°à¤°à¤°à¤°à¤°à¤°à¤°à¤°à¤°à¤°à¤°à¤°à¤°à¤°à¤°à¤°à¤°à¤°à¤°à¤°à¤°à¤°à¤°à¤°à¤°à¤°à¤°à¤°à¤°à¤°à¤°à¤°à¤°à¤°à¤°à¤°à¤°à¤°à¤°à¤°à¤°à¤°à¤°à¤°à¤°à¤°à¤°à¤°à¤°à¤°à¤°à¤°à¤°à¤°à¤°à¤°à¤°à¤°à¤°à¤°à¤°à¤°à¤°à¤°à¤°à¤°à¤°à¤°à¤°à¤°à¤°à¤°à¤°à¤°à¤°à¤°à¤°à¤°à¤°à¤°à¤°à¤°à¤°à¤°à¤°à¤°à¤°à¤°à¤°à¤°à¤°à¤°à¤°à¤°à¤°à¤°à¤°à¤°à¤°à¤°à¤°à¤°à¤°à¤°à¤°à¤°à¤°à¤°à¤°à¤°à¤°à¤°à¤°à¤°à¤°à¤°à¤°à¤°à¤°à¤°à¤°à¤°à¤°à¤°à¤°à¤°à¤°à¤°à¤°à¤°à¤°à¤°à¤°à¤°à¤°à¤°à¤°à¤°à¤°à¤°à¤°à¤°à¤°à¤°à¤°à¤°à¤°à¤°à¤°à¤°à¤°à¤°à¤°à¤°à¤°à¤°à¤°à¤°à¤°à¤°à¤°à¤°à¤°à¤°à¤°à¤°à¤°à¤°à¤°à¤°à¤°à¤°à¤°à¤°à¤°à¤°à¤°à¤°à¤°à¤°à¤°à¤°à¤°à¤°à¤°à¤°à¤°à¤°à¤°à¤°à¤°à¤°à¤°à¤°à¤°à¤°à¤°à¤°à¤°à¤°à¤°à¤°à¤°à¤°à¤°à¤°à¤°à¤°à¤°à¤°à¤°à¤°à¤°à¤°à¤°à¤°à¤°à¤°à¤°à¤°à¤°à¤°à¤°à¤°à¤°à¤°à¤°à¤°à¤°à¤°à¤°à¤°à¤°à¤°à¤°à¤°à¤°à¤°à¤°à¤°à¤°à¤°à¤°à¤°à¤°à¤°à¤°à¤°à¤°à¤°à¤°à¤°à¤°à¤°à¤°à¤°à¤°à¤°à¤°à¤°à¤°à¤°à¤°à¤°à¤°à¤°à¤°à¤°à¤°à¤°à¤°à¤°à¤°à¤°à¤°à¤°à¤°à¤°à¤°à¤°à¤°à¤°à¤°à¤°à¤°à¤°à¤°à¤°à¤°à¤°à¤°à¤°à¤°à¤°à¤°à¤°à¤°à¤°à¤°à¤°à¤°à¤°à¤°à¤°à¤°à¤°à¤°à¤°à¤°à¤°à¤°à¤°à¤°à¤°à¤°à¤°à¤°à¤°à¤°à¤°à¤°à¤°à¤°à¤°à¤°à¤°à¤°à¤°à¤°à¤°à¤°à¤°à¤°à¤°à¤°à¤°à¤°à¤°à¤°à¤°à¤°à¤°à¤°à¤°à¤°à¤°à¤°à¤°à¤°à¤°à¤°à¤°à¤°à¤°à¤°à¤°à¤°à¤°à¤°à¤°à¤°à¤°à¤°à¤°à¤°à¤°à¤°à¤°à¤°à¤°à¤°à¤°à¤°à¤°à¤°à¤°à¤°à¤°à¤°à¤°à¤°à¤°à¤°à¤°à¤°à¤°à¤°à¤°à¤°à¤°à¤°à¤°à¤°à¤°à¤°à¤°à¤°à¤°à¤°à¤°à¤°à¤°à¤°à¤°à¤°à¤°à¤°à¤°à¤°à¤°à¤°à¤°à¤°à¤°à¤°à¤°à¤°à¤°à¤°à¤°à¤°à¤°à¤°à¤°à¤°à¤°à¤°à¤°à¤°à¤°à¤°à¤°à¤°à¤°à¤°à¤°à¤°à¤°à¤°à¤°à¤°à¤°à¤°à¤°à¤°à¤°à¤°à¤°à¤°à¤°à¤°à¤°à¤°à¤°à¤°à¤°à¤°à¤°à¤°à¤°à¤°à¤°à¤°à¤°à¤°à¤°à¤°à¤°à¤°à¤°à¤°à¤°à¤°à¤°à¤°à¤°à¤°à¤°à¤°à¤°à¤°à¤°à¤°à¤°à¤°à¤°à¤°à¤°à¤°à¤°à¤°à¤°à¤°à¤°à¤°à¤°à¤°à¤°à¤°à¤°à¤°à¤°à¤°à¤°à¤°à¤°à¤°à¤°à¤°à¤°à¤°à¤°à¤°à¤°à¤°à¤°à¤°à¤°à¤°à¤°à¤°à¤°à¤°à¤°à¤°à¤°à¤°à¤°à¤°à¤°à¤°à¤°à¤°à¤°à¤°à¤°à¤°à¤°à¤°à¤°à¤°à¤°à¤°à¤°à¤°à¤°à¤°à¤°à¤°à¤°à¤°à¤°à¤°à¤°à¤°à¤°à¤°à¤°à¤°à¤°à¤°à¤°à¤°à¤°à¤°à¤°à¤°à¤°à¤°à¤°à¤°à¤°à¤°à¤°à¤°à¤°à¤°à¤°à¤°à¤°à¤°à¤°à¤°à¤°à¤°à¤°à¤°à¤°à¤°à¤°à¤°à¤°à¤°à¤°à¤°à¤°à¤°à¤°à¤°à¤°à¤°à¤°à¤°à¤°à¤°à¤°à¤°à¤°à¤°à¤°à¤°à¤°à¤°à¤°à¤°à¤°à¤°à¤°à¤°à¤°à¤°à¤°à¤°à¤°à¤°à¤°à¤°à¤°à¤°à¤°à¤°à¤°à¤°à¤°à¤°à¤°à¤°à¤°à¤°à¤°à¤°à¤°à¤°à¤°à¤°à¤°à¤°à¤°à¤°à¤°à¤°à¤°à¤°à¤°à¤°à¤°à¤°à¤°à¤°à¤°à¤°à¤°à¤°à¤°à¤°à¤°à¤°à¤°à¤°à¤°à¤°à¤°à¤°à¤°à¤°à¤°à¤°à¤°à¤°à¤°à¤°à¤°à¤°à¤°à¤°à¤°à¤°à¤°à¤°à¤°à¤°à¤°à¤°à¤°à¤°à¤°à¤°à¤°à¤°à¤°à¤°à¤°à¤°à¤°à¤°à¤°à¤°à¤°à¤°à¤°à¤°à¤°à¤°à¤°à¤°à¤°à¤°à¤°à¤°à¤°à¤°à¤°à¤°à¤°à¤°à¤°à¤°à¤°à¤°à¤°à¤°à¤°à¤°à¤°à¤°à¤°à¤°à¤°à¤°à¤°à¤°à¤°à¤°à¤°à¤°à¤°à¤°à¤°à¤°à¤°à¤°à¤°à¤°à¤°à¤°à¤°à¤°à¤°à¤°à¤°à¤°à¤°à¤°à¤°à¤°à¤°à¤°à¤°à¤°à¤°à¤°à¤°à¤°à¤°à¤°à¤°à¤°à¤°à¤°à¤°à¤°à¤°à¤°à¤°à¤°à¤°à¤°à¤°à¤°à¤°à¤°à¤°à¤°à¤°à¤°à¤°à¤°à¤°à¤°à¤°à¤°à¤°à¤°à¤°à¤°à¤°à¤°à¤°à¤°à¤°à¤°à¤°à¤°à¤°à¤°à¤°à¤°à¤°à¤°à¤°à¤°à¤°à¤°à¤°à¤°à¤°à¤°à¤°à¤°à¤°à¤°à¤°à¤°à¤°à¤°à¤°à¤°à¤°à¤°à¤°à¤°à¤°": 3403,
      "Ġuse": 3404,
      "ĠÙĤ": 3405,
      "open": 3406,
      "ymore": 3407,
      "Ġanymore": 3408,
      "Ġwalk": 3409,
      "Ġà¤ķaju": 3410,
      "Ġà¤ħà¤ªà¤¹à¤°à¤£": 3411,
      "à¤Ĩà¤¦à¤°à¤£": 3412,
      "ĊĊĠĠĠĠ": 3413,
      "ĠABCs": 3414
    },
    "merges": [
      "à ¤",
      "Ġ à¤",
      "à ¥",
      "à¤ ¾",
      "à¥ ĩ",
      "à¤ °",
      "à¥ Ģ",
      "à¤ ¨",
      "Ġà¤ ķ",
      "à¤ ¹",
      "à¤ ¿",
      "à¤ ķ",
      "à¤ Ĥ",
      "à¤ ¸",
      "à¥ ĭ",
      "à¥ į",
      "à¤ ¤",
      "à¥ ¤",
      "à¤ ²",
      "à¥ ģ",
      "Ġà¤ ¹",
      "Ġà¤ ¸",
      "Ġà¤ ®",
      "Ġà¤ ¬",
      "Ġà¤ ī",
      "à¤ ¯",
      "à¤ ®",
      "Ġà¤ ª",
      "à¥ Ī",
      "Ġà¤ ¥",
      "Ķ à¤°",
      "Ġà¤ Ķà¤°",
      "Ġà¤ ¦",
      "Ġà¤ ²",
      "à¤ ¼",
      "Ġà¤ ¨",
      "Ġà¤ µ",
      "à¤ ¦",
      "à¤¾ à¥¤",
      "Ġà¤ī à¤¸",
      "ı à¤ķ",
      "Ġà¤ ľ",
      "à¥ Ĥ",
      "à¤ ¡",
      "à¤ ª",
      "à¥ĩ à¤Ĥ",
      "Ġà¤ ħ",
      "Ġà¤ ıà¤ķ",
      "à¤ Ĺ",
      "Ġà¤ ĸ",
      "Ġà¤µ à¤¹",
      "Ġà¤ Ĺ",
      "Ġà¤ °",
      "Ġà¤ķ à¤°",
      "Ġà¤ ļ",
      "à¤ Ł",
      "à¤ ľ",
      "à¤ ı",
      "à¤ ĸ",
      "Ġà¤ ¤",
      "à¥ĭ à¤Ĥ",
      "à¤ µ",
      "à¤ ¬",
      "à¤ ģ",
      "à¤ ¶",
      "à¤ ļ",
      "à¤ª à¤¨",
      "à¤¾ ,",
      "Ġà¤ħ à¤ªà¤¨",
      "Ġà¤īà¤¸ à¤¨",
      "à¥Ī à¤Ĥ",
      "Ġà¤ Ĩ",
      "à¥Ģ à¥¤",
      "à¤ Ī",
      "à¤¾ à¤ģ",
      "Ġà¤¬ à¤¹",
      "à¤ Ľ",
      "à¥Ģ à¤Ĥ",
      "Ġà¤ķ à¤¹",
      "Ġà¤° à¤¹",
      "à¥Ī à¥¤",
      "Ġ \"",
      "Ġà¤ī à¤¨",
      "Ġà¤ Ł",
      "Ġà¤ Ń",
      "Ġà¤¨ à¤¹",
      "Ġà¤ª à¤°",
      "Ġà¤ ¯",
      "Ġà¤ «",
      "à¥ ī",
      "Ġà¤ ĩ",
      "Ġà¤īà¤¸ à¤ķ",
      "à¤ ¥",
      "Ġà¤ Ľ",
      "à¥ĩ à¥¤",
      "Ġà¤¯ à¤¹",
      "Ġà¤¸ à¤ķ",
      "à¥Īà¤Ĥ à¥¤",
      "Ġà¤² à¤Ĺ",
      "à¤¼ à¤¾",
      "Ġà¤ķà¤° à¤¤",
      "à¤ Ń",
      "Ġà¤ķà¤° à¤¨",
      "Ġà¤ĩ à¤¸",
      "à¥ Į",
      "Ġà¤ ¶",
      "à¤ ıà¤ķ",
      "à¤¹ à¤¤",
      "à¥Ģ ,",
      "à¤ «",
      "Ġà¤Ĺ à¤¯",
      "Ġà¤¸à¤ķ à¤¤",
      "à¤ķ à¤°",
      "à¤¼ à¥ĩ",
      "Ġà¤² à¤¡",
      "à¤² à¤¨",
      "Ġà¤ ĺ",
      "Ġà¤ª à¤¸",
      "Ġà¤ ¡",
      "Ġà¤¬ à¤¡",
      "Ġà¤¹ à¤®",
      "Ġà¤Ĺ à¤Ī",
      "! \"",
      "à¤ ·",
      "à¤ Ŀ",
      "à¤¼ à¥Ģ",
      "Ġ Ċ",
      "à¤ ł",
      "à¤¹ à¤°",
      "Ġà¤¬ à¤¨",
      "à¤ Ĩ",
      "à¤ §",
      "Ġà¤® à¤¹",
      "à¥Ī ,",
      "Ġà¤ħ à¤ļ",
      "Ġà¤ª à¤¹",
      "à¤ ĩ",
      "à¤¾ à¤Ĥ",
      "à¥ĩ ,",
      "Ġà¤ļ à¤²",
      "Ġà¤® à¤ľ",
      "à¤ ¢",
      "Ġà¤ ĵ",
      "Ġà¤ľ à¤¬",
      "? \"",
      "à¤¸ à¤ķ",
      "Ġà¤ª à¤ķ",
      "Ġà¤®à¤¹ à¤¸",
      "Ġà¤¸ à¤®",
      "Ġà¤ĺ à¤°",
      "Ġà¤ĵ à¤°",
      "à¤¦ à¤¦",
      "à¤¦ à¤°",
      "Ġà¤® à¤¦à¤¦",
      "Ġà¤° à¤ĸ",
      "Ġà¤ §",
      "à¥Ĥ à¤ģ",
      "à¤ ī",
      "Ġà¤ª à¤¤",
      "à¤° à¤¤",
      "Ġà¤Ĺ à¤ı",
      "Ġà¤ī à¤¤",
      "Ġà¤ķà¤¹ à¤¤",
      "à¤¸ à¤°",
      "Ġà¤īà¤¨ à¤ķ",
      "Ġà¤Ĺ à¤²",
      "à¤ ħ",
      "à¥¤ \"",
      "à¤¤ à¤¨",
      "à¤¾ !",
      "Ġà¤¡ à¤°",
      "Ġà¤¸ à¤¬",
      "à¤¿ à¤Ĥ",
      "à¤ĸ à¤¤",
      "à¤¸ à¤²",
      "Ġà¤¤ à¤ķ",
      "Ġà¤¸ à¤Ń",
      "à¤° à¤ķ",
      "Ġà¤ļ à¤®",
      "Ġà¤ħ à¤¨",
      "Ġà¤Ĩ à¤ª",
      "à¤¨ à¤¤",
      "à¥ĭ ,",
      "à¤ĸ à¤¨",
      "Ġà¤Ĺ à¤°",
      "à¤ £",
      "Ġà¤ĩà¤¸ à¤²",
      "à¤² à¤¤",
      "Ġà¤ļà¤® à¤ķ",
      "Ġà¤¹ à¤°",
      "à¤Ĺ à¤²",
      "à¥ģ à¤Ĥ",
      "à¤¯ à¤µ",
      "Ġà¤ Ĭ",
      "Ġà¤¤ à¤°",
      "à¤µ à¤°",
      "à¤¦ à¤®",
      "Ġà¤¬ à¤ļ",
      "Ġà¤ ł",
      "Ġà¤Ĩ à¤¯",
      "Ġà¤ Ŀ",
      "Ġà¤ ı",
      "à¥Ĥ à¤Ĥ",
      "Ġà¤Ĩ à¤µ",
      "Ġà¤ªà¤ķ à¤¡",
      "à¤ª à¤¸",
      "Ġà¤¸à¤® à¤¯",
      "Ġà¤ī à¤¡",
      "à¤¾à¤ģ ,",
      "à¤¼ à¤¿",
      "à¥Ģà¤Ĥ à¥¤",
      "Ġà¤ľ à¤²",
      "Ġà¤ĸ à¤°",
      "à¥ģ à¤ģ",
      "à¥ĭ à¥¤",
      "à¤ ĵ",
      "à¥Īà¥¤ \"",
      "Ġà¤Ń à¤°",
      "à¤ª à¤°",
      "Ġà¤ Ĳ",
      "Ġà¤ħ à¤¬",
      "à¤ķ à¤²",
      "Ġà¤ī à¤ł",
      "à¥ĩà¤Ĥ ,",
      "à¤® à¤¨",
      "Ġà¤Ĩ à¤¦à¤®",
      "à¤Ł à¤°",
      "Ġà¤ķ à¤Ń",
      "à¤µ à¤§",
      "Ġà¤ķ à¤Ī",
      "Ġà¤§ à¤¨",
      "à¤µ à¤¹",
      "Ġà¤¸à¤¬ à¤¸",
      "à¤¯ à¤¹",
      "Ġà¤ ¢",
      "à¤¸ à¤®",
      "Ġà¤Ĳ à¤¸",
      "Ġà¤¬ à¤¤",
      "à¥Īà¤Ĥ ,",
      "Ġà¤ķ à¤®",
      "à¥Ī !\"",
      "Ġà¤Ĩ à¤¨",
      "Ġà¤ªà¤¹ à¤²",
      "à¤ľ à¤¬",
      "à¤ľ à¤¨",
      "Ġà¤°à¤¹ à¤¤",
      "Ġà¤Ĩà¤ª à¤ķ",
      "Ġà¤ĩ à¤¤à¤¨",
      "Ġà¤ī à¤¦",
      "à¤¨ à¤¨",
      "à¤° à¤°",
      "Ġà¤¤à¤° à¤¹",
      "à¤¸ à¤¨",
      "Ġà¤ħ à¤²",
      "à¤¤ à¤°",
      "à¤¨ à¤µà¤°",
      "à¥Ģà¤Ĥ ,",
      "Ġà¤Ĭ à¤ªà¤°",
      "à¤Ĺ à¤¨",
      "à¤¼ à¥ĭà¤Ĥ",
      "Ġà¤¦ à¤°",
      "Ġà¤ľ à¤Ĺ",
      "à¥Ģ !",
      "à¤ī à¤¨",
      "Ġà¤ľà¤Ĺ à¤¹",
      "Ġà¤ķà¤® à¤°",
      "Ġà¤ª à¤¡",
      "à¤¯ à¤°",
      "Ġà¤¬ à¤Ĺ",
      "à¥Īà¤Ĥà¥¤ \"",
      "à¤¾à¥¤ \"",
      "Ġà¤¨ à¤¯",
      "à¤ĩ à¤¡",
      "à¤Ł à¤¨",
      "à¤ı à¤Ĺ",
      "Ġà¤Ĩ à¤Ī",
      "à¤ī à¤¸à¤ķ",
      "Ġà¤ľ à¤µ",
      "à¤Ĺ à¤°",
      "à¤° à¤ľ",
      "Ġà¤ħ à¤Ń",
      "ã Ĥ",
      "à¤® à¤¤",
      "Ġà¤°à¤¹ à¤¨",
      "à¤µ à¤¨",
      "Ġà¤ļ à¤¢",
      "Ġà¤¨ à¤ı",
      "à¥Ī ?\"",
      "Ġà¤ĸà¤° à¤Ĺ",
      "à¥ ĥ",
      "à¤¾ .",
      "Ġà¤¸ à¤¹",
      "à¤ļ à¤°",
      "à¤¤ à¤²",
      "à¤¹à¤¤ à¤°",
      "à¤ļ à¤¨",
      "à¥ĭ à¥¤\"",
      "Ġà¤¬ à¤ľ",
      "Ġà¤¶ à¤°",
      "à¤¤ à¤ľ",
      "à¤¾ !\"",
      "à¥ĭ !\"",
      "Ġà¤¤ à¤²",
      "Ġà¤® à¤®",
      "à¤¥ à¤°",
      "à¤® à¤¸",
      "Ġà¤¹ à¤µ",
      "à¤ķ à¤¨",
      "Ġà¤¸à¤® à¤Ŀ",
      "Ġà¤īà¤¸ à¤¸",
      "Ġà¤ķ à¤ª",
      "à¤ķ à¤¡",
      "à¤¼ à¥ĩà¤Ĥ",
      "Ġà¤ľ à¤¹",
      "Ġà¤Ĩ à¤¸à¤®",
      "à¤Ĺ à¤¤",
      "à¤ļ à¤¤",
      "Ġà¤¦à¤° à¤µ",
      "à¤¯ à¤ķ",
      "à¤¨ à¤ķ",
      "Ġà¤Ĩ à¤¤",
      "à¤¯ à¤¦",
      "Ġà¤¤ à¤¸",
      "à¤¨ à¤¹",
      "à¤¨ à¤¦",
      "à¤¤ à¤Ń",
      "à¤² à¤ķà¤°",
      "Ġà¤ħ à¤ķ",
      "à¤° à¤®",
      "à¤¼ à¥ĭ",
      "Ġà¤ľ à¤®",
      "à¤ľ à¤°",
      "à¤Ľ à¤²",
      "Ġà¤ªà¤¹ à¤¨",
      "à¤¸ à¤¤",
      "Ġà¤°à¤ĸ à¤¨",
      "à¤ī à¤¸à¤¨",
      "à¤¬ à¤¸",
      "à¥ĩà¤Ĥ à¥¤",
      "Ġà¤Ĩ à¤°",
      "à¤¶ à¤¨",
      "à¤¼ à¥į",
      "à¤¦ à¤¨",
      "à¤ħ à¤¨",
      "Ġà¤¬ à¤°",
      "Ġà¤²à¤Ĺ à¤¤",
      "à¥Ģ -",
      "Ġà¤® à¤¤",
      "à¤¹ à¤¸",
      "Ġà¤® à¤Ľà¤²",
      "à¥ĭ ?\"",
      "à¤ĩ à¤¨",
      "à¤ĩ à¤ķ",
      "à¤°à¤° à¤°à¤°",
      "Ġà¤¬ à¤¢",
      "à¥Ĥà¤ģ à¥¤",
      "ãĤ ¢",
      "à¥ĩ -",
      "à¤ª à¤ķ",
      "Ġà¤¬ à¤¸",
      "Ġà¤Ĩ à¤Ĺ",
      "à¤¬ à¤²",
      "Ġà¤® à¤¹à¤¤",
      "Ġà¤ı à¤®",
      "Ġà¤ħà¤² à¤Ĺ",
      "Ġà¤¤ à¤Ń",
      "à¤° à¤¨",
      "Ġà¤¸ à¤«",
      "à¤ª à¤¯",
      "à¤° à¤¦",
      "Ġà¤° à¤¸",
      "à¤¹ à¤®",
      "Ġà¤ħ à¤¦",
      "à¥Īà¤Ĥ ?\"",
      "à¤¾ -",
      "à¤µ à¤ª",
      "Ġà¤Ĺà¤² à¤¤",
      "à¤ ĺ",
      "à¤¦ à¤²",
      "à¤Ĩ à¤Ĩ",
      "Ġà¤® à¤¨",
      "Ġà¤ħ à¤Ĺà¤°",
      "Ġà¤Ĩ à¤ķ",
      "à¥Ī !",
      "à¤Ľ à¤¤",
      "Ġà¤Ĩ à¤ľ",
      "Ġà¤ķà¤ª à¤¡",
      "à¤¦ à¤¤",
      "à¤ĸ à¤ķà¤°",
      "à¤Ĥ à¥¤",
      "à¥Ģà¥¤ \"",
      "Ġà¤¬ à¤ķ",
      "à¥Ĥà¤ģ à¥¤\"",
      "à¥Īà¤Ĥ !\"",
      "Ġà¤Ĩ à¤¸",
      "Ġà¤¸ à¤°",
      "Ġà¤ĸ à¤¤",
      "à¤¬ à¤¹",
      "Ġà¤¥ à¤ķ",
      "à¤² à¤¡",
      "Ġà¤« à¤°",
      "Ġà¤īà¤¸ à¤®",
      "Ġà¤ļà¤®à¤ķ à¤¦",
      "Ġà¤ĩà¤¸ à¤ķ",
      "Ġà¤¦ à¤¯",
      "Ġà¤¤ à¤¯",
      "à¤¼ à¤¾à¥¤",
      "à¤ķ à¤¤",
      "à¤° à¤£",
      "Ġà¤ĩà¤¸ à¤¸",
      "à¤ĩ à¤¸",
      "Ġà¤ħ à¤ľ",
      "à¤ ŀ",
      "à¤ķ à¤Ń",
      "à¤ Ĭ",
      "Ġà¤ķ à¤²",
      "à¤¡ à¤µ",
      "Ġà¤°à¤ĸ à¤¤",
      "à¤ļ à¤ķ",
      "Ġ -",
      "à¤¬ à¤°",
      "Ġà¤Ĩ à¤ĸ",
      "à¤ļ à¤²",
      "à¤® à¤®",
      "Ġà¤ª à¤¢",
      "Ġà¤¨ à¤Ī",
      "à¥ĭ !",
      "à¤µ à¤²",
      "Ġà¤¸à¤¬ à¤ķ",
      "Ġà¤¨ à¤°à¤®",
      "Ġà¤ī à¤®",
      "Ġà¤®à¤ľ à¤¬",
      "Ġà¤¤à¤° à¤«",
      "Ġà¤Ĩ à¤ı",
      "à¤¸ à¤ķà¤°",
      "à¥Ĥà¤ģ ?\"",
      "à¤Ĺ à¤ľ",
      "à¤ī à¤¸",
      "à¥ĩà¥¤ \"",
      "à¤® à¤¦",
      "à¤ĩ à¤¸à¤ķ",
      "Ġà¤Ľ à¤¡",
      "à¤° à¤²",
      "à¥ĩ !",
      "à¥Ĥà¤ģ ,",
      "à¥Ģ !\"",
      "Ġà¤¸ à¤ªà¤¨",
      "Ġà¤ı à¤¹à¤¸",
      "à¤¬ à¤¡",
      "à¤¾ ?\"",
      "à¤ķ à¤Ł",
      "à¤¯ à¤®",
      "à¤® à¤ļ",
      "à¤¹ à¤¨à¤¤",
      "Ġà¤Ĩ à¤Ń",
      "à¤¢ à¤ķ",
      "Ġà¤¬à¤¨ à¤¨",
      "à¤¼ à¥Ģà¥¤",
      "à¥Ĥà¤ģ !\"",
      "Ġà¤Ĺ à¤¡",
      "Ġà¤ļà¤² à¤¤",
      "à¤² à¤Ĺ",
      "Ġà¤ĸ à¤¡",
      "Ġà¤ħ à¤Ĺà¤²",
      "Ġà¤ķà¤° à¤ķ",
      "à¥Ī, \"",
      "à¥Ģ .",
      "à¤Ł à¤ķ",
      "à¤¡ à¤°",
      "Ġà¤¤ à¤Ł",
      "à¤ĵ à¤¹",
      "Ġà¤Ĩ à¤ĵ",
      "Ġà¤ļ à¤²à¤¨",
      "Ġà¤ħ à¤«",
      "Ġà¤Ĩ à¤¶",
      "à¤¼ à¤¾,",
      "Ġà¤§ à¤ķ",
      "à¤¢ à¤¨",
      "à¤¨ à¤®à¤¸",
      "Ġà¤¤ à¤¬",
      "Ġà¤¶ à¤¬",
      "à¥Į à¤Ĥ",
      "Ġà¤¸ à¤¡",
      "ã ĥ",
      "à¤°à¤°à¤°à¤° à¤°à¤°à¤°à¤°",
      "ãĤ ¤",
      "ãĤ¢ ãĤ¤",
      "à¤§ à¤¨",
      "à¥ĩ ?\"",
      "ĩ ãĤ¢",
      "ãĥ ĩãĤ¢",
      "ãĤ¢ãĤ¤ ãĥĩãĤ¢",
      "à¤ħ à¤²à¤Ĺ",
      "Ġà¤ı à¤²",
      "à¤ľ à¤ķ",
      "Ġà¤®à¤¹ à¤²",
      "Ġà¤ı à¤¡à¤µ",
      "Ġà¤¶ à¤¹à¤°",
      "Ġà¤ħà¤² à¤µ",
      "à¤¯ à¤¬",
      "à¤ĩ à¤ľ",
      "Ġà¤ħ à¤§",
      "Ġà¤ĩ à¤ļ",
      "Ġà¤Ĩ à¤ĩà¤¸à¤ķ",
      "Ġà¤ĸ à¤¤à¤°",
      "Ġà¤ĩ à¤ķà¤Ł",
      "à¤¹ à¤«",
      "à¤¼ à¥ĩà¥¤",
      "à¤¸ à¤¸",
      "à¤¯ à¤²",
      "Ġà¤īà¤¤ à¤¨",
      "à¥ĩà¤Ĥ à¥¤\"",
      "à¤Ĩà¤Ĩ à¤Ĩà¤Ĩ",
      "Ġà¤ĩ à¤¶",
      "Ġà¤ª à¤²",
      "à¤ħ à¤Ĺà¤²",
      "à¥ĭà¤Ĥ ,",
      "à¤¾à¤ģ -",
      "à¤ķ à¤²à¤¨",
      "Ġà¤ĩà¤¸ à¤®",
      "Ġà¤¬à¤¹ à¤¨",
      "à¤ł à¤ķà¤°",
      "à¤ĸ à¤°",
      "Ġà¤ħà¤« à¤¸",
      "Ġà¤¸à¤° à¤ª",
      "à¤¬ à¤¨",
      "à¤¾à¤ģ à¥¤",
      "à¤® à¤¡",
      "Ġà¤Ĺ à¤¹à¤°",
      "Ġà¤ļ à¤Ł",
      "Ġà¤² à¤¹à¤°",
      "Ġà¤¨ à¤¦",
      "Ġà¤ħà¤² à¤®",
      ", \"",
      "à¤ķ à¤ķà¤°",
      "Ġà¤¸à¤¹ à¤®à¤¤",
      "Ġà¤ĸ à¤ľ",
      "Ġà¤ªà¤¹ à¤¨à¤¨",
      "Ġà¤ħ à¤¸",
      "Ġà¤¬ à¤²",
      "à¤µ à¤¸",
      "à¤ĸ à¤Ń",
      "Ġà¤ķ à¤¸à¤ķà¤°",
      "à¤² à¤ļ",
      "à¤° à¤¶",
      "à¥Ģ ?\"",
      "Ġà¤¬ à¤¦",
      "Ġà¤« à¤²",
      "Ġà¤ĸà¤¤à¤° à¤¨",
      "à¤® à¤ķ",
      "à¤² à¤¬",
      "Ġà¤ī à¤²",
      "Ġà¤ķ à¤¦à¤®",
      "à¤¡ à¤²",
      "Ġà¤ ĳ",
      "Ġà¤Ĩ à¤ĩà¤¡",
      ". \"",
      "à¤¨ à¤°",
      "Ġà¤¬ à¤Łà¤¨",
      "à¤Ĺ à¤¡",
      "Ġà¤¬ à¤¦à¤²",
      "Ġà¤ī à¤ªà¤¯",
      "Ġà¤ķ à¤Ł",
      "à¤¯à¤µ à¤¹",
      "Ġà¤ Ī",
      "à¤¸à¤° à¤£",
      "Ġà¤® à¤¶",
      "à¥ĩà¤Ĥ !\"",
      "Ġà¤Ĳ à¤¨",
      "à¤ľ à¤²",
      "à¤¾ :",
      "Ġà¤ıà¤ķ ãĤ¢ãĤ¤ãĥĩãĤ¢",
      "Ġà¤ĩ à¤¨",
      "Ġà¤¸ à¤µ",
      "Ġà¤°à¤¹ à¤¸",
      "à¤¯ à¤¸",
      "Ġà¤īà¤¨ à¤¸",
      "à¤ł à¤¨",
      "à¤¦ à¤ķà¤°",
      "à¤µ à¤¤",
      "à¤ª à¤¹à¤°",
      "à¤Ł à¤¬",
      "Ġà¤¸ à¤ľ",
      "Ġà¤Ľ à¤²",
      "à¤¤ à¤ķ",
      "à¤ĩ à¤²",
      "Ġà¤¹à¤® à¤¨",
      "Ġà¤ļ à¤ķ",
      "à¤¶ à¤¬",
      "à¤¾, \"",
      "Ġà¤ľ à¤°",
      "Ġà¤® à¤ļ",
      "Ġà¤Ĩ à¤ķà¤°",
      "à¤² à¤«",
      "Ġà¤ħ à¤¸à¤²",
      "à¤ħ à¤¬",
      "Ġà¤® à¤¤à¤²",
      "Ġà¤® à¤ķ",
      "Ġà¤®à¤¤à¤² à¤¬",
      "à¤° à¤¸",
      "Ġà¤ķ à¤¡",
      "à¥ĩ !\"",
      "à¤¨ à¤®",
      "à¤° à¤¹",
      "à¤¹ à¤Ł",
      "à¤¼ à¥Ģ,",
      "à¤Ĩ à¤¦à¤®",
      "Ġà¤ī à¤ª",
      "à¤¹ à¤¨",
      "à¤ª à¤¤",
      "à¤¦ à¤Ĺ",
      "Ġà¤¬ à¤°à¤¤",
      "Ġà¤Ŀ à¤ªà¤ķ",
      "à¤· à¤ķ",
      "à¤Ł à¤¤",
      "à¤²à¤ļ à¤¸",
      "Ġà¤¶ à¤ķ",
      "à¥Īà¤Ĥ, \"",
      "à¤µ à¤ķ",
      "à¤¨ à¤Ł",
      "Ġà¤¦ à¤¬",
      "Ġà¤Ĩ à¤²",
      "à¤Ń à¤µ",
      "à¤² à¤°",
      "à¤ ĥ",
      "Ġà¤¦ à¤¸",
      "Ġà¤ľ à¤¨",
      "à¤¤ à¤ĸ",
      "à¤¼ à¥Ĥ",
      "Ġà¤ī à¤Ľ",
      "à¤· à¤¸",
      "à¤°à¤°à¤°à¤°à¤°à¤°à¤°à¤° à¤°à¤°à¤°à¤°à¤°à¤°à¤°à¤°",
      "à¤ı à¤®",
      "à¤¶ à¤¹",
      "à¥ĭ ?",
      "à¤¬ à¤ļ",
      "à¤ħ à¤°",
      "Ġà¤¸ à¤²",
      "à¤Ł à¤²",
      "Ġà¤Ł à¤ķà¤°",
      "Ġà¤¹ à¤²",
      "Ġà¤ĺ à¤¡",
      "à¤ Ķà¤°",
      "Ġà¤Ń à¤¯",
      "Ġà¤ª à¤Ł",
      "à¤² à¤¯",
      "Ġà¤ĵ à¤µà¤¨",
      "Ġà¤¸à¤« à¤²",
      "Ġà¤Ľ à¤¤",
      "Ġà¤¸ à¤ļ",
      "à¤ĩ à¤µà¤°",
      "Ġà¤¸à¤® à¤¸",
      "à¥Ī .",
      "à¤Ľ à¤¨",
      "à¤ķ à¤¸",
      "à¤° à¤Ń",
      "à¤¾à¤Ĥ -",
      "à¤ħ à¤ļ",
      "à¥Ģà¤Ĥ !",
      "Ġà¤ªà¤° à¤«",
      "à¤¯à¤® à¤¯",
      "à¤¼ ,",
      "Ġà¤² à¤ķà¤¡",
      "à¤Ĩà¤Ĩà¤Ĩà¤Ĩ à¤Ĩà¤Ĩà¤Ĩà¤Ĩ",
      "à¤ĩ à¤Ł",
      "à¤ª à¤ļ",
      "Ġà¤Ĩ à¤ıà¤Ĺ",
      "Ġà¤ľ à¤¤",
      "Ġà¤ĸ à¤Ł",
      "Ġà¤ªà¤° à¤µ",
      "à¤ĺ à¤°",
      "à¤¼à¥ĩ ,",
      "à¤¯ à¤¨",
      "Ġà¤Ń à¤²",
      "Ġà¤ª à¤Ľà¤¤",
      "à¥ĩ .",
      "à¤¸ à¤ª",
      "à¤ħ à¤ªà¤¨",
      "à¤ģ à¥¤",
      "à¤® à¤°",
      "à¥Ģ, \"",
      "à¤¤ à¤µ",
      "â Ģ",
      "à¤¬ à¤¤",
      "à¤ĩ à¤ı",
      "Ġà¤ħ à¤®",
      "Ġà¤ªà¤¹ à¤¨à¤¤",
      "à¤ľà¤¨ à¤¬",
      "Ġà¤īà¤¨ à¤®",
      "Ġà¤² à¤ª",
      "Ġà¤¢ à¤ķ",
      "à¥ĭ, \"",
      "Ġà¤ķà¤¹ à¤¨",
      "à¤¾ ?",
      "Ġà¤ķ à¤¬",
      "Ġà¤¹ à¤Ł",
      "Ġà¤ī à¤¬",
      "Ġà¤®à¤¦à¤¦ à¤Ĺ",
      "Ġà¤¡ à¤°à¤¤",
      "à¤· à¤®",
      "Ġà¤¯ à¤ķ",
      "à¤° à¤µ",
      "Ġà¤¨ à¤ľ",
      "à¤ĸà¤° à¤Ĺ",
      "à¤² à¤ķ",
      "Ġà¤¨ à¤°",
      "à¤¥ à¤¨",
      "à¥Ĥà¤Ĥ à¥¤",
      "Ġà¤ķ à¤ļà¤°",
      "Ġà¤° à¤¤",
      "à¥Ĥà¤Ĥ ?\"",
      "Ġà¤Ĺ à¤¤",
      "à¤ķà¤° à¤£",
      "Ġà¤ļ à¤ĸ",
      "Ġà¤Ĩ à¤Ł",
      "à¤¯à¤µ à¤¸",
      "à¤ı à¤²",
      "à¤¤ à¤¤",
      "Ġà¤ħ à¤ľà¤¨à¤¬",
      "à¥ĭà¤Ĥ à¥¤",
      "Ġà¤¹ à¤¡",
      "âĢ ĭ",
      "Ġà¤īà¤ª à¤ķà¤°à¤£",
      "à¤ļ à¤ķà¤°",
      "Ġà¤° à¤Ĺà¤¡",
      "à¤¸ à¤«",
      "à¤Ĺà¤° à¤®à¤ļ",
      "Ġà¤Ĩ à¤ªà¤¨",
      "à¤¹ à¤¦",
      "à¤µ à¤¸à¤¨",
      "Ġà¤Ī à¤®",
      "Ġà¤²à¤Ĺ à¤¨",
      "Ġà¤ª à¤¨",
      "Ġ 3",
      "à¤° à¤¦à¤°",
      "à¥Īà¤Ĥ !",
      "Ġà¤īà¤¤ à¤°",
      "Ġà¤ķ à¤ł",
      "Ġà¤ľà¤¬ à¤ķ",
      "à¤īà¤¨ à¤ķ",
      "à¥Ī ?",
      "Ġà¤¨ à¤ķà¤²",
      "à¤¨ à¤ķà¤°",
      "à¤ļ à¤¡",
      "Ġ '",
      "Ġà¤® à¤Ĺà¤°à¤®à¤ļ",
      "Ġà¤ī à¤§",
      "Ġà¤¬à¤¹ à¤¸",
      "Ġà¤ľ à¤²à¤¨",
      "Ġà¤Ĩ à¤§",
      "à¤ľ à¤¤",
      "Ġà¤ĩ à¤®",
      "à¤¯ à¤¶",
      "à¤¶ à¤ķ",
      "à¤ĩ à¤ª",
      "à¤¾à¤ģ !",
      "Ġà¤¨ à¤®à¤¸",
      "Ġà¤ļ à¤¬",
      "à¤ķ à¤²à¤¤",
      "Ġà¤® à¤§",
      "à¤ĵ à¤Ĺ",
      "à¥Ĥà¤Ĥ à¥¤\"",
      "Ġà¤ķ à¤¦",
      "à¤ĩ à¤µ",
      "à¤« à¤¡",
      "Ġà¤ı à¤¨",
      "à¥ģ à¤ĥ",
      "à¤°à¤ķ à¤Ł",
      "à¤° à¤¯",
      "Ġà¤µ à¤«",
      "Ġà¤¸à¤« à¤²à¤¤",
      "à¤µ à¤Ł",
      "Ġà¤Ĩ à¤®",
      "Ġà¤¸à¤®à¤Ŀ à¤¤",
      "Ġà¤ķ à¤Ľ",
      "Ġà¤¨ à¤ľà¤°",
      "Ġà¤² à¤Łà¤ķ",
      "Ġà¤° à¤ķ",
      "à¤Ł à¤ķà¤°",
      "à¤¢ à¤¤",
      "Ġà¤¬à¤¦ à¤¬",
      "à¤Ĥ ,",
      "Ġà¤Ķà¤° à¤¤",
      "Ġà¤Ń à¤Ĺ",
      "Ġà¤¬à¤°à¤¤ à¤¨",
      "Ġà¤Ĩà¤² à¤¸",
      "à¥ĩ, \"",
      "à¤¨ à¤¹à¤°",
      "à¤· à¤£",
      "Ġà¤¶ à¤¹à¤¦",
      "à¤£ à¤¯",
      "à¤ķ à¤ª",
      "Ġà¤ķà¤® à¤ľ",
      "Ġà¤ľ à¤¶",
      "Ġà¤° à¤ļà¤¨",
      "Ġà¤ľ à¤¡",
      "Ġà¤¦ à¤µ",
      "Ġà¤¨ à¤ķ",
      "Ġà¤ªà¤¤ à¤²",
      "à¥Ģà¤Ĥ !\"",
      "à¤² à¤µ",
      "Ġà¤® à¤¸",
      "à¤² à¤®",
      "à¥Ĥ ,",
      "à¤¯ à¤¤",
      "à¤ł à¤¤",
      "Ġà¤ĩà¤¸ à¤¨",
      "à¤Ŀ à¤ķà¤°",
      "à¥Ĥà¤Ĥ ,",
      "Ġà¤« à¤¡",
      "à¤¾à¤ģ !\"",
      "à¤® à¤¬à¤¤",
      "à¤² à¤Ŀ",
      "à¤ª à¤¡",
      "à¤°à¤°à¤°à¤°à¤°à¤°à¤°à¤°à¤°à¤°à¤°à¤°à¤°à¤°à¤°à¤° à¤°à¤°à¤°à¤°à¤°à¤°à¤°à¤°à¤°à¤°à¤°à¤°à¤°à¤°à¤°à¤°",
      "Ġà¤Ł à¤®",
      "Ġà¤¸ à¤¨",
      "Ġà¤² à¤ķ",
      "Ġà¤Ł à¤¹à¤¨",
      "à¤ĩ à¤¸à¤²",
      "à¤® à¤Ĺ",
      "à¤¡ à¤¬",
      "à¥Īà¤Ĥ .",
      "à¤Ĩ à¤ª",
      "Ġà¤« à¤Ł",
      "à¤ªà¤° à¤µ",
      "Ġà¤ħà¤¸ à¤¹",
      "à¤Ĩ à¤ĩà¤ı",
      "à¤² à¤Ń",
      "à¤¾. \"",
      "à¥Ĥà¤ģ, \"",
      "à¤Ŀ à¤¸",
      "à¤ķà¤² à¤ķà¤°",
      "Ġà¤Ĩà¤¸ à¤ª",
      "à¤¼ -",
      "Ġà¤ļ à¤°",
      "Ġà¤¡ à¤ķ",
      "à¤® à¤¹",
      "Ġà¤Ĺ à¤®",
      "à¤µ à¤ļ",
      "Ġà¤Ł à¤¬",
      "Ġà¤ļà¤®à¤ķ à¤¨",
      "à¤Ĩà¤Ĩà¤Ĩà¤Ĩà¤Ĩà¤Ĩà¤Ĩà¤Ĩ à¤Ĩà¤Ĩà¤Ĩà¤Ĩà¤Ĩà¤Ĩà¤Ĩà¤Ĩ",
      "à¤ľ à¤¹",
      "Ġà¤¤à¤² à¤µ",
      "à¤° à¤ķà¤°",
      "à¤¸ à¤¬",
      "Ġà¤¹ à¤«",
      "à¤ī à¤²",
      "à¤Ĩ à¤ľ",
      "à¤¯à¤° à¤®",
      "à¤« à¤²",
      "à¤¸ à¤²à¤¨",
      "à¥Ī :",
      "Ġà¤¦ à¤¹",
      "à¤¨ à¤ı",
      "Ġà¤¨ à¤·",
      "Ġà¤¹ à¤¥",
      "Ġà¤¦ à¤«",
      "Ġà¤¸ à¤¸",
      "à¤µ à¤¶",
      "à¤Ń à¤Ĺ",
      "à¤¼ à¥ī",
      "à¤¶ à¤®",
      "à¤¨ à¤¬",
      "Ġà¤¬ à¤ķà¤°",
      "Ġà¤ĳ à¤«",
      "à¥ĩà¤Ĥ ?\"",
      "à¤¾à¤Ĥ ,",
      "Ġà¤® à¤°",
      "Ġà¤²à¤Ĺ à¤Ńà¤Ĺ",
      "Ġà¤¬à¤¦ à¤¸",
      "à¤Ĩ à¤ªà¤ķ",
      "Ġà¤¡à¤° à¤¨",
      "Ġà¤ļ à¤ĸà¤¨",
      "Ġà¤Ĩà¤ľ à¤®",
      "à¤ Ĳ",
      "à¤¬ à¤ķ",
      "Ġà¤« à¤µ",
      "Ġà¤µ à¤°",
      "à¤ı à¤Ł",
      "à¤ª à¤ķà¤²",
      "à¤ĸ à¤¦",
      "à¤ľà¤¨ à¤ķ",
      "Ġà¤Ĭ à¤¬",
      "Ġà¤īà¤ł à¤¤",
      "à¥Īà¤Ĥ ?",
      "Ġà¤¥ à¤ª",
      "à¤¦ à¤¸",
      "à¤ª à¤£",
      "à¤ĩ à¤¯",
      "Ġà¤µ à¤ľà¤¹",
      "Ġà¤µ à¤ľà¤¨",
      "Ġà¤ĺ à¤¨",
      "Ġà¤īà¤Ľ à¤²à¤¨",
      "à¤¶ à¤°",
      "Ġà¤¸ à¤¤",
      "à¥Ģà¤Ĥ à¥¤\"",
      "à¤ģ à¥¤\"",
      "à¤¦à¤° à¤¤",
      "à¥ĭà¤Ĥ -",
      "à¤²à¤¨ à¤¸",
      "Ġà¤Ĭ à¤°",
      "Ġ âĢĭ",
      "à¥Ĥà¤ģ !",
      "à¤°à¤ľ à¤®",
      "à¤ĺ à¤Łà¤¨",
      "Ġà¤¸à¤¤ à¤¹",
      "ĠâĢĭ âĢĭ",
      "à¥Ģ. \"",
      "à¤ħ à¤Ĺà¤°",
      "Ġà¤¬à¤¦ à¤²à¤¨",
      "à¥Ī .\"",
      "Ġà¤¨ à¤Ł",
      "Ġà¤µ à¤¸",
      "à¤¦à¤° à¤Ĺ",
      "Ġà¤ª à¤¶",
      "Ġà¤° à¤¬à¤°",
      "à¤¶à¤ķ à¤¶",
      "Ġà¤¨ à¤²",
      "à¥Ģ :",
      "Ġà¤² à¤ļ",
      "à¤¹ à¤ļ",
      "Ġà¤Ńà¤° à¤¨",
      "Ġà¤¨ à¤®à¤ķ",
      "à¤¹ à¤®à¤¨",
      "Ġà¤ĳ à¤ķ",
      "Ġà¤¨ à¤«",
      "à¤ħ à¤ª",
      "à¤ª à¤¦",
      "à¤¯à¤² à¤Ł",
      "Ġà¤¨à¤« à¤°à¤¤",
      "Ġà¤® à¤Ĺ",
      "Ġà¤ļ à¤¹à¤ļ",
      "Ġà¤ĵ à¤¹",
      "Ġà¤ļà¤¹à¤ļ à¤¹",
      "Ġà¤ª à¤ľ",
      "à¤¼à¥ĩ -",
      "à¤¼à¥Ģ -",
      "Ġà¤ķ à¤ķ",
      "Ġà¤¸ à¤ĸ",
      "Ġà¤Ĩ à¤ĩà¤ı",
      "à¤® à¤²",
      "à¤¸à¤® à¤°",
      "à¥ĩ ?",
      "Ġà¤ª à¤¦",
      "à¤¼ à¥ģ",
      "Ġà¤¦à¤« à¤¨",
      "Ġà¤ķ à¤µ",
      "Ġà¤Ĩ à¤ĩà¤¨",
      "Ġà¤ĺ à¤¬à¤°",
      "Ġà¤ī à¤Ĺ",
      "Ġà¤¬à¤¤ à¤ĸ",
      "Ġà¤Ńà¤Ĺ à¤µ",
      "à¤¦ à¤¯",
      "Ġà¤§ à¤¬",
      "à¤¸à¤® à¤Ŀà¤ķà¤°",
      "Ġà¤ħ à¤ª",
      "Ġà¤ħà¤¨ à¤¦",
      "à¤ĩà¤¡ à¤°",
      "à¤Ĺ à¤ķà¤°",
      "Ġà¤īà¤ª à¤²à¤¬",
      "Ġà¤ħà¤¸à¤¹ à¤ľ",
      "Ġà¤īà¤Ľ à¤²à¤¤",
      "Ġà¤ĳ à¤°",
      "à¤¾à¤ģ à¥¤\"",
      "Ġà¤ķ à¤¯",
      "Ġà¤ħ à¤µ",
      "à¤Ł à¤¸",
      "à¤§ à¤°",
      "à¤ĺ à¤²",
      "à¤¡ à¤¨",
      "à¤Ĩ à¤ĵ",
      "à¤Ĺ à¤ł",
      "Ġà¤Ł à¤°",
      "Ġà¤ĩ à¤²",
      "Ġà¤¦ à¤²",
      "à¥ĩà¤Ĥ, \"",
      "à¤° ãĤ¢ãĤ¤ãĥĩãĤ¢",
      "Ġà¤² à¤¤",
      "Ġà¤¬à¤¹ à¤°",
      "à¤ı à¤Łà¤°",
      "Ġà¤ĩ à¤ľ",
      "Ġà¤Ĺ à¤£",
      "à¤¶ à¤²",
      "Ġà¤® à¤«",
      "Ġà¤° à¤«",
      "Ġà¤ª à¤¥",
      "Ġà¤ħ à¤Ł",
      "à¤ª à¤Ł",
      "Ġà¤¬à¤ļ à¤¨",
      "Ġà¤¬ à¤¬à¤²",
      "à¤ī à¤¡à¤°",
      "à¥Ģ ?",
      "à¤¿ ,",
      "à¤¾à¤ģ, \"",
      "à¤µ à¤¡",
      "à¤Ĳ à¤¨",
      "Ġà¤ıà¤ķ à¤¦à¤®",
      "à¤Ł à¤«",
      "à¥ĩ .\"",
      "Ġà¤ķ à¤µà¤°",
      "Ġà¤ħ à¤¡",
      "à¤µ à¤¦",
      "Ġà¤ĵ à¤²",
      "Ġà¤ĩ à¤Ĺ",
      "à¤ĩ à¤¬",
      "à¤¯ à¤ļà¤ķ",
      "à¤°à¤°à¤°à¤°à¤°à¤°à¤°à¤°à¤°à¤°à¤°à¤°à¤°à¤°à¤°à¤°à¤°à¤°à¤°à¤°à¤°à¤°à¤°à¤°à¤°à¤°à¤°à¤°à¤°à¤°à¤°à¤° à¤°à¤°à¤°à¤°à¤°à¤°à¤°à¤°à¤°à¤°à¤°à¤°à¤°à¤°à¤°à¤°à¤°à¤°à¤°à¤°à¤°à¤°à¤°à¤°à¤°à¤°à¤°à¤°à¤°à¤°à¤°à¤°",
      "Ġà¤ªà¤¹ à¤ļ",
      "Ġà¤ħ à¤¹à¤¸",
      "à¤ģ !\"",
      ". .",
      "à¤Ĩ à¤°",
      "Ġà¤° à¤µ",
      "Ġà¤Ł à¤ķ",
      "à¤ı à¤¡",
      "Ġà¤¸à¤®à¤Ŀ à¤¨",
      "à¤Ĩ à¤¤",
      "à¤¾ \"",
      "Ġà¤ª à¤ľà¤²",
      "Ġà¤Ĭ à¤¨",
      "à¤· à¤°",
      "à¥ĭ .\"",
      "à¥Īà¤Ĥ .\"",
      "Ġà¤¶ à¤¤à¤°",
      "Ġà¤ļà¤² à¤ķà¤°",
      "Ġà¤®à¤¶ à¤°",
      "à¤Ľ à¤°",
      "Ġà¤ħà¤¨ à¤ľ",
      "à¤ªà¤° à¤¹",
      "à¤¾ ;",
      "Ġà¤¸ à¤ª",
      "Ġà¤Ĩ à¤¦",
      "Ġà¤Ń à¤µ",
      "à¤ľ à¤°à¤¤",
      "Ġà¤īà¤¤ à¤°à¤¨",
      "Ġà¤Ĺà¤° à¤®",
      "Ġà¤ħ à¤ĸ",
      "à¤¸ à¤Ń",
      "à¤Ĩà¤Ĩà¤Ĩà¤Ĩà¤Ĩà¤Ĩà¤Ĩà¤Ĩà¤Ĩà¤Ĩà¤Ĩà¤Ĩà¤Ĩà¤Ĩà¤Ĩà¤Ĩ à¤Ĩà¤Ĩà¤Ĩà¤Ĩà¤Ĩà¤Ĩà¤Ĩà¤Ĩà¤Ĩà¤Ĩà¤Ĩà¤Ĩà¤Ĩà¤Ĩà¤Ĩà¤Ĩ",
      "Ġà¤ĵ à¤Ł",
      "Ġà¤° à¤¬à¤¡",
      "à¤¬à¤¹ à¤¨",
      "à¥Ĥà¤Ĥ !\"",
      "à¤¼ à¥Ģà¤Ĥà¥¤",
      "à¤¾à¤ģ ?\"",
      "à¤ı à¤¸",
      "Ġà¤ľ à¤¹à¤°",
      "i n",
      "Ġà¤µ à¤ķ",
      "Ġà¤ĸ à¤ļ",
      "à¤ģ ,",
      "Ġà¤Ń à¤Ł",
      "à¤¥ à¤ª",
      "Ġà¤¦à¤² à¤¦à¤²",
      "Ġà¤° à¤ľ",
      "Ġà¤Ł à¤¹",
      "à¤¥ à¤¡",
      "à¤ĩ à¤°",
      "Ġà¤ĵ à¤ıà¤¸",
      "à¤Ĥ !\"",
      "à¤ĸ à¤Ł",
      "à¥ĭ .",
      "à¤¦ à¤¬",
      "Ġà¤®à¤¶ à¤¹",
      "Ġà¤¸à¤¨ à¤Ĺ",
      "Ġà¤Ĺ à¤¨",
      "à¤µ à¤ľ",
      "Ġà¤°à¤ĸ à¤ķà¤°",
      "a t",
      "à¤¨ à¤µ",
      "à¤Ł à¤¯",
      "Ġà¤ĵ à¤ª",
      "a n",
      "Ġà¤ĸà¤Ł à¤ĸà¤Ł",
      "Ġà¤¸à¤®à¤Ŀ à¤¦",
      "à¤ķ à¤ħà¤ª",
      "à¥Ģ \"",
      "Ġà¤ľ à¤²à¤¤",
      "Ġà¤° à¤Ĺ",
      "Ġà¤Ŀ à¤Ĺà¤¡",
      "Ġà¤ī à¤ļà¤ķ",
      "Ġà¤¥ à¤°",
      "à¤Łà¤° à¤¸",
      "à¤ķ à¤¶",
      "Ġà¤ħà¤µ à¤¤à¤²",
      "à¤¨ à¤Ĺ",
      "Ġà¤¬ à¤¦à¤¤",
      "Ġà¤ĸ à¤¬à¤°",
      "i o",
      "s l",
      "à¥Ĥ !\"",
      "à¤ı à¤¨",
      "à¤ī à¤ľ",
      "Ġà¤¬à¤¦à¤¤ à¤®",
      "à¤ª à¤¹",
      "à¤ª à¤ķà¤°",
      "at io",
      "atio n",
      "d i",
      "h in",
      "r an",
      "t ran",
      "à¤° à¤ª",
      "sl ation",
      "hin di",
      "tran slation",
      "à¤ļ à¤¯",
      "Ġà¤¸à¤® à¤°",
      "Ġà¤ĸ à¤¨",
      "Ġà¤ĵ à¤µ",
      "à¥ĩà¤Ĥ !",
      "Ġà¤¸à¤¹ à¤²",
      "à¤¨ à¤ľà¤¨à¤ķ",
      "à¤° à¤¸à¤¨",
      "Ġà¤¹ à¤Ĺ",
      "Ġà¤Łà¤¹ à¤²à¤¨",
      "Ġà¤® à¤Ľ",
      "à¤¶ à¤µ",
      "à¤¯ à¤°à¤ķà¤Ł",
      "à¤® à¤µ",
      "à¤® à¤ķà¤°",
      "à¥ĭà¤Ĥ !",
      "à¤²à¤ļ à¤Ł",
      "Ġà¤ª à¤ª",
      "Ġà¤¹à¤® à¤²",
      "à¤Ĩ à¤ªà¤¨",
      "Ġà¤Ī à¤°",
      "à¤Ł à¤ª",
      "à¤¯ à¤ľà¤¨à¤ķ",
      "Ġà¤ħ à¤¸à¤®à¤°",
      "à¤· à¤®à¤¤",
      "à¤¨ à¤²",
      "Ġà¤Ĩ à¤Ĭ",
      "à¤Ĩ à¤µ",
      "à¥ĩà¤Ĥ ?",
      "Ġà¤ı à¤ª",
      "à¤¨ à¤¸",
      "Ġà¤¤ à¤¨",
      "Ġà¤Ŀ à¤Łà¤ķ",
      "Ġà¤¸ à¤¦à¤¸",
      "à¤ĩ à¤Łà¤°",
      "Ġà¤°à¤¹ à¤ķà¤°",
      "Ġà¤ķ à¤¸",
      "à¤¼ !\"",
      "à¤ħ à¤Ń",
      "à¤¨ à¤¡",
      "à¤® à¤Ľà¤²",
      "à¤¼ à¥¤",
      "Ġà¤ĩ à¤°",
      "à¥Ĥà¤ģ ?",
      "à¤¨ à¤«",
      "Ġà¤ħ à¤¤",
      "à¤¯à¤° à¤ª",
      "à¤Ĺà¤° à¤¨",
      "à¤ĵ à¤µ",
      "Ġà¤ªà¤² à¤ķ",
      "à¤¸ à¤µ",
      "à¤¦ à¤ķ",
      "à¤® à¤¦à¤¦",
      "à¤ª à¤·",
      "Ġà¤¬à¤¨ à¤ķà¤°",
      "Ġà¤īà¤ł à¤ķà¤°",
      "à¤ĺ à¤¤",
      "à¤¨ à¤¯",
      "à¤Ĺ à¤«à¤²",
      "à¤ķ à¤¬",
      "à¤ī à¤ļ",
      "à¥Ģà¤Ĥ .",
      "Ġà¤¬ à¤ķà¤²",
      "à¤« à¤°",
      "Ġà¤ı à¤¡",
      "à¤® à¤¸à¤®à¤°",
      "à¤ī à¤§à¤°",
      "Ġà¤Ĳ à¤¬",
      "Ġà¤¹ à¤¨",
      "à¤¼à¤¾ -",
      "à¤¼à¥ĭà¤Ĥ ,",
      "Ġà¤ĩ à¤§à¤°",
      "Ġà¤ļà¤® à¤¤",
      "à¤ļ à¤²à¤¤",
      "à¥Ĥ à¥¤",
      "Ġà¤ħà¤¨ à¤ª",
      "à¤ĺ à¤¨",
      "à¤ªà¤¹ à¤²",
      "Ġà¤ī à¤Ľà¤²",
      "Ġà¤ªà¤¦ à¤ķ",
      "à¤ ĳ",
      "à¤¸ à¤¬à¤¸",
      "Ġà¤¬ à¤Łà¤°",
      "à¤® à¤µà¤°",
      "à¤¼ à¥ĩà¤Ĥ,",
      "Ġà¤ķà¤¹ à¤ķà¤°",
      "Ġà¤ĩ à¤¤",
      "à¤§ à¤²",
      "à¤° à¤ļà¤¨",
      "à¤¨ à¤¸à¤¨",
      "Ġà¤ķ à¤£",
      "à¤ł à¤ķ",
      "à¤µ à¤µ",
      "à¤¸à¤² à¤¤",
      "à¤ķà¤¤ à¤µà¤°",
      "à¤¹ à¤ª",
      "Ġà¤ķà¤Ł à¤µ",
      "à¤¯ à¤¯à¤¨",
      "Ġà¤ıà¤ķ à¤®",
      "à¤¶ à¤ª",
      "à¤ľ à¤ķà¤°",
      "Ġà¤Ĩ à¤ĩà¤¸",
      "Ġà¤§ à¤¡",
      "à¤Ĺà¤² à¤µ",
      "à¤°à¤°à¤°à¤°à¤°à¤°à¤°à¤°à¤°à¤°à¤°à¤°à¤°à¤°à¤°à¤°à¤°à¤°à¤°à¤°à¤°à¤°à¤°à¤°à¤°à¤°à¤°à¤°à¤°à¤°à¤°à¤°à¤°à¤°à¤°à¤°à¤°à¤°à¤°à¤°à¤°à¤°à¤°à¤°à¤°à¤°à¤°à¤°à¤°à¤°à¤°à¤°à¤°à¤°à¤°à¤°à¤°à¤°à¤°à¤°à¤°à¤°à¤°à¤° à¤°à¤°à¤°à¤°à¤°à¤°à¤°à¤°à¤°à¤°à¤°à¤°à¤°à¤°à¤°à¤°à¤°à¤°à¤°à¤°à¤°à¤°à¤°à¤°à¤°à¤°à¤°à¤°à¤°à¤°à¤°à¤°à¤°à¤°à¤°à¤°à¤°à¤°à¤°à¤°à¤°à¤°à¤°à¤°à¤°à¤°à¤°à¤°à¤°à¤°à¤°à¤°à¤°à¤°à¤°à¤°à¤°à¤°à¤°à¤°à¤°à¤°à¤°à¤°",
      "Ġà¤ī à¤ªà¤¨",
      "Ġà¤¹ à¤Łà¤¨",
      "à¥Ĥ !",
      "à¤Ń à¤°",
      "à¤² à¤¹à¤°",
      "Ġà¤¤à¤° à¤¬",
      "à¤µà¤° à¤£",
      "à¤Łà¤¨ à¤°",
      "Ġà¤Ńà¤Ł à¤ķà¤¤",
      "à¤¼ à¤¿à¤Ĥ",
      "Ġà¤ªà¤¹à¤¨ à¤ķà¤°",
      "à¤Ĥ à¥¤\"",
      "à¥ĭà¤Ĥ !\"",
      "Ġà¤¶à¤° à¤£",
      "Ġà¤ıà¤ķ à¤ľ",
      "à¤¾à¤ģ :",
      "à¤¡ à¤ķ",
      "à¤ķ à¤Ī",
      "à¤Ĥ !",
      "Ġà¤ĺ à¤Łà¤¨",
      "à¤ĵ à¤īà¤ļ",
      "Ġà¤ĳ à¤ªà¤°",
      "Ġà¤¥à¤ª à¤¥à¤ª",
      "à¤§ à¤¤",
      "Ġà¤Ĺà¤° à¤ľ",
      "Ġà¤® à¤°à¤®",
      "à¤¼ à¥Ī",
      "à¥ĩà¤Ĥ .",
      "à¤ĩ à¤®",
      "Ġà¤īà¤¤ à¤°à¤¤",
      "Ġà¤¬à¤¦ à¤²à¤¤",
      "Ġà¤ĳ à¤Ł",
      "à¤µ à¤¯",
      "à¤¼à¥ĩà¤Ĥ à¥¤",
      "à¤° à¤¬",
      "à¤² à¤¦à¤¸",
      "à¤ĩ à¤®à¤°",
      "Ġà¤ł à¤¹à¤°",
      "à¤Ĩà¤Ĩà¤Ĩà¤Ĩà¤Ĩà¤Ĩà¤Ĩà¤Ĩà¤Ĩà¤Ĩà¤Ĩà¤Ĩà¤Ĩà¤Ĩà¤Ĩà¤Ĩà¤Ĩà¤Ĩà¤Ĩà¤Ĩà¤Ĩà¤Ĩà¤Ĩà¤Ĩà¤Ĩà¤Ĩà¤Ĩà¤Ĩà¤Ĩà¤Ĩà¤Ĩà¤Ĩ à¤Ĩà¤Ĩà¤Ĩà¤Ĩà¤Ĩà¤Ĩà¤Ĩà¤Ĩà¤Ĩà¤Ĩà¤Ĩà¤Ĩà¤Ĩà¤Ĩà¤Ĩà¤Ĩà¤Ĩà¤Ĩà¤Ĩà¤Ĩà¤Ĩà¤Ĩà¤Ĩà¤Ĩà¤Ĩà¤Ĩà¤Ĩà¤Ĩà¤Ĩà¤Ĩà¤Ĩà¤Ĩ",
      "à¤ĺ à¤²à¤¨",
      "Ġà¤¤ à¤¹",
      "Ġà¤¸ à¤¤à¤°",
      "à¤ĸà¤¤ à¤®",
      "Ġà¤¯à¤¹ ãĤ¢ãĤ¤ãĥĩãĤ¢",
      "Ġà¤¹à¤® à¤¸",
      "Ġà¤®à¤¹ à¤ķ",
      "à¤² à¤¹",
      "à¥ĩà¤Ĥ .\"",
      "Ġà¤ļ à¤¤",
      "à¤ħ à¤²à¤µ",
      "Ġà¤īà¤ł à¤¨",
      "à¤¹ à¤¬",
      "à¥ĭà¤Ĥ à¥¤\"",
      "à¤¯à¤° à¤«",
      "à¤¯à¤° à¤¨",
      "Ġ 1",
      "à¤¼ à¥Ĥà¤Ĥ",
      "à¤ĸ à¤²",
      "Ġà¤Ĩ à¤¡",
      "à¤§ à¤µ",
      "Ġà¤ĵ à¤ķ",
      "Ġà¤Ŀ à¤°à¤¨",
      "Ċ Ċ",
      "à¥Ī \"",
      "Ġà¤ļ à¤ĸà¤ķà¤°",
      "à¥Ģà¤Ĥ ?\"",
      "Ġà¤Ľ à¤¹",
      "Ġà¤¬à¤¹ à¤¤",
      "Ġà¤Ń à¤Łà¤ķ",
      "Ġà¤ļà¤® à¤¡",
      "à¤ķ à¤ĺà¤°",
      "à¤¤ à¤ļ",
      "à¤¼ !",
      "à¥Ģà¤Ĥ, \"",
      "Ġà¤°à¤ĸ à¤µ",
      "Ġà¤Ń à¤¦",
      "Ġà¤¬à¤ľ à¤¤",
      "âĢ Ŀ",
      "à¤® à¤ª",
      "à¤® à¤ķà¤¤",
      "à¤Ł à¤µà¤°",
      "Ġà¤ªà¤° à¤µà¤°",
      "à¤ħ à¤®",
      "Ġà¤ħà¤¸à¤¹ à¤®à¤¤",
      "à¤ģ ?\"",
      "à¤¸à¤ķ à¤¤",
      "à¤¨ à¤ļ",
      "Ġà¤ī à¤ľ",
      "Ġà¤ħ à¤°",
      "à¥ĭà¤Ĥ ?\"",
      "à¤Ń à¤¨",
      "Ġà¤ķà¤² à¤®",
      "à¥ĭ \"",
      "à¤¼ à¥ĭ,",
      "Ġà¤ľ à¤ľ",
      "Ġà¤Ĩ à¤®à¤¤",
      "à¤ĩ à¤®à¤¨",
      "à¤¸à¤® à¤¸",
      "à¥ĩ :",
      "à¥Īà¤Ĥ :",
      "à¥Ĥà¤Ĥ ,\"",
      "Ġà¤ķà¤ª à¤ķ",
      "à¤¼à¥ĩà¤Ĥ !\"",
      "Ġà¤²à¤ª à¤Ł",
      "Ġà¤Ĺà¤® à¤²",
      "à¥ĩ \"",
      "à¤¼à¤¾ !",
      "à¤ħ à¤ľà¤¨à¤¬",
      "à¤¸à¤² à¤ķà¤°",
      "à¤¯ à¤ª",
      "à¤® à¤¯",
      "à¤ħ à¤²",
      "à¤ľà¤° à¤¨",
      "Ġà¤¬à¤°à¤¤ à¤¤",
      "Ġà¤µ à¤°à¤¨",
      "à¥Ĥ \"",
      "Ġà¤ķà¤° à¤µ",
      "Ġà¤īà¤² à¤Ł",
      "Ġà¤Ńà¤Ł à¤ķà¤¨",
      "à¤¼ à¥Ģà¤Ĥ",
      "à¤°à¤¤ à¤®",
      "Ġà¤ļà¤®à¤ķ à¤¤",
      "à¤¹ à¤ķ",
      "Ġà¤ī à¤ļ",
      "à¤¼ à¥ĭ!\"",
      "Ġà¤Ĩ à¤ł",
      "Ġà¤Ĩà¤µ à¤¶",
      "à¤²à¤ķ à¤®",
      "à¤¹ à¤µ",
      "Ġà¤Ĺ à¤§",
      "à¤¬ à¤°à¤¦",
      "à¤Ń à¤ķ",
      "à¤¬à¤°à¤¦ à¤¸",
      "Ġà¤ķ à¤¤",
      "à¤ª à¤²",
      "Ġà¤ļ à¤¶",
      "Ġà¤¬ à¤ľà¤¨",
      "Ġà¤¸à¤¬ à¤µ",
      "Ġà¤īà¤ª à¤¹",
      "Ġà¤² à¤¥à¤ª",
      "à¤¥ à¤Łà¤¬",
      "Ġà¤ı à¤¬",
      "Ġà¤ı à¤¶",
      "Ġà¤²à¤¥à¤ª à¤¥",
      "à¤¾ '",
      "à¥Ģ ;",
      "Ġà¤ļ à¤ª",
      "à¤ī à¤¡",
      "Ġà¤Ĺ à¤¹à¤¨",
      "à¤¥ à¤²",
      "à¥Ĥà¤Ĥ ?",
      "à¤¯à¤ķ à¤¤",
      "à¤¸à¤° à¤¸",
      "à¤® à¤Ł",
      "Ġà¤ħ à¤¶",
      "à¤ģ ,\"",
      "Ġà¤Ĩ à¤¹à¤¤",
      "Ġà¤Ń à¤°à¤¤",
      "Ġà¤¸à¤« à¤°",
      "Ġà¤¹ à¤°à¤ķ",
      "à¤ª à¤®",
      "Ġà¤¬à¤¨ à¤¤",
      "Ġà¤¨à¤ľà¤° à¤ħ",
      "à¤² à¤¸",
      "Ġà¤ı à¤µ",
      "Ġà¤¥à¤ķ à¤ķà¤°",
      "Ġà¤ĩà¤¨ à¤¸",
      "Ġà¤¹à¤°à¤ķ à¤¤",
      "Ġà¤Ł à¤¨à¤²",
      "Ġà¤ķà¤² à¤°",
      "Ġà¤īà¤¤à¤° à¤ķà¤°",
      "à¤¯ à¤ķà¤°",
      "à¤¼ \"",
      "Ġà¤µ à¤ľ",
      "à¤Ĺ à¤¶",
      "Ġà¤° à¤¯",
      "à¤¯à¤° à¤µà¤°",
      "Ġà¤ıà¤¶ à¤Ł",
      "Ġà¤Ľ à¤ķ",
      "à¤¼à¤¾ !\"",
      "Ġà¤¸à¤¨ à¤¸",
      ".. .",
      "à¤Ĥ .",
      "Ġà¤§ à¤®",
      "Ġà¤§ à¤°à¤¤",
      "Ġà¤ĩà¤¨ à¤®",
      "à¤° à¤«",
      "Ġà¤Ľ à¤µ",
      "Ġà¤ª à¤Łà¤°",
      "à¤¶ à¤¹à¤°",
      "Ġà¤ķ à¤ļ",
      "à¤ķ à¤¥",
      "Ġà¤¬ à¤§",
      "à¥Ģà¤Ĥ ?",
      "à¤Ĩ à¤ķ",
      "à¥Ĥà¤ģ .\"",
      "Ġà¤¤à¤° à¤²",
      "Ġà¤ıà¤¡ à¤®",
      "à¤¼ ?\"",
      "Ġà¤« à¤ľ",
      "Ġà¤Ĩà¤ª à¤¸",
      "à¥ĭà¤Ĥ, \"",
      "Ġà¤¹à¤Ł à¤ķà¤°",
      "à¤² à¤ķà¤¨",
      "Ġà¤¹ à¤ķ",
      "Ġà¤ıà¤ķ à¤¤",
      "Ġà¤ĸ à¤²",
      "à¤Ĩ à¤Ĺ",
      "à¤ĩ à¤ķà¤²",
      "à¤°à¤°à¤°à¤°à¤°à¤°à¤°à¤°à¤°à¤°à¤°à¤°à¤°à¤°à¤°à¤°à¤°à¤°à¤°à¤°à¤°à¤°à¤°à¤°à¤°à¤°à¤°à¤°à¤°à¤°à¤°à¤°à¤°à¤°à¤°à¤°à¤°à¤°à¤°à¤°à¤°à¤°à¤°à¤°à¤°à¤°à¤°à¤°à¤°à¤°à¤°à¤°à¤°à¤°à¤°à¤°à¤°à¤°à¤°à¤°à¤°à¤°à¤°à¤°à¤°à¤°à¤°à¤°à¤°à¤°à¤°à¤°à¤°à¤°à¤°à¤°à¤°à¤°à¤°à¤°à¤°à¤°à¤°à¤°à¤°à¤°à¤°à¤°à¤°à¤°à¤°à¤°à¤°à¤°à¤°à¤°à¤°à¤°à¤°à¤°à¤°à¤°à¤°à¤°à¤°à¤°à¤°à¤°à¤°à¤°à¤°à¤°à¤°à¤°à¤°à¤°à¤°à¤°à¤°à¤°à¤°à¤°à¤°à¤°à¤°à¤°à¤°à¤° à¤°à¤°à¤°à¤°à¤°à¤°à¤°à¤°à¤°à¤°à¤°à¤°à¤°à¤°à¤°à¤°à¤°à¤°à¤°à¤°à¤°à¤°à¤°à¤°à¤°à¤°à¤°à¤°à¤°à¤°à¤°à¤°à¤°à¤°à¤°à¤°à¤°à¤°à¤°à¤°à¤°à¤°à¤°à¤°à¤°à¤°à¤°à¤°à¤°à¤°à¤°à¤°à¤°à¤°à¤°à¤°à¤°à¤°à¤°à¤°à¤°à¤°à¤°à¤°à¤°à¤°à¤°à¤°à¤°à¤°à¤°à¤°à¤°à¤°à¤°à¤°à¤°à¤°à¤°à¤°à¤°à¤°à¤°à¤°à¤°à¤°à¤°à¤°à¤°à¤°à¤°à¤°à¤°à¤°à¤°à¤°à¤°à¤°à¤°à¤°à¤°à¤°à¤°à¤°à¤°à¤°à¤°à¤°à¤°à¤°à¤°à¤°à¤°à¤°à¤°à¤°à¤°à¤°à¤°à¤°à¤°à¤°à¤°à¤°à¤°à¤°à¤°à¤°",
      "Ġà¤® à¤Łà¤ķ",
      "Ġà¤ī à¤Ĺà¤¤",
      "à¤Ĺ à¤µ",
      "Ġà¤ļ à¤ļ",
      "Ġà¤¡ à¤¸",
      "à¤¯à¤µ à¤¶",
      "Ġà¤Ńà¤° à¤®",
      "à¤°à¤® à¤£",
      "Ġà¤ªà¤² à¤Ł",
      "à¤² à¤¦",
      "à¤¼à¥Ģ !",
      "à¤ł à¤²",
      "à¤ĵ à¤²",
      "Ġà¤¸à¤° à¤²",
      "Ġà¤ī à¤Ĺà¤¨",
      "à¤® à¤Ĺà¤°à¤®à¤ļ",
      "à¤¡ à¤®",
      "à¤Ī à¤¯",
      "à¤¾à¤ģ \"",
      "Ġà¤ĳ à¤¨",
      ".. .\"",
      "à¤¼ à¥Ģà¤Ĥ,",
      "Ġà¤¹ à¤¸",
      "Ġà¤ĸ à¤¦",
      "à¤Ī à¤ĺà¤°",
      "à¤Ĩà¤Ĩà¤Ĩà¤Ĩà¤Ĩà¤Ĩà¤Ĩà¤Ĩà¤Ĩà¤Ĩà¤Ĩà¤Ĩà¤Ĩà¤Ĩà¤Ĩà¤Ĩà¤Ĩà¤Ĩà¤Ĩà¤Ĩà¤Ĩà¤Ĩà¤Ĩà¤Ĩà¤Ĩà¤Ĩà¤Ĩà¤Ĩà¤Ĩà¤Ĩà¤Ĩà¤Ĩà¤Ĩà¤Ĩà¤Ĩà¤Ĩà¤Ĩà¤Ĩà¤Ĩà¤Ĩà¤Ĩà¤Ĩà¤Ĩà¤Ĩà¤Ĩà¤Ĩà¤Ĩà¤Ĩà¤Ĩà¤Ĩà¤Ĩà¤Ĩà¤Ĩà¤Ĩà¤Ĩà¤Ĩà¤Ĩà¤Ĩà¤Ĩà¤Ĩà¤Ĩà¤Ĩà¤Ĩà¤Ĩ à¤Ĩà¤Ĩà¤Ĩà¤Ĩà¤Ĩà¤Ĩà¤Ĩà¤Ĩà¤Ĩà¤Ĩà¤Ĩà¤Ĩà¤Ĩà¤Ĩà¤Ĩà¤Ĩà¤Ĩà¤Ĩà¤Ĩà¤Ĩà¤Ĩà¤Ĩà¤Ĩà¤Ĩà¤Ĩà¤Ĩà¤Ĩà¤Ĩà¤Ĩà¤Ĩà¤Ĩà¤Ĩà¤Ĩà¤Ĩà¤Ĩà¤Ĩà¤Ĩà¤Ĩà¤Ĩà¤Ĩà¤Ĩà¤Ĩà¤Ĩà¤Ĩà¤Ĩà¤Ĩà¤Ĩà¤Ĩà¤Ĩà¤Ĩà¤Ĩà¤Ĩà¤Ĩà¤Ĩà¤Ĩà¤Ĩà¤Ĩà¤Ĩà¤Ĩà¤Ĩà¤Ĩà¤Ĩà¤Ĩà¤Ĩ",
      "à¤ķ à¤¯",
      "Ġà¤ħ à¤Łà¤ķ",
      "Ġà¤¯ à¤¦",
      "à¤¼à¤¾ .",
      "à¤Ĩ à¤¹",
      "à¤ĩ à¤Ĺà¤°",
      "à¤ī à¤Ł",
      "à¤ħ à¤¹",
      "Ġà¤Ĩà¤ĵ à¤Ĺ",
      "Ġà¤¬à¤¦ à¤¤à¤°",
      "Ġà¤ħà¤µ à¤¸à¤°",
      "Ġà¤łà¤¹à¤° à¤¨",
      "à¥Į ,",
      "Ġà¤¶ à¤ĸ",
      "à¤· à¤¤",
      "à¤Ŀ à¤¨",
      "à¤Ĩ à¤¯",
      "Ġà¤¬à¤ļ à¤¤",
      "Ġ1 0",
      "à¤® à¤ľ",
      "Ġà¤¦ à¤®",
      "à¤Ĳ à¤¬",
      "Ġà¤¨ à¤®",
      "Ġà¤Ĺ à¤¦",
      "Ġà¤« à¤¨",
      "Ġà¤« à¤¸à¤²",
      "à¤Ĩ à¤¨",
      "à¤ī à¤¬",
      "Ġà¤¬à¤ļ à¤ªà¤¨",
      "à¤ķ à¤¹",
      "à¤« à¤¬",
      "à¤¢ à¤ķà¤°",
      "Ġà¤Ĩà¤ª à¤¤",
      "Ġà¤¢ à¤ķà¤¨",
      "à¤Ĥ -",
      "Ġà¤Ĩ à¤¦à¤¤",
      "à¤¦à¤° à¤µ",
      "à¤Ł à¤®",
      "à¤ľ à¤Ĺ",
      "à¤¶ à¤¶",
      "à¤ļ à¤µ",
      "à¥Ĥà¤ģ .",
      "Ġà¤ĳ à¤²",
      "à¤Ĳ à¤¸",
      "m y",
      "Ġà¤ Ķ",
      "à¤° à¤Ĺ",
      "Ġà¤¬ à¤Ĺà¤²",
      "à¤ģ !",
      "à¤Łà¤° à¤ª",
      "à¤° à¤µà¤¤",
      "à¤¤ à¤¬",
      "Ġà¤¬ à¤¶à¤°",
      "à¤µ à¤Ń",
      "à¤¬ à¤ķà¤°",
      "à¥Ģà¤Ĥ \"",
      "Ġà¤¯ à¤®",
      "à¤¼à¥ĩà¤Ĥ à¥¤\"",
      "Ġà¤ıà¤ķãĤ¢ãĤ¤ãĥĩãĤ¢ à¤Ĩà¤¯",
      "Ġà¤ļ à¤¯à¤¨",
      "à¤¬ à¤Ĺ",
      "à¤Ĥ ?\"",
      "Ġà¤Ĩ à¤ī",
      "à¤Ī à¤¸",
      "à¥Ģà¤Ĥ :",
      "Ġà¤¢ à¤²",
      "à¤ĩà¤Ł à¤®",
      "à¤¦à¤¨ à¤¶",
      "à¤Ľ à¤¡",
      "à¤Ĩ à¤īà¤Ł",
      "à¤ĩà¤¸ à¤¸",
      "à¤Ĭ à¤ªà¤°",
      "Ġà¤¬ à¤¦à¤®",
      "Ġà¤µ à¤¯à¤¸",
      "Ġà¤ĩ à¤¨à¤ķ",
      "Ġà¤¶ à¤¨",
      "à¤« à¤ľ",
      "à¤Ĺà¤² à¤ªà¤¨",
      "Ġà¤ı à¤°",
      "Ġ A",
      "à¤° à¤§à¤¨",
      "à¤¸ à¤ļ",
      "Ġà¤¬ à¤Ł",
      "Ġà¤ī à¤ªà¤¸",
      "à¤® à¤§",
      "à¤ª à¤¶",
      "à¤Ľ à¤Ł",
      "à¤Ĩ à¤¸à¤®",
      "à¤¸à¤° à¤ª",
      "à¤ħ à¤¸à¤²",
      "Ġà¤ħà¤¨ à¤¸",
      "Ġà¤¸à¤¹ à¤ľ",
      "Ġà¤Ķ à¤ľ",
      "Ġ (",
      "à¤ķ à¤Ľ",
      "Ġà¤® à¤ķà¤¡",
      "à¤¼ à¥ĭà¥¤\"",
      "à¤¼à¥ĩ !",
      "Ġà¤¸à¤ļ à¤®",
      "Ġà¤®à¤Ĺ à¤¤à¤°",
      "Ġà¤Ĩà¤ī à¤Łà¤«",
      "Ġà¤® à¤Łà¤°",
      "Ġà¤ª à¤Ĺà¤¡",
      "à¥ĩà¤Ĥ \"",
      "Ġà¤° à¤¥",
      "Ġà¤¡ à¤Ĺ",
      "à¤ħ à¤¸",
      "Ġà¤ĸà¤° à¤ªà¤¤",
      "à¤¸à¤® à¤Ŀ",
      "Ġà¤¸à¤¹ à¤¨",
      "Ġà¤¸à¤¹ à¤¯",
      "Ġà¤ĸà¤°à¤ªà¤¤ à¤µ",
      "Ġ 2",
      "à¤¨ à¤Ī",
      "Ġà¤ī à¤Ĺà¤²",
      "à¤¼ à¥ĭà¥¤",
      "Ġà¤īà¤² à¤Ŀ",
      "à¤ĩà¤µ à¤µ",
      "Ġà¤ĩà¤¸ ãĤ¢ãĤ¤ãĥĩãĤ¢",
      "à¤ł à¤°",
      "à¤Ĩ à¤²à¤¸",
      "Ġà¤§ à¤®à¤ķ",
      "à¤ī à¤¦",
      "Ġà¤¢ à¤ķà¤¤",
      "Ġà¤¸à¤¨ à¤¶",
      "\" ,",
      "à¤¸ à¤ªà¤°",
      "Ġà¤° à¤¬",
      "Ġà¤Ĩ à¤ĩà¤Łà¤®",
      "Ġà¤« à¤Łà¤¨",
      "Ġà¤¸à¤ķ à¤¨",
      "à¤ħ à¤ľ",
      "Ġà¤¤à¤² à¤Ľà¤Ł",
      "à¤¡à¤° à¤Ĺ",
      "Ġà¤²à¤Łà¤ķ à¤ķà¤°",
      "à¥Ī\" ,",
      "Ġà¤¹à¤ķ à¤¦",
      "Ġà¤¡à¤Ĺ à¤®à¤Ĺ",
      "\" à¥¤",
      "à¥Ģ '",
      "Ġà¤® à¤²",
      "Ġà¤¥ à¤®",
      "à¤¼ à¥¤\"",
      "à¤¦ à¤¡",
      "Ġà¤ľ à¤ķà¤¡",
      "Ġà¤Ĩ à¤¹",
      "à¤¼à¥ĩ .",
      "à¤¸à¤® à¤¯",
      "âĢ ľ",
      "Ġà¤ĩà¤® à¤°à¤ľ",
      "Ġà¤ħà¤¸à¤¹ à¤ľà¤¤",
      "Ġà¤®à¤° à¤¹à¤®",
      "à¤ĳ à¤«",
      "Ġà¤ļà¤ª à¤²à¤¤",
      "à¤¸ à¤¡",
      "à¤² à¤ĸ",
      "à¤ª à¤ķà¤¡",
      "à¤ľ à¤µ",
      "à¤¬ à¤¦",
      "à¤Ľ à¤ķà¤°",
      "Ġà¤Ł à¤ªà¤ķ",
      "Ġà¤« à¤«",
      "à¤¼à¤¾ ?\"",
      "Ġà¤ĺ à¤®",
      "Ġà¤¡à¤° à¤ª",
      "Ġà¤ı à¤¯à¤°à¤ª",
      "à¥Ĥà¤Ĥ !",
      "Ġà¤¬à¤° à¤¸",
      "à¤ŀ à¤¤",
      "à¤ĳ à¤ķ",
      "à¤Ĥ ,\"",
      "Ġà¤¬ à¤®",
      "à¤® à¤Ľ",
      "à¤¼ '",
      "à¤Ĺ à¤¦à¤°",
      "Ġà¤¤ à¤ĸ",
      "à¤¬ à¤¬à¤²",
      "à¤¾à¤ģ ?",
      "à¥ī .",
      "Ġà¤¬à¤¨ à¤µ",
      "Ġà¤ļà¤® à¤Ĺ",
      "Ġà¤Ŀ à¤ķ",
      "Ġà¤Ĳ à¤²",
      "à¤ķà¤Ł à¤¤",
      "Ġà¤ĳ à¤¡",
      "à¤¾ /",
      "Ġà¤ľ à¤ĸ",
      "à¤ı à¤¬",
      "à¤¬ à¤ľ",
      "Ġà¤ĵ à¤¸",
      "Ġà¤ħà¤¨ à¤²",
      "à¤£ à¤¨",
      "Ġà¤¦à¤° à¤ħà¤¸à¤²",
      "à¤¶à¤¨ à¤¸",
      "à¤ĺ à¤²à¤¤",
      "Ġà¤ªà¤² à¤Łà¤¤",
      "à¤Ĳ à¤²",
      "à¤°à¤°à¤°à¤°à¤°à¤°à¤°à¤°à¤°à¤°à¤°à¤°à¤°à¤°à¤°à¤°à¤°à¤°à¤°à¤°à¤°à¤°à¤°à¤°à¤°à¤°à¤°à¤°à¤°à¤°à¤°à¤°à¤°à¤°à¤°à¤°à¤°à¤°à¤°à¤°à¤°à¤°à¤°à¤°à¤°à¤°à¤°à¤°à¤°à¤°à¤°à¤°à¤°à¤°à¤°à¤°à¤°à¤°à¤°à¤°à¤°à¤°à¤°à¤°à¤°à¤°à¤°à¤°à¤°à¤°à¤°à¤°à¤°à¤°à¤°à¤°à¤°à¤°à¤°à¤°à¤°à¤°à¤°à¤°à¤°à¤°à¤°à¤°à¤°à¤°à¤°à¤°à¤°à¤°à¤°à¤°à¤°à¤°à¤°à¤°à¤°à¤°à¤°à¤°à¤°à¤°à¤°à¤°à¤°à¤°à¤°à¤°à¤°à¤°à¤°à¤°à¤°à¤°à¤°à¤°à¤°à¤°à¤°à¤°à¤°à¤°à¤°à¤°à¤°à¤°à¤°à¤°à¤°à¤°à¤°à¤°à¤°à¤°à¤°à¤°à¤°à¤°à¤°à¤°à¤°à¤°à¤°à¤°à¤°à¤°à¤°à¤°à¤°à¤°à¤°à¤°à¤°à¤°à¤°à¤°à¤°à¤°à¤°à¤°à¤°à¤°à¤°à¤°à¤°à¤°à¤°à¤°à¤°à¤°à¤°à¤°à¤°à¤°à¤°à¤°à¤°à¤°à¤°à¤°à¤°à¤°à¤°à¤°à¤°à¤°à¤°à¤°à¤°à¤°à¤°à¤°à¤°à¤°à¤°à¤°à¤°à¤°à¤°à¤°à¤°à¤°à¤°à¤°à¤°à¤°à¤°à¤°à¤°à¤°à¤°à¤°à¤°à¤°à¤°à¤°à¤°à¤°à¤°à¤°à¤°à¤°à¤°à¤°à¤°à¤°à¤°à¤°à¤°à¤°à¤°à¤°à¤°à¤°à¤°à¤°à¤°à¤°à¤°à¤°à¤°à¤°à¤°à¤°à¤°à¤°à¤°à¤°à¤°à¤°à¤°à¤° à¤°à¤°à¤°à¤°à¤°à¤°à¤°à¤°à¤°à¤°à¤°à¤°à¤°à¤°à¤°à¤°à¤°à¤°à¤°à¤°à¤°à¤°à¤°à¤°à¤°à¤°à¤°à¤°à¤°à¤°à¤°à¤°à¤°à¤°à¤°à¤°à¤°à¤°à¤°à¤°à¤°à¤°à¤°à¤°à¤°à¤°à¤°à¤°à¤°à¤°à¤°à¤°à¤°à¤°à¤°à¤°à¤°à¤°à¤°à¤°à¤°à¤°à¤°à¤°à¤°à¤°à¤°à¤°à¤°à¤°à¤°à¤°à¤°à¤°à¤°à¤°à¤°à¤°à¤°à¤°à¤°à¤°à¤°à¤°à¤°à¤°à¤°à¤°à¤°à¤°à¤°à¤°à¤°à¤°à¤°à¤°à¤°à¤°à¤°à¤°à¤°à¤°à¤°à¤°à¤°à¤°à¤°à¤°à¤°à¤°à¤°à¤°à¤°à¤°à¤°à¤°à¤°à¤°à¤°à¤°à¤°à¤°à¤°à¤°à¤°à¤°à¤°à¤°à¤°à¤°à¤°à¤°à¤°à¤°à¤°à¤°à¤°à¤°à¤°à¤°à¤°à¤°à¤°à¤°à¤°à¤°à¤°à¤°à¤°à¤°à¤°à¤°à¤°à¤°à¤°à¤°à¤°à¤°à¤°à¤°à¤°à¤°à¤°à¤°à¤°à¤°à¤°à¤°à¤°à¤°à¤°à¤°à¤°à¤°à¤°à¤°à¤°à¤°à¤°à¤°à¤°à¤°à¤°à¤°à¤°à¤°à¤°à¤°à¤°à¤°à¤°à¤°à¤°à¤°à¤°à¤°à¤°à¤°à¤°à¤°à¤°à¤°à¤°à¤°à¤°à¤°à¤°à¤°à¤°à¤°à¤°à¤°à¤°à¤°à¤°à¤°à¤°à¤°à¤°à¤°à¤°à¤°à¤°à¤°à¤°à¤°à¤°à¤°à¤°à¤°à¤°à¤°à¤°à¤°à¤°à¤°à¤°à¤°à¤°à¤°à¤°à¤°à¤°à¤°à¤°à¤°à¤°à¤°à¤°à¤°à¤°à¤°à¤°à¤°à¤°à¤°",
      "à¥ĩ ;",
      "à¤¤ à¤¸",
      "à¤² à¤Ł",
      "Ġà¤ª à¤®",
      "à¤¼ à¤¾à¥¤\"",
      "Ġà¤¨ à¤¤",
      "à¤¡ à¤¸à¤®",
      "à¤ª à¤«",
      "à¤ª à¤ķà¤¨",
      "Ġà¤ħ à¤Ĺ",
      "à¤Ĺ à¤¦",
      "à¤¼à¥Ģ !\"",
      "à¤¹à¤° à¤£",
      "à¤ĩ à¤«",
      "à¤°à¤ķ à¤ª",
      "à¤¨à¤° à¤¹",
      "Ġà¤īà¤¬ à¤²à¤¨",
      "Ġà¤Ŀà¤ķ à¤Ŀ",
      "à¤¹ à¤²",
      "à¤ķ à¤ļà¤°",
      "à¥ĭ -",
      "à¤¯ à¤ľ",
      "à¤Ĩ à¤ĩà¤¸à¤ķ",
      "à¤¾à¤Ĥ à¥¤",
      "à¤Ĩà¤Ĩà¤Ĩà¤Ĩà¤Ĩà¤Ĩà¤Ĩà¤Ĩà¤Ĩà¤Ĩà¤Ĩà¤Ĩà¤Ĩà¤Ĩà¤Ĩà¤Ĩà¤Ĩà¤Ĩà¤Ĩà¤Ĩà¤Ĩà¤Ĩà¤Ĩà¤Ĩà¤Ĩà¤Ĩà¤Ĩà¤Ĩà¤Ĩà¤Ĩà¤Ĩà¤Ĩà¤Ĩà¤Ĩà¤Ĩà¤Ĩà¤Ĩà¤Ĩà¤Ĩà¤Ĩà¤Ĩà¤Ĩà¤Ĩà¤Ĩà¤Ĩà¤Ĩà¤Ĩà¤Ĩà¤Ĩà¤Ĩà¤Ĩà¤Ĩà¤Ĩà¤Ĩà¤Ĩà¤Ĩà¤Ĩà¤Ĩà¤Ĩà¤Ĩà¤Ĩà¤Ĩà¤Ĩà¤Ĩà¤Ĩà¤Ĩà¤Ĩà¤Ĩà¤Ĩà¤Ĩà¤Ĩà¤Ĩà¤Ĩà¤Ĩà¤Ĩà¤Ĩà¤Ĩà¤Ĩà¤Ĩà¤Ĩà¤Ĩà¤Ĩà¤Ĩà¤Ĩà¤Ĩà¤Ĩà¤Ĩà¤Ĩà¤Ĩà¤Ĩà¤Ĩà¤Ĩà¤Ĩà¤Ĩà¤Ĩà¤Ĩà¤Ĩà¤Ĩà¤Ĩà¤Ĩà¤Ĩà¤Ĩà¤Ĩà¤Ĩà¤Ĩà¤Ĩà¤Ĩà¤Ĩà¤Ĩà¤Ĩà¤Ĩà¤Ĩà¤Ĩà¤Ĩà¤Ĩà¤Ĩà¤Ĩà¤Ĩà¤Ĩà¤Ĩà¤Ĩà¤Ĩà¤Ĩà¤Ĩà¤Ĩà¤Ĩà¤Ĩà¤Ĩ à¤Ĩà¤Ĩà¤Ĩà¤Ĩà¤Ĩà¤Ĩà¤Ĩà¤Ĩà¤Ĩà¤Ĩà¤Ĩà¤Ĩà¤Ĩà¤Ĩà¤Ĩà¤Ĩà¤Ĩà¤Ĩà¤Ĩà¤Ĩà¤Ĩà¤Ĩà¤Ĩà¤Ĩà¤Ĩà¤Ĩà¤Ĩà¤Ĩà¤Ĩà¤Ĩà¤Ĩà¤Ĩà¤Ĩà¤Ĩà¤Ĩà¤Ĩà¤Ĩà¤Ĩà¤Ĩà¤Ĩà¤Ĩà¤Ĩà¤Ĩà¤Ĩà¤Ĩà¤Ĩà¤Ĩà¤Ĩà¤Ĩà¤Ĩà¤Ĩà¤Ĩà¤Ĩà¤Ĩà¤Ĩà¤Ĩà¤Ĩà¤Ĩà¤Ĩà¤Ĩà¤Ĩà¤Ĩà¤Ĩà¤Ĩà¤Ĩà¤Ĩà¤Ĩà¤Ĩà¤Ĩà¤Ĩà¤Ĩà¤Ĩà¤Ĩà¤Ĩà¤Ĩà¤Ĩà¤Ĩà¤Ĩà¤Ĩà¤Ĩà¤Ĩà¤Ĩà¤Ĩà¤Ĩà¤Ĩà¤Ĩà¤Ĩà¤Ĩà¤Ĩà¤Ĩà¤Ĩà¤Ĩà¤Ĩà¤Ĩà¤Ĩà¤Ĩà¤Ĩà¤Ĩà¤Ĩà¤Ĩà¤Ĩà¤Ĩà¤Ĩà¤Ĩà¤Ĩà¤Ĩà¤Ĩà¤Ĩà¤Ĩà¤Ĩà¤Ĩà¤Ĩà¤Ĩà¤Ĩà¤Ĩà¤Ĩà¤Ĩà¤Ĩà¤Ĩà¤Ĩà¤Ĩà¤Ĩà¤Ĩà¤Ĩà¤Ĩà¤Ĩà¤Ĩà¤Ĩ",
      "' à¥¤",
      "Ġ 4",
      "à¤¨ à¤Ŀà¤¨",
      "à¤¸ à¤ľ",
      "à¤¯ à¤Ł",
      "à¤¯ à¤ľà¤¨",
      "Ġà¤ħ à¤ªà¤°",
      "à¤Ł à¤¡",
      "à¤¶ à¤Ń",
      "Ġà¤Ń à¤µà¤¨",
      "Ġà¤Ľ à¤Ł",
      "Ġà¤Ŀ à¤¨à¤Ŀà¤¨",
      "Ġà¤Ī à¤Ĺà¤²",
      "Ġà¤¤à¤¹ à¤ĸ",
      "m my",
      "r r",
      "u mmy",
      "Ġ |",
      "Ġ âĢľ",
      "à¤° à¤ļ",
      "Ġà¤ķ à¤µà¤ļ",
      "à¤® à¤¶",
      "Ġà¤Ĺ à¤¸",
      "à¤ľ à¤®",
      "Ġà¤¤ à¤¡",
      "à¥ĭà¤Ĥ ?",
      "Ġà¤Ľ à¤ª",
      "à¤§ à¤¬",
      "Ġà¤¤à¤ķ à¤²",
      "à¤ªà¤° à¤®",
      "à¤¨à¤µà¤° à¤¹",
      "à¤¾. ..",
      "Ġà¤Ľà¤² à¤ķ",
      "Ġà¤¬à¤Ł à¤°à¤ķà¤ª",
      "Ġ X",
      "ĭ à¤¤",
      "Ġà¤ ĭà¤¤",
      "à¤ķ à¤ĸ",
      "Ġà¤² à¤¯",
      "Ġà¤² à¤ľ",
      "à¤¼ ,\"",
      "à¤ª à¤ª",
      "à¤Ĺ à¤¸",
      "à¤Ĺ à¤łà¤¨",
      "à¤ģ ?",
      "à¥Īà¤Ĥ \"",
      "Ġà¤ĩ à¤µ",
      "Ġà¤Ŀ à¤²à¤ķ",
      "à¤¶à¤¨ à¤°",
      "Ġà¤Ī à¤µ",
      "Ġà¤ĳà¤« à¤°",
      "à¤ķ à¤¤à¤°",
      "Ġà¤ī à¤¬à¤¡",
      "Ġà¤² à¤Ł",
      "Ġà¤ľ à¤Ł",
      "à¤¡ à¤°à¤¨",
      "à¤ª à¤Łà¤¨",
      "Ġà¤ķà¤° à¤µà¤Ł",
      "à¤¶ à¤¤",
      "Ġà¤¨à¤¹ à¤²",
      "à¤ķà¤° à¤¤",
      "à¤Ĩ à¤²",
      "à¤¯à¤° à¤¡",
      "Ġà¤ĳ à¤¸",
      "Ġà¤ħà¤Ł à¤ªà¤Ł",
      "à¤ıà¤¡ à¤®",
      "Ø ¯",
      "ã Ģ",
      "à¥ĭ '",
      "Ġà¤¬ à¤Ľà¤¡",
      "Ġà¤ī à¤¥à¤²",
      "Ġà¤° à¤¨",
      "à¤ı à¤°",
      "à¤ģ -",
      "à¤¥ à¤¬",
      "à¤· à¤¯",
      "à¤¼à¥Ģ .",
      "à¤¸à¤ķ à¤¨",
      "à¤ī à¤Ľ",
      "Ġà¤Ĩà¤¯ à¤°à¤¨",
      "Ġà¤ı à¤¯à¤°",
      "Ġà¤ĸà¤° à¤¬",
      "à¤¤à¤° à¤¹",
      "Ġà¤¶à¤° à¤¦",
      "à¤Łà¤ķ à¤ķà¤°",
      "Ġà¤¦à¤¬ à¤¦à¤¬",
      "Ġà¤Łà¤¹ à¤²à¤¤",
      "ãĢ Ĥ",
      "a s",
      "à¤¹ à¤¡",
      "à¤¯ ummy",
      "à¤¦ à¤¹",
      "à¥Ĥ '",
      "à¥Ĥ -",
      "Ġà¤ħ à¤µà¤°",
      "à¤ľ à¤¯",
      "à¤ĸ à¤ķ",
      "Ġà¤Ł à¤ķà¤Ł",
      "Ġà¤ªà¤° à¤¤",
      "à¤ī à¤¤",
      "Ġà¤ı à¤µà¤°",
      "à¤ĩà¤¨ à¤°",
      "Ġà¤ļà¤ķ à¤®",
      "Ġà¤īà¤¬ à¤²à¤¤",
      "à¤ĳ à¤°",
      "Ġà¤Łà¤ķà¤Ł à¤ķ",
      "à¥ĩ '",
      "à¤° à¤Ĺà¤¤",
      "à¤¿ à¥¤",
      "à¤ķ à¤®à¤°",
      "à¥ģ ,",
      "Ġà¤® à¤¤à¤Ń",
      "Ġà¤ª à¤«",
      "à¤¡ à¤ª",
      "Ġà¤¤ à¤¥",
      "Ġà¤Ĩ à¤¸à¤¨",
      "à¤Ī à¤®",
      "à¤Ī à¤Ł",
      "à¤§ à¤ķà¤°",
      "Ġà¤ĵ à¤ĩ",
      "Ġà¤ĵ à¤µà¤°",
      "à¤¯à¤° à¤¸",
      "à¤ĩà¤¡ à¤µ",
      "à¤¯à¤² à¤°",
      "Ġà¤¬à¤¦ à¤²à¤ķà¤°",
      "Ġà¤ĳ à¤ª",
      "Ġà¤īà¤Ľ à¤²à¤ķà¤°",
      "Ġà¤¹à¤² à¤ļà¤²",
      "à¤¾\" à¥¤",
      "à¤ĳ à¤ªà¤°",
      "Ġà¤¬à¤Łà¤° à¤«",
      "à¤ľà¤Ĺ à¤¹",
      "ĠA my",
      "à¤° à¤¹à¤¸",
      "à¤Ĥ ?",
      "à¤² à¤¶",
      "à¤² à¤Łà¤°",
      "Ġà¤® à¤°à¤¨",
      "à¤¦ à¤¶",
      "à¤ľ à¤¡",
      "à¤ģ .",
      "à¤Ī à¤µ",
      "à¤¾à¤ģ .",
      "Ġà¤ªà¤° à¤ĸà¤¨",
      "à¤¼à¤¾ à¤Ĥ",
      "ĠĊ Ċ",
      "à¤Ĩ à¤ĸ",
      "à¤ĩ à¤¤à¤¨",
      "à¤ĩ à¤°à¤²",
      "à¤ħ à¤§",
      "à¤ĵ à¤ļ",
      "Ġà¤¬à¤ķ à¤µ",
      "Ġà¤ĳ à¤¬",
      "à¤Ķà¤° à¤¤",
      "à¤²à¤¯ à¤ķà¤°",
      "Ġà¤ĸà¤Ł à¤ªà¤Ł",
      "Ġ à¥¤",
      "à¤¸ à¤¹",
      "à¤¼ à¥Ĥà¤ģ",
      "à¥Ĥ ,\"",
      "Ġà¤ħ à¤¹à¤®",
      "Ġà¤ĸ à¤¸",
      "à¤Ł à¤ħà¤ª",
      "à¤ĸ à¤ľ",
      "à¥ĭà¤Ĥ .",
      "à¤¬ à¤§",
      "à¤¬ à¤¦à¤²",
      "à¤Ľ à¤µ",
      "à¥Ģà¤Ĥ .\"",
      "à¤ĵ à¤ª",
      "à¥Ī!\" ,",
      "ãĤ¢ãĤ¤ à¤¡",
      "Ġà¤ªà¤² à¤Łà¤ķà¤°",
      "Ġà¤ħà¤¸ à¤«à¤²",
      "Ġà¤ĩà¤¨ à¤µ",
      "à¤ķà¤Łà¤¤ à¤®",
      "! '",
      "à¤° à¤¬à¤°",
      "à¤¨ à¤µà¤¸",
      "Ġà¤® à¤²à¤¬",
      "Ġà¤Ķà¤° ãĤ¢ãĤ¤ãĥĩãĤ¢",
      "à¤ª à¤¤à¤²",
      "Ġà¤ıà¤ķ à¤®à¤¤",
      "à¤ļ à¤Ł",
      "à¤ļ à¤®à¤ķ",
      "à¤Ī à¤ľ",
      "Ġà¤Ń à¤¤",
      "Ġà¤Ń à¤¡",
      "Ġà¤ĩ à¤ľà¤¹",
      "à¤« à¤¨",
      "à¤Ŀ à¤¡",
      "à¤ĩ à¤Ĺ",
      "à¤ĩ à¤ªà¤°",
      "Ġà¤ªà¤ķ à¤µ",
      "Ġà¤ªà¤¤ à¤Ŀà¤¡",
      "Ġà¤ı à¤¸",
      "Ġà¤ı à¤²à¤¨",
      "Ġà¤Ńà¤° à¤ª",
      "à¤ĺ à¤¡",
      "Ġà¤ıà¤² à¤°",
      "Ġà¤ħà¤¸ à¤Ń",
      "à¤²à¤ļ à¤¡",
      "à¤ĩà¤« à¤Ĺ",
      "c in",
      "e d",
      "· ãĥ",
      "Ø §",
      "ĥ ãĤ",
      "à¤¨ à¤ļà¤°",
      "Ġà¤ķ à¤¦à¤°",
      "à¤¹ à¤µà¤°",
      "Ġà¤¬ à¤¬",
      "à¥Ī ;",
      "Ġà¤Ĺ à¤ľ",
      "à¤· à¤ľ",
      "à¤¾à¤Ĥ !",
      "Ġà¤Ĺà¤° à¤ľà¤¤",
      "ãĥ ĥãĤ",
      "Ġà¤ªà¤² à¤Łà¤¨",
      "à¤°à¤¹ à¤ª",
      "à¤ĥ ,",
      "Ġà¤¸à¤¨ à¤¬à¤°",
      "à¤®à¤¹ à¤²",
      "as cin",
      "ãĥĥãĤ ·ãĥ",
      "¥ à¤°",
      "Ø ¨",
      "Ġ 6",
      "Ġ 8",
      "Ġà¤ķ à¤«",
      "à¤ķ à¤¦",
      "Ġà¤® ãĥĥãĤ·ãĥ",
      "Ġà¤ī à¤ĸ",
      "Ġà¤² à¤¦",
      "à¤¼ à¥ĩà¥¤\"",
      "Ġà¤ľ à¤¯à¤ķ",
      "à¤¡ à¤¹à¤°",
      "Ġà¤ħ à¤¸à¤°",
      "à¤Ĺ à¤¬",
      "à¤Ĺ à¤²à¤¨",
      "à¤Ł à¤µ",
      "à¤ĸ à¤ļ",
      "à¤Ī ãĤ¢ãĤ¤ãĥĩãĤ¢",
      "à¤Ń à¤¤",
      "à¥Ģ, âĢĿ",
      "à¤¼à¥ĩ !\"",
      "!\" ,",
      "à¤ĩ à¤¶",
      "à¥Ĥà¤ģ \"",
      "Ġà¤Ĺà¤° à¤ľà¤¨",
      "Ġà¤ı à¤ªà¤°",
      "à¤ĵ à¤µà¤¨",
      "à¤Ĺà¤¨ à¤«",
      "à¤¼à¥ĭ !",
      "Ġà¤¬à¤° à¤ķà¤°",
      "at ed",
      "ascin ated",
      "Ġà¤®ãĥĥãĤ·ãĥ ¥à¤°",
      "Ġà¤ıà¤ªà¤° à¤¨",
      ". .\"",
      "Ġà¤ķ à¤Łà¤°",
      "à¤ķ à¤ķ",
      "à¤¸ à¤Ł",
      "Ġà¤¹ à¤ľ",
      "Ġà¤² à¤²à¤ļ",
      "Ġà¤¨ à¤Ĺ",
      "Ġà¤µ à¤¨",
      "Ġà¤ľ à¤®à¤¨",
      "à¥Ĥ ?\"",
      "Ġà¤ħ à¤ĸà¤°",
      "à¤Ĺ à¤®",
      "à¤Ĺ à¤¤à¤¨",
      "à¤ľ à¤¹à¤°",
      "à¤¬ à¤µ",
      "à¤¬ à¤Łà¤¨",
      "à¤¬ à¤¤à¤ĸ",
      "à¤ļ à¤²à¤¨",
      "Ġà¤²à¤Ĺ à¤µ",
      "Ġà¤¶ à¤¶",
      "Ġà¤¡ à¤Ł",
      "à¤§ à¤¯",
      "Ġà¤ĵ à¤Łà¤°",
      "Ġà¤ĵ à¤īà¤ļ",
      "Ġà¤ªà¤ķ à¤¨",
      "à¤ħ à¤Ł",
      "à¤ħ à¤²à¤®",
      "à¤ĸà¤¤ à¤°",
      "Ġà¤ļà¤®à¤ķ à¤ķà¤°",
      "Ġà¤Ŀ à¤ªà¤Ł",
      "Ġà¤¸à¤®à¤Ŀ à¤ķà¤°",
      "à¥ĭ? !\"",
      "à¤¾\" ,",
      "Ġà¤ħà¤ĸ à¤¬",
      "Ġà¤²à¤Ł à¤ķà¤¤",
      "Ø§ Ù",
      "a m",
      "Ø ±",
      "à¤ķ à¤ļ",
      "à¤ķ à¤Ĩà¤īà¤Ł",
      "Ġà¤¸ à¤Ł",
      "Ġà¤® à¤Ł",
      "Ġà¤¬ à¤Łà¤°à¤¸",
      "à¤¯ à¤¥",
      "Ġà¤ª à¤Łà¤ķ",
      "à¤¼ à¤Ĥ",
      "à¤¡ à¤ķà¤°",
      "à¤ª à¤¥",
      "Ġà¤ļ à¤°à¤£",
      "Ġà¤ļ à¤Łà¤ķ",
      "Ġà¤ļ à¤ªà¤¤",
      "à¤ľ à¤¸",
      "à¤ļ à¤ª",
      "Ġà¤ķà¤¹ à¤²",
      "Ġà¤Ł à¤Ł",
      "à¤¼à¤¾ ?",
      "à¤Ń à¤¯",
      "à¤¼à¥Ģ :",
      "à¤ħ à¤ķ",
      "Ġà¤Ĩà¤ª à¤¦",
      "à¥ĩà¤Ĥ, âĢĿ",
      "à¤¤à¤° à¤¨",
      "à¤°à¤® à¤°",
      "à¤ĩà¤ķ à¤«",
      "à¥Ī? !\"",
      "à¤Ńà¤Ĺ à¤µ",
      "in k",
      "à¥Ģ\" à¥¤",
      "à¥Ī\" à¥¤",
      "Ġ2 0",
      "à¤°à¤°à¤°à¤°à¤°à¤°à¤°à¤°à¤°à¤°à¤°à¤°à¤°à¤°à¤°à¤°à¤°à¤°à¤°à¤°à¤°à¤°à¤°à¤°à¤°à¤°à¤°à¤°à¤°à¤°à¤°à¤°à¤°à¤°à¤°à¤°à¤°à¤°à¤°à¤°à¤°à¤°à¤°à¤°à¤°à¤°à¤°à¤°à¤°à¤°à¤°à¤°à¤°à¤°à¤°à¤°à¤°à¤°à¤°à¤°à¤°à¤°à¤°à¤°à¤°à¤°à¤°à¤°à¤°à¤°à¤°à¤°à¤°à¤°à¤°à¤°à¤°à¤°à¤°à¤°à¤°à¤°à¤°à¤°à¤°à¤°à¤°à¤°à¤°à¤°à¤°à¤°à¤°à¤°à¤°à¤°à¤°à¤°à¤°à¤°à¤°à¤°à¤°à¤°à¤°à¤°à¤°à¤°à¤°à¤°à¤°à¤°à¤°à¤°à¤°à¤°à¤°à¤°à¤°à¤°à¤°à¤°à¤°à¤°à¤°à¤°à¤°à¤°à¤°à¤°à¤°à¤°à¤°à¤°à¤°à¤°à¤°à¤°à¤°à¤°à¤°à¤°à¤°à¤°à¤°à¤°à¤°à¤°à¤°à¤°à¤°à¤°à¤°à¤°à¤°à¤°à¤°à¤°à¤°à¤°à¤°à¤°à¤°à¤°à¤°à¤°à¤°à¤°à¤°à¤°à¤°à¤°à¤°à¤°à¤°à¤°à¤°à¤°à¤°à¤°à¤°à¤°à¤°à¤°à¤°à¤°à¤°à¤°à¤°à¤°à¤°à¤°à¤°à¤°à¤°à¤°à¤°à¤°à¤°à¤°à¤°à¤°à¤°à¤°à¤°à¤°à¤°à¤°à¤°à¤°à¤°à¤°à¤°à¤°à¤°à¤°à¤°à¤°à¤°à¤°à¤°à¤°à¤°à¤°à¤°à¤°à¤°à¤°à¤°à¤°à¤°à¤°à¤°à¤°à¤°à¤°à¤°à¤°à¤°à¤°à¤°à¤°à¤°à¤°à¤°à¤°à¤°à¤°à¤°à¤°à¤°à¤°à¤°à¤°à¤°à¤°à¤°à¤°à¤°à¤°à¤°à¤°à¤°à¤°à¤°à¤°à¤°à¤°à¤°à¤°à¤°à¤°à¤°à¤°à¤°à¤°à¤°à¤°à¤°à¤°à¤°à¤°à¤°à¤°à¤°à¤°à¤°à¤°à¤°à¤°à¤°à¤°à¤°à¤°à¤°à¤°à¤°à¤°à¤°à¤°à¤°à¤°à¤°à¤°à¤°à¤°à¤°à¤°à¤°à¤°à¤°à¤°à¤°à¤°à¤°à¤°à¤°à¤°à¤°à¤°à¤°à¤°à¤°à¤°à¤°à¤°à¤°à¤°à¤°à¤°à¤°à¤°à¤°à¤°à¤°à¤°à¤°à¤°à¤°à¤°à¤°à¤°à¤°à¤°à¤°à¤°à¤°à¤°à¤°à¤°à¤°à¤°à¤°à¤°à¤°à¤°à¤°à¤°à¤°à¤°à¤°à¤°à¤°à¤°à¤°à¤°à¤°à¤°à¤°à¤°à¤°à¤°à¤°à¤°à¤°à¤°à¤°à¤°à¤°à¤°à¤°à¤°à¤°à¤°à¤°à¤°à¤°à¤°à¤°à¤°à¤°à¤°à¤°à¤°à¤°à¤°à¤°à¤°à¤°à¤°à¤°à¤°à¤°à¤°à¤°à¤°à¤°à¤°à¤°à¤°à¤°à¤°à¤°à¤°à¤°à¤°à¤°à¤°à¤°à¤°à¤°à¤°à¤°à¤°à¤°à¤°à¤°à¤°à¤°à¤°à¤°à¤°à¤°à¤°à¤°à¤°à¤°à¤°à¤°à¤°à¤°à¤°à¤°à¤°à¤°à¤°à¤°à¤°à¤°à¤°à¤°à¤°à¤°à¤°à¤°à¤°à¤°à¤°à¤°à¤°à¤°à¤°à¤°à¤°à¤°à¤°à¤°à¤°à¤°à¤°à¤°à¤°à¤°à¤°à¤°à¤°à¤°à¤°à¤°à¤°à¤°à¤°à¤°à¤°à¤°à¤°à¤°à¤°à¤°à¤°à¤°à¤°à¤°à¤°à¤°à¤°à¤°à¤°à¤°à¤°à¤°à¤°à¤°à¤°à¤°à¤°à¤°à¤°à¤°à¤°à¤°à¤° à¤°à¤°à¤°à¤°à¤°à¤°à¤°à¤°à¤°à¤°à¤°à¤°à¤°à¤°à¤°à¤°à¤°à¤°à¤°à¤°à¤°à¤°à¤°à¤°à¤°à¤°à¤°à¤°à¤°à¤°à¤°à¤°à¤°à¤°à¤°à¤°à¤°à¤°à¤°à¤°à¤°à¤°à¤°à¤°à¤°à¤°à¤°à¤°à¤°à¤°à¤°à¤°à¤°à¤°à¤°à¤°à¤°à¤°à¤°à¤°à¤°à¤°à¤°à¤°à¤°à¤°à¤°à¤°à¤°à¤°à¤°à¤°à¤°à¤°à¤°à¤°à¤°à¤°à¤°à¤°à¤°à¤°à¤°à¤°à¤°à¤°à¤°à¤°à¤°à¤°à¤°à¤°à¤°à¤°à¤°à¤°à¤°à¤°à¤°à¤°à¤°à¤°à¤°à¤°à¤°à¤°à¤°à¤°à¤°à¤°à¤°à¤°à¤°à¤°à¤°à¤°à¤°à¤°à¤°à¤°à¤°à¤°à¤°à¤°à¤°à¤°à¤°à¤°à¤°à¤°à¤°à¤°à¤°à¤°à¤°à¤°à¤°à¤°à¤°à¤°à¤°à¤°à¤°à¤°à¤°à¤°à¤°à¤°à¤°à¤°à¤°à¤°à¤°à¤°à¤°à¤°à¤°à¤°à¤°à¤°à¤°à¤°à¤°à¤°à¤°à¤°à¤°à¤°à¤°à¤°à¤°à¤°à¤°à¤°à¤°à¤°à¤°à¤°à¤°à¤°à¤°à¤°à¤°à¤°à¤°à¤°à¤°à¤°à¤°à¤°à¤°à¤°à¤°à¤°à¤°à¤°à¤°à¤°à¤°à¤°à¤°à¤°à¤°à¤°à¤°à¤°à¤°à¤°à¤°à¤°à¤°à¤°à¤°à¤°à¤°à¤°à¤°à¤°à¤°à¤°à¤°à¤°à¤°à¤°à¤°à¤°à¤°à¤°à¤°à¤°à¤°à¤°à¤°à¤°à¤°à¤°à¤°à¤°à¤°à¤°à¤°à¤°à¤°à¤°à¤°à¤°à¤°à¤°à¤°à¤°à¤°à¤°à¤°à¤°à¤°à¤°à¤°à¤°à¤°à¤°à¤°à¤°à¤°à¤°à¤°à¤°à¤°à¤°à¤°à¤°à¤°à¤°à¤°à¤°à¤°à¤°à¤°à¤°à¤°à¤°à¤°à¤°à¤°à¤°à¤°à¤°à¤°à¤°à¤°à¤°à¤°à¤°à¤°à¤°à¤°à¤°à¤°à¤°à¤°à¤°à¤°à¤°à¤°à¤°à¤°à¤°à¤°à¤°à¤°à¤°à¤°à¤°à¤°à¤°à¤°à¤°à¤°à¤°à¤°à¤°à¤°à¤°à¤°à¤°à¤°à¤°à¤°à¤°à¤°à¤°à¤°à¤°à¤°à¤°à¤°à¤°à¤°à¤°à¤°à¤°à¤°à¤°à¤°à¤°à¤°à¤°à¤°à¤°à¤°à¤°à¤°à¤°à¤°à¤°à¤°à¤°à¤°à¤°à¤°à¤°à¤°à¤°à¤°à¤°à¤°à¤°à¤°à¤°à¤°à¤°à¤°à¤°à¤°à¤°à¤°à¤°à¤°à¤°à¤°à¤°à¤°à¤°à¤°à¤°à¤°à¤°à¤°à¤°à¤°à¤°à¤°à¤°à¤°à¤°à¤°à¤°à¤°à¤°à¤°à¤°à¤°à¤°à¤°à¤°à¤°à¤°à¤°à¤°à¤°à¤°à¤°à¤°à¤°à¤°à¤°à¤°à¤°à¤°à¤°à¤°à¤°à¤°à¤°à¤°à¤°à¤°à¤°à¤°à¤°à¤°à¤°à¤°à¤°à¤°à¤°à¤°à¤°à¤°à¤°à¤°à¤°à¤°à¤°à¤°à¤°à¤°à¤°à¤°à¤°à¤°à¤°à¤°à¤°à¤°à¤°à¤°à¤°à¤°à¤°à¤°à¤°à¤°à¤°à¤°à¤°à¤°à¤°à¤°à¤°à¤°à¤°à¤°à¤°à¤°à¤°à¤°à¤°à¤°à¤°à¤°à¤°à¤°à¤°à¤°à¤°à¤°à¤°à¤°à¤°à¤°à¤°à¤°à¤°à¤°à¤°à¤°à¤°à¤°à¤°à¤°à¤°à¤°à¤°à¤°à¤°à¤°à¤°à¤°à¤°à¤°à¤°à¤°",
      "à¤Ĩà¤Ĩà¤Ĩà¤Ĩà¤Ĩà¤Ĩà¤Ĩà¤Ĩà¤Ĩà¤Ĩà¤Ĩà¤Ĩà¤Ĩà¤Ĩà¤Ĩà¤Ĩà¤Ĩà¤Ĩà¤Ĩà¤Ĩà¤Ĩà¤Ĩà¤Ĩà¤Ĩà¤Ĩà¤Ĩà¤Ĩà¤Ĩà¤Ĩà¤Ĩà¤Ĩà¤Ĩà¤Ĩà¤Ĩà¤Ĩà¤Ĩà¤Ĩà¤Ĩà¤Ĩà¤Ĩà¤Ĩà¤Ĩà¤Ĩà¤Ĩà¤Ĩà¤Ĩà¤Ĩà¤Ĩà¤Ĩà¤Ĩà¤Ĩà¤Ĩà¤Ĩà¤Ĩà¤Ĩà¤Ĩà¤Ĩà¤Ĩà¤Ĩà¤Ĩà¤Ĩà¤Ĩà¤Ĩà¤Ĩà¤Ĩà¤Ĩà¤Ĩà¤Ĩà¤Ĩà¤Ĩà¤Ĩà¤Ĩà¤Ĩà¤Ĩà¤Ĩà¤Ĩà¤Ĩà¤Ĩà¤Ĩà¤Ĩà¤Ĩà¤Ĩà¤Ĩà¤Ĩà¤Ĩà¤Ĩà¤Ĩà¤Ĩà¤Ĩà¤Ĩà¤Ĩà¤Ĩà¤Ĩà¤Ĩà¤Ĩà¤Ĩà¤Ĩà¤Ĩà¤Ĩà¤Ĩà¤Ĩà¤Ĩà¤Ĩà¤Ĩà¤Ĩà¤Ĩà¤Ĩà¤Ĩà¤Ĩà¤Ĩà¤Ĩà¤Ĩà¤Ĩà¤Ĩà¤Ĩà¤Ĩà¤Ĩà¤Ĩà¤Ĩà¤Ĩà¤Ĩà¤Ĩà¤Ĩà¤Ĩà¤Ĩà¤Ĩà¤Ĩà¤Ĩà¤Ĩà¤Ĩà¤Ĩà¤Ĩà¤Ĩà¤Ĩà¤Ĩà¤Ĩà¤Ĩà¤Ĩà¤Ĩà¤Ĩà¤Ĩà¤Ĩà¤Ĩà¤Ĩà¤Ĩà¤Ĩà¤Ĩà¤Ĩà¤Ĩà¤Ĩà¤Ĩà¤Ĩà¤Ĩà¤Ĩà¤Ĩà¤Ĩà¤Ĩà¤Ĩà¤Ĩà¤Ĩà¤Ĩà¤Ĩà¤Ĩà¤Ĩà¤Ĩà¤Ĩà¤Ĩà¤Ĩà¤Ĩà¤Ĩà¤Ĩà¤Ĩà¤Ĩà¤Ĩà¤Ĩà¤Ĩà¤Ĩà¤Ĩà¤Ĩà¤Ĩà¤Ĩà¤Ĩà¤Ĩà¤Ĩà¤Ĩà¤Ĩà¤Ĩà¤Ĩà¤Ĩà¤Ĩà¤Ĩà¤Ĩà¤Ĩà¤Ĩà¤Ĩà¤Ĩà¤Ĩà¤Ĩà¤Ĩà¤Ĩà¤Ĩà¤Ĩà¤Ĩà¤Ĩà¤Ĩà¤Ĩà¤Ĩà¤Ĩà¤Ĩà¤Ĩà¤Ĩà¤Ĩà¤Ĩà¤Ĩà¤Ĩà¤Ĩà¤Ĩà¤Ĩà¤Ĩà¤Ĩà¤Ĩà¤Ĩà¤Ĩà¤Ĩà¤Ĩà¤Ĩà¤Ĩà¤Ĩà¤Ĩà¤Ĩà¤Ĩà¤Ĩà¤Ĩà¤Ĩà¤Ĩà¤Ĩà¤Ĩà¤Ĩà¤Ĩà¤Ĩà¤Ĩà¤Ĩà¤Ĩà¤Ĩà¤Ĩà¤Ĩà¤Ĩà¤Ĩà¤Ĩà¤Ĩà¤Ĩà¤Ĩà¤Ĩà¤Ĩà¤Ĩà¤Ĩ à¤Ĩà¤Ĩà¤Ĩà¤Ĩà¤Ĩà¤Ĩà¤Ĩà¤Ĩà¤Ĩà¤Ĩà¤Ĩà¤Ĩà¤Ĩà¤Ĩà¤Ĩà¤Ĩà¤Ĩà¤Ĩà¤Ĩà¤Ĩà¤Ĩà¤Ĩà¤Ĩà¤Ĩà¤Ĩà¤Ĩà¤Ĩà¤Ĩà¤Ĩà¤Ĩà¤Ĩà¤Ĩà¤Ĩà¤Ĩà¤Ĩà¤Ĩà¤Ĩà¤Ĩà¤Ĩà¤Ĩà¤Ĩà¤Ĩà¤Ĩà¤Ĩà¤Ĩà¤Ĩà¤Ĩà¤Ĩà¤Ĩà¤Ĩà¤Ĩà¤Ĩà¤Ĩà¤Ĩà¤Ĩà¤Ĩà¤Ĩà¤Ĩà¤Ĩà¤Ĩà¤Ĩà¤Ĩà¤Ĩà¤Ĩà¤Ĩà¤Ĩà¤Ĩà¤Ĩà¤Ĩà¤Ĩà¤Ĩà¤Ĩà¤Ĩà¤Ĩà¤Ĩà¤Ĩà¤Ĩà¤Ĩà¤Ĩà¤Ĩà¤Ĩà¤Ĩà¤Ĩà¤Ĩà¤Ĩà¤Ĩà¤Ĩà¤Ĩà¤Ĩà¤Ĩà¤Ĩà¤Ĩà¤Ĩà¤Ĩà¤Ĩà¤Ĩà¤Ĩà¤Ĩà¤Ĩà¤Ĩà¤Ĩà¤Ĩà¤Ĩà¤Ĩà¤Ĩà¤Ĩà¤Ĩà¤Ĩà¤Ĩà¤Ĩà¤Ĩà¤Ĩà¤Ĩà¤Ĩà¤Ĩà¤Ĩà¤Ĩà¤Ĩà¤Ĩà¤Ĩà¤Ĩà¤Ĩà¤Ĩà¤Ĩà¤Ĩà¤Ĩà¤Ĩà¤Ĩà¤Ĩà¤Ĩà¤Ĩà¤Ĩà¤Ĩà¤Ĩà¤Ĩà¤Ĩà¤Ĩà¤Ĩà¤Ĩà¤Ĩà¤Ĩà¤Ĩà¤Ĩà¤Ĩà¤Ĩà¤Ĩà¤Ĩà¤Ĩà¤Ĩà¤Ĩà¤Ĩà¤Ĩà¤Ĩà¤Ĩà¤Ĩà¤Ĩà¤Ĩà¤Ĩà¤Ĩà¤Ĩà¤Ĩà¤Ĩà¤Ĩà¤Ĩà¤Ĩà¤Ĩà¤Ĩà¤Ĩà¤Ĩà¤Ĩà¤Ĩà¤Ĩà¤Ĩà¤Ĩà¤Ĩà¤Ĩà¤Ĩà¤Ĩà¤Ĩà¤Ĩà¤Ĩà¤Ĩà¤Ĩà¤Ĩà¤Ĩà¤Ĩà¤Ĩà¤Ĩà¤Ĩà¤Ĩà¤Ĩà¤Ĩà¤Ĩà¤Ĩà¤Ĩà¤Ĩà¤Ĩà¤Ĩà¤Ĩà¤Ĩà¤Ĩà¤Ĩà¤Ĩà¤Ĩà¤Ĩà¤Ĩà¤Ĩà¤Ĩà¤Ĩà¤Ĩà¤Ĩà¤Ĩà¤Ĩà¤Ĩà¤Ĩà¤Ĩà¤Ĩà¤Ĩà¤Ĩà¤Ĩà¤Ĩà¤Ĩà¤Ĩà¤Ĩà¤Ĩà¤Ĩà¤Ĩà¤Ĩà¤Ĩà¤Ĩà¤Ĩà¤Ĩà¤Ĩà¤Ĩà¤Ĩà¤Ĩà¤Ĩà¤Ĩà¤Ĩà¤Ĩà¤Ĩà¤Ĩà¤Ĩà¤Ĩà¤Ĩà¤Ĩà¤Ĩà¤Ĩà¤Ĩà¤Ĩà¤Ĩà¤Ĩà¤Ĩà¤Ĩà¤Ĩà¤Ĩ",
      "rr r",
      "\" ãĢĤ",
      "Ù Ĩ",
      "Ġ g",
      "Ġ ì",
      "Ġ Ø¯",
      "à¤¨ à¤ķà¤²",
      "à¤ķ à¤¦à¤®",
      "à¤¤ à¤®",
      "à¤¤ à¤«à¤°",
      "Ġà¤ī à¤Ń",
      "à¤¯ à¤ªà¤°",
      "à¤¼ à¥Ģà¥¤\"",
      "Ġà¤¨ à¤ļ",
      "à¥Ĥ à¥¤\"",
      "à¤ı à¤¯à¤°à¤ª",
      "à¤¬ à¤¹à¤°",
      "à¤ļ à¤µà¤°",
      "à¤¾, âĢĿ",
      "Ġà¤Ĩ à¤ĩà¤°",
      "à¥Īà¥¤ '",
      "Ġà¤Ł à¤«",
      "à¤« à¤ķ",
      "à¤« à¤µ",
      "à¤Ĩ à¤ĩà¤¸",
      "à¥Ī, âĢĿ",
      "à¤ħ à¤µà¤ķ",
      "Ġà¤ľà¤² à¤ķà¤°",
      "Ġà¤Ĳ à¤®",
      "Ġà¤¢ à¤¹",
      "Ġà¤¬à¤° à¤¸à¤¤",
      "Ġà¤®à¤¨ à¤ļ",
      "à¤¡à¤° à¤¸",
      "à¤¡à¤° à¤µ",
      "Ġà¤ħà¤« à¤°",
      "à¤ĩà¤² à¤°",
      "Ġ1 5",
      "à¤¡à¤® à¤¦à¤°",
      "Ø¨ Ø§Ù",
      "ÙĨ Ø¨Ø§Ù",
      "ĠØ¯ ÙĨØ¨Ø§Ù",
      "ĠØ¯ÙĨØ¨Ø§Ù Ħ",
      ": ,",
      "m m",
      "o ink",
      "Ġ 5",
      "à¤° à¤ĸ",
      "à¤¨ à¤°à¤®",
      "à¤ķ à¤®",
      "à¤¤ à¤ķà¤°",
      "à¤² à¤ķà¤¡",
      "à¤² à¤µà¤Ł",
      "Ġà¤® à¤¡",
      "Ġà¤® à¤¸à¤²",
      "Ġà¤¥ à¤¡",
      "Ġà¤ħ à¤ľà¤¬",
      "à¤Ĺ à¤§",
      "Ġà¤° à¤¦",
      "Ġà¤ļ à¤ķà¤¤",
      "à¤ľ à¤ľ",
      "à¤ı à¤µ",
      "à¤ı à¤µà¤°",
      "à¤ģ \"",
      "à¤¾à¤ģ '",
      "Ġà¤¬à¤¹ à¤ķà¤°",
      "Ġà¤ªà¤° à¤®",
      "Ġà¤¯ à¤²",
      "Ġà¤¶ à¤µ",
      "Ġà¤ĺ à¤Ł",
      "à¤· à¤ľà¤¨à¤ķ",
      "à¤Ŀ à¤¤",
      "à¤Ĩ à¤¶",
      "à¤§ à¤¦",
      "Ġà¤ľà¤¬ à¤°à¤¨",
      "Ġà¤¡à¤° à¤ķà¤°",
      "Ġà¤¤à¤° à¤¸",
      "à¤ĵ à¤Ł",
      "Ġà¤Ńà¤° à¤µ",
      "à¤ķà¤² à¤°",
      "à¤Łà¤° à¤¨",
      "à¤Ĺà¤° à¤®",
      "Ġà¤¸à¤° à¤¸à¤°",
      "Ġà¤īà¤² à¤Ŀà¤¨",
      "Ġà¤ĳ à¤®à¤²",
      "Ġà¤ĳ à¤¨à¤²",
      "à¤Ĺà¤¡ à¤®",
      "à¤¾? !\"",
      "Ġà¤¨à¤ľ à¤¦",
      "à¤ķà¤ª à¤¡",
      "Ġà¤īà¤Ĺ à¤²à¤¨",
      "t i",
      "Ú ©",
      "Ġ O",
      "Ġ Ú©",
      "à¤° à¤¬à¤²",
      "à¤¨ à¤ªà¤¨",
      "Ġà¤ķ à¤¢",
      "à¤ķ à¤«",
      "à¤¸ à¤¦",
      "à¤¸ à¤Ĺ",
      "à¤¸ à¤ªà¤¨",
      "à¥ĭ :",
      "à¤² à¤®à¤¨",
      "à¤² à¤¬à¤¹",
      "Ġà¤¹ à¤Łà¤ķ",
      "Ġà¤¸ à¤¦",
      "à¤® à¤Ĺà¤°",
      "à¤® à¤°à¤®",
      "Ġà¤² à¤µ",
      "à¤¼ à¥ĭ,\"",
      "Ġà¤ħ à¤µà¤¤",
      "Ġà¤ļ à¤°à¤®",
      "à¤µ à¤«",
      "à¤¬ à¤®",
      "à¤¬ à¤¢",
      "Ġà¤Ł à¤ļ",
      "Ġà¤Ł à¤ĸà¤¨",
      "Ġà¤Ľ à¤¤à¤°",
      "à¥Į \"",
      "à¥Į !\"",
      "à¤Ĩ à¤§",
      "à¤§ à¤ķ",
      "Ġà¤ľà¤¬ à¤¡",
      "Ġà¤Ĺà¤² à¤µ",
      "à¤¤à¤¨ à¤§",
      "Ġà¤Ŀ à¤Ł",
      "Ġà¤ı à¤Ĺ",
      "Ġà¤¢ à¤ķà¤ķà¤°",
      "à¥Ī! '",
      "à¤¡à¤² à¤°",
      "Ġà¤¸à¤¨ à¤¸à¤¨",
      "Ġà¤ªà¤¦ à¤ļ",
      "à¥ĭ\" ,",
      "à¥ĩ\" ,",
      "ĠA b",
      "Ġà¤īà¤ĸ à¤¡",
      "b y",
      "c ti",
      "l e",
      "t h",
      "Ġ 9",
      "Ġ N",
      "Ġ oink",
      "Ĥ ¬",
      "à¤¨ à¤Ńà¤¨",
      "Ġà¤ķ à¤¨",
      "à¤¿ -",
      "à¤¤ à¤°à¤¤",
      "Ġà¤¹ à¤¤",
      "à¤¯ à¤ĳà¤«",
      "à¤® à¤°à¤¸",
      "à¤¼ ?",
      "Ġà¤¨ à¤µ",
      "Ġà¤µ à¤ļà¤¨",
      "à¤¦ à¤µ",
      "à¥Ĥ à¥ĭà¤Ĥ",
      "à¤¡ à¤¸",
      "à¤¡ à¤«",
      "à¤¡ à¤®à¤²",
      "à¤ª à¤¢",
      "à¤ª à¤¹à¤ļ",
      "Ġà¤Ĺ à¤¶",
      "Ġà¤ļ à¤ĸà¤¤",
      "à¤Ł à¤¹à¤¨",
      "à¤Ł à¤²à¤°",
      "à¤ı à¤¶à¤¨",
      "Ġà¤¤ à¤°à¤ķ",
      "à¤¬ à¤Łà¤°",
      "Ġà¤Ł à¤ªà¤ķà¤¨",
      "Ġà¤Ń à¤¨à¤Ńà¤¨",
      "à¤Ń à¤²",
      "à¤« à¤²à¤¤",
      "à¤Ŀ à¤²",
      "à¤¼à¥Ģ \"",
      "à¤¼à¥Ģ ?\"",
      "à¤ł à¤¦",
      "à¤Ĩ à¤Ń",
      "à¤§ à¤¡",
      "à¤ĩ à¤¸à¤®",
      "à¤¾à¤Ĥ à¥¤\"",
      "Ġà¤ĵ à¤¢",
      "à¤¸à¤ķ à¤ķà¤°",
      "à¤ī à¤ªà¤°",
      "à¤ī à¤Ľà¤ķà¤°",
      "à¤¾! '",
      "Ġà¤¬à¤ļ à¤ķà¤°",
      "Ġà¤Ńà¤° à¤ķà¤°",
      "à¤¤à¤° à¤¬",
      "Ġà¤¸à¤¹ à¤ľà¤¤",
      "Ġà¤¬à¤° à¤¸à¤¨",
      "à¥Ģ. ..",
      "à¤¡à¤° à¤¸à¤¨",
      "à¥Ī. ..",
      "à¥Ī? '",
      "à¤Ĳ à¤®",
      "à¤ĳ à¤²",
      "à¤°à¤Ĺ à¤®à¤¨",
      "Ġg rrr",
      "´ à¤®",
      "Ã ¢",
      "â Ĥ¬",
      "ì Ŀ",
      "Ġ 7",
      "Ġ a",
      "Ĳ ìĿ",
      "Ĺ ĲìĿ",
      "à¤° à¤ħ",
      "à¤¨ à¤ľ",
      "à¤¨ à¤°à¤²",
      "Ġà¤ķ à¤·",
      "Ġà¤ķ à¤¸à¤®",
      "Ġà¤ķ à¤Łà¤°à¤ª",
      "à¤¹ à¤¥",
      "à¤ķ à¤ĳà¤«",
      "à¤¤ à¤¹",
      "Ġà¤¹ à¤¦",
      "Ġà¤® à¤¢",
      "Ġà¤® à¤°à¤¤",
      "Ġà¤® à¤²à¤®",
      "Ġà¤ī à¤Ńà¤°",
      "à¤¯ à¤¡",
      "Ġà¤ª à¤Łà¤¤",
      "Ġà¤¦ à¤ķ",
      "Ġà¤² à¤¹à¤¸",
      "à¥Ĥ .",
      "à¤¡ à¤¹",
      "à¥ĩà¤Ĥ '",
      "à¤Ĺ à¤ľà¤¬",
      "Ġà¤ĸ à¤¨à¤¨",
      "Ġà¤ļ à¤ªà¤Ł",
      "à¤ľ à¤¶",
      "Ġà¤¤ à¤¬à¤²",
      "à¤µ à¤ķà¤°",
      "à¤¬ à¤°à¤¨",
      "à¤¶ à¤Ł",
      "à¤ļ à¤®",
      "Ġà¤Ĩ à¤¦à¤°",
      "Ġà¤¬à¤¹ à¤²",
      "à¥Ģà¤Ĥ -",
      "Ġà¤Ł à¤¨",
      "Ġà¤« à¤Łà¤¤",
      "Ġà¤ĩ à¤¥",
      "à¤¥ à¤®",
      "à¤Ń à¤¦",
      "à¥Į !",
      "à¤ıà¤ķ à¤¦à¤®",
      "à¤« à¤¤",
      "à¤« à¤Ł",
      "à¤¼à¥ĩ ,\"",
      "Ġà¤¡ à¤«",
      "à¤Ĩ à¤Ī",
      "à¤Ĩ à¤ĩà¤¨",
      "à¤ĩ à¤ļ",
      "à¤¾à¤Ĥ !\"",
      "Ġà¤ĵ à¤Ŀà¤²",
      "Ġà¤ªà¤ķ à¤¤",
      "à¤ħ à¤µ",
      "Ġà¤¤à¤ķ à¤¨",
      "à¤£ à¤¤",
      "à¤£ à¤µà¤¤",
      "Ġà¤Ĩà¤¯ à¤¤",
      "à¤ªà¤° à¤ª",
      "à¤ªà¤° à¤«",
      "Ġà¤ķà¤Ī ãĤ¢ãĤ¤ãĥĩãĤ¢",
      "à¤®à¤¤ à¤µ",
      "à¥ĥ à¤Ĥ",
      "à¤¹à¤¤à¤° ãĤ¢ãĤ¤ãĥĩãĤ¢",
      "à¤¾!\" ,",
      "à¥ĭ!\" ,",
      "à¤¼à¥ĩà¤Ĥ !",
      "à¤¼à¥ĩà¤Ĥ ?\"",
      "Ġà¤ħà¤²à¤Ĺ ãĤ¢ãĤ¤ãĥĩãĤ¢",
      "à¤¦à¤² à¤¦à¤²",
      "Ġà¤®à¤¨ à¤ªà¤¸",
      "à¥Ģ!\" ,",
      "à¥Įà¤Ĥ !\"",
      "Ġà¤«à¤² à¤¦",
      "Ġà¤¹à¤² à¤ķ",
      "Ġà¤Ńà¤¯ à¤Ń",
      "à¥ĩ. ..",
      "an th",
      "à¥Ģ\" ,",
      "à¤®à¤¦à¤¦ à¤Ĺ",
      "à¥ĩ\" à¥¤",
      "Ġ4 0",
      "Ġà¤ĵà¤µà¤° à¤«",
      "am anth",
      "Ø± Ø¯",
      "à¤¡à¤ķà¤° à¤«",
      "Ġì ĹĲìĿ",
      "ĠO cti",
      "ĠÚ© Ø±Ø¯",
      "Ġà¤®à¤²à¤® à¤²",
      "amanth a",
      "ĠìĹĲìĿ ´à¤®",
      "G H",
      "U GH",
      "g a",
      "l o",
      "Ċ Ġ",
      "Ġ D",
      "Ġ E",
      "Ġ Ġ",
      "à¤¨ à¤ĺà¤°",
      "Ġà¤ķ à¤Ĺ",
      "Ġà¤ķ à¤ķà¤¡",
      "à¤¹ mm",
      "à¤¿ !\"",
      "à¤¸ à¤ļà¤°",
      "à¤² à¤ª",
      "à¥ģ -",
      "Ġà¤¸ à¤¦à¤®",
      "Ġà¤¸ amantha",
      "Ġà¤¬ à¤«",
      "à¤¯ à¤Łà¤ķ",
      "à¤¯ à¤¥à¤¨",
      "à¤® à¤¬",
      "à¤¼ .",
      "à¤¼ à¥ĩà¤Ĥ,\"",
      "à¥Ĥ .\"",
      "à¤ª à¤¬",
      "à¤ª à¤Łà¤ķà¤°",
      "Ġà¤ħ à¤µà¤¨",
      "à¤Ĺ à¤£",
      "Ġà¤° à¤£à¤¨",
      "Ġà¤ļ à¤¹",
      "à¤Ł à¤ķà¤Ł",
      "à¤µ à¤Ĺ",
      "à¤µ à¤¯à¤¸",
      "à¤¬ à¤Ł",
      "à¤¬ à¤¬",
      "Ġà¤Ĩ à¤«",
      "Ġà¤Ĩ à¤ĩà¤¶",
      "à¥Ģà¥¤ âĢĿ",
      "à¥Ģà¤Ĥ ;",
      "Ġà¤Ł à¤²",
      "Ġà¤Ł à¤ª",
      "Ġà¤ªà¤° à¤¹",
      "Ġà¤ªà¤° à¤¦",
      "Ġà¤ªà¤° à¤ĸ",
      "Ġà¤¡ à¤²",
      "à¤¼à¥Ģ ?",
      "à¤ł à¤Ń",
      "à¤¹à¤° à¤®",
      "Ġà¤®à¤¹ à¤ķà¤¤",
      "à¤ĩ à¤¬à¤²",
      "à¤¸à¤² à¤°",
      "à¥ĭ, âĢĿ",
      "Ġà¤Ĺà¤° à¤ľà¤ķà¤°",
      "Ġà¤Ĩà¤¯ à¤¶",
      "à¤ĵ à¤ĩ",
      "à¤ĵ à¤ıà¤¸",
      "à¤Łà¤° à¤®",
      "à¤Łà¤° à¤¬",
      "Ġà¤¦à¤° à¤¬",
      "Ġà¤Ĩà¤Ī à¤¨",
      "à¤µà¤¨ à¤°à¤ķ",
      "à¤¾. ..\"",
      "à¤¼à¥ĩà¤Ĥ .\"",
      "à¤¼à¥ĭ .\"",
      "à¤¶à¤¨ à¤²",
      "à¤ĩà¤¨ à¤®",
      "à¥ĭ! '",
      "Ġà¤ļà¤Ł à¤ķà¤¤",
      "Ġà¤Ī à¤¶",
      "Ġà¤īà¤Ľ à¤ķà¤¨",
      "Ġà¤īà¤Ľ à¤ķà¤¤",
      "Ġà¤ħà¤® à¤²",
      "à¤¶à¤® à¤²",
      "à¤°ãĤ¢ãĤ¤ãĥĩãĤ¢ à¤Ĩà¤¯",
      "Ġà¤Ĩà¤ī à¤Łà¤²",
      "Ġ6 0",
      "ĠAb by",
      "Ġa ga",
      "H E",
      "N D",
      "T HE",
      "i t",
      "t e",
      "Ġ $",
      "Ġ B",
      "Ġ T",
      "Ġ ãĤ¢ãĤ¤ãĥĩãĤ¢",
      "à¤° à¤®à¤¸",
      "à¤¨ à¤Ŀ",
      "à¤¨ à¤¸à¤°",
      "à¤¹ à¤®à¤¤",
      "à¤¿ \"",
      "à¤¿ :",
      "à¤ķ à¤µ",
      "à¤Ĥ :",
      "à¤¸ ãĤ¢ãĤ¤ãĥĩãĤ¢",
      "à¥¤ '",
      "à¤² à¤°à¤¸",
      "Ġà¤¹ à¤Łà¤¤",
      "Ġà¤ī à¤·",
      "à¤¯ à¤°à¤¤",
      "à¤® à¤¸à¤²",
      "à¤® à¤¬à¤°",
      "Ġà¤ª à¤Łà¤ķà¤ķà¤°",
      "Ġà¤¦ à¤ĸà¤²",
      "à¤¼ :",
      "Ġà¤ľ à¤¸",
      "à¥Ĥ à¤¾,",
      "à¤Ĺ à¤Ł",
      "Ġà¤° à¤¨à¤µ",
      "Ġà¤ļ à¤°à¤µ",
      "à¤Ł à¤¹",
      "à¤ľ à¤²à¤¨",
      "à¤ľ à¤®à¤°",
      "à¤ı à¤²à¤¨",
      "à¤ı à¤ļà¤°",
      "à¤ĸ à¤°à¤¨",
      "à¤ģ .\"",
      "à¤ļ à¤¦",
      "à¤ļ à¤¢",
      "à¤ļ à¤°à¤°",
      "Ġà¤Ĩ à¤ĩ",
      "Ġà¤Ĩ à¤ĩà¤µ",
      "à¤¾à¤ģ .\"",
      "Ġà¤« à¤¹à¤°",
      "Ġà¤« à¤Łà¤ķ",
      "Ġà¤ĩ à¤§",
      "à¤¥ à¤ķ",
      "à¤Ń à¤°à¤¨",
      "Ġà¤¶ à¤ªà¤¥",
      "à¤ķà¤° à¤¦",
      "à¤· à¤§",
      "à¤ĩ à¤¬à¤°",
      "à¤¾à¤Ĥ :",
      "Ġà¤ĵ à¤®à¤²",
      "Ġà¤ªà¤ķ à¤ķà¤°",
      "Ġà¤¸à¤® à¤¤à¤²",
      "à¤ī à¤ł",
      "à¤ī à¤¸à¤®",
      "à¤°à¤ķ à¤¨",
      "à¤°à¤ķ à¤²",
      "Ġà¤ħà¤¨ à¤®",
      "à¤¨à¤¤ à¤®",
      "Ġà¤ł à¤¨à¤ķ",
      "Ġà¤ı à¤¡à¤¨",
      "à¥ĭà¥¤ !\"",
      "à¤ĵ à¤ķ",
      "Ġà¤ħà¤² à¤°",
      "à¥ĩà¤Ĥà¥¤ '",
      "à¤ĩà¤¨ à¤¬",
      "Ġà¤¥à¤ķ à¤¤",
      "Ġà¤ħà¤« à¤µ",
      "à¤¼à¤¾, \"",
      "à¥Įà¤Ĥ !",
      "Ġà¤ħà¤¸ à¤«à¤²à¤¤",
      "Ġà¤Ľà¤² à¤ķà¤¨",
      "à¤¼à¥Ģ, \"",
      "à¤¶à¤¹ à¤¦",
      "à¤¸à¤« à¤²à¤¤",
      "à¤¸à¤¬ à¤ķ",
      "à¤¬à¤ķ à¤µ",
      "Ġà¤ħà¤µ à¤Ĺà¤¤",
      "Ġà¤Łà¤¹ à¤²",
      "à¤ĳ à¤¡",
      "à¥Ĥ! '",
      "à¥Ī\" ãĢĤ",
      "Ġà¤¦à¤® à¤ķà¤²",
      "Ġà¤Ķ à¤·à¤§",
      "à¥Ģà¤Ĥ\" ,",
      "Ġà¤Łà¤ªà¤ķ à¤¤",
      "Ġà¤Ľà¤ª à¤µ",
      "Ġà¤²à¤Ł à¤ķà¤¨",
      "as te",
      "am aste",
      "à¤¡à¤ķà¤° à¤ļ",
      "à¤Ĩà¤Ĩà¤Ĩà¤Ĩà¤Ĩà¤Ĩà¤Ĩà¤Ĩà¤Ĩà¤Ĩà¤Ĩà¤Ĩà¤Ĩà¤Ĩà¤Ĩà¤Ĩà¤Ĩà¤Ĩà¤Ĩà¤Ĩà¤Ĩà¤Ĩà¤Ĩà¤Ĩà¤Ĩà¤Ĩà¤Ĩà¤Ĩà¤Ĩà¤Ĩà¤Ĩà¤Ĩà¤Ĩà¤Ĩà¤Ĩà¤Ĩà¤Ĩà¤Ĩà¤Ĩà¤Ĩà¤Ĩà¤Ĩà¤Ĩà¤Ĩà¤Ĩà¤Ĩà¤Ĩà¤Ĩà¤Ĩà¤Ĩà¤Ĩà¤Ĩà¤Ĩà¤Ĩà¤Ĩà¤Ĩà¤Ĩà¤Ĩà¤Ĩà¤Ĩà¤Ĩà¤Ĩà¤Ĩà¤Ĩà¤Ĩà¤Ĩà¤Ĩà¤Ĩà¤Ĩà¤Ĩà¤Ĩà¤Ĩà¤Ĩà¤Ĩà¤Ĩà¤Ĩà¤Ĩà¤Ĩà¤Ĩà¤Ĩà¤Ĩà¤Ĩà¤Ĩà¤Ĩà¤Ĩà¤Ĩà¤Ĩà¤Ĩà¤Ĩà¤Ĩà¤Ĩà¤Ĩà¤Ĩà¤Ĩà¤Ĩà¤Ĩà¤Ĩà¤Ĩà¤Ĩà¤Ĩà¤Ĩà¤Ĩà¤Ĩà¤Ĩà¤Ĩà¤Ĩà¤Ĩà¤Ĩà¤Ĩà¤Ĩà¤Ĩà¤Ĩà¤Ĩà¤Ĩà¤Ĩà¤Ĩà¤Ĩà¤Ĩà¤Ĩà¤Ĩà¤Ĩà¤Ĩà¤Ĩà¤Ĩà¤Ĩà¤Ĩà¤Ĩà¤Ĩà¤Ĩà¤Ĩà¤Ĩà¤Ĩà¤Ĩà¤Ĩà¤Ĩà¤Ĩà¤Ĩà¤Ĩà¤Ĩà¤Ĩà¤Ĩà¤Ĩà¤Ĩà¤Ĩà¤Ĩà¤Ĩà¤Ĩà¤Ĩà¤Ĩà¤Ĩà¤Ĩà¤Ĩà¤Ĩà¤Ĩà¤Ĩà¤Ĩà¤Ĩà¤Ĩà¤Ĩà¤Ĩà¤Ĩà¤Ĩà¤Ĩà¤Ĩà¤Ĩà¤Ĩà¤Ĩà¤Ĩà¤Ĩà¤Ĩà¤Ĩà¤Ĩà¤Ĩà¤Ĩà¤Ĩà¤Ĩà¤Ĩà¤Ĩà¤Ĩà¤Ĩà¤Ĩà¤Ĩà¤Ĩà¤Ĩà¤Ĩà¤Ĩà¤Ĩà¤Ĩà¤Ĩà¤Ĩà¤Ĩà¤Ĩà¤Ĩà¤Ĩà¤Ĩà¤Ĩà¤Ĩà¤Ĩà¤Ĩà¤Ĩà¤Ĩà¤Ĩà¤Ĩà¤Ĩà¤Ĩà¤Ĩà¤Ĩà¤Ĩà¤Ĩà¤Ĩà¤Ĩà¤Ĩà¤Ĩà¤Ĩà¤Ĩà¤Ĩà¤Ĩà¤Ĩà¤Ĩà¤Ĩà¤Ĩà¤Ĩà¤Ĩà¤Ĩà¤Ĩà¤Ĩà¤Ĩà¤Ĩà¤Ĩà¤Ĩà¤Ĩà¤Ĩà¤Ĩà¤Ĩà¤Ĩà¤Ĩà¤Ĩà¤Ĩà¤Ĩà¤Ĩà¤Ĩà¤Ĩà¤Ĩà¤Ĩà¤Ĩà¤Ĩà¤Ĩà¤Ĩà¤Ĩà¤Ĩà¤Ĩà¤Ĩà¤Ĩà¤Ĩà¤Ĩà¤Ĩà¤Ĩà¤Ĩà¤Ĩà¤Ĩà¤Ĩà¤Ĩà¤Ĩà¤Ĩà¤Ĩà¤Ĩà¤Ĩà¤Ĩà¤Ĩà¤Ĩà¤Ĩà¤Ĩà¤Ĩà¤Ĩà¤Ĩà¤Ĩà¤Ĩà¤Ĩà¤Ĩà¤Ĩà¤Ĩà¤Ĩà¤Ĩà¤Ĩà¤Ĩà¤Ĩà¤Ĩà¤Ĩà¤Ĩà¤Ĩà¤Ĩà¤Ĩà¤Ĩà¤Ĩà¤Ĩà¤Ĩà¤Ĩà¤Ĩà¤Ĩà¤Ĩà¤Ĩà¤Ĩà¤Ĩà¤Ĩà¤Ĩà¤Ĩà¤Ĩà¤Ĩà¤Ĩà¤Ĩà¤Ĩà¤Ĩà¤Ĩà¤Ĩà¤Ĩà¤Ĩà¤Ĩà¤Ĩà¤Ĩà¤Ĩà¤Ĩà¤Ĩà¤Ĩà¤Ĩà¤Ĩà¤Ĩà¤Ĩà¤Ĩà¤Ĩà¤Ĩà¤Ĩà¤Ĩà¤Ĩà¤Ĩà¤Ĩà¤Ĩà¤Ĩà¤Ĩà¤Ĩà¤Ĩà¤Ĩà¤Ĩà¤Ĩà¤Ĩà¤Ĩà¤Ĩà¤Ĩà¤Ĩà¤Ĩà¤Ĩà¤Ĩà¤Ĩà¤Ĩà¤Ĩà¤Ĩà¤Ĩà¤Ĩà¤Ĩà¤Ĩà¤Ĩà¤Ĩà¤Ĩà¤Ĩà¤Ĩà¤Ĩà¤Ĩà¤Ĩà¤Ĩà¤Ĩà¤Ĩà¤Ĩà¤Ĩà¤Ĩà¤Ĩà¤Ĩà¤Ĩà¤Ĩà¤Ĩà¤Ĩà¤Ĩà¤Ĩà¤Ĩà¤Ĩà¤Ĩà¤Ĩà¤Ĩà¤Ĩà¤Ĩà¤Ĩà¤Ĩà¤Ĩà¤Ĩà¤Ĩà¤Ĩà¤Ĩà¤Ĩà¤Ĩà¤Ĩà¤Ĩà¤Ĩà¤Ĩà¤Ĩà¤Ĩà¤Ĩà¤Ĩà¤Ĩà¤Ĩà¤Ĩà¤Ĩà¤Ĩà¤Ĩà¤Ĩà¤Ĩà¤Ĩà¤Ĩà¤Ĩà¤Ĩà¤Ĩà¤Ĩà¤Ĩà¤Ĩà¤Ĩà¤Ĩà¤Ĩà¤Ĩà¤Ĩà¤Ĩà¤Ĩà¤Ĩà¤Ĩà¤Ĩà¤Ĩà¤Ĩà¤Ĩà¤Ĩà¤Ĩà¤Ĩà¤Ĩà¤Ĩà¤Ĩà¤Ĩà¤Ĩà¤Ĩà¤Ĩà¤Ĩà¤Ĩà¤Ĩà¤Ĩà¤Ĩà¤Ĩà¤Ĩà¤Ĩà¤Ĩà¤Ĩà¤Ĩà¤Ĩà¤Ĩà¤Ĩà¤Ĩà¤Ĩà¤Ĩà¤Ĩà¤Ĩà¤Ĩà¤Ĩà¤Ĩà¤Ĩà¤Ĩà¤Ĩà¤Ĩà¤Ĩà¤Ĩà¤Ĩà¤Ĩà¤Ĩà¤Ĩà¤Ĩà¤Ĩà¤Ĩà¤Ĩà¤Ĩà¤Ĩà¤Ĩà¤Ĩà¤Ĩà¤Ĩà¤Ĩà¤Ĩà¤Ĩà¤Ĩà¤Ĩà¤Ĩà¤Ĩà¤Ĩà¤Ĩà¤Ĩà¤Ĩà¤Ĩà¤Ĩà¤Ĩà¤Ĩà¤Ĩà¤Ĩà¤Ĩà¤Ĩà¤Ĩà¤Ĩà¤Ĩà¤Ĩà¤Ĩà¤Ĩà¤Ĩ à¤Ĩà¤Ĩà¤Ĩà¤Ĩà¤Ĩà¤Ĩà¤Ĩà¤Ĩà¤Ĩà¤Ĩà¤Ĩà¤Ĩà¤Ĩà¤Ĩà¤Ĩà¤Ĩà¤Ĩà¤Ĩà¤Ĩà¤Ĩà¤Ĩà¤Ĩà¤Ĩà¤Ĩà¤Ĩà¤Ĩà¤Ĩà¤Ĩà¤Ĩà¤Ĩà¤Ĩà¤Ĩà¤Ĩà¤Ĩà¤Ĩà¤Ĩà¤Ĩà¤Ĩà¤Ĩà¤Ĩà¤Ĩà¤Ĩà¤Ĩà¤Ĩà¤Ĩà¤Ĩà¤Ĩà¤Ĩà¤Ĩà¤Ĩà¤Ĩà¤Ĩà¤Ĩà¤Ĩà¤Ĩà¤Ĩà¤Ĩà¤Ĩà¤Ĩà¤Ĩà¤Ĩà¤Ĩà¤Ĩà¤Ĩà¤Ĩà¤Ĩà¤Ĩà¤Ĩà¤Ĩà¤Ĩà¤Ĩà¤Ĩà¤Ĩà¤Ĩà¤Ĩà¤Ĩà¤Ĩà¤Ĩà¤Ĩà¤Ĩà¤Ĩà¤Ĩà¤Ĩà¤Ĩà¤Ĩà¤Ĩà¤Ĩà¤Ĩà¤Ĩà¤Ĩà¤Ĩà¤Ĩà¤Ĩà¤Ĩà¤Ĩà¤Ĩà¤Ĩà¤Ĩà¤Ĩà¤Ĩà¤Ĩà¤Ĩà¤Ĩà¤Ĩà¤Ĩà¤Ĩà¤Ĩà¤Ĩà¤Ĩà¤Ĩà¤Ĩà¤Ĩà¤Ĩà¤Ĩà¤Ĩà¤Ĩà¤Ĩà¤Ĩà¤Ĩà¤Ĩà¤Ĩà¤Ĩà¤Ĩà¤Ĩà¤Ĩà¤Ĩà¤Ĩà¤Ĩà¤Ĩà¤Ĩà¤Ĩà¤Ĩà¤Ĩà¤Ĩà¤Ĩà¤Ĩà¤Ĩà¤Ĩà¤Ĩà¤Ĩà¤Ĩà¤Ĩà¤Ĩà¤Ĩà¤Ĩà¤Ĩà¤Ĩà¤Ĩà¤Ĩà¤Ĩà¤Ĩà¤Ĩà¤Ĩà¤Ĩà¤Ĩà¤Ĩà¤Ĩà¤Ĩà¤Ĩà¤Ĩà¤Ĩà¤Ĩà¤Ĩà¤Ĩà¤Ĩà¤Ĩà¤Ĩà¤Ĩà¤Ĩà¤Ĩà¤Ĩà¤Ĩà¤Ĩà¤Ĩà¤Ĩà¤Ĩà¤Ĩà¤Ĩà¤Ĩà¤Ĩà¤Ĩà¤Ĩà¤Ĩà¤Ĩà¤Ĩà¤Ĩà¤Ĩà¤Ĩà¤Ĩà¤Ĩà¤Ĩà¤Ĩà¤Ĩà¤Ĩà¤Ĩà¤Ĩà¤Ĩà¤Ĩà¤Ĩà¤Ĩà¤Ĩà¤Ĩà¤Ĩà¤Ĩà¤Ĩà¤Ĩà¤Ĩà¤Ĩà¤Ĩà¤Ĩà¤Ĩà¤Ĩà¤Ĩà¤Ĩà¤Ĩà¤Ĩà¤Ĩà¤Ĩà¤Ĩà¤Ĩà¤Ĩà¤Ĩà¤Ĩà¤Ĩà¤Ĩà¤Ĩà¤Ĩà¤Ĩà¤Ĩà¤Ĩà¤Ĩà¤Ĩà¤Ĩà¤Ĩà¤Ĩà¤Ĩà¤Ĩà¤Ĩà¤Ĩà¤Ĩà¤Ĩà¤Ĩà¤Ĩà¤Ĩà¤Ĩà¤Ĩà¤Ĩà¤Ĩà¤Ĩà¤Ĩà¤Ĩà¤Ĩà¤Ĩà¤Ĩà¤Ĩà¤Ĩà¤Ĩà¤Ĩà¤Ĩà¤Ĩà¤Ĩà¤Ĩà¤Ĩà¤Ĩà¤Ĩà¤Ĩà¤Ĩà¤Ĩà¤Ĩà¤Ĩà¤Ĩà¤Ĩà¤Ĩà¤Ĩà¤Ĩà¤Ĩà¤Ĩà¤Ĩà¤Ĩà¤Ĩà¤Ĩà¤Ĩà¤Ĩà¤Ĩà¤Ĩà¤Ĩà¤Ĩà¤Ĩà¤Ĩà¤Ĩà¤Ĩà¤Ĩà¤Ĩà¤Ĩà¤Ĩà¤Ĩà¤Ĩà¤Ĩà¤Ĩà¤Ĩà¤Ĩà¤Ĩà¤Ĩà¤Ĩà¤Ĩà¤Ĩà¤Ĩà¤Ĩà¤Ĩà¤Ĩà¤Ĩà¤Ĩà¤Ĩà¤Ĩà¤Ĩà¤Ĩà¤Ĩà¤Ĩà¤Ĩà¤Ĩà¤Ĩà¤Ĩà¤Ĩà¤Ĩà¤Ĩà¤Ĩà¤Ĩà¤Ĩà¤Ĩà¤Ĩà¤Ĩà¤Ĩà¤Ĩà¤Ĩà¤Ĩà¤Ĩà¤Ĩà¤Ĩà¤Ĩà¤Ĩà¤Ĩà¤Ĩà¤Ĩà¤Ĩà¤Ĩà¤Ĩà¤Ĩà¤Ĩà¤Ĩà¤Ĩà¤Ĩà¤Ĩà¤Ĩà¤Ĩà¤Ĩà¤Ĩà¤Ĩà¤Ĩà¤Ĩà¤Ĩà¤Ĩà¤Ĩà¤Ĩà¤Ĩà¤Ĩà¤Ĩà¤Ĩà¤Ĩà¤Ĩà¤Ĩà¤Ĩà¤Ĩà¤Ĩà¤Ĩà¤Ĩà¤Ĩà¤Ĩà¤Ĩà¤Ĩà¤Ĩà¤Ĩà¤Ĩà¤Ĩà¤Ĩà¤Ĩà¤Ĩà¤Ĩà¤Ĩà¤Ĩà¤Ĩà¤Ĩà¤Ĩà¤Ĩà¤Ĩà¤Ĩà¤Ĩà¤Ĩà¤Ĩà¤Ĩà¤Ĩà¤Ĩà¤Ĩà¤Ĩà¤Ĩà¤Ĩà¤Ĩà¤Ĩà¤Ĩà¤Ĩà¤Ĩà¤Ĩà¤Ĩà¤Ĩà¤Ĩà¤Ĩà¤Ĩà¤Ĩà¤Ĩà¤Ĩà¤Ĩà¤Ĩà¤Ĩà¤Ĩà¤Ĩà¤Ĩà¤Ĩà¤Ĩà¤Ĩà¤Ĩà¤Ĩà¤Ĩà¤Ĩà¤Ĩà¤Ĩà¤Ĩà¤Ĩà¤Ĩà¤Ĩà¤Ĩà¤Ĩà¤Ĩà¤Ĩà¤Ĩà¤Ĩà¤Ĩà¤Ĩà¤Ĩà¤Ĩà¤Ĩà¤Ĩà¤Ĩà¤Ĩà¤Ĩà¤Ĩà¤Ĩà¤Ĩà¤Ĩà¤Ĩà¤Ĩà¤Ĩà¤Ĩà¤Ĩà¤Ĩà¤Ĩà¤Ĩà¤Ĩà¤Ĩà¤Ĩà¤Ĩà¤Ĩà¤Ĩà¤Ĩà¤Ĩà¤Ĩà¤Ĩà¤Ĩà¤Ĩà¤Ĩà¤Ĩà¤Ĩà¤Ĩà¤Ĩà¤Ĩà¤Ĩà¤Ĩà¤Ĩà¤Ĩà¤Ĩà¤Ĩà¤Ĩà¤Ĩà¤Ĩà¤Ĩà¤Ĩà¤Ĩà¤Ĩà¤Ĩà¤Ĩà¤Ĩà¤Ĩà¤Ĩà¤Ĩà¤Ĩà¤Ĩà¤Ĩà¤Ĩà¤Ĩà¤Ĩà¤Ĩà¤Ĩà¤Ĩà¤Ĩ",
      "le x",
      "ĠN amaste",
      "Ġà¤¹à¤¤ à¤ª",
      "Ġà¤ĸà¤¨à¤¨ à¤ķ",
      "Ġà¤Ĩà¤¦à¤° à¤£",
      "lo w",
      "ĠE ND",
      "' à¥¤\"",
      "? !\"",
      "A b",
      "p it",
      "r e",
      "y ummy",
      "Ñ ģ",
      "Ñ Ĥ",
      "Ñ ĥ",
      "ì ŀ",
      "Ġ ×",
      "Ġ ...",
      "Ġ pit",
      "Ġ yummy",
      "Ġ Ñĥ",
      "à¥ĩ /",
      "à¤° à¤Ł",
      "Ġà¤ķ à¤ľ",
      "à¤¹ à¤Ĺ",
      "à¤¿ !",
      "à¤¿ ?\"",
      "à¤Ĥ \"",
      "à¤¸ à¤µà¤°",
      "à¤¸ à¤Łà¤¤",
      "à¤¤ à¤®à¤¯",
      "à¤² à¤ľ",
      "Ġà¤¹ à¤ļ",
      "Ġà¤¬ à¤¯",
      "Ġà¤¬ à¤ĸ",
      "Ġà¤¬ à¤µ",
      "à¤® à¤°à¤¨",
      "à¤® à¤¶à¤¹",
      "Ġà¤ª à¤ļ",
      "Ġà¤ª à¤¥à¤°",
      "Ġà¤² à¤ªà¤ķ",
      "à¤¼ .\"",
      "Ġà¤¨ à¤¸",
      "Ġà¤¨ à¤Ĺà¤°",
      "à¤¾à¥¤ '",
      "à¥Ĥ :",
      "à¤¡ à¤²à¤¬",
      "à¤ª à¤ľà¤²",
      "à¥ĩà¤Ĥ :",
      "Ġà¤ħ à¤ł",
      "Ġà¤ħ à¤¦à¤°",
      "Ġà¤ħ à¤µà¤§",
      "Ġà¤ħ à¤µà¤¶",
      "Ġà¤ıà¤ķ ãĤ¢ãĤ¤à¤¡",
      "Ġà¤Ĺ low",
      "à¤ľ à¤¯à¤ķ",
      "à¤ľ à¤ķà¤¤",
      "à¤ı à¤¡à¤µ",
      "à¤ĸ à¤¯",
      "à¤ĸ à¤¡",
      "Ġà¤¤ à¤ª",
      "Ġà¤¤ à¤®à¤¨",
      "à¤¬ à¤¹à¤¸",
      "à¤¶ à¤¸",
      "à¤ļ à¤£",
      "à¥Īà¤Ĥ \"à¥¤",
      "Ġà¤Ĩ à¤īà¤Ł",
      "à¥Ģà¤Ĥ '",
      "à¥ī ,",
      "Ġà¤ĩ à¤ķ",
      "Ġà¤ĩ à¤ķà¤²",
      "à¤¥ à¤¤",
      "à¤¥ à¤µ",
      "à¤¥ à¤²à¤Ĺ",
      "à¥Īà¤Ĥà¥¤ '",
      "à¤Ń à¤¡",
      "à¤¼à¥ĩ ?\"",
      "à¤Ŀ à¤¤à¤¨",
      "à¤Ĩ à¤¸",
      "à¤Ĩ à¤Ł",
      "à¤Ĩ à¤ķà¤°",
      "à¤§ à¤°à¤¤",
      "Ġà¤®à¤¹ à¤ľ",
      "à¤ĩ à¤¤",
      "Ġà¤ĵ à¤Ĺ",
      "à¤ī à¤Ĺà¤°",
      "à¤ī à¤°à¤¸",
      "à¤ħ à¤¦",
      "à¤ħ à¤¸à¤°",
      "à¤ĸà¤¤ à¤°à¤¨",
      "Ġà¤ħà¤¨ à¤«",
      "à¤£ à¤®",
      "Ġà¤¹à¤° à¤®à¤¨",
      "Ġà¤Ŀ à¤¡",
      "à¥Ĥà¤Ĥ .",
      "à¥ĭà¥¤ ,\"",
      "à¤ĵ à¤µà¤°",
      "à¤ķà¤² à¤®",
      "à¥Īà¤Ĥ, âĢĿ",
      "Ġà¤ķà¤® à¤²",
      "à¤¨à¤¨ à¤µ",
      "Ġà¤ħà¤² à¤¯",
      "à¤¤à¤° à¤£",
      "Ġà¤ľà¤Ĺ à¤®à¤Ĺ",
      "à¤¯à¤° à¤¬",
      "à¥Ī?\" ,",
      "Ġà¤¬à¤ľ à¤Ł",
      "Ġà¤¤à¤² à¤¹à¤Ł",
      "à¤ķà¤¨ à¤ª",
      "à¤ħà¤¨ à¤ľ",
      "à¥ĭ?\" ,",
      "à¥ĭ?\" à¥¤",
      "Ġà¤Ĩà¤Ĺ à¤®à¤¨",
      "Ġà¤®à¤¨ à¤®",
      "à¥Īà¤Ĥ!\" ,",
      "à¤²à¤Ĺ à¤Ńà¤Ĺ",
      "à¥Įà¤Ĥ -",
      "Ġà¤īà¤² à¤Łà¤ķà¤°",
      "à¥ĩà¤Ĥ!\" ,",
      "à¥ĩ!\" ,",
      "Ġà¤¦à¤¬ à¤ķà¤°",
      "à¤ĩà¤Ł à¤¸",
      "à¤ĩà¤Ł à¤«",
      "à¤²à¤ķ à¤¦à¤®",
      "à¥Īà¤Ĥ! '",
      "Ġà¤«à¤Ł à¤ķà¤¨",
      "Ġà¤ħà¤ª à¤®",
      "Ġà¤¬à¤¬à¤² à¤Ĺà¤®",
      "Ġà¤ĵà¤Ł à¤®",
      "à¥Ģ\" .",
      "à¤ĳ à¤ª",
      "à¤īà¤¡ à¤¸",
      "à¤¾à¤ģ\" ,",
      "à¥Ģà¤Ĥ\" à¥¤",
      "ĠA lex",
      "Ġà¤ıà¤¯à¤° à¤²",
      "à¤°à¤°à¤°à¤°à¤°à¤°à¤°à¤°à¤°à¤°à¤°à¤°à¤°à¤°à¤°à¤°à¤°à¤°à¤°à¤°à¤°à¤°à¤°à¤°à¤°à¤°à¤°à¤°à¤°à¤°à¤°à¤°à¤°à¤°à¤°à¤°à¤°à¤°à¤°à¤°à¤°à¤°à¤°à¤°à¤°à¤°à¤°à¤°à¤°à¤°à¤°à¤°à¤°à¤°à¤°à¤°à¤°à¤°à¤°à¤°à¤°à¤°à¤°à¤°à¤°à¤°à¤°à¤°à¤°à¤°à¤°à¤°à¤°à¤°à¤°à¤°à¤°à¤°à¤°à¤°à¤°à¤°à¤°à¤°à¤°à¤°à¤°à¤°à¤°à¤°à¤°à¤°à¤°à¤°à¤°à¤°à¤°à¤°à¤°à¤°à¤°à¤°à¤°à¤°à¤°à¤°à¤°à¤°à¤°à¤°à¤°à¤°à¤°à¤°à¤°à¤°à¤°à¤°à¤°à¤°à¤°à¤°à¤°à¤°à¤°à¤°à¤°à¤°à¤°à¤°à¤°à¤°à¤°à¤°à¤°à¤°à¤°à¤°à¤°à¤°à¤°à¤°à¤°à¤°à¤°à¤°à¤°à¤°à¤°à¤°à¤°à¤°à¤°à¤°à¤°à¤°à¤°à¤°à¤°à¤°à¤°à¤°à¤°à¤°à¤°à¤°à¤°à¤°à¤°à¤°à¤°à¤°à¤°à¤°à¤°à¤°à¤°à¤°à¤°à¤°à¤°à¤°à¤°à¤°à¤°à¤°à¤°à¤°à¤°à¤°à¤°à¤°à¤°à¤°à¤°à¤°à¤°à¤°à¤°à¤°à¤°à¤°à¤°à¤°à¤°à¤°à¤°à¤°à¤°à¤°à¤°à¤°à¤°à¤°à¤°à¤°à¤°à¤°à¤°à¤°à¤°à¤°à¤°à¤°à¤°à¤°à¤°à¤°à¤°à¤°à¤°à¤°à¤°à¤°à¤°à¤°à¤°à¤°à¤°à¤°à¤°à¤°à¤°à¤°à¤°à¤°à¤°à¤°à¤°à¤°à¤°à¤°à¤°à¤°à¤°à¤°à¤°à¤°à¤°à¤°à¤°à¤°à¤°à¤°à¤°à¤°à¤°à¤°à¤°à¤°à¤°à¤°à¤°à¤°à¤°à¤°à¤°à¤°à¤°à¤°à¤°à¤°à¤°à¤°à¤°à¤°à¤°à¤°à¤°à¤°à¤°à¤°à¤°à¤°à¤°à¤°à¤°à¤°à¤°à¤°à¤°à¤°à¤°à¤°à¤°à¤°à¤°à¤°à¤°à¤°à¤°à¤°à¤°à¤°à¤°à¤°à¤°à¤°à¤°à¤°à¤°à¤°à¤°à¤°à¤°à¤°à¤°à¤°à¤°à¤°à¤°à¤°à¤°à¤°à¤°à¤°à¤°à¤°à¤°à¤°à¤°à¤°à¤°à¤°à¤°à¤°à¤°à¤°à¤°à¤°à¤°à¤°à¤°à¤°à¤°à¤°à¤°à¤°à¤°à¤°à¤°à¤°à¤°à¤°à¤°à¤°à¤°à¤°à¤°à¤°à¤°à¤°à¤°à¤°à¤°à¤°à¤°à¤°à¤°à¤°à¤°à¤°à¤°à¤°à¤°à¤°à¤°à¤°à¤°à¤°à¤°à¤°à¤°à¤°à¤°à¤°à¤°à¤°à¤°à¤°à¤°à¤°à¤°à¤°à¤°à¤°à¤°à¤°à¤°à¤°à¤°à¤°à¤°à¤°à¤°à¤°à¤°à¤°à¤°à¤°à¤°à¤°à¤°à¤°à¤°à¤°à¤°à¤°à¤°à¤°à¤°à¤°à¤°à¤°à¤°à¤°à¤°à¤°à¤°à¤°à¤°à¤°à¤°à¤°à¤°à¤°à¤°à¤°à¤°à¤°à¤°à¤°à¤°à¤°à¤°à¤°à¤°à¤°à¤°à¤°à¤°à¤°à¤°à¤°à¤°à¤°à¤°à¤°à¤°à¤°à¤°à¤°à¤°à¤°à¤°à¤°à¤°à¤°à¤°à¤°à¤°à¤°à¤°à¤°à¤°à¤°à¤°à¤°à¤°à¤°à¤°à¤°à¤°à¤°à¤°à¤°à¤°à¤°à¤°à¤°à¤°à¤°à¤°à¤°à¤°à¤°à¤°à¤°à¤°à¤°à¤°à¤°à¤°à¤°à¤°à¤°à¤°à¤°à¤°à¤°à¤°à¤°à¤°à¤°à¤°à¤°à¤°à¤°à¤°à¤°à¤°à¤°à¤°à¤°à¤°à¤°à¤°à¤°à¤°à¤°à¤°à¤°à¤°à¤°à¤°à¤°à¤°à¤°à¤°à¤°à¤°à¤°à¤°à¤°à¤°à¤°à¤°à¤°à¤°à¤°à¤°à¤°à¤°à¤°à¤°à¤°à¤°à¤°à¤°à¤°à¤°à¤°à¤°à¤°à¤°à¤°à¤°à¤°à¤°à¤°à¤°à¤°à¤°à¤°à¤°à¤°à¤°à¤°à¤°à¤°à¤°à¤°à¤°à¤°à¤°à¤°à¤°à¤°à¤°à¤°à¤°à¤°à¤°à¤°à¤°à¤°à¤°à¤°à¤°à¤°à¤°à¤°à¤°à¤°à¤°à¤°à¤°à¤°à¤°à¤°à¤°à¤°à¤°à¤°à¤°à¤°à¤°à¤°à¤°à¤°à¤°à¤°à¤°à¤°à¤°à¤°à¤°à¤°à¤°à¤°à¤°à¤°à¤°à¤°à¤°à¤°à¤°à¤°à¤°à¤°à¤°à¤°à¤°à¤°à¤°à¤°à¤°à¤°à¤°à¤°à¤°à¤°à¤°à¤°à¤°à¤°à¤°à¤°à¤°à¤°à¤°à¤°à¤°à¤°à¤°à¤°à¤°à¤°à¤°à¤°à¤°à¤°à¤°à¤°à¤°à¤°à¤°à¤°à¤°à¤°à¤°à¤°à¤°à¤°à¤°à¤°à¤°à¤°à¤°à¤°à¤°à¤°à¤°à¤°à¤°à¤°à¤°à¤°à¤°à¤°à¤°à¤°à¤°à¤°à¤°à¤°à¤°à¤°à¤°à¤°à¤°à¤°à¤°à¤°à¤°à¤°à¤°à¤°à¤°à¤°à¤°à¤°à¤°à¤°à¤°à¤°à¤°à¤°à¤°à¤°à¤°à¤°à¤°à¤°à¤°à¤°à¤°à¤°à¤°à¤°à¤°à¤°à¤°à¤°à¤°à¤°à¤°à¤°à¤°à¤°à¤°à¤°à¤°à¤°à¤°à¤°à¤°à¤°à¤°à¤°à¤°à¤°à¤°à¤°à¤°à¤°à¤°à¤°à¤°à¤°à¤°à¤°à¤°à¤°à¤°à¤°à¤°à¤°à¤°à¤°à¤°à¤°à¤°à¤°à¤°à¤°à¤°à¤°à¤°à¤°à¤°à¤°à¤°à¤°à¤°à¤°à¤°à¤°à¤°à¤°à¤°à¤°à¤°à¤°à¤°à¤°à¤°à¤°à¤°à¤°à¤°à¤°à¤°à¤°à¤°à¤°à¤°à¤°à¤°à¤°à¤°à¤°à¤°à¤°à¤°à¤°à¤°à¤°à¤°à¤°à¤°à¤°à¤°à¤°à¤°à¤°à¤°à¤°à¤°à¤°à¤°à¤°à¤°à¤°à¤°à¤°à¤°à¤°à¤°à¤°à¤°à¤°à¤°à¤°à¤°à¤°à¤°à¤°à¤°à¤°à¤°à¤°à¤°à¤°à¤°à¤°à¤°à¤°à¤°à¤°à¤°à¤°à¤°à¤°à¤°à¤°à¤°à¤°à¤°à¤°à¤°à¤°à¤°à¤°à¤°à¤°à¤°à¤°à¤°à¤°à¤°à¤°à¤°à¤°à¤°à¤°à¤°à¤°à¤°à¤°à¤°à¤°à¤°à¤°à¤°à¤°à¤°à¤°à¤°à¤°à¤°à¤°à¤°à¤°à¤°à¤°à¤°à¤°à¤°à¤°à¤°à¤°à¤°à¤°à¤°à¤°à¤°à¤°à¤°à¤°à¤°à¤°à¤°à¤°à¤°à¤°à¤°à¤°à¤°à¤°à¤°à¤°à¤°à¤°à¤°à¤°à¤°à¤°à¤°à¤°à¤°à¤°à¤°à¤°à¤°à¤°à¤°à¤°à¤°à¤°à¤°à¤°à¤°à¤°à¤°à¤°à¤°à¤°à¤°à¤°à¤°à¤°à¤°à¤°à¤°à¤°à¤°à¤°à¤°à¤°à¤°à¤°à¤°à¤°à¤°à¤°à¤°à¤°à¤°à¤°à¤°à¤°à¤°à¤°à¤°à¤°à¤°à¤°à¤°à¤°à¤°à¤°à¤°à¤°à¤°à¤°à¤°à¤°à¤°à¤°à¤°à¤°à¤°à¤° à¤°à¤°à¤°à¤°à¤°à¤°à¤°à¤°à¤°à¤°à¤°à¤°à¤°à¤°à¤°à¤°à¤°à¤°à¤°à¤°à¤°à¤°à¤°à¤°à¤°à¤°à¤°à¤°à¤°à¤°à¤°à¤°à¤°à¤°à¤°à¤°à¤°à¤°à¤°à¤°à¤°à¤°à¤°à¤°à¤°à¤°à¤°à¤°à¤°à¤°à¤°à¤°à¤°à¤°à¤°à¤°à¤°à¤°à¤°à¤°à¤°à¤°à¤°à¤°à¤°à¤°à¤°à¤°à¤°à¤°à¤°à¤°à¤°à¤°à¤°à¤°à¤°à¤°à¤°à¤°à¤°à¤°à¤°à¤°à¤°à¤°à¤°à¤°à¤°à¤°à¤°à¤°à¤°à¤°à¤°à¤°à¤°à¤°à¤°à¤°à¤°à¤°à¤°à¤°à¤°à¤°à¤°à¤°à¤°à¤°à¤°à¤°à¤°à¤°à¤°à¤°à¤°à¤°à¤°à¤°à¤°à¤°à¤°à¤°à¤°à¤°à¤°à¤°à¤°à¤°à¤°à¤°à¤°à¤°à¤°à¤°à¤°à¤°à¤°à¤°à¤°à¤°à¤°à¤°à¤°à¤°à¤°à¤°à¤°à¤°à¤°à¤°à¤°à¤°à¤°à¤°à¤°à¤°à¤°à¤°à¤°à¤°à¤°à¤°à¤°à¤°à¤°à¤°à¤°à¤°à¤°à¤°à¤°à¤°à¤°à¤°à¤°à¤°à¤°à¤°à¤°à¤°à¤°à¤°à¤°à¤°à¤°à¤°à¤°à¤°à¤°à¤°à¤°à¤°à¤°à¤°à¤°à¤°à¤°à¤°à¤°à¤°à¤°à¤°à¤°à¤°à¤°à¤°à¤°à¤°à¤°à¤°à¤°à¤°à¤°à¤°à¤°à¤°à¤°à¤°à¤°à¤°à¤°à¤°à¤°à¤°à¤°à¤°à¤°à¤°à¤°à¤°à¤°à¤°à¤°à¤°à¤°à¤°à¤°à¤°à¤°à¤°à¤°à¤°à¤°à¤°à¤°à¤°à¤°à¤°à¤°à¤°à¤°à¤°à¤°à¤°à¤°à¤°à¤°à¤°à¤°à¤°à¤°à¤°à¤°à¤°à¤°à¤°à¤°à¤°à¤°à¤°à¤°à¤°à¤°à¤°à¤°à¤°à¤°à¤°à¤°à¤°à¤°à¤°à¤°à¤°à¤°à¤°à¤°à¤°à¤°à¤°à¤°à¤°à¤°à¤°à¤°à¤°à¤°à¤°à¤°à¤°à¤°à¤°à¤°à¤°à¤°à¤°à¤°à¤°à¤°à¤°à¤°à¤°à¤°à¤°à¤°à¤°à¤°à¤°à¤°à¤°à¤°à¤°à¤°à¤°à¤°à¤°à¤°à¤°à¤°à¤°à¤°à¤°à¤°à¤°à¤°à¤°à¤°à¤°à¤°à¤°à¤°à¤°à¤°à¤°à¤°à¤°à¤°à¤°à¤°à¤°à¤°à¤°à¤°à¤°à¤°à¤°à¤°à¤°à¤°à¤°à¤°à¤°à¤°à¤°à¤°à¤°à¤°à¤°à¤°à¤°à¤°à¤°à¤°à¤°à¤°à¤°à¤°à¤°à¤°à¤°à¤°à¤°à¤°à¤°à¤°à¤°à¤°à¤°à¤°à¤°à¤°à¤°à¤°à¤°à¤°à¤°à¤°à¤°à¤°à¤°à¤°à¤°à¤°à¤°à¤°à¤°à¤°à¤°à¤°à¤°à¤°à¤°à¤°à¤°à¤°à¤°à¤°à¤°à¤°à¤°à¤°à¤°à¤°à¤°à¤°à¤°à¤°à¤°à¤°à¤°à¤°à¤°à¤°à¤°à¤°à¤°à¤°à¤°à¤°à¤°à¤°à¤°à¤°à¤°à¤°à¤°à¤°à¤°à¤°à¤°à¤°à¤°à¤°à¤°à¤°à¤°à¤°à¤°à¤°à¤°à¤°à¤°à¤°à¤°à¤°à¤°à¤°à¤°à¤°à¤°à¤°à¤°à¤°à¤°à¤°à¤°à¤°à¤°à¤°à¤°à¤°à¤°à¤°à¤°à¤°à¤°à¤°à¤°à¤°à¤°à¤°à¤°à¤°à¤°à¤°à¤°à¤°à¤°à¤°à¤°à¤°à¤°à¤°à¤°à¤°à¤°à¤°à¤°à¤°à¤°à¤°à¤°à¤°à¤°à¤°à¤°à¤°à¤°à¤°à¤°à¤°à¤°à¤°à¤°à¤°à¤°à¤°à¤°à¤°à¤°à¤°à¤°à¤°à¤°à¤°à¤°à¤°à¤°à¤°à¤°à¤°à¤°à¤°à¤°à¤°à¤°à¤°à¤°à¤°à¤°à¤°à¤°à¤°à¤°à¤°à¤°à¤°à¤°à¤°à¤°à¤°à¤°à¤°à¤°à¤°à¤°à¤°à¤°à¤°à¤°à¤°à¤°à¤°à¤°à¤°à¤°à¤°à¤°à¤°à¤°à¤°à¤°à¤°à¤°à¤°à¤°à¤°à¤°à¤°à¤°à¤°à¤°à¤°à¤°à¤°à¤°à¤°à¤°à¤°à¤°à¤°à¤°à¤°à¤°à¤°à¤°à¤°à¤°à¤°à¤°à¤°à¤°à¤°à¤°à¤°à¤°à¤°à¤°à¤°à¤°à¤°à¤°à¤°à¤°à¤°à¤°à¤°à¤°à¤°à¤°à¤°à¤°à¤°à¤°à¤°à¤°à¤°à¤°à¤°à¤°à¤°à¤°à¤°à¤°à¤°à¤°à¤°à¤°à¤°à¤°à¤°à¤°à¤°à¤°à¤°à¤°à¤°à¤°à¤°à¤°à¤°à¤°à¤°à¤°à¤°à¤°à¤°à¤°à¤°à¤°à¤°à¤°à¤°à¤°à¤°à¤°à¤°à¤°à¤°à¤°à¤°à¤°à¤°à¤°à¤°à¤°à¤°à¤°à¤°à¤°à¤°à¤°à¤°à¤°à¤°à¤°à¤°à¤°à¤°à¤°à¤°à¤°à¤°à¤°à¤°à¤°à¤°à¤°à¤°à¤°à¤°à¤°à¤°à¤°à¤°à¤°à¤°à¤°à¤°à¤°à¤°à¤°à¤°à¤°à¤°à¤°à¤°à¤°à¤°à¤°à¤°à¤°à¤°à¤°à¤°à¤°à¤°à¤°à¤°à¤°à¤°à¤°à¤°à¤°à¤°à¤°à¤°à¤°à¤°à¤°à¤°à¤°à¤°à¤°à¤°à¤°à¤°à¤°à¤°à¤°à¤°à¤°à¤°à¤°à¤°à¤°à¤°à¤°à¤°à¤°à¤°à¤°à¤°à¤°à¤°à¤°à¤°à¤°à¤°à¤°à¤°à¤°à¤°à¤°à¤°à¤°à¤°à¤°à¤°à¤°à¤°à¤°à¤°à¤°à¤°à¤°à¤°à¤°à¤°à¤°à¤°à¤°à¤°à¤°à¤°à¤°à¤°à¤°à¤°à¤°à¤°à¤°à¤°à¤°à¤°à¤°à¤°à¤°à¤°à¤°à¤°à¤°à¤°à¤°à¤°à¤°à¤°à¤°à¤°à¤°à¤°à¤°à¤°à¤°à¤°à¤°à¤°à¤°à¤°à¤°à¤°à¤°à¤°à¤°à¤°à¤°à¤°à¤°à¤°à¤°à¤°à¤°à¤°à¤°à¤°à¤°à¤°à¤°à¤°à¤°à¤°à¤°à¤°à¤°à¤°à¤°à¤°à¤°à¤°à¤°à¤°à¤°à¤°à¤°à¤°à¤°à¤°à¤°à¤°à¤°à¤°à¤°à¤°à¤°à¤°à¤°à¤°à¤°à¤°à¤°à¤°à¤°à¤°à¤°à¤°à¤°à¤°à¤°à¤°à¤°à¤°à¤°à¤°à¤°à¤°à¤°à¤°à¤°à¤°à¤°à¤°à¤°à¤°à¤°à¤°à¤°à¤°à¤°à¤°à¤°à¤°à¤°à¤°à¤°à¤°à¤°à¤°à¤°à¤°à¤°à¤°à¤°à¤°à¤°à¤°à¤°à¤°à¤°à¤°à¤°à¤°à¤°à¤°à¤°à¤°à¤°à¤°à¤°à¤°à¤°à¤°à¤°à¤°à¤°à¤°à¤°à¤°à¤°à¤°à¤°à¤°à¤°à¤°à¤°à¤°à¤°à¤°à¤°à¤°à¤°à¤°à¤°à¤°à¤°à¤°à¤°à¤°à¤°à¤°à¤°à¤°à¤°à¤°à¤°à¤°à¤°à¤°à¤°à¤°à¤°à¤°à¤°à¤°à¤°à¤°à¤°à¤°à¤°à¤°à¤°à¤°à¤°à¤°à¤°à¤°à¤°à¤°à¤°à¤°à¤°à¤°à¤°à¤°à¤°à¤°à¤°à¤°à¤°à¤°à¤°à¤°à¤°",
      "à¤¬à¤Łà¤° à¤«",
      "Ñģ ÑĤ",
      "ìŀ ī",
      "ĠÑĥ ÑģÑĤ",
      "Ġà¤ħà¤¦à¤° à¤ķ",
      "' '",
      "' ,",
      "a l",
      "e n",
      "r a",
      "s e",
      "¶ Ķ",
      "× Ŀ",
      "ì ĥ",
      "Ġ L",
      "Ġ M",
      "Ġ u",
      "Ġ Ø",
      "Ġ Ù",
      "Ġ âĢĿ",
      "à¤° à¤¥",
      "à¤° à¤Ŀ",
      "à¤° à¤¸à¤¤",
      "à¤¨ à¤Ĺà¤²",
      "à¤¨ à¤ļà¤¨",
      "à¤¨ ãĤ¢ãĤ¤ãĥĩãĤ¢",
      "Ġà¤ķ à¤ļà¤¡",
      "à¤¹ à¤²à¤¤",
      "à¤ķ à¤µà¤°",
      "à¤ķ à¤Łà¤°",
      "à¤ķ ãĤ¢ãĤ¤ãĥĩãĤ¢",
      "à¤¸ à¤¶",
      "à¤¸ à¤Łà¤¨",
      "à¤¤ à¤Ł",
      "à¥ģ à¥¤",
      "à¥ģ !\"",
      "Ġà¤¹ à¤ķà¤²",
      "Ġà¤¸ à¤¶à¤ķ",
      "Ġà¤® à¤®à¤¤",
      "Ġà¤¬ à¤¸à¤¨",
      "Ġà¤ī à¤«",
      "Ġà¤ī à¤ķà¤¸",
      "à¤® à¤¹à¤¤",
      "à¤® à¤²à¤¤",
      "à¤® à¤ľà¤¬",
      "à¤® à¤°à¤£",
      "à¤® à¤°à¤¹",
      "à¤® à¤¶à¤°",
      "Ġà¤ª à¤µ",
      "Ġà¤¥ à¤®à¤¨",
      "Ġà¤¦ à¤ĸ",
      "à¤¼ à¥Į",
      "à¤¼ à¥Ĥà¤ģ?\"",
      "à¤¼ à¥Ģà¤Ĥ!",
      "à¤¦ à¤ª",
      "à¤¾à¥¤ âĢĿ",
      "Ġà¤ľ à¤¯",
      "à¤ª à¤ľ",
      "à¤ª à¤µ",
      "à¤Ĺ à¤¹",
      "à¤Ĺ à¤²à¤¤",
      "Ġà¤ĸ à¤²à¤¨",
      "Ġà¤ĸ à¤²à¤¤",
      "Ġà¤Ĺ à¤¬",
      "Ġà¤Ĺ à¤²à¤¨",
      "Ġà¤Ĺ à¤ł",
      "Ġà¤Ĺ à¤łà¤¨",
      "Ġà¤ķà¤° à¤ķà¤°",
      "à¤Ł à¤¦",
      "à¤Ł à¤Ł",
      "à¤Ł à¤ķà¤¤",
      "à¤ľ à¤¤à¤¨",
      "à¤ľ à¤²à¤¤",
      "à¤ı à¤¡à¤¨",
      "à¤ı à¤¶à¤Ł",
      "à¤ĸ à¤µ",
      "à¤ĸ ãĤ¢ãĤ¤ãĥĩãĤ¢",
      "Ġà¤¤ à¤¤",
      "à¤¬ à¤ĸ",
      "à¤¬ à¤¦à¤®",
      "à¤¬ à¤ķà¤²",
      "à¤¶ à¤¯",
      "à¤¶ à¤Ĺ",
      "à¤¶ à¤ĸ",
      "à¤¶ à¤¤à¤°",
      "à¤ļ à¤ħà¤ª",
      "à¤ªà¤¨ à¤°",
      "Ġà¤Ĩ à¤®à¤¨",
      "à¤Ī à¤¦",
      "à¤Ľ à¤ķ",
      "Ġà¤ķà¤¹ à¤°",
      "Ġà¤Ł à¤Ĺ",
      "Ġà¤« à¤²à¤¨",
      "Ġà¤« à¤Łà¤ķà¤°",
      "Ġà¤ĩ à¤¯à¤°",
      "Ġà¤²à¤Ĺ à¤ķà¤°",
      "à¤¼à¤¾ '",
      "à¤¼à¤¾ :",
      "à¤Ń à¤°à¤¤",
      "à¤Ń à¤µà¤¤",
      "Ġà¤ĩà¤¸ ãĤ¢ãĤ¤à¤¡",
      "à¤ıà¤ķ à¤ľ",
      "à¤¼à¥ĩ \"",
      "à¤¼à¥ĩ ?",
      "Ġà¤ĺ à¤¸",
      "Ġà¤ªà¤¸ à¤¨",
      "Ġà¤¡ à¤¨",
      "Ġà¤¡ à¤¯",
      "à¤· à¤ķà¤°",
      "à¤Ŀ à¤ªà¤ķ",
      "à¤¹à¤° à¤¨",
      "à¤Ĩ à¤¬",
      "Ġà¤®à¤¹ à¤ķà¤¨",
      "Ġà¤ħà¤ļ à¤°à¤ľ",
      "à¤ĩ à¤Łà¤¨",
      "à¤¾à¤Ĥ \"",
      "à¤¾à¤Ĥ ,\"",
      "à¤¢ à¤µ",
      "Ġà¤ĵ à¤¶à¤¨",
      "Ġà¤ĵ à¤ķà¤ª",
      "?\" ,",
      "à¥Ĥà¤ģ \",",
      "à¤ħ à¤Ĺ",
      "à¤ħ à¤²à¤¯",
      "à¤ĸà¤¨ à¤¨à¤ķ",
      "Ġà¤¹à¤° à¤®",
      "Ġà¤¤à¤° à¤ľ",
      "Ġà¤¤à¤° à¤Ľ",
      "à¤¦à¤® à¤ķà¤²",
      "Ġà¤Ĩà¤¯ à¤°à¤²",
      "Ġà¤ı à¤Ł",
      "Ġà¤ı à¤ľ",
      "Ġà¤ı à¤¥à¤²",
      "à¥Ĥà¤Ĥ .\"",
      "Ġà¤ľà¤² à¤®à¤Ĺ",
      "à¥ĭà¥¤ '",
      "Ġà¤Ńà¤° à¤£",
      "à¤ªà¤° à¤¸",
      "Ġà¤Ĳ à¤Īà¤¯",
      "Ġà¤Ĳ à¤¶à¤Ł",
      "à¤Łà¤° à¤Ł",
      "à¤µà¤¹ à¤¨",
      "Ġà¤¢ à¤¹à¤¨",
      "à¤°à¤° à¤°",
      "à¤¯à¤° à¤µ",
      "à¤®à¤¤ à¤²à¤¬",
      "à¤ļà¤° à¤¸",
      "à¤Ĺà¤¤ à¤¯",
      "à¤¬à¤² à¤ķ",
      "à¤¹à¤® à¤²",
      "à¤¾- -",
      "à¤ĺ à¤ķà¤°",
      "Ġà¤®à¤¨ à¤®à¤°",
      "à¤ļà¤ķ à¤¸",
      "Ġ- -",
      "à¥Ģ. ..\"",
      "Ġà¤¸à¤¡ à¤²",
      "ãĥ ³",
      "Ġà¤ļà¤Ł à¤ķà¤¨",
      "Ġà¤Ī à¤Ĺà¤°",
      "Ġà¤®à¤ķ à¤¸à¤¦",
      "à¤°à¤¹ à¤ķà¤°",
      "à¤¼à¥Ĥ ,",
      "à¤ĩà¤Ł à¤Ĺ",
      "Ġà¤īà¤¬ à¤°à¤¨",
      "à¤°à¤µ à¤ļà¤¨",
      "à¤²à¤® à¤Ł",
      "Ġà¤¸à¤¨ à¤¬",
      "à¥Īà¤Ĥ. ..",
      "Ġà¤Ĺà¤® à¤¬",
      "Ġà¤¦à¤¹ à¤¶à¤¤",
      "Ġà¤ħà¤ª à¤µ",
      "Ġà¤ħà¤µ à¤ľ",
      "Ġà¤Ńà¤Ł à¤²à¤¨",
      "Ġà¤ĵà¤ª à¤²",
      "Ġà¤¥à¤° à¤¥à¤°",
      "à¥Ĥà¤ģ? !\"",
      "Ġà¤ıà¤¡ à¤µà¤°",
      "à¤ĳ à¤¨",
      "à¤ĳ à¤¸",
      "Ġà¤¤à¤°à¤¬ à¤¤à¤°",
      "Ġ1 1",
      "à¥Ĥà¤Ĥ? '",
      "Ġà¤ĸà¤² à¤²",
      "à¥ĩà¤Ĥ\" à¥¤",
      "à¤¸à¤®à¤Ŀ à¤¦",
      "à¤²à¤Łà¤° à¤¬",
      "Ø± Ø±",
      "Ġì ¶Ķ",
      "à¥Īà¥¤' \"",
      "Ġà¤Ŀà¤Ł à¤ķà¤¤",
      "ĠAb i",
      "ĠD an",
      "Ġà¤ļà¤¹ à¤ķà¤¤",
      "Ġà¤ļà¤¹ à¤²à¤ķà¤¦à¤®",
      "à¤¬à¤Ł à¤°à¤ķà¤ª",
      "à¤Łà¤¹ à¤²à¤¨",
      "Ġà¤Ĩà¤ĩ à¤ķà¤¨",
      "ìĥ ģ",
      "Ġì¶Ķ ìĥģ",
      "! !\"",
      "! âĢĿ",
      "\" !",
      "1 1",
      "5 0",
      "9 9",
      "? 'à¥¤",
      "A my",
      "B C",
      "G rrr",
      "a j",
      "e x",
      "f o",
      "g rrr",
      "i m",
      "m o",
      "o p",
      "w al",
      "y mo",
      "~ ~",
      "¢ ×Ŀ",
      "ª ģ",
      "Å ĵ",
      "Ø ²",
      "Ø Į",
      "Ù ħ",
      "ç ªģ",
      "Ġ ,",
      "Ġ C",
      "Ġ K",
      "Ġ S",
      "Ġ n",
      "Ġ ë",
      "Ġ an",
      "Ġ Ø¨",
      "Ġ Ã¢",
      "Ġ Grrr",
      "Ġ ex",
      "Ġ wal",
      "à¤° à¤§",
      "à¤° à¤¬à¤¡",
      "à¤° à¤Ĺà¤¡",
      "à¤° à¤ļà¤ķà¤°",
      "à¤° ãĤ¢ãĤ¤à¤¡",
      "à¥Ģ à¤ģ",
      "à¤¨ à¤ª",
      "à¤¨ à¤®à¤ķ",
      "Ġà¤ķ à¤¸à¤¨",
      "Ġà¤ķ à¤¤à¤°",
      "Ġà¤ķ aj",
      "à¤¹ à¤ľ",
      "à¤¿ ,\"",
      "à¤¿ ...",
      "à¤ķ à¤ķà¤¤",
      "à¤Ĥ .\"",
      "à¤¸ à¤ĸ",
      "à¤¸ à¤¦à¤®",
      "à¥ĭ ;",
      "à¥ĭ ..",
      "à¤¤ à¤¡",
      "à¤¤ ãĤ¢ãĤ¤ãĥĩãĤ¢",
      "à¥¤ âĢĿ",
      "à¥ģ !",
      "à¥ģ \"",
      "Ġà¤¹ à¤²à¤¨",
      "Ġà¤¹ mm",
      "Ġà¤¸ à¤ľà¤¨",
      "Ġà¤® à¤Ĺà¤°",
      "Ġà¤® à¤Łà¤®",
      "Ġà¤¬ à¤¦à¤¨",
      "Ġà¤ī à¤ķ",
      "Ġà¤ī à¤¬à¤²",
      "Ġà¤ī à¤¬à¤°",
      "à¤¯ à¤°à¤ķ",
      "à¤® à¤«",
      "à¤® à¤°à¤ķ",
      "à¤® à¤¸à¤®",
      "à¤® à¤Łà¤ķà¤°",
      "Ġà¤ª à¤µà¤¨",
      "Ġà¤ª à¤łà¤¨",
      "Ġà¤² à¤¹à¤ľ",
      "Ġà¤¨ à¤¨",
      "Ġà¤¨ à¤®à¤¨",
      "à¥Ĥ ?",
      "à¤¡ à¤Ł",
      "à¤¡ à¤¶",
      "à¤¡ à¤µà¤°",
      "à¤ª à¤Łà¤°",
      "à¤ª à¤ĵà¤µà¤°",
      "à¥ĩà¤Ĥ ;",
      "à¥ĩà¤Ĥ 'à¥¤",
      "Ġà¤ħ à¤ªà¤ķ",
      "Ġà¤ħ à¤µà¤²",
      "Ġà¤ħ à¤µà¤¸",
      "Ġà¤ħ à¤ªà¤¹à¤°",
      "Ġà¤ħ à¤µà¤ķ",
      "Ġà¤ıà¤ķ à¤¹",
      "Ġà¤ıà¤ķ à¤¸",
      "Ġà¤ıà¤ķ à¤¡",
      "à¤Ĺ à¤¹à¤°",
      "à¤Ĺ à¤®à¤²",
      "à¤Ĺ à¤Ńà¤°à¤¨",
      "Ġà¤ĸ à¤®",
      "à¤Ł ãĤ¢ãĤ¤ãĥĩãĤ¢",
      "à¤ı à¤ª",
      "à¤ı à¤¨à¤¨",
      "à¤ĸ à¤¬à¤°",
      "à¥ĭà¤Ĥ \"",
      "à¥ĭà¤Ĥ .\"",
      "à¥ĭà¤Ĥ ØĮ",
      "à¤µ à¤®",
      "à¤µ à¤ľà¤¨",
      "à¤¬ à¤«",
      "à¤¬ à¤¦à¤¦",
      "à¤¬ à¤°à¤ľ",
      "à¤¬ à¤ĸà¤°",
      "à¤¬ à¤¦à¤¸",
      "à¤ģ :",
      "à¤¶ à¤²à¤¤",
      "à¤¶ à¤®à¤¨",
      "à¤¶ à¤¨à¤ķ",
      "à¤ļ à¤®à¤Ĺ",
      "à¤¾, à¥¤",
      "à¥Īà¤Ĥ -",
      "à¥Īà¤Ĥ \",",
      "Ġà¤Ĩ à¤°à¤ķ",
      "Ġà¤Ĩ à¤ĩà¤²",
      "à¥Ģà¥¤ '",
      "à¤Ī à¤°",
      "à¤Ī à¤ķà¤°",
      "à¤Ī à¤Ĺà¤²",
      "à¤Ī à¤Ĺà¤°",
      "à¤Ľ à¤¹",
      "à¥Ģà¤Ĥ à¤¾à¥¤",
      "à¥Ģà¤Ĥ à¥ĩà¤Ĥ",
      "à¥Ģà¤Ĥ à¥Ĥà¤Ĥ",
      "à¥Īà¥¤ âĢĿ",
      "Ġà¤īà¤¨ à¤ªà¤°",
      "Ġà¤Ł à¤¡",
      "Ġà¤Ń à¤Łà¤ķà¤°",
      "Ġà¤ªà¤° à¤ĸà¤¤",
      "à¤¥ à¤Ĺ",
      "Ġà¤Ľ à¤ł",
      "à¤¼à¤¾ \"",
      "à¤¼à¤¾ .\"",
      "à¤Ń à¤²à¤ķà¤°",
      "à¤Ń à¤Łà¤ķ",
      "à¥Į -",
      "à¥Į ...",
      "à¤¹à¤¤ à¤®",
      "à¤« à¤«",
      "à¤« à¤¹à¤®",
      "à¤¼à¥ĩ :",
      "Ġà¤¡ à¤®",
      "Ġà¤¡ à¤²à¤¨",
      "Ġà¤¡ à¤Łà¤ķà¤°",
      "à¤· à¤°à¤¤",
      "à¤Ŀ à¤°",
      "à¤Ŀ à¤®",
      "à¤Ŀ à¤ªà¤°",
      "à¤Ŀ à¤Łà¤ķ",
      "à¤¼à¥Ģ '",
      "à¤¼à¥Ģ .\"",
      "à¤¹à¤° à¤¬",
      "à¤Ĩ à¤®",
      "à¤Ĩ à¤¦",
      "à¤Ĩ à¤¦à¤°",
      "à¤Ĩ à¤¯à¤¨",
      "à¤Ĩ à¤ĩà¤µ",
      "à¤§ à¤¹",
      "à¤§ à¤°à¤¨",
      "à¤§ à¤ķà¤¤",
      "à¤§ à¤²à¤ķ",
      "à¤ĩ à¤¸à¤¨",
      "à¤ĩ à¤¨à¤ķ",
      "à¤ĩ à¤Łà¤¬",
      "à¤ĩ à¤Łà¤²",
      "à¤¾à¤Ĥ ?",
      "à¤¾à¤Ĥ ?\"",
      "Ġà¤ĵ à¤ªà¤¨à¤°",
      "Ġà¤®à¤¦à¤¦ à¤¹",
      "Ġà¤§ à¤§à¤ķà¤¤",
      "à¥Ĥà¤ģ 'à¥¤",
      "à¤ī à¤¹",
      "à¤ī à¤®",
      "à¤ī à¤ªà¤¨",
      "à¤ī à¤«",
      "à¤ī à¤¨à¤µà¤°",
      "à¤ī à¤¥à¤µ",
      "à¤°à¤¤ à¤Ł",
      "à¤ħ à¤ĸ",
      "Ġà¤¸à¤¬ à¤¨",
      "Ġà¤¸à¤¬ à¤®",
      "Ġà¤ħà¤¨ à¤ķ",
      "à¥ĭ, !\"",
      "à¤¯à¤µ à¤°",
      "Ġà¤Ĭ à¤¹",
      "Ġà¤¤à¤° à¤¸à¤¤",
      "à¤µà¤° à¤¨",
      "Ġà¤ł à¤Ĺ",
      "Ġà¤Ŀ à¤®",
      "à¥Ĥà¤Ĥ '",
      "à¥Ĥà¤Ĥ ...\"",
      "Ġà¤ľà¤² à¤¸",
      "à¥ĭà¥¤ à¥¤\"",
      "à¤ĵ à¤¸",
      "Ġà¤Ĳ à¤ª",
      "Ġà¤Ĳ à¤Ī",
      "Ġà¤¢ à¤²à¤¨",
      "Ġà¤ķà¤® à¤¤à¤°",
      "à¤¨à¤¨ à¤¬",
      "à¤¸à¤¨ à¤¶",
      "Ġà¤ľà¤Ĺ à¤¤",
      "Ġà¤ľà¤Ĺ à¤ķà¤°",
      "à¥Ģ! '",
      "à¤īà¤¨ à¤®",
      "Ġà¤ķà¤®à¤° à¤¬",
      "à¤Łà¤¨ à¤Ł",
      "à¤Ĺà¤° à¤ľ",
      "à¤®à¤¤ à¤ķà¤°",
      "Ġà¤¸à¤¹ à¤ª",
      "Ġà¤¸à¤¹ à¤ķà¤°",
      "à¤ļà¤° à¤«",
      "Ġà¤ľà¤¹ à¤®à¤¤",
      "à¤°à¤® à¤®",
      "à¤¼à¥ĭ \"",
      "à¤ľà¤° à¤¸",
      "à¥Ģ- -",
      "à¤ĩà¤¨ à¤ıà¤ª",
      "à¤°à¤°à¤°à¤° à¤°",
      "à¤°à¤°à¤°à¤° à¤°à¤°à¤°",
      "à¤ªà¤ķ à¤ķà¤°",
      "Ġà¤Ĩà¤Ĺ à¤§",
      "à¤¬à¤² à¤¬à¤²",
      "Ġà¤Ĺà¤²à¤¤ à¤«à¤¹à¤®",
      "à¤ĺ à¤²à¤ķà¤°",
      "à¥Ī! 'à¥¤",
      "Ġà¤Ĩà¤ľ à¤ķà¤²",
      "à¤Ĭ à¤¹",
      "à¤īà¤¸ à¤¸",
      "à¥ĩ! '",
      "à¤ķà¤Ł à¤µà¤°",
      "ãĥ ¼",
[...]
