{
    "version": "1.0",
    "truncation": null,
    "padding": null,
    "added_tokens": [
      {
        "id": 0,
        "content": "<UNK>",
        "single_word": false,
        "lstrip": false,
        "rstrip": false,
        "normalized": false,
        "special": true
      },
      {
        "id": 1,
        "content": "<CLS>",
        "single_word": false,
        "lstrip": false,
        "rstrip": false,
        "normalized": false,
        "special": true
      },
      {
        "id": 2,
        "content": "<SEP>",
        "single_word": false,
        "lstrip": false,
        "rstrip": false,
        "normalized": false,
        "special": true
      },
      {
        "id": 3,
        "content": "<PAD>",
        "single_word": false,
        "lstrip": false,
        "rstrip": false,
        "normalized": false,
        "special": true
      },
      {
        "id": 4,
        "content": "<MASK>",
        "single_word": false,
        "lstrip": false,
        "rstrip": false,
        "normalized": false,
        "special": true
      }
    ],
    "normalizer": null,
    "pre_tokenizer": {
      "type": "ByteLevel",
      "add_prefix_space": false,
      "trim_offsets": true,
      "use_regex": true
    },
    "post_processor": {
      "type": "ByteLevel",
      "add_prefix_space": true,
      "trim_offsets": false,
      "use_regex": true
    },
    "decoder": {
      "type": "ByteLevel",
      "add_prefix_space": true,
      "trim_offsets": true,
      "use_regex": true
    },
    "model": {
      "type": "BPE",
      "dropout": null,
      "unk_token": null,
      "continuing_subword_prefix": null,
      "end_of_word_suffix": null,
      "fuse_unk": false,
      "byte_fallback": false,
      "ignore_merges": false,
      "vocab": {
        "<UNK>": 0,
        "<CLS>": 1,
        "<SEP>": 2,
        "<PAD>": 3,
        "<MASK>": 4,
        "!": 5,
        "\"": 6,
        "#": 7,
        "$": 8,
        "%": 9,
        "&": 10,
        "'": 11,
        "(": 12,
        ")": 13,
        "*": 14,
        "+": 15,
        ",": 16,
        "-": 17,
        ".": 18,
        "/": 19,
        "0": 20,
        "1": 21,
        "2": 22,
        "3": 23,
        "4": 24,
        "5": 25,
        "6": 26,
        "7": 27,
        "8": 28,
        "9": 29,
        ":": 30,
        ";": 31,
        "<": 32,
        "=": 33,
        ">": 34,
        "?": 35,
        "@": 36,
        "A": 37,
        "B": 38,
        "C": 39,
        "D": 40,
        "E": 41,
        "F": 42,
        "G": 43,
        "H": 44,
        "I": 45,
        "J": 46,
        "K": 47,
        "L": 48,
        "M": 49,
        "N": 50,
        "O": 51,
        "P": 52,
        "Q": 53,
        "R": 54,
        "S": 55,
        "T": 56,
        "U": 57,
        "V": 58,
        "W": 59,
        "X": 60,
        "Y": 61,
        "Z": 62,
        "[": 63,
        "\\": 64,
        "]": 65,
        "^": 66,
        "_": 67,
        "`": 68,
        "a": 69,
        "b": 70,
        "c": 71,
        "d": 72,
        "e": 73,
        "f": 74,
        "g": 75,
        "h": 76,
        "i": 77,
        "j": 78,
        "k": 79,
        "l": 80,
        "m": 81,
        "n": 82,
        "o": 83,
        "p": 84,
        "q": 85,
        "r": 86,
        "s": 87,
        "t": 88,
        "u": 89,
        "v": 90,
        "w": 91,
        "x": 92,
        "y": 93,
        "z": 94,
        "{": 95,
        "|": 96,
        "}": 97,
        "~": 98,
        "¡": 99,
        "¢": 100,
        "£": 101,
        "¤": 102,
        "¥": 103,
        "¦": 104,
        "§": 105,
        "¨": 106,
        "©": 107,
        "ª": 108,
        "«": 109,
        "¬": 110,
        "®": 111,
        "¯": 112,
        "°": 113,
        "±": 114,
        "²": 115,
        "³": 116,
        "´": 117,
        "µ": 118,
        "¶": 119,
        "·": 120,
        "¸": 121,
        "¹": 122,
        "º": 123,
        "»": 124,
        "¼": 125,
        "½": 126,
        "¾": 127,
        "¿": 128,
        "À": 129,
        "Á": 130,
        "Â": 131,
        "Ã": 132,
        "Ä": 133,
        "Å": 134,
        "Æ": 135,
        "Ç": 136,
        "È": 137,
        "É": 138,
        "Ê": 139,
        "Ë": 140,
        "Ì": 141,
        "Í": 142,
        "Î": 143,
        "Ï": 144,
        "Ð": 145,
        "Ñ": 146,
        "Ò": 147,
        "Ó": 148,
        "Ô": 149,
        "Õ": 150,
        "Ö": 151,
        "×": 152,
        "Ø": 153,
        "Ù": 154,
        "Ú": 155,
        "Û": 156,
        "Ü": 157,
        "Ý": 158,
        "Þ": 159,
        "ß": 160,
        "à": 161,
        "á": 162,
        "â": 163,
        "ã": 164,
        "ä": 165,
        "å": 166,
        "æ": 167,
        "ç": 168,
        "è": 169,
        "é": 170,
        "ê": 171,
        "ë": 172,
        "ì": 173,
        "í": 174,
        "î": 175,
        "ï": 176,
        "ð": 177,
        "ñ": 178,
        "ò": 179,
        "ó": 180,
        "ô": 181,
        "õ": 182,
        "ö": 183,
        "÷": 184,
        "ø": 185,
        "ù": 186,
        "ú": 187,
        "û": 188,
        "ü": 189,
        "ý": 190,
        "þ": 191,
        "ÿ": 192,
        "Ā": 193,
        "ā": 194,
        "Ă": 195,
        "ă": 196,
        "Ą": 197,
        "ą": 198,
        "Ć": 199,
        "ć": 200,
        "Ĉ": 201,
        "ĉ": 202,
        "Ċ": 203,
        "ċ": 204,
        "Č": 205,
        "č": 206,
        "Ď": 207,
        "ď": 208,
        "Đ": 209,
        "đ": 210,
        "Ē": 211,
        "ē": 212,
        "Ĕ": 213,
        "ĕ": 214,
        "Ė": 215,
        "ė": 216,
        "Ę": 217,
        "ę": 218,
        "Ě": 219,
        "ě": 220,
        "Ĝ": 221,
        "ĝ": 222,
        "Ğ": 223,
        "ğ": 224,
        "Ġ": 225,
        "ġ": 226,
        "Ģ": 227,
        "ģ": 228,
        "Ĥ": 229,
        "ĥ": 230,
        "Ħ": 231,
        "ħ": 232,
        "Ĩ": 233,
        "ĩ": 234,
        "Ī": 235,
        "ī": 236,
        "Ĭ": 237,
        "ĭ": 238,
        "Į": 239,
        "į": 240,
        "İ": 241,
        "ı": 242,
        "Ĳ": 243,
        "ĳ": 244,
        "Ĵ": 245,
        "ĵ": 246,
        "Ķ": 247,
        "ķ": 248,
        "ĸ": 249,
        "Ĺ": 250,
        "ĺ": 251,
        "Ļ": 252,
        "ļ": 253,
        "Ľ": 254,
        "ľ": 255,
        "Ŀ": 256,
        "ŀ": 257,
        "Ł": 258,
        "ł": 259,
        "Ń": 260,
        "Ġt": 261,
        "he": 262,
        "Ġa": 263,
        "in": 264,
        "Ġthe": 265,
        "er": 266,
        "on": 267,
        "Ġ,": 268,
        "re": 269,
        "Ġs": 270,
        "ed": 271,
        "Ġo": 272,
        "Ġw": 273,
        "nd": 274,
        "at": 275,
        "Ġ.": 276,
        "or": 277,
        "it": 278,
        "Ġc": 279,
        "en": 280,
        "Ġf": 281,
        "is": 282,
        "es": 283,
        "ar": 284,
        "Ġof": 285,
        "Ġb": 286,
        "an": 287,
        "Ġin": 288,
        "al": 289,
        "ing": 290,
        "Ġp": 291,
        "Ġand": 292,
        "as": 293,
        "Ġto": 294,
        "ro": 295,
        "ic": 296,
        "Ġm": 297,
        "Ġd": 298,
        "Ġh": 299,
        "ion": 300,
        "le": 301,
        "ou": 302,
        "ĠT": 303,
        "Ġre": 304,
        "Ġ=": 305,
        "Ġ\"": 306,
        "ĠA": 307,
        "ĠS": 308,
        "ent": 309,
        "il": 310,
        "Ġth": 311,
        "Ġ1": 312,
        "st": 313,
        "ĠC": 314,
        "el": 315,
        "om": 316,
        "Ġl": 317,
        "am": 318,
        "ĠĊ": 319,
        "Ġe": 320,
        "Ġn": 321,
        "Ġ@": 322,
        "ad": 323,
        "ac": 324,
        "Ġwas": 325,
        "ĠM": 326,
        "ur": 327,
        "ĠThe": 328,
        "ec": 329,
        "Ġon": 330,
        "ly": 331,
        "ĠB": 332,
        "ĠI": 333,
        "Ġg": 334,
        "Ġ'": 335,
        "et": 336,
        "ol": 337,
        "id": 338,
        "iv": 339,
        "im": 340,
        "Ġfor": 341,
        "ir": 342,
        "-@": 343,
        "Ġ@-@": 344,
        "ig": 345,
        "ot": 346,
        "ter": 347,
        "Ġas": 348,
        "ĠH": 349,
        "us": 350,
        "ow": 351,
        "Ġst": 352,
        "ut": 353,
        "ith": 354,
        "ay": 355,
        "Ġ2": 356,
        "ĠP": 357,
        "ation": 358,
        "ver": 359,
        "Ġbe": 360,
        "her": 361,
        "Ġthat": 362,
        "Ġwith": 363,
        "ĠR": 364,
        "ce": 365,
        "th": 366,
        "ĠD": 367,
        "Ġis": 368,
        "un": 369,
        "em": 370,
        "ĠF": 371,
        "Ġwh": 372,
        "ul": 373,
        "Ġby": 374,
        "Ġal": 375,
        "ch": 376,
        "Ġ)": 377,
        "Ġ(": 378,
        "ĠW": 379,
        "Ġcon": 380,
        "ra": 381,
        "ĠG": 382,
        "os": 383,
        "ĠL": 384,
        "ĠN": 385,
        "Ġat": 386,
        "ers": 387,
        "ct": 388,
        "Ġit": 389,
        "Ġ19": 390,
        "rom": 391,
        "and": 392,
        "Ġan": 393,
        "um": 394,
        "est": 395,
        "ĠJ": 396,
        "ag": 397,
        "Ġhe": 398,
        "00": 399,
        "ist": 400,
        "ain": 401,
        "od": 402,
        "av": 403,
        "ri": 404,
        "ĠE": 405,
        "ĠO": 406,
        "Ġfrom": 407,
        "Ġcom": 408,
        "Ġhis": 409,
        "op": 410,
        "Ġpro": 411,
        "res": 412,
        "ies": 413,
        "if": 414,
        "Ġv": 415,
        "ort": 416,
        "ere": 417,
        "ill": 418,
        "ld": 419,
        "Ġde": 420,
        "pp": 421,
        "Ġsu": 422,
        "ore": 423,
        "ĠIn": 424,
        "Ġr": 425,
        "Ġse": 426,
        "Ġwere": 427,
        "ew": 428,
        "ong": 429,
        "igh": 430,
        "ard": 431,
        "ate": 432,
        "all": 433,
        "art": 434,
        "ak": 435,
        "ich": 436,
        "Ġch": 437,
        "Ġor": 438,
        "ab": 439,
        "ant": 440,
        "ud": 441,
        "oc": 442,
        "ber": 443,
        "Ġex": 444,
        "gh": 445,
        "ity": 446,
        "ated": 447,
        "pt": 448,
        "ess": 449,
        "ear": 450,
        "ĠK": 451,
        "Ġpl": 452,
        "ame": 453,
        "qu": 454,
        "ive": 455,
        "rou": 456,
        "Ġare": 457,
        "Ġâ": 458,
        "Ġsh": 459,
        "Ġk": 460,
        "ack": 461,
        "ect": 462,
        "ĠâĢ": 463,
        "ĠU": 464,
        "Ġhad": 465,
        "se": 466,
        "Ġwhich": 467,
        "red": 468,
        "ov": 469,
        "ĠSt": 470,
        "ast": 471,
        "Ġsp": 472,
        "ian": 473,
        "Ġy": 474,
        "ment": 475,
        "Ġle": 476,
        "Ġnot": 477,
        "ge": 478,
        "ord": 479,
        "rit": 480,
        "ip": 481,
        "ine": 482,
        "ell": 483,
        "ally": 484,
        "our": 485,
        "ost": 486,
        "ight": 487,
        "ther": 488,
        "ap": 489,
        "Ġu": 490,
        "ish": 491,
        "ĠCh": 492,
        "oun": 493,
        "ia": 494,
        "Ġ3": 495,
        "ave": 496,
        "ary": 497,
        "ust": 498,
        "og": 499,
        "Ġ200": 500,
        "Ġun": 501,
        "ous": 502,
        "irst": 503,
        "ĠV": 504,
        "cc": 505,
        "Ġinc": 506,
        "Ġ;": 507,
        "Ġcomp": 508,
        "ru": 509,
        "ions": 510,
        "Ġtheir": 511,
        "Ġbut": 512,
        "ide": 513,
        "ure": 514,
        "so": 515,
        "Ġcont": 516,
        "Ġint": 517,
        "fter": 518,
        "ical": 519,
        "ial": 520,
        "Ġar": 521,
        "Ġfirst": 522,
        "ould": 523,
        "Ġits": 524,
        "hed": 525,
        "ĠâĢĵ": 526,
        "Ġwhe": 527,
        "wo": 528,
        "out": 529,
        "ub": 530,
        "Ġ20": 531,
        "ff": 532,
        "Ġ:": 533,
        "ue": 534,
        "Ġher": 535,
        "own": 536,
        "ok": 537,
        "Ġalso": 538,
        "Ġcl": 539,
        "per": 540,
        "ign": 541,
        "ater": 542,
        "ran": 543,
        "orm": 544,
        "ie": 545,
        "ome": 546,
        "ork": 547,
        "ass": 548,
        "ire": 549,
        "end": 550,
        "Ġres": 551,
        "Ġab": 552,
        "Ġad": 553,
        "Ġus": 554,
        "ry": 555,
        "Ġrec": 556,
        "Ġhave": 557,
        "age": 558,
        "ĠHe": 559,
        "Ġ4": 560,
        "Ġro": 561,
        "mer": 562,
        "Ġone": 563,
        "ond": 564,
        "low": 565,
        "Ġhas": 566,
        "ĠTh": 567,
        "du": 568,
        "Ġ5": 569,
        "Ġper": 570,
        "Ġbeen": 571,
        "ime": 572,
        "Ġtwo": 573,
        "ence": 574,
        "land": 575,
        "Ġ18": 576,
        ".@": 577,
        "Ġ@.@": 578,
        "ult": 579,
        "ree": 580,
        "ough": 581,
        "ile": 582,
        "Ġwho": 583,
        "ĠAl": 584,
        "Ġsc": 585,
        "uring": 586,
        "pl": 587,
        "ory": 588,
        "ition": 589,
        "ric": 590,
        "ations": 591,
        "Ġdis": 592,
        "Ġthis": 593,
        "Ġbec": 594,
        "Ġapp": 595,
        "iz": 596,
        "ĠIt": 597,
        "are": 598,
        "ach": 599,
        "lud": 600,
        "ade": 601,
        "Ġplay": 602,
        "Ġj": 603,
        "Ġman": 604,
        "act": 605,
        "ely": 606,
        "Ġpart": 607,
        "Ġdes": 608,
        "Ġag": 609,
        "Ġthey": 610,
        "Ġyear": 611,
        "ount": 612,
        "Ġ201": 613,
        "Ġover": 614,
        "Ġother": 615,
        "ound": 616,
        "Ġafter": 617,
        "ib": 618,
        "over": 619,
        "Ġser": 620,
        "Ġen": 621,
        "Ġoff": 622,
        "Ġim": 623,
        "ction": 624,
        "ĠY": 625,
        "ke": 626,
        "ite": 627,
        ",@": 628,
        "Ġ@,@": 629,
        "te": 630,
        "urn": 631,
        "Ġinclud": 632,
        "ress": 633,
        "ance": 634,
        "ang": 635,
        "Ġatt": 636,
        "ice": 637,
        "ace": 638,
        "ark": 639,
        "Ġout": 640,
        "wn": 641,
        "ph": 642,
        "ember": 643,
        "Ġpre": 644,
        "Ġup": 645,
        "ens": 646,
        "man": 647,
        "Ġev": 648,
        "Ġtime": 649,
        "nder": 650,
        "rough": 651,
        "ced": 652,
        "Ġfin": 653,
        "Ġinto": 654,
        "one": 655,
        "port": 656,
        "round": 657,
        "we": 658,
        "ren": 659,
        "les": 660,
        "int": 661,
        "ĠOn": 662,
        "vel": 663,
        "Ġcomm": 664,
        "Ġshe": 665,
        "ason": 666,
        "amp": 667,
        "Ġte": 668,
        "Ġwould": 669,
        "ward": 670,
        "Ġmore": 671,
        "Ġ6": 672,
        "ied": 673,
        "ose": 674,
        "rib": 675,
        "ĠUn": 676,
        "Ġall": 677,
        "ings": 678,
        "tern": 679,
        "ces": 680,
        "able": 681,
        "Ġwe": 682,
        "ited": 683,
        "ever": 684,
        "ents": 685,
        "Ġhim": 686,
        "ased": 687,
        "ors": 688,
        "oy": 689,
        "ood": 690,
        "Ġcent": 691,
        "ix": 692,
        "ase": 693,
        "ild": 694,
        "ĠAn": 695,
        "Ġ7": 696,
        "Ġwork": 697,
        "ates": 698,
        "ious": 699,
        "ath": 700,
        "Ġpo": 701,
        "rop": 702,
        "old": 703,
        "als": 704,
        "iss": 705,
        "ey": 706,
        "ict": 707,
        "Ġfe": 708,
        "Ġthem": 709,
        "gan": 710,
        "Ġsec": 711,
        "Ġbet": 712,
        "Ġwhen": 713,
        "Ġsong": 714,
        "Ġrem": 715,
        "ep": 716,
        "form": 717,
        "ail": 718,
        "fer": 719,
        "Ġear": 720,
        "ubl": 721,
        "aw": 722,
        "Ġkn": 723,
        "ake": 724,
        "aus": 725,
        "Ġmost": 726,
        "Ġcons": 727,
        "Ġduring": 728,
        "ĠAs": 729,
        "orth": 730,
        "Ġnew": 731,
        "ered": 732,
        "ilm": 733,
        "ved": 734,
        "att": 735,
        "Ġonly": 736,
        "Ġ9": 737,
        "Ġdec": 738,
        "Ġ8": 739,
        "ick": 740,
        "Ġgame": 741,
        "ons": 742,
        "ug": 743,
        "Ġtr": 744,
        "ft": 745,
        "oth": 746,
        "ook": 747,
        "ĠMar": 748,
        "reat": 749,
        "way": 750,
        "Ġcan": 751,
        "ollow": 752,
        "outh": 753,
        "ween": 754,
        "ĠEn": 755,
        "Ġ199": 756,
        "ters": 757,
        "Ġrel": 758,
        "ind": 759,
        "Ġabout": 760,
        "Ġseason": 761,
        "Ġagain": 762,
        "ral": 763,
        "Ġthree": 764,
        "ational": 765,
        "Ġunder": 766,
        "ular": 767,
        "Ġme": 768,
        "Ġthan": 769,
        "ĠCom": 770,
        "ĠAr": 771,
        "hip": 772,
        "ob": 773,
        "Ġne": 774,
        "Ġbetween": 775,
        "Ġfl": 776,
        "hn": 777,
        "ve": 778,
        "Ġchar": 779,
        "Ġcol": 780,
        "Ġrecord": 781,
        "iew": 782,
        "ron": 783,
        "fore": 784,
        "Ġthrough": 785,
        "ision": 786,
        "orn": 787,
        "Ġ00": 788,
        "ock": 789,
        "Ġver": 790,
        "Ġlater": 791,
        "Ġnum": 792,
        "Ġend": 793,
        "olog": 794,
        "ames": 795,
        "Ġpos": 796,
        "Ġwrit": 797,
        "Ġprodu": 798,
        "Ġwhile": 799,
        "Ġact": 800,
        "Ġrele": 801,
        "Ġfilm": 802,
        "ished": 803,
        "Ġpr": 804,
        "ans": 805,
        "Ġreg": 806,
        "Ġform": 807,
        "Ġass": 808,
        "ĠSe": 809,
        "ury": 810,
        "ted": 811,
        "ts": 812,
        "Ġmade": 813,
        "Ġsub": 814,
        "Ġpe": 815,
        "Ġso": 816,
        "orld": 817,
        "Ġret": 818,
        "ĠNew": 819,
        "Ġspec": 820,
        "Ġacc": 821,
        "Ġqu": 822,
        "Ġwhere": 823,
        "ener": 824,
        "Ġmov": 825,
        "hes": 826,
        "meric": 827,
        "ating": 828,
        "Ġinter": 829,
        "ĠLe": 830,
        "ĠAmeric": 831,
        "Ġra": 832,
        "Ġsome": 833,
        "Ġco": 834,
        "Ġlar": 835,
        "Ġbu": 836,
        "Ġdef": 837,
        "bum": 838,
        "Ġac": 839,
        "Ġmus": 840,
        "Ġfollow": 841,
        "ĠAt": 842,
        "ins": 843,
        "ived": 844,
        "ific": 845,
        "ual": 846,
        "Ġam": 847,
        "Ġsuch": 848,
        "Ġsecond": 849,
        "ike": 850,
        "Ġfour": 851,
        "Ġind": 852,
        "ann": 853,
        "hen": 854,
        "Ġused": 855,
        "ĠRe": 856,
        "ics": 857,
        "lect": 858,
        "Ġday": 859,
        "iel": 860,
        "ily": 861,
        "ĠThis": 862,
        "Ġ0": 863,
        "Ġpubl": 864,
        "Ġcall": 865,
        "ĠJo": 866,
        "ll": 867,
        "Ġalbum": 868,
        "Ġ000": 869,
        "rans": 870,
        "Ġdo": 871,
        "any": 872,
        "Ġbefore": 873,
        "ros": 874,
        "ĠSh": 875,
        "Ġsy": 876,
        "aid": 877,
        "ĠEng": 878,
        "Ġbeing": 879,
        "Ġ10": 880,
        "uc": 881,
        "Ġep": 882,
        "Ġsupp": 883,
        "Ġthere": 884,
        "Ġyears": 885,
        "ars": 886,
        "owever": 887,
        "Ġent": 888,
        "ife": 889,
        "Ġhigh": 890,
        "Ġfound": 891,
        "ird": 892,
        "Ġno": 893,
        "Ġset": 894,
        "ines": 895,
        "iver": 896,
        "io": 897,
        "other": 898,
        "ject": 899,
        "Ġsur": 900,
        "aj": 901,
        "ten": 902,
        "Ġtra": 903,
        "Ġ12": 904,
        "ised": 905,
        "ities": 906,
        "velop": 907,
        "Ġbl": 908,
        "ale": 909,
        "Ġseries": 910,
        "Ġloc": 911,
        "Ġnumber": 912,
        "Ġpres": 913,
        "ane": 914,
        "ause": 915,
        "ode": 916,
        "ek": 917,
        "ton": 918,
        "ĠSc": 919,
        "ier": 920,
        "ise": 921,
        "Ġsever": 922,
        "ince": 923,
        "Ġboth": 924,
        "ank": 925,
        "row": 926,
        "irect": 927,
        "son": 928,
        "Ġthen": 929,
        "ĠBrit": 930,
        "iet": 931,
        "Ġ16": 932,
        "Ġepis": 933,
        "Ġincluding": 934,
        "its": 935,
        "igin": 936,
        "pr": 937,
        "Ġ/": 938,
        "Ġagainst": 939,
        "Ġwell": 940,
        "Ġbecame": 941,
        "Ġexp": 942,
        "Ġknown": 943,
        "Ġtrans": 944,
        "Ġcharac": 945,
        "ĠâĢĶ": 946,
        "ram": 947,
        "Ġback": 948,
        "Ġadd": 949,
        "Ġpop": 950,
        "Ġgo": 951,
        "urch": 952,
        "Ġdesc": 953,
        "Ġsing": 954,
        "ield": 955,
        "Ġperform": 956,
        "ained": 957,
        "Ġrece": 958,
        "ident": 959,
        "Ġem": 960,
        "ert": 961,
        "ures": 962,
        "Ġinv": 963,
        "Ġdep": 964,
        "Ġ198": 965,
        "air": 966,
        "ern": 967,
        "ather": 968,
        "ful": 969,
        "ĠZ": 970,
        "Ġmon": 971,
        "Ġmany": 972,
        "Ġmain": 973,
        "Ġstud": 974,
        "Ġlong": 975,
        "inn": 976,
        "though": 977,
        "up": 978,
        "ool": 979,
        "ĠUnited": 980,
        "led": 981,
        "ement": 982,
        "Ġ15": 983,
        "ower": 984,
        "ĠJohn": 985,
        "Ġop": 986,
        "Ġ11": 987,
        "ined": 988,
        "Ġmet": 989,
        "ober": 990,
        "ley": 991,
        "Ġ17": 992,
        "Ġcentury": 993,
        "Ġteam": 994,
        "Ġest": 995,
        "ĠAfter": 996,
        "yl": 997,
        "Ġmin": 998,
        "uch": 999,
        "ute": 1000,
        "Ġdevelop": 1001,
        "ĠShe": 1002,
        "iam": 1003,
        "Ġshow": 1004,
        "elf": 1005,
        "Ġrep": 1006,
        "Ġconc": 1007,
        "ative": 1008,
        "Ġcre": 1009,
        "overn": 1010,
        "ared": 1011,
        "Ġ194": 1012,
        "Ġorigin": 1013,
        "Ġsm": 1014,
        "ivers": 1015,
        "az": 1016,
        "Ġlead": 1017,
        "Ġseveral": 1018,
        "ah": 1019,
        "Ġob": 1020,
        "Ġrev": 1021,
        "Ġmill": 1022,
        "erm": 1023,
        "ually": 1024,
        "oot": 1025,
        "Ġbegan": 1026,
        "Ġ196": 1027,
        "ired": 1028,
        "Ġdif": 1029,
        "Ġcontin": 1030,
        "Ġsign": 1031,
        "ik": 1032,
        "ĠInd": 1033,
        "ments": 1034,
        "ized": 1035,
        "Ġ197": 1036,
        "Ġdirect": 1037,
        "au": 1038,
        "Ġext": 1039,
        "ross": 1040,
        "emb": 1041,
        "der": 1042,
        "Ġpol": 1043,
        "Ġmay": 1044,
        "apt": 1045,
        "els": 1046,
        "ĠWh": 1047,
        "Ġcomple": 1048,
        "Ġart": 1049,
        "ĠBr": 1050,
        "ĠIs": 1051,
        "une": 1052,
        "til": 1053,
        "Ġcrit": 1054,
        "Ġhist": 1055,
        "Ġearly": 1056,
        "Ġcould": 1057,
        "ĠCon": 1058,
        "Ġdid": 1059,
        "Ġbel": 1060,
        "Ġcalled": 1061,
        "ued": 1062,
        "Ġnear": 1063,
        "Ġepisode": 1064,
        "yp": 1065,
        "Ġdescrib": 1066,
        "imes": 1067,
        "Ġbro": 1068,
        "roup": 1069,
        "ople": 1070,
        "Ġdown": 1071,
        "Ġrun": 1072,
        "aking": 1073,
        "Ġdisc": 1074,
        "Ġalong": 1075,
        "ccess": 1076,
        "ĠMay": 1077,
        "Ġfeat": 1078,
        "Ġinst": 1079,
        "ĠAmerican": 1080,
        "Ġsaid": 1081,
        "Ġdist": 1082,
        "Ġinf": 1083,
        "Ġimp": 1084,
        "ink": 1085,
        "Ġins": 1086,
        "ty": 1087,
        "Ġthese": 1088,
        "Ġmil": 1089,
        "ven": 1090,
        "ĠGer": 1091,
        "gest": 1092,
        "ium": 1093,
        "enn": 1094,
        "ĠBl": 1095,
        "ĠAust": 1096,
        "Ġresp": 1097,
        "ull": 1098,
        "ruct": 1099,
        "ured": 1100,
        "Ġthough": 1101,
        "Ġship": 1102,
        "ove": 1103,
        "Ġoper": 1104,
        "ĠBritish": 1105,
        "Ã©": 1106,
        "Ġuntil": 1107,
        "Ġprev": 1108,
        "itt": 1109,
        "amed": 1110,
        "Ġcar": 1111,
        "cept": 1112,
        "Ġstart": 1113,
        "Ġcity": 1114,
        "Ġgener": 1115,
        "Ġsame": 1116,
        "ains": 1117,
        "ĠWar": 1118,
        "ists": 1119,
        "ially": 1120,
        "ided": 1121,
        "Ġreleased": 1122,
        "Ġland": 1123,
        "ism": 1124,
        "ĠCar": 1125,
        "Ġown": 1126,
        "Ġwar": 1127,
        "Ġany": 1128,
        "Ġprov": 1129,
        "Ġreturn": 1130,
        "Ġair": 1131,
        "ĠThey": 1132,
        "xt": 1133,
        "erson": 1134,
        "oman": 1135,
        "Ġmusic": 1136,
        "Ġkm": 1137,
        "Ġdesign": 1138,
        "ajor": 1139,
        "ĠPl": 1140,
        "ible": 1141,
        "osed": 1142,
        "Ġsim": 1143,
        "Ġconst": 1144,
        "Ġappear": 1145,
        "Ġmillion": 1146,
        "Ġbecause": 1147,
        "Ġfam": 1148,
        "ash": 1149,
        "Ġmat": 1150,
        "Ġarea": 1151,
        "Ġuse": 1152,
        "Ġ13": 1153,
        "ĠAug": 1154,
        "ĠChr": 1155,
        "ĠAugust": 1156,
        "Ġocc": 1157,
        "Ġph": 1158,
        "Ġopen": 1159,
        "Ġlike": 1160,
        "ony": 1161,
        "Ġsuccess": 1162,
        "ole": 1163,
        "ouse": 1164,
        "erv": 1165,
        "Ġcount": 1166,
        "Ġpass": 1167,
        "oss": 1168,
        "Ġeff": 1169,
        "Ġpeople": 1170,
        "my": 1171,
        "chool": 1172,
        "und": 1173,
        "ĠSp": 1174,
        "stem": 1175,
        "ĠCl": 1176,
        "Ġoffic": 1177,
        "ets": 1178,
        "Ġsix": 1179,
        "uth": 1180,
        "ange": 1181,
        "ues": 1182,
        "Ġ195": 1183,
        "Ġsupport": 1184,
        "Ġaround": 1185,
        "Ġsmall": 1186,
        "ĠCol": 1187,
        "ĠHowever": 1188,
        "ĠSept": 1189,
        "Ġdam": 1190,
        "Ġ%": 1191,
        "Ġadv": 1192,
        "Ġmod": 1193,
        "Ġele": 1194,
        "Ġnorth": 1195,
        "ĠJu": 1196,
        "ales": 1197,
        "Ġhead": 1198,
        "ient": 1199,
        "Ġgovern": 1200,
        "Ġgroup": 1201,
        "raph": 1202,
        "Ġcharacter": 1203,
        "Ġbr": 1204,
        "Ġgr": 1205,
        "Ġed": 1206,
        "Ġeach": 1207,
        "Ġpoint": 1208,
        "ĠSeptember": 1209,
        "ĠAd": 1210,
        "wards": 1211,
        "Ġconsid": 1212,
        "ution": 1213,
        "ĠDe": 1214,
        "ĠGerman": 1215,
        "Ġfollowing": 1216,
        "ĠWorld": 1217,
        "Ġlife": 1218,
        "Ġgu": 1219,
        "ĠComm": 1220,
        "ĠAll": 1221,
        "ĠAustral": 1222,
        "anc": 1223,
        "Ġann": 1224,
        "Ġcontro": 1225,
        "ural": 1226,
        "Ġfive": 1227,
        "Ġvar": 1228,
        "ys": 1229,
        "ĠHer": 1230,
        "ĠUS": 1231,
        "Ġattack": 1232,
        "ged": 1233,
        "Ġ193": 1234,
        "ording": 1235,
        "Ġresult": 1236,
        "Ġwill": 1237,
        "ina": 1238,
        "ck": 1239,
        "ĠQ": 1240,
        "Ġever": 1241,
        "ĠPro": 1242,
        "Ġ191": 1243,
        "ĠEu": 1244,
        "Ġlarge": 1245,
        "ĠMe": 1246,
        "ĠII": 1247,
        "lish": 1248,
        "ĠNorth": 1249,
        "ling": 1250,
        "Ġbook": 1251,
        "Ġreport": 1252,
        "ont": 1253,
        "ague": 1254,
        "ĠFran": 1255,
        "ble": 1256,
        "ĠFor": 1257,
        "ox": 1258,
        "aced": 1259,
        "hel": 1260,
        "ĠJune": 1261,
        "Ġtit": 1262,
        "ended": 1263,
        "dom": 1264,
        "ilt": 1265,
        "ives": 1266,
        "Ġ14": 1267,
        "ats": 1268,
        "Ġprom": 1269,
        "eb": 1270,
        "med": 1271,
        "Ġweek": 1272,
        "ately": 1273,
        "aving": 1274,
        "ored": 1275,
        "Ġstr": 1276,
        "ĠJan": 1277,
        "Ġsince": 1278,
        "ĠStates": 1279,
        "Ġfinal": 1280,
        "Ġmajor": 1281,
        "ax": 1282,
        "Ġsouth": 1283,
        "Ġreceived": 1284,
        "ĠSouth": 1285,
        "ivision": 1286,
        "ĠGu": 1287,
        "Ġname": 1288,
        "Ġpartic": 1289,
        "ery": 1290,
        "Ġhel": 1291,
        "ology": 1292,
        "ption": 1293,
        "ĠChrist": 1294,
        "Ġcare": 1295,
        "ĠOct": 1296,
        "Ġpublic": 1297,
        "Ġrest": 1298,
        "Ġsystem": 1299,
        "ected": 1300,
        "ility": 1301,
        "ĠBe": 1302,
        "ting": 1303,
        "ĠKing": 1304,
        "Ġstate": 1305,
        "Ġbatt": 1306,
        "ae": 1307,
        "Ġwhat": 1308,
        "ages": 1309,
        "uary": 1310,
        "Ġlast": 1311,
        "rand": 1312,
        "Ġdescribed": 1313,
        "ĠOctober": 1314,
        "Ġline": 1315,
        "Ġclass": 1316,
        "Ġ$": 1317,
        "Ġdet": 1318,
        "iving": 1319,
        "raft": 1320,
        "ĠNov": 1321,
        "Ġplayed": 1322,
        "Ġprot": 1323,
        "Ġincre": 1324,
        "aur": 1325,
        "ropical": 1326,
        "Ġtook": 1327,
        "Ġmar": 1328,
        "Ġnow": 1329,
        "ified": 1330,
        "aim": 1331,
        "ĠPar": 1332,
        "ional": 1333,
        "get": 1334,
        "rote": 1335,
        "ants": 1336,
        "ody": 1337,
        "Ġ[": 1338,
        "Ġ]": 1339,
        "ively": 1340,
        "ĠYork": 1341,
        "Ġbuild": 1342,
        "Ġworld": 1343,
        "..": 1344,
        "Ġlate": 1345,
        "ĠDec": 1346,
        "yc": 1347,
        "Ġ25": 1348,
        "ĠJuly": 1349,
        "Ġwrote": 1350,
        "empt": 1351,
        "ball": 1352,
        "by": 1353,
        "esp": 1354,
        "ĠEurop": 1355,
        "ret": 1356,
        "Ġwon": 1357,
        "app": 1358,
        "ideo": 1359,
        "Ġspecies": 1360,
        "sion": 1361,
        "Ġchild": 1362,
        "ians": 1363,
        "Ġ...": 1364,
        "omet": 1365,
        "iod": 1366,
        "Ġport": 1367,
        "Ġmuch": 1368,
        "ĠCan": 1369,
        "ĠDuring": 1370,
        "Ġconf": 1371,
        "Ġserv": 1372,
        "Ġcamp": 1373,
        "ection": 1374,
        "Ġref": 1375,
        "Ġdue": 1376,
        "ech": 1377,
        "Ġshort": 1378,
        "arn": 1379,
        "Ġallow": 1380,
        "Ġsingle": 1381,
        "ĠApr": 1382,
        "ĠApril": 1383,
        "Ġdiffer": 1384,
        "Ġjust": 1385,
        "Ġdeath": 1386,
        "ically": 1387,
        "ract": 1388,
        "Ġstar": 1389,
        "Ġsl": 1390,
        "Ġgun": 1391,
        "ission": 1392,
        "omin": 1393,
        "ital": 1394,
        "ĠMc": 1395,
        "ĠAnd": 1396,
        "Ġanother": 1397,
        "Ġincluded": 1398,
        "ĠMus": 1399,
        "Ġposs": 1400,
        "ai": 1401,
        "Ġold": 1402,
        "Ġtri": 1403,
        "ham": 1404,
        "Ġstorm": 1405,
        "ĠGe": 1406,
        "Ġvis": 1407,
        "ĠJanuary": 1408,
        "Ġ30": 1409,
        "Ġlist": 1410,
        "Ġleft": 1411,
        "Ġeven": 1412,
        "Ġpar": 1413,
        "Ġwithin": 1414,
        "ĠEngland": 1415,
        "ple": 1416,
        "Ġprog": 1417,
        "Ġappro": 1418,
        "ger": 1419,
        "itions": 1420,
        "Ġnamed": 1421,
        "ops": 1422,
        "Ġbased": 1423,
        "Ġestab": 1424,
        "Ġif": 1425,
        "inc": 1426,
        "Ġalthough": 1427,
        "Ġattempt": 1428,
        "Ġtop": 1429,
        "ilar": 1430,
        "Ġtrack": 1431,
        "Ġvery": 1432,
        "Ġbelie": 1433,
        "Ġbre": 1434,
        "Ġthird": 1435,
        "ards": 1436,
        "Ġhum": 1437,
        "Ġwater": 1438,
        "ĠMarch": 1439,
        "ene": 1440,
        "Ġgames": 1441,
        "Ġorgan": 1442,
        "ched": 1443,
        "orp": 1444,
        "ently": 1445,
        "Ġbeg": 1446,
        "Ġpower": 1447,
        "Ġevent": 1448,
        "Ġprevious": 1449,
        "Ġfamily": 1450,
        "Ġschool": 1451,
        "ms": 1452,
        "Ġbest": 1453,
        "urric": 1454,
        "ulation": 1455,
        "ĠNovember": 1456,
        "ances": 1457,
        "Ġperiod": 1458,
        "Ġreview": 1459,
        "Ġway": 1460,
        "ĠHis": 1461,
        "Ġmen": 1462,
        "aster": 1463,
        "Ġexpl": 1464,
        "Ġhome": 1465,
        "ĠEurope": 1466,
        "Ġfur": 1467,
        "que": 1468,
        "Ġgovernment": 1469,
        "Ġtyp": 1470,
        "ĠBy": 1471,
        "ĠPh": 1472,
        "ience": 1473,
        "Ġturn": 1474,
        "Ġ192": 1475,
        "ĠDecember": 1476,
        "let": 1477,
        "ature": 1478,
        "Ġcap": 1479,
        "Ġthose": 1480,
        "Ġhand": 1481,
        "ĠThere": 1482,
        "avy": 1483,
        "Ġplace": 1484,
        "ached": 1485,
        "Ġmed": 1486,
        "hest": 1487,
        "ĠCity": 1488,
        "Ġstory": 1489,
        "oint": 1490,
        "aged": 1491,
        "Ġbuilt": 1492,
        "eder": 1493,
        "amb": 1494,
        "Ġgreat": 1495,
        "ense": 1496,
        "Ġdr": 1497,
        "ences": 1498,
        "Ġperson": 1499,
        "iven": 1500,
        "Ġcommand": 1501,
        "Ġ100": 1502,
        "Ġkill": 1503,
        "ĠFl": 1504,
        "ĠWhen": 1505,
        "oci": 1506,
        "Ġmonth": 1507,
        "Ġsent": 1508,
        "itary": 1509,
        "elt": 1510,
        "Ġopp": 1511,
        "Ġmake": 1512,
        "Ġoriginal": 1513,
        "iversity": 1514,
        "oad": 1515,
        "ĠÂ": 1516,
        "Ġhal": 1517,
        "Ġrequ": 1518,
        "ves": 1519,
        "ides": 1520,
        "ĠPr": 1521,
        "ĠNational": 1522,
        "Ġeng": 1523,
        "gy": 1524,
        "ness": 1525,
        "ention": 1526,
        "Ġ2009": 1527,
        "ĠOr": 1528,
        "Ġ2010": 1529,
        "Ġauth": 1530,
        "Ġvideo": 1531,
        "Ġ2008": 1532,
        "bs": 1533,
        "Ġant": 1534,
        "ison": 1535,
        "Ġmark": 1536,
        "Ġdem": 1537,
        "Ġsug": 1538,
        "ruction": 1539,
        "akes": 1540,
        "Ġpresent": 1541,
        "line": 1542,
        "Ġleg": 1543,
        "Ġclub": 1544,
        "ĠMan": 1545,
        "ĠRiver": 1546,
        "rench": 1547,
        "ival": 1548,
        "Ġview": 1549,
        "ĠBro": 1550,
        "riend": 1551,
        "oard": 1552,
        "Ġrepl": 1553,
        "ograph": 1554,
        "Ġcapt": 1555,
        "alk": 1556,
        "Ġstill": 1557,
        "Ġmoved": 1558,
        "Ġlocal": 1559,
        "Ġstand": 1560,
        "eng": 1561,
        "Ġled": 1562,
        "Ġrole": 1563,
        "ott": 1564,
        "aining": 1565,
        "ler": 1566,
        "Ġterm": 1567,
        "Ġcame": 1568,
        "aken": 1569,
        "Ġdest": 1570,
        "Ġiss": 1571,
        "ories": 1572,
        "ung": 1573,
        "side": 1574,
        "idge": 1575,
        "mp": 1576,
        "Ġdra": 1577,
        "Ġoften": 1578,
        "Ġcommon": 1579,
        "Ġaddition": 1580,
        "Ġhistory": 1581,
        "urricane": 1582,
        "Ġcaus": 1583,
        "lev": 1584,
        "sh": 1585,
        "ĠComp": 1586,
        "atter": 1587,
        "Ġtrad": 1588,
        "rew": 1589,
        "Ġfew": 1590,
        "ĠNo": 1591,
        "ĠWe": 1592,
        "ĠChar": 1593,
        "Ġsuggest": 1594,
        "lu": 1595,
        "read": 1596,
        "ister": 1597,
        "ĠAb": 1598,
        "Ġ2007": 1599,
        "Ġnext": 1600,
        "Ġeffect": 1601,
        "Ġconsidered": 1602,
        "Ġbas": 1603,
        "Ġdeb": 1604,
        "Ġplayer": 1605,
        "ĠOne": 1606,
        "ior": 1607,
        "Ġcour": 1608,
        "astern": 1609,
        "Ġmid": 1610,
        "ĠTr": 1611,
        "ĠEnglish": 1612,
        "Ġhelp": 1613,
        "ead": 1614,
        "Ġexper": 1615,
        "uted": 1616,
        "ĠFrench": 1617,
        "Ġcareer": 1618,
        "Ġside": 1619,
        "Ġsimilar": 1620,
        "Ġrecorded": 1621,
        "ĠBatt": 1622,
        "ays": 1623,
        "Ġright": 1624,
        "ĠX": 1625,
        "Ġwin": 1626,
        "Ġinit": 1627,
        "Ġimport": 1628,
        "ĠAcc": 1629,
        "Ġreal": 1630,
        "self": 1631,
        "ĠRec": 1632,
        "Ġclaim": 1633,
        "Ġcover": 1634,
        "Ġarch": 1635,
        "Ġcompany": 1636,
        "be": 1637,
        "ining": 1638,
        "Ġtown": 1639,
        "Ġpublished": 1640,
        "Ġsold": 1641,
        "Ġcontinued": 1642,
        "Ġrefer": 1643,
        "Ġexc": 1644,
        "Ġwind": 1645,
        "Ġdifferent": 1646,
        "Ġyou": 1647,
        "Ġtake": 1648,
        "Ġwithout": 1649,
        "ternational": 1650,
        "Ġsongs": 1651,
        "ĠWith": 1652,
        "yn": 1653,
        "Ġtot": 1654,
        "ĠPer": 1655,
        "ĠPort": 1656,
        "Ġroad": 1657,
        "Ġformer": 1658,
        "Ġ21": 1659,
        "Ġpolit": 1660,
        "Ġtw": 1661,
        "Ġtem": 1662,
        "ĠBar": 1663,
        "Ġheld": 1664,
        "ches": 1665,
        "ĠTe": 1666,
        "Ġmemb": 1667,
        "Ġamong": 1668,
        "Ġlevel": 1669,
        "Ġel": 1670,
        "ĠWill": 1671,
        "ning": 1672,
        "Ġfield": 1673,
        "Ġmag": 1674,
        "par": 1675,
        "Ġelect": 1676,
        "ner": 1677,
        "iment": 1678,
        "Ġav": 1679,
        "itar": 1680,
        "Ġdel": 1681,
        "uss": 1682,
        "Ġprop": 1683,
        "Ġwritten": 1684,
        "inning": 1685,
        "iter": 1686,
        "resent": 1687,
        "Ġevery": 1688,
        "ĠAm": 1689,
        "ĠState": 1690,
        "estern": 1691,
        "Ġ23": 1692,
        "ĠEar": 1693,
        "Ġcommun": 1694,
        "Ġhalf": 1695,
        "lear": 1696,
        "yle": 1697,
        "ĠDivision": 1698,
        "ampions": 1699,
        "Ġ2011": 1700,
        "Ġrelease": 1701,
        "ried": 1702,
        "Ġfurther": 1703,
        "ots": 1704,
        "Ġbecome": 1705,
        "Ġwest": 1706,
        "Ġ2006": 1707,
        "ensive": 1708,
        "ĠAccording": 1709,
        "Ġcr": 1710,
        "enc": 1711,
        "rodu": 1712,
        "Ġchurch": 1713,
        "ĠAlthough": 1714,
        "Ġstrong": 1715,
        "Ġfore": 1716,
        "Ġhowever": 1717,
        "Ġdays": 1718,
        "roy": 1719,
        "Ġfind": 1720,
        "ĠCanad": 1721,
        "Ġcur": 1722,
        "ices": 1723,
        "Ġeast": 1724,
        "ising": 1725,
        "ĠCount": 1726,
        "Ġversion": 1727,
        "Ġfoot": 1728,
        "Ġbeh": 1729,
        "Ġspe": 1730,
        "augh": 1731,
        "Ġparticular": 1732,
        "ering": 1733,
        "Ġ&": 1734,
        "Ġmy": 1735,
        "Ġlow": 1736,
        "ĠChurch": 1737,
        "ize": 1738,
        "ebru": 1739,
        "ĠGener": 1740,
        "Ġprof": 1741,
        "Ġcompet": 1742,
        "Ġposition": 1743,
        "Ġtitle": 1744,
        "Ġ24": 1745,
        "ĠWest": 1746,
        "Ġmilitary": 1747,
        "ĠRoman": 1748,
        "Ġconv": 1749,
        "Ġauthor": 1750,
        "Ġ22": 1751,
        "Ġ26": 1752,
        "Ġappe": 1753,
        "reen": 1754,
        "Ġorder": 1755,
        "ĠLeague": 1756,
        "outher": 1757,
        "Ġsol": 1758,
        "ront": 1759,
        "ittle": 1760,
        "Ġcontrol": 1761,
        "outhern": 1762,
        "Ġtimes": 1763,
        "ĠSong": 1764,
        "aces": 1765,
        "fric": 1766,
        "Ġband": 1767,
        "ĠFebru": 1768,
        "ĠFebruary": 1769,
        "Ġfre": 1770,
        "pped": 1771,
        "Ġless": 1772,
        "Ġgave": 1773,
        "Ġproject": 1774,
        "Ġvict": 1775,
        "Ġdefe": 1776,
        "ylan": 1777,
        "ĠGeor": 1778,
        "osp": 1779,
        "ĠAss": 1780,
        "Ġ!": 1781,
        "ĠDylan": 1782,
        "Ġchang": 1783,
        "Ġreported": 1784,
        "Ġmembers": 1785,
        "Ġnort": 1786,
        "ĠPark": 1787,
        "rick": 1788,
        "Ġnov": 1789,
        "Ġproduced": 1790,
        "Ġstat": 1791,
        "levision": 1792,
        "Ġtotal": 1793,
        "isc": 1794,
        "arm": 1795,
        "eter": 1796,
        "hern": 1797,
        "Ġ2012": 1798,
        "aying": 1799,
        "ĠOld": 1800,
        "Ġarr": 1801,
        "iety": 1802,
        "Ġcult": 1803,
        "Ġpopular": 1804,
        "Ġter": 1805,
        "Ġfire": 1806,
        "esc": 1807,
        "oung": 1808,
        "ailed": 1809,
        "Ġproduction": 1810,
        "urs": 1811,
        "apan": 1812,
        "Ġobs": 1813,
        "Ġtropical": 1814,
        "hem": 1815,
        "ĠSim": 1816,
        "Ġ28": 1817,
        "ĠPol": 1818,
        "ression": 1819,
        "Ġpost": 1820,
        "Ġforces": 1821,
        "ĠSte": 1822,
        "Ġcritic": 1823,
        "ford": 1824,
        "ĠHa": 1825,
        "ĠJapan": 1826,
        "Ġchildren": 1827,
        "Ġhistor": 1828,
        "Ġpat": 1829,
        "Ġhaving": 1830,
        "ush": 1831,
        "ĠEd": 1832,
        "Ġinclude": 1833,
        "ald": 1834,
        "echn": 1835,
        "ring": 1836,
        "ours": 1837,
        "Ġsurv": 1838,
        "Ġinvol": 1839,
        "Ġinflu": 1840,
        "alion": 1841,
        "ne": 1842,
        "Ġsk": 1843,
        "Ġlost": 1844,
        "rent": 1845,
        "Ġaff": 1846,
        "atic": 1847,
        "ĠSu": 1848,
        "Ġgiven": 1849,
        "Ġcountry": 1850,
        "Ġwant": 1851,
        "ably": 1852,
        "Ġrepresent": 1853,
        "work": 1854,
        "ĠEl": 1855,
        "Ġsignific": 1856,
        "ĠCent": 1857,
        "omen": 1858,
        "ĠDav": 1859,
        "Ġmanag": 1860,
        "ope": 1861,
        "ploy": 1862,
        "ĠGeneral": 1863,
        "Ġpress": 1864,
        "Ġequ": 1865,
        "vers": 1866,
        "Ġ2013": 1867,
        "ges": 1868,
        "Ġeight": 1869,
        "ĠMiss": 1870,
        "Ġcomb": 1871,
        "reet": 1872,
        "Ġsit": 1873,
        "Ġsite": 1874,
        "ades": 1875,
        "Ġseen": 1876,
        "irc": 1877,
        "Ġprogram": 1878,
        "sp": 1879,
        "ones": 1880,
        "oon": 1881,
        "Ġmaking": 1882,
        "ĠAfric": 1883,
        "Ġnever": 1884,
        "Ġmatch": 1885,
        "ration": 1886,
        "Ġfem": 1887,
        "Ġstated": 1888,
        "Ġestabl": 1889,
        "Ã¡": 1890,
        "ither": 1891,
        "Ġbody": 1892,
        "Ġplan": 1893,
        "Ġfact": 1894,
        "Ġread": 1895,
        "Ġord": 1896,
        "Ġshould": 1897,
        "ĠWhile": 1898,
        "ĠEv": 1899,
        "sequ": 1900,
        "Ġ50": 1901,
        "Ġreturned": 1902,
        "fic": 1903,
        "ator": 1904,
        "ĠUniversity": 1905,
        "ological": 1906,
        "Ġsoc": 1907,
        "Ġft": 1908,
        "aun": 1909,
        "Ġer": 1910,
        "Ġsound": 1911,
        "Ġ190": 1912,
        "Äģ": 1913,
        "rem": 1914,
        "Ġhow": 1915,
        "ape": 1916,
        "ĠThese": 1917,
        "Ġgen": 1918,
        "Ġisland": 1919,
        "ĠNe": 1920,
        "ĠAmerica": 1921,
        "Ġcou": 1922,
        "Ġstruct": 1923,
        "Ġearl": 1924,
        "Ġships": 1925,
        "Ġannoun": 1926,
        "Ġestablished": 1927,
        "ampionship": 1928,
        "Ġgod": 1929,
        "Ġground": 1930,
        "ĠJack": 1931,
        "Ġchart": 1932,
        "Ġpopulation": 1933,
        "aff": 1934,
        "ream": 1935,
        "Ġcat": 1936,
        "Ġdiv": 1937,
        "Ġreached": 1938,
        "Ġjo": 1939,
        "ground": 1940,
        "Ġ27": 1941,
        "na": 1942,
        "view": 1943,
        "reland": 1944,
        "Ġlight": 1945,
        "Ġnoted": 1946,
        "aul": 1947,
        "ki": 1948,
        "Ġaway": 1949,
        "Ġfriend": 1950,
        "ĠIreland": 1951,
        "ĠBlack": 1952,
        "ille": 1953,
        "igade": 1954,
        "used": 1955,
        "ument": 1956,
        "ination": 1957,
        "ffic": 1958,
        "ese": 1959,
        "Ġlim": 1960,
        "oll": 1961,
        "Ġthroughout": 1962,
        "Ġacross": 1963,
        "ĠReg": 1964,
        "Ġdeveloped": 1965,
        "Ġthought": 1966,
        "iec": 1967,
        "ĠMich": 1968,
        "ĠLond": 1969,
        "Ġseven": 1970,
        "Ġsomet": 1971,
        "Ġcast": 1972,
        "aint": 1973,
        "ords": 1974,
        "ster": 1975,
        "Ġgl": 1976,
        "Ġproc": 1977,
        "ĠWilliam": 1978,
        "ĠLondon": 1979,
        "Ġpra": 1980,
        "Ġrad": 1981,
        "Ġintrodu": 1982,
        "af": 1983,
        "Ġgood": 1984,
        "ĠFeder": 1985,
        "Ġusing": 1986,
        "Ġhimself": 1987,
        "Ġdevelopment": 1988,
        "Ġblack": 1989,
        "iness": 1990,
        "omb": 1991,
        "Ġhig": 1992,
        "ĠHar": 1993,
        "Ġfelt": 1994,
        "idence": 1995,
        "reek": 1996,
        "ĠAustralia": 1997,
        "Ġhuman": 1998,
        "Ġsignificant": 1999,
        "Ġide": 2000,
        "ĠAir": 2001,
        "utes": 2002,
        "aren": 2003,
        "Ġwat": 2004,
        "Ġperformed": 2005,
        "Ġbar": 2006,
        "ump": 2007,
        "Ġimportant": 2008,
        "most": 2009,
        "ivil": 2010,
        "ĠGl": 2011,
        "Ġadm": 2012,
        "ĠAtl": 2013,
        "itive": 2014,
        "Ġnight": 2015,
        "Ġwriting": 2016,
        "Ġfun": 2017,
        "ĠPal": 2018,
        "ĠRich": 2019,
        "ĠEx": 2020,
        "Ġdestroy": 2021,
        "Ġfather": 2022,
        "ĠMag": 2023,
        "Ġmiles": 2024,
        "Ġbo": 2025,
        "antic": 2026,
        "Ġtelevision": 2027,
        "ĠRoy": 2028,
        "Ġinterest": 2029,
        "Ġvarious": 2030,
        "osaur": 2031,
        "Ġareas": 2032,
        "ief": 2033,
        "Ġtour": 2034,
        "imately": 2035,
        "Ġwhite": 2036,
        "Ġmodern": 2037,
        "Ġfull": 2038,
        "field": 2039,
        "Ġten": 2040,
        "Ġdied": 2041,
        "ĠCal": 2042,
        "Ġlook": 2043,
        "rie": 2044,
        "ogn": 2045,
        "Ġenc": 2046,
        "Ġactiv": 2047,
        "ael": 2048,
        "aign": 2049,
        "Ġwent": 2050,
        "Ġlaw": 2051,
        "ĠRober": 2052,
        "Ġneed": 2053,
        "Ġtro": 2054,
        "Ġevents": 2055,
        "Ġprim": 2056,
        "Ġdoes": 2057,
        "Ġsuccessful": 2058,
        "ĠRoad": 2059,
        "ico": 2060,
        "Ġred": 2061,
        "ization": 2062,
        "Ġdiscover": 2063,
        "Ġplayers": 2064,
        "Ġstarted": 2065,
        "Ġmm": 2066,
        "ĠTo": 2067,
        "rab": 2068,
        "ĠJames": 2069,
        "Ġdecl": 2070,
        "con": 2071,
        "reg": 2072,
        "Ġball": 2073,
        "ript": 2074,
        "Ġsee": 2075,
        "iting": 2076,
        "Ġhouse": 2077,
        "Ġfeet": 2078,
        "Ġformed": 2079,
        "ks": 2080,
        "Ġwid": 2081,
        "ourn": 2082,
        "Ġpoem": 2083,
        "Ġtechn": 2084,
        "Ġmix": 2085,
        "Ġrange": 2086,
        "ĠMount": 2087,
        "Ġsett": 2088,
        "Ġperformance": 2089,
        "ĠCounty": 2090,
        "rest": 2091,
        "Ġput": 2092,
        "Ġstyle": 2093,
        "Ġvill": 2094,
        "Ġrelations": 2095,
        "Ġbuilding": 2096,
        "Ġage": 2097,
        "Ġsum": 2098,
        "Ġtoo": 2099,
        "Ġforce": 2100,
        "abor": 2101,
        "Ġcaused": 2102,
        "ÃŃ": 2103,
        "ana": 2104,
        "Ġke": 2105,
        "ino": 2106,
        "epend": 2107,
        "ara": 2108,
        "ĠYou": 2109,
        "alth": 2110,
        "ĠKe": 2111,
        "ublic": 2112,
        "Ġsw": 2113,
        "ened": 2114,
        "ĠCro": 2115,
        "Ġnovel": 2116,
        "Ġpri": 2117,
        "iers": 2118,
        "isted": 2119,
        "Ġ189": 2120,
        "Ġcreated": 2121,
        "Ġofficial": 2122,
        "day": 2123,
        "fall": 2124,
        "idd": 2125,
        "elling": 2126,
        "asing": 2127,
        "ĠSom": 2128,
        "Ġ2004": 2129,
        "ĠAng": 2130,
        "ym": 2131,
        "Ġpit": 2132,
        "Ġ2005": 2133,
        "Ġrelig": 2134,
        "Ġentire": 2135,
        "gr": 2136,
        "less": 2137,
        "Ġson": 2138,
        "ality": 2139,
        "eth": 2140,
        "ĠOl": 2141,
        "Ġable": 2142,
        "Ġcoast": 2143,
        "Ġpolitical": 2144,
        "ĠHigh": 2145,
        "ries": 2146,
        "ressed": 2147,
        "Ġcharacters": 2148,
        "ĠSec": 2149,
        "Ġste": 2150,
        "inal": 2151,
        "Ġget": 2152,
        "ĠHam": 2153,
        "Ġothers": 2154,
        "Ġconstruction": 2155,
        "Ġcert": 2156,
        "Ġbird": 2157,
        "Ġpred": 2158,
        "Ġpromot": 2159,
        "ases": 2160,
        "Ġbattle": 2161,
        "br": 2162,
        "ĠTown": 2163,
        "Ġnational": 2164,
        "ways": 2165,
        "acy": 2166,
        "Ġoccur": 2167,
        "oming": 2168,
        "Ġval": 2169,
        "ĠâĢĻ": 2170,
        "Ġfig": 2171,
        "ĠSw": 2172,
        "ample": 2173,
        "Ġlik": 2174,
        "ament": 2175,
        "Ġonce": 2176,
        "ĠHist": 2177,
        "play": 2178,
        "ficult": 2179,
        "Ġfac": 2180,
        "Ġremained": 2181,
        "por": 2182,
        "ĠCare": 2183,
        "ĠBra": 2184,
        "Ġlocated": 2185,
        "Ġmount": 2186,
        "Ġtradition": 2187,
        "enth": 2188,
        "ivid": 2189,
        "Ġrock": 2190,
        "Ġscored": 2191,
        "Ġworks": 2192,
        "Ġdifficult": 2193,
        "ĠKingdom": 2194,
        "craft": 2195,
        "Ġredu": 2196,
        "Ġ31": 2197,
        "Ġproduc": 2198,
        "lected": 2199,
        "ĠIsland": 2200,
        "Ġcampaign": 2201,
        "Ġguns": 2202,
        "Ġtre": 2203,
        "Ġcross": 2204,
        "ĠCup": 2205,
        "ĠMon": 2206,
        "Ġstars": 2207,
        "ĠGrand": 2208,
        "Ġmeet": 2209,
        "Ġcompleted": 2210,
        "ĠAustralian": 2211,
        "Ġannounced": 2212,
        "Ġrank": 2213,
        "Ġregion": 2214,
        "Ġhold": 2215,
        "ett": 2216,
        "Ġsqu": 2217,
        "orse": 2218,
        "Ġnuc": 2219,
        "ounc": 2220,
        "off": 2221,
        "itted": 2222,
        "Ġgrow": 2223,
        "Ġsuper": 2224,
        "Ġcolle": 2225,
        "Ġgoal": 2226,
        "ĠCompany": 2227,
        "ique": 2228,
        "oid": 2229,
        "Ġfav": 2230,
        "arch": 2231,
        "Ġlittle": 2232,
        "Ġconn": 2233,
        "umb": 2234,
        "Ġlet": 2235,
        "Ġprocess": 2236,
        "ray": 2237,
        "enced": 2238,
        "Ġfight": 2239,
        "Ġfront": 2240,
        "aly": 2241,
        "omp": 2242,
        "rought": 2243,
        "Ġinstead": 2244,
        "ĠAct": 2245,
        "ky": 2246,
        "Ġcirc": 2247,
        "Ġ29": 2248,
        "Ġadded": 2249,
        "here": 2250,
        "leet": 2251,
        "ĠMor": 2252,
        "Ġcond": 2253,
        "omm": 2254,
        "Ġleast": 2255,
        "duct": 2256,
        "Ġfollowed": 2257,
        "ĠBill": 2258,
        "Ġknow": 2259,
        "Ġpeak": 2260,
        "Ġappeared": 2261,
        "Ġborn": 2262,
        "Ġkilled": 2263,
        "Ġsouthern": 2264,
        "angu": 2265,
        "Ġoriginally": 2266,
        "Ġmonths": 2267,
        "oice": 2268,
        "Ġwife": 2269,
        "urb": 2270,
        "Ġcomment": 2271,
        "ĠArmy": 2272,
        "Ġstri": 2273,
        "ĠDavid": 2274,
        "mar": 2275,
        "Ġfif": 2276,
        "Ġmother": 2277,
        "Ġloss": 2278,
        "ota": 2279,
        "Ġ40": 2280,
        "Ġstudy": 2281,
        "ius": 2282,
        "Ġhurricane": 2283,
        "Ġassoci": 2284,
        "Ġwomen": 2285,
        "Ġcell": 2286,
        "ects": 2287,
        "ĠMusic": 2288,
        "Ġident": 2289,
        "Ġmass": 2290,
        "ston": 2291,
        "Ġeastern": 2292,
        "Ġnon": 2293,
        "Ġsex": 2294,
        "antry": 2295,
        "Ġagre": 2296,
        "Ġrelationship": 2297,
        "Ġaud": 2298,
        "Ġaward": 2299,
        "Ġ2003": 2300,
        "Ġcritics": 2301,
        "Ġbroad": 2302,
        "ycl": 2303,
        "Ġanim": 2304,
        "Ġ185": 2305,
        "Ġeventually": 2306,
        "Ġfeatures": 2307,
        "Ġprofess": 2308,
        "olution": 2309,
        "ĠGod": 2310,
        "ĠOther": 2311,
        "Ġvoc": 2312,
        "Ġyoung": 2313,
        "aper": 2314,
        "Ġrecogn": 2315,
        "Ġ2015": 2316,
        "gin": 2317,
        "ata": 2318,
        "Ġbus": 2319,
        "Ġlive": 2320,
        "ements": 2321,
        "ully": 2322,
        "ĠFrance": 2323,
        "Ġaver": 2324,
        "Ġfourth": 2325,
        "Ġtaken": 2326,
        "ĠSer": 2327,
        "emy": 2328,
        "Ġroute": 2329,
        "Ġestim": 2330,
        "cher": 2331,
        "ĠTwo": 2332,
        "ĠBer": 2333,
        "Ġserved": 2334,
        "liam": 2335,
        "ores": 2336,
        "istic": 2337,
        "ask": 2338,
        "Ġcommer": 2339,
        "Ġprote": 2340,
        "illa": 2341,
        "Ġappoint": 2342,
        "ography": 2343,
        "ze": 2344,
        "ĠCo": 2345,
        "omes": 2346,
        "Ġlack": 2347,
        "chie": 2348,
        "Ġdecided": 2349,
        "Ġdamage": 2350,
        "ama": 2351,
        "ĠMad": 2352,
        "unk": 2353,
        "Ġheavy": 2354,
        "igned": 2355,
        "azine": 2356,
        "Ġcor": 2357,
        "Ġbase": 2358,
        "Ġeither": 2359,
        "ĠIm": 2360,
        "ĠBattalion": 2361,
        "iation": 2362,
        "Ġfar": 2363,
        "Ġcondom": 2364,
        "Ġproble": 2365,
        "Ġsepar": 2366,
        "Ġarm": 2367,
        "Ġimpro": 2368,
        "Ġinsp": 2369,
        "val": 2370,
        "ĠPart": 2371,
        "ought": 2372,
        "Ġspecial": 2373,
        "Ġbehind": 2374,
        "ĠRobert": 2375,
        "Ġtoget": 2376,
        "ica": 2377,
        "ecut": 2378,
        "ĠLove": 2379,
        "Ġcoll": 2380,
        "Ġindivid": 2381,
        "Ġbelieved": 2382,
        "Ġtogether": 2383,
        "ida": 2384,
        "Ġarg": 2385,
        "Ġquar": 2386,
        "ency": 2387,
        "liament": 2388,
        "ipp": 2389,
        "aves": 2390,
        "Ġclos": 2391,
        "iction": 2392,
        "ouncil": 2393,
        "cial": 2394,
        "Ġmater": 2395,
        "rict": 2396,
        "Ġplaying": 2397,
        "ĠRoyal": 2398,
        "ĠCarey": 2399,
        "Ġburn": 2400,
        "Ġdou": 2401,
        "ĠRed": 2402,
        "rap": 2403,
        "aching": 2404,
        "iol": 2405,
        "iber": 2406,
        "ĠMed": 2407,
        "Ġmove": 2408,
        "Ġir": 2409,
        "Ġround": 2410,
        "Ġcreat": 2411,
        "Ġbi": 2412,
        "Ġlangu": 2413,
        "ĠHen": 2414,
        "ĠDu": 2415,
        "Ġvol": 2416,
        "Ġdev": 2417,
        "Ġexample": 2418,
        "Ġclose": 2419,
        "Ġaccept": 2420,
        "ĠMex": 2421,
        "gg": 2422,
        "ĠSome": 2423,
        "ĠMin": 2424,
        "Ġalmost": 2425,
        "Ġ188": 2426,
        "alt": 2427,
        "ests": 2428,
        "Ġservice": 2429,
        "Ġleading": 2430,
        "ĠEuropean": 2431,
        "Ġsour": 2432,
        "Ġfall": 2433,
        "ĠRep": 2434,
        "odes": 2435,
        "ĠWhite": 2436,
        "Ġgenerally": 2437,
        "ĠFederer": 2438,
        "Ġsaw": 2439,
        "ators": 2440,
        "Ġce": 2441,
        "Ġtowards": 2442,
        "Ġopened": 2443,
        "Ġelements": 2444,
        "eal": 2445,
        "Ġmiss": 2446,
        "Ġ35": 2447,
        "uter": 2448,
        "oring": 2449,
        "Ġbrought": 2450,
        "ĠBrigade": 2451,
        "Ġgeneral": 2452,
        "Ġweeks": 2453,
        "Ġmot": 2454,
        "ĠPres": 2455,
        "ceed": 2456,
        "ĠWales": 2457,
        "ĠGame": 2458,
        "ĠInternational": 2459,
        "Ġfinished": 2460,
        "Ġdraw": 2461,
        "Ġz": 2462,
        "stit": 2463,
        "Ġlaun": 2464,
        "ĠFlor": 2465,
        "Ġwall": 2466,
        "Ġhost": 2467,
        "oph": 2468,
        "ĠKh": 2469,
        "ĠViet": 2470,
        "Ġregular": 2471,
        "Ġhighway": 2472,
        "Ġfeatured": 2473,
        "cast": 2474,
        "ĠIr": 2475,
        "Ġcentral": 2476,
        "Ġaircraft": 2477,
        "lement": 2478,
        "irl": 2479,
        "ending": 2480,
        "Ġindust": 2481,
        "board": 2482,
        "ĠEast": 2483,
        "ordan": 2484,
        "ounter": 2485,
        "Ġresear": 2486,
        "Ġreb": 2487,
        "etwork": 2488,
        "Ġcontract": 2489,
        "Ġpoints": 2490,
        "eum": 2491,
        "Ġfund": 2492,
        "Ġinform": 2493,
        "Ġdirected": 2494,
        "Ġ-": 2495,
        "Ġaction": 2496,
        "Ġmi": 2497,
        "ĠMo": 2498,
        "orts": 2499,
        "Ġsuff": 2500,
        "ĠChampionship": 2501,
        "Ġmeas": 2502,
        "Ġdirector": 2503,
        "Ġprovided": 2504,
        "hing": 2505,
        "Ġcut": 2506,
        "icated": 2507,
        "Ġren": 2508,
        "ĠBo": 2509,
        "ĠFollow": 2510,
        "ude": 2511,
        "wood": 2512,
        "Ġflood": 2513,
        "Ġrespect": 2514,
        "Ġnar": 2515,
        "ĠJordan": 2516,
        "Ġsequ": 2517,
        "Ġupon": 2518,
        "Ġmean": 2519,
        "ential": 2520,
        "ĠFrom": 2521,
        "ĠGal": 2522,
        "Ġappearance": 2523,
        "ned": 2524,
        "ĠJew": 2525,
        "Ġyard": 2526,
        "ellow": 2527,
        "Ġ186": 2528,
        "Ġearlier": 2529,
        "sel": 2530,
        "ying": 2531,
        "atin": 2532,
        "ĠPe": 2533,
        "ĠRock": 2534,
        "ĠEm": 2535,
        "Ġking": 2536,
        "Ġcost": 2537,
        "ĠCr": 2538,
        "Ġrather": 2539,
        "ights": 2540,
        "Ġ2014": 2541,
        "Ġsubsequ": 2542,
        "Ġfemale": 2543,
        "ĠAtlantic": 2544,
        "Ġtroops": 2545,
        "tt": 2546,
        "ĠÃ": 2547,
        "Ġill": 2548,
        "Ġreve": 2549,
        "Ġstru": 2550,
        "ĠOd": 2551,
        "ishing": 2552,
        "medi": 2553,
        "ĠChristian": 2554,
        "Ġcurrent": 2555,
        "ĠMary": 2556,
        "ĠOp": 2557,
        "Ġve": 2558,
        "Ġriver": 2559,
        "Ġlargest": 2560,
        "Ġtravel": 2561,
        "Ġvictory": 2562,
        "ĠFollowing": 2563,
        "ĠHouse": 2564,
        "ander": 2565,
        "Ġemploy": 2566,
        "Ġoperations": 2567,
        "ĠHero": 2568,
        "Ġparticularly": 2569,
        "ĠGeorge": 2570,
        "Ġmanager": 2571,
        "Ġachie": 2572,
        "erous": 2573,
        "ouri": 2574,
        "Ġprob": 2575,
        "ule": 2576,
        "Ġfort": 2577,
        "Ġopening": 2578,
        "Ġwanted": 2579,
        "ving": 2580,
        "Ġcop": 2581,
        "Ġbur": 2582,
        "Ġ500": 2583,
        "ength": 2584,
        "Ġnorthern": 2585,
        "ault": 2586,
        "ĠMac": 2587,
        "ids": 2588,
        "osition": 2589,
        "Ġexist": 2590,
        "Ġyards": 2591,
        "Ġevidence": 2592,
        "ĠPlay": 2593,
        "áĥ": 2594,
        "ita": 2595,
        "Ġfoc": 2596,
        "Ġreason": 2597,
        "ĠSl": 2598,
        "eler": 2599,
        "Ġconduct": 2600,
        "ĠPhil": 2601,
        "ĠFlorida": 2602,
        "ee": 2603,
        "ih": 2604,
        "of": 2605,
        "yd": 2606,
        "head": 2607,
        "Ġmember": 2608,
        "ĠWal": 2609,
        "reng": 2610,
        "Ġpract": 2611,
        "uck": 2612,
        "vest": 2613,
        "Ġsaying": 2614,
        "oms": 2615,
        "ĠBay": 2616,
        "ĠWil": 2617,
        "anding": 2618,
        "ĠStreet": 2619,
        "Ġoutside": 2620,
        "Ġcrew": 2621,
        "Ġallowed": 2622,
        "Ġpossible": 2623,
        "Ġengine": 2624,
        "co": 2625,
        "west": 2626,
        "atural": 2627,
        "ĠMost": 2628,
        "ĠPaul": 2629,
        "Ġaccount": 2630,
        "ĠOliv": 2631,
        "uel": 2632,
        "Ġpast": 2633,
        "Ġmer": 2634,
        "ĠMark": 2635,
        "irth": 2636,
        "Ġstage": 2637,
        "Ġneg": 2638,
        "ĠMcC": 2639,
        "Ġhours": 2640,
        "Ġwhom": 2641,
        "Ġrespons": 2642,
        "conom": 2643,
        "Ġcase": 2644,
        "ington": 2645,
        "ago": 2646,
        "artment": 2647,
        "ĠMissouri": 2648,
        "Ġmaterial": 2649,
        "bor": 2650,
        "ills": 2651,
        "Ġ2001": 2652,
        "Ġdesp": 2653,
        "Ġworked": 2654,
        "Ġregard": 2655,
        "Ġfree": 2656,
        "Ġmach": 2657,
        "Ġlength": 2658,
        "Ġnec": 2659,
        "ĠBut": 2660,
        "Ġgre": 2661,
        "Ġstreng": 2662,
        "Ġobject": 2663,
        "Ġterrit": 2664,
        "ĠTech": 2665,
        "Ġgold": 2666,
        "Ġplann": 2667,
        "aps": 2668,
        "Ġworking": 2669,
        "Ġnomin": 2670,
        "vert": 2671,
        "ems": 2672,
        "lus": 2673,
        "ville": 2674,
        "aries": 2675,
        "ĠSan": 2676,
        "Ġlove": 2677,
        "Ġrul": 2678,
        "Ġpoor": 2679,
        "Ġquick": 2680,
        "Ġdesigned": 2681,
        "cent": 2682,
        "now": 2683,
        "uk": 2684,
        "ari": 2685,
        "ĠVir": 2686,
        "ĠQu": 2687,
        "Ġfootball": 2688,
        "onst": 2689,
        "Ġmult": 2690,
        "Ġhon": 2691,
        "urt": 2692,
        "ĠBus": 2693,
        "Ġlearn": 2694,
        "ĠIndian": 2695,
        "Ġconstruct": 2696,
        "Ġpraised": 2697,
        "ps": 2698,
        "Ġesc": 2699,
        "Ġtreat": 2700,
        "ĠTor": 2701,
        "ĠBest": 2702,
        "Ġforced": 2703,
        "Ġstation": 2704,
        "ĠDay": 2705,
        "ĠFirst": 2706,
        "ession": 2707,
        "Ġremains": 2708,
        "Ġavail": 2709,
        "rated": 2710,
        "ites": 2711,
        "iding": 2712,
        "Ġviol": 2713,
        "ĠVal": 2714,
        "Ġ187": 2715,
        "Ġgoals": 2716,
        "Ġ1970": 2717,
        "ĠMichael": 2718,
        "uation": 2719,
        "Ġthink": 2720,
        "gypt": 2721,
        "Ġwinds": 2722,
        "heast": 2723,
        "Ġcivil": 2724,
        "ĠSm": 2725,
        "ĠSqu": 2726,
        "Ġabove": 2727,
        "Ġdiss": 2728,
        "Ġinvest": 2729,
        "Ġincreased": 2730,
        "Ġpers": 2731,
        "ĠHel": 2732,
        "ĠFe": 2733,
        "ĠEgypt": 2734,
        "hens": 2735,
        "Ġpreviously": 2736,
        "ĠÂ£": 2737,
        "wh": 2738,
        "itz": 2739,
        "ĠDesp": 2740,
        "ula": 2741,
        "pper": 2742,
        "ĠThom": 2743,
        "Ġsoon": 2744,
        "Ġreplaced": 2745,
        "Ġcommercial": 2746,
        "asion": 2747,
        "ributed": 2748,
        "ĠRichard": 2749,
        "BC": 2750,
        "gl": 2751,
        "erved": 2752,
        "Ġmust": 2753,
        "ĠAc": 2754,
        "ĠAg": 2755,
        "ĠApp": 2756,
        "Ġask": 2757,
        "ĠGr": 2758,
        "Ġinterview": 2759,
        "Ġmaint": 2760,
        "ĠSuper": 2761,
        "Ġbusiness": 2762,
        "onc": 2763,
        "Ġclear": 2764,
        "Ġpain": 2765,
        "ste": 2766,
        "olic": 2767,
        "ĠWhe": 2768,
        "ription": 2769,
        "ĠDespite": 2770,
        "ĠCorp": 2771,
        "Ġly": 2772,
        "ĠDep": 2773,
        "osing": 2774,
        "abit": 2775,
        "Ġwriter": 2776,
        "ĠQue": 2777,
        "ĠBrown": 2778,
        "Ġquarter": 2779,
        "ming": 2780,
        "Ġtrib": 2781,
        "Ġthreat": 2782,
        "ĠMont": 2783,
        "Ġ2000": 2784,
        "Ġunc": 2785,
        "ĠÂ°": 2786,
        "ĠHenry": 2787,
        "AF": 2788,
        "atory": 2789,
        "ania": 2790,
        "Ġmph": 2791,
        "ĠOs": 2792,
        "Ġunits": 2793,
        "oney": 2794,
        "ĠCanada": 2795,
        "Ġestimated": 2796,
        "Ã³": 2797,
        "Ġpen": 2798,
        "ulf": 2799,
        "iff": 2800,
        "aker": 2801,
        "ibility": 2802,
        "Ġ1990": 2803,
        "Ġspecific": 2804,
        "Ġcourt": 2805,
        "ĠOldham": 2806,
        "face": 2807,
        "Ġpur": 2808,
        "Ġreact": 2809,
        "acing": 2810,
        "Ġ36": 2811,
        "Ġclaimed": 2812,
        "ĠJapanese": 2813,
        "Ġjoined": 2814,
        "Ġhighest": 2815,
        "band": 2816,
        "men": 2817,
        "ĠTimes": 2818,
        "ulated": 2819,
        "ching": 2820,
        "Ġplaced": 2821,
        "Ġcontr": 2822,
        "ĠCarol": 2823,
        "Ġinvolved": 2824,
        "ecutive": 2825,
        "ĠPresident": 2826,
        "for": 2827,
        "Ġwestern": 2828,
        "Ġfly": 2829,
        "ĠSun": 2830,
        "ĠGovern": 2831,
        "Ġpriv": 2832,
        "Ġsigned": 2833,
        "Ġsuggested": 2834,
        "leg": 2835,
        "ĠMos": 2836,
        "elled": 2837,
        "Ġ45": 2838,
        "Ġ183": 2839,
        "Ġparts": 2840,
        "Ġsyn": 2841,
        "ĠCard": 2842,
        "ĠMy": 2843,
        "ĠGold": 2844,
        "Ġintens": 2845,
        "ĠIndia": 2846,
        "ĠOlivier": 2847,
        "Ġtru": 2848,
        "Ġhous": 2849,
        "ĠSchool": 2850,
        "thlet": 2851,
        "ĠLater": 2852,
        "Ġproper": 2853,
        "Ġchange": 2854,
        "Ġleague": 2855,
        "Ġitself": 2856,
        "ĠVietn": 2857,
        "mb": 2858,
        "Ġesp": 2859,
        "Ġinj": 2860,
        "Ġdon": 2861,
        "ĠCong": 2862,
        "ĠHall": 2863,
        "Ġshot": 2864,
        "Ġrap": 2865,
        "anna": 2866,
        "Ġaverage": 2867,
        "ĠMexico": 2868,
        "ĠIrish": 2869,
        "Ġtaking": 2870,
        "Ġhard": 2871,
        "ĠNot": 2872,
        "ume": 2873,
        "Ġavailable": 2874,
        "Ġey": 2875,
        "urg": 2876,
        "Ġexcept": 2877,
        "Ġscene": 2878,
        "ronic": 2879,
        "Ġtransport": 2880,
        "Ġtransfer": 2881,
        "Ġbrother": 2882,
        "Ġbreak": 2883,
        "ready": 2884,
        "Ġintroduced": 2885,
        "Ġhit": 2886,
        "ĠPac": 2887,
        "Ġwhose": 2888,
        "Ġheav": 2889,
        "Ġrecording": 2890,
        "Ġvillage": 2891,
        "Ġwood": 2892,
        "Ġstop": 2893,
        "Ġrace": 2894,
        "ĠStar": 2895,
        "ĠVar": 2896,
        "Ġsubject": 2897,
        "Ġrail": 2898,
        "porary": 2899,
        "ĠThomas": 2900,
        "go": 2901,
        "rd": 2902,
        "ximately": 2903,
        "Ġslow": 2904,
        "Ġ60": 2905,
        "Ġphys": 2906,
        "Ġgrad": 2907,
        "Ġreligious": 2908,
        "Ġfr": 2909,
        "Ġmem": 2910,
        "Ġnetwork": 2911,
        "achel": 2912,
        "Ġgra": 2913,
        "Ġeduc": 2914,
        "Ġtold": 2915,
        "Ġnine": 2916,
        "Ġnames": 2917,
        "ĠNY": 2918,
        "Ġabs": 2919,
        "Ġremov": 2920,
        "ĠBritain": 2921,
        "Ġshows": 2922,
        "Ġ1960": 2923,
        "Ġdamaged": 2924,
        "iqu": 2925,
        "Ġtest": 2926,
        "Ġcru": 2927,
        "arily": 2928,
        "Ġpiec": 2929,
        "Ġindepend": 2930,
        "ĠScient": 2931,
        "Ġincreasing": 2932,
        "Ġturned": 2933,
        "Ġcapital": 2934,
        "Ġsocial": 2935,
        "ĠRepublic": 2936,
        "gu": 2937,
        "Ġap": 2938,
        "oration": 2939,
        "Ġcal": 2940,
        "enes": 2941,
        "Ġlines": 2942,
        "Ġgive": 2943,
        "ĠHurricane": 2944,
        "ĠPo": 2945,
        "ĠGreat": 2946,
        "Ġchap": 2947,
        "ĠThat": 2948,
        "ĠGuitar": 2949,
        "Ġstructure": 2950,
        "aled": 2951,
        "ĠMany": 2952,
        "ĠAnt": 2953,
        "Ġfeel": 2954,
        "Ġnearly": 2955,
        "Ġdeterm": 2956,
        "Ġappointed": 2957,
        "Ġdespite": 2958,
        "Ġsize": 2959,
        "Ġcycl": 2960,
        "odies": 2961,
        "ĠUnion": 2962,
        "ĠZeal": 2963,
        "Ġcomplet": 2964,
        "Ġcommunity": 2965,
        "hib": 2966,
        "Ġ?": 2967,
        "Ġbill": 2968,
        "Ġinternational": 2969,
        "Ġden": 2970,
        "Ġdate": 2971,
        "Ġliter": 2972,
        "Ġeconom": 2973,
        "ĠLa": 2974,
        "ateg": 2975,
        "rang": 2976,
        "Ġ184": 2977,
        "ĠArt": 2978,
        "Ġsurround": 2979,
        "Ġpassed": 2980,
        "Ġfut": 2981,
        "Ġmight": 2982,
        "oul": 2983,
        "ecially": 2984,
        "irt": 2985,
        "Ġwithd": 2986,
        "rian": 2987,
        "bert": 2988,
        "hedral": 2989,
        "Ġscore": 2990,
        "Ġimmedi": 2991,
        "inese": 2992,
        "Ġoccup": 2993,
        "Ġestablish": 2994,
        "Ġdebut": 2995,
        "Ġinitially": 2996,
        "osaurus": 2997,
        "Ġcertain": 2998,
        "lict": 2999,
        "Ġwinning": 3000,
        "Ġcas": 3001,
        "Ġpot": 3002,
        "Ġtow": 3003,
        "ĠMa": 3004,
        "Ġalready": 3005,
        "ĠEver": 3006,
        "Ġdeal": 3007,
        "Ġdisp": 3008,
        "Ġassist": 3009,
        "Ġgoing": 3010,
        "Ġparticip": 3011,
        "Ġarchae": 3012,
        "ĠPacific": 3013,
        "Ġfailed": 3014,
        "ication": 3015,
        "Ġstates": 3016,
        "ĠChinese": 3017,
        "ĠEarly": 3018,
        "ĠZealand": 3019,
        "fect": 3020,
        "ha": 3021,
        "ires": 3022,
        "Ġmale": 3023,
        "Ġdoc": 3024,
        "ĠDon": 3025,
        "rag": 3026,
        "ĠJin": 3027,
        "ability": 3028,
        "Ġaccording": 3029,
        "Ġrain": 3030,
        "Ġtraining": 3031,
        "Ġforest": 3032,
        "Ġlanguage": 3033,
        "Ġprobably": 3034,
        "Ġespecially": 3035,
        "den": 3036,
        "Ġfood": 3037,
        "ĠSing": 3038,
        "ĠCath": 3039,
        "ĠDr": 3040,
        "Ġkey": 3041,
        "Ġ2002": 3042,
        "ification": 3043,
        "Ġdepict": 3044,
        "Ġminor": 3045,
        "Ġissue": 3046,
        "nel": 3047,
        "Ġaut": 3048,
        "Ġdaugh": 3049,
        "ĠPri": 3050,
        "ĠFilm": 3051,
        "ĠLaw": 3052,
        "Ġstudio": 3053,
        "ĠIII": 3054,
        "ĠTom": 3055,
        "ady": 3056,
        "Ġforward": 3057,
        "ĠPeter": 3058,
        "Ġspent": 3059,
        "Ġincludes": 3060,
        "ference": 3061,
        "Ġarrived": 3062,
        "Ġordered": 3063,
        "ĠHistory": 3064,
        "ĠWheeler": 3065,
        "aut": 3066,
        "ship": 3067,
        "ises": 3068,
        "ĠAwards": 3069,
        "ĠSch": 3070,
        "ilities": 3071,
        "aval": 3072,
        "Ġarmy": 3073,
        "Ġenough": 3074,
        "Ġremaining": 3075,
        "Ġblock": 3076,
        "Ġvisit": 3077,
        "ĠCanadian": 3078,
        "ĠAngel": 3079,
        "stein": 3080,
        "ties": 3081,
        "onse": 3082,
        "Ġfail": 3083,
        "Ġdro": 3084,
        "ĠNavy": 3085,
        "Ġsometimes": 3086,
        "Ġmixed": 3087,
        "back": 3088,
        "lor": 3089,
        "zz": 3090,
        "Ġdi": 3091,
        "ĠTer": 3092,
        "ĠSoc": 3093,
        "owl": 3094,
        "ĠRose": 3095,
        "Ġcome": 3096,
        "ĠUK": 3097,
        "Ġcomplete": 3098,
        "Ġapproximately": 3099,
        "Ġreviews": 3100,
        "Ġrequired": 3101,
        "ĠAssoci": 3102,
        "orial": 3103,
        "Ġtouch": 3104,
        "ĠCreek": 3105,
        "Ġlower": 3106,
        "Ġlatter": 3107,
        "quar": 3108,
        "ranch": 3109,
        "rics": 3110,
        "Ġimm": 3111,
        "Ġcenter": 3112,
        "to": 3113,
        "ĠMer": 3114,
        "ĠMet": 3115,
        "lymp": 3116,
        "ĠPenn": 3117,
        "ĠInf": 3118,
        "Ġremain": 3119,
        "Ġbeginning": 3120,
        "ĠAfrica": 3121,
        "down": 3122,
        "inct": 3123,
        "inist": 3124,
        "stant": 3125,
        "ĠHol": 3126,
        "ĠOlymp": 3127,
        "ĠVirgin": 3128,
        "Ġsem": 3129,
        "Ġwoman": 3130,
        "etic": 3131,
        "ĠStud": 3132,
        "Ġjourn": 3133,
        "Ġdecision": 3134,
        "Ġprevent": 3135,
        "Ġlimited": 3136,
        "iest": 3137,
        "rack": 3138,
        "under": 3139,
        "Ġhapp": 3140,
        "Ġdead": 3141,
        "Ġ38": 3142,
        "Ġusually": 3143,
        "Ġbetter": 3144,
        "Ġstudents": 3145,
        "Ġadditional": 3146,
        "Ġchanges": 3147,
        "ĠRegiment": 3148,
        "edy": 3149,
        "Ġstay": 3150,
        "ĠRout": 3151,
        "ĠRachel": 3152,
        "ĠNort": 3153,
        "ĠJe": 3154,
        "aby": 3155,
        "Ġpresident": 3156,
        "Ġemb": 3157,
        "Ġrunning": 3158,
        "Ġresponse": 3159,
        "Ġsch": 3160,
        "adron": 3161,
        "Ġended": 3162,
        "Ġpositive": 3163,
        "Ġlarger": 3164,
        "ĠScott": 3165,
        "Ġconcern": 3166,
        "gar": 3167,
        "erat": 3168,
        "Ġmention": 3169,
        "ĠTV": 3170,
        "ĠAward": 3171,
        "Ġ80": 3172,
        "Ġquest": 3173,
        "Ġsupported": 3174,
        "Ġtype": 3175,
        "Ġmagazine": 3176,
        "ios": 3177,
        "uals": 3178,
        "ĠFort": 3179,
        "ĠJer": 3180,
        "Ġnotes": 3181,
        "Ġdepression": 3182,
        "Ġpolice": 3183,
        "ĠCharles": 3184,
        "Ġpressure": 3185,
        "Ġprior": 3186,
        "oor": 3187,
        "reak": 3188,
        "Ġwide": 3189,
        "Ġbirth": 3190,
        "enty": 3191,
        "Ġcompl": 3192,
        "Ġamount": 3193,
        "Ġbirds": 3194,
        "Ġshown": 3195,
        "Ġ1995": 3196,
        "Ġrelated": 3197,
        "ĠBillboard": 3198,
        "Ġface": 3199,
        "uments": 3200,
        "Ġ75": 3201,
        "Ġfeature": 3202,
        "rief": 3203,
        "Ġfifth": 3204,
        "Ġfuture": 3205,
        "rat": 3206,
        "aring": 3207,
        "ĠHot": 3208,
        "ĠUnder": 3209,
        "Ġappl": 3210,
        "Ġ1980": 3211,
        "Ġprovide": 3212,
        "Ġdefeated": 3213,
        "com": 3214,
        "Ġche": 3215,
        "ani": 3216,
        "Ġder": 3217,
        "ils": 3218,
        "ĠCamp": 3219,
        "ĠHill": 3220,
        "Ġstaff": 3221,
        "Ġanc": 3222,
        "arts": 3223,
        "Ġdiscovered": 3224,
        "bers": 3225,
        "Ġsat": 3226,
        "Ġsil": 3227,
        "Ġsection": 3228,
        "ĠSy": 3229,
        "ĠPat": 3230,
        "ĠRes": 3231,
        "ĠOper": 3232,
        "ifa": 3233,
        "Ġtemper": 3234,
        "ĠRoute": 3235,
        "hou": 3236,
        "ney": 3237,
        "Ġcm": 3238,
        "enon": 3239,
        "Ġdoll": 3240,
        "ĠBel": 3241,
        "ĠFI": 3242,
        "ĠWestern": 3243,
        "riage": 3244,
        "ishop": 3245,
        "Ġbecoming": 3246,
        "ĠFrank": 3247,
        "Ġfrequ": 3248,
        "gely": 3249,
        "oo": 3250,
        "eding": 3251,
        "Ġword": 3252,
        "rael": 3253,
        "ĠLight": 3254,
        "ĠColle": 3255,
        "ĠArab": 3256,
        "ĠRh": 3257,
        "ĠWood": 3258,
        "ands": 3259,
        "Ġvot": 3260,
        "Ġexam": 3261,
        "ector": 3262,
        "oke": 3263,
        "key": 3264,
        "oys": 3265,
        "Ġsmaller": 3266,
        "uf": 3267,
        "itte": 3268,
        "Ġflow": 3269,
        "Ġdomin": 3270,
        "ĠTur": 3271,
        "idents": 3272,
        "unt": 3273,
        "raw": 3274,
        "Ġintended": 3275,
        "Ġpercent": 3276,
        "Ġscreen": 3277,
        "Ġcolon": 3278,
        "Ġgroups": 3279,
        "Ġidea": 3280,
        "ĠScientology": 3281,
        "well": 3282,
        "inent": 3283,
        "Ġfir": 3284,
        "Ġfleet": 3285,
        "asy": 3286,
        "iforn": 3287,
        "ĠYear": 3288,
        "Ġthemsel": 3289,
        "Ġmostly": 3290,
        "Ġmetres": 3291,
        "Ġconclud": 3292,
        "Ġdiscuss": 3293,
        "ĠHaifa": 3294,
        "Ġradio": 3295,
        "Ġprofessional": 3296,
        "Ġthemselves": 3297,
        "gen": 3298,
        "ses": 3299,
        "era": 3300,
        "anies": 3301,
        "ĠRuss": 3302,
        "ples": 3303,
        "Ġ2016": 3304,
        "Ġmusical": 3305,
        "Ġsurface": 3306,
        "Ġminutes": 3307,
        "Ġcaptured": 3308,
        "Ġreferred": 3309,
        "ĠCroat": 3310,
        "Ġlikely": 3311,
        "uing": 3312,
        "anish": 3313,
        "ĠSince": 3314,
        "ĠMil": 3315,
        "imate": 3316,
        "cean": 3317,
        "ĠOver": 3318,
        "iano": 3319,
        "Ġoffice": 3320,
        "Ġlargely": 3321,
        "ĠParliament": 3322,
        "Ġproblems": 3323,
        "ĠAssociation": 3324,
        "ror": 3325,
        "Ġtry": 3326,
        "Ġlab": 3327,
        "Ġlink": 3328,
        "ĠHow": 3329,
        "rain": 3330,
        "ĠUp": 3331,
        "Ġund": 3332,
        "Ġcontem": 3333,
        "Ġindic": 3334,
        "Ġentered": 3335,
        "Ġmedia": 3336,
        "ĠPortug": 3337,
        "Ġsummer": 3338,
        "quarters": 3339,
        "iser": 3340,
        "isions": 3341,
        "Ġmakes": 3342,
        "ĠSov": 3343,
        "ĠNic": 3344,
        "ĠOtt": 3345,
        "Ġshoot": 3346,
        "ĠVer": 3347,
        "Ġens": 3348,
        "orning": 3349,
        "Ġmoving": 3350,
        "ĠIsrael": 3351,
        "ĠEarth": 3352,
        "Ġobserv": 3353,
        "Ġbroadcast": 3354,
        "Ġself": 3355,
        "Ġpair": 3356,
        "Ġcontains": 3357,
        "ĠCaliforn": 3358,
        "Ġkeep": 3359,
        "Ġconstructed": 3360,
        "sen": 3361,
        "Ġinn": 3362,
        "Ġmoney": 3363,
        "lex": 3364,
        "ĠSam": 3365,
        "ĠCouncil": 3366,
        "ĠBey": 3367,
        "Ġconcept": 3368,
        "Ġvoice": 3369,
        "ĠInter": 3370,
        "Ġsea": 3371,
        "Ġ1999": 3372,
        "Ġparen": 3373,
        "ĠSur": 3374,
        "Ġnature": 3375,
        "iva": 3376,
        "ĠHaw": 3377,
        "ĠRoss": 3378,
        "ruit": 3379,
        "Ġadop": 3380,
        "ylv": 3381,
        "Ġguitar": 3382,
        "Ġeffects": 3383,
        "Ġcele": 3384,
        "ĠGalvest": 3385,
        "ĠGalveston": 3386,
        "kan": 3387,
        "ergy": 3388,
        "Ġstories": 3389,
        "ĠChic": 3390,
        "onym": 3391,
        "Ġ1950": 3392,
        "Ġgrant": 3393,
        "Ġmajority": 3394,
        "Ġlisted": 3395,
        "Ġranked": 3396,
        "ĠJewish": 3397,
        "het": 3398,
        "Ġconsist": 3399,
        "Ġcreate": 3400,
        "hester": 3401,
        "Ġexperience": 3402,
        "Ġresearch": 3403,
        "ma": 3404,
        "Ġcle": 3405,
        "urity": 3406,
        "Ġleaving": 3407,
        "Ġuns": 3408,
        "Ġ70": 3409,
        "Ġmeth": 3410,
        "ĠBrad": 3411,
        "Ġcritical": 3412,
        "Ġfavor": 3413,
        "Ġschol": 3414,
        "Ġbrief": 3415,
        "Ġthus": 3416,
        "ĠMart": 3417,
        "owler": 3418,
        "aven": 3419,
        "Ġ33": 3420,
        "ously": 3421,
        "Ġscript": 3422,
        "Ġearth": 3423,
        "Ġcontroll": 3424,
        "Ġprimary": 3425,
        "eratops": 3426,
        "pool": 3427,
        "rison": 3428,
        "oud": 3429,
        "ĠServ": 3430,
        "Ġlived": 3431,
        "Ġalways": 3432,
        "ership": 3433,
        "Ġdeep": 3434,
        "ĠAnother": 3435,
        "Ġunderst": 3436,
        "Ġfilms": 3437,
        "Ġlocation": 3438,
        "anks": 3439,
        "Ġruns": 3440,
        "Ġofficers": 3441,
        "Ġgods": 3442,
        "Ġagreed": 3443,
        "Ġlyrics": 3444,
        "Ġri": 3445,
        "atively": 3446,
        "change": 3447,
        "teen": 3448,
        "Ġrare": 3449,
        "ospital": 3450,
        "Ġlaunched": 3451,
        "ĠCalifornia": 3452,
        "dle": 3453,
        "Ġcounter": 3454,
        "Ġded": 3455,
        "aches": 3456,
        "ĠPet": 3457,
        "illery": 3458,
        "order": 3459,
        "lands": 3460,
        "Ġattract": 3461,
        "Ġprem": 3462,
        "Ġteams": 3463,
        "Ġminute": 3464,
        "Ġculture": 3465,
        "Ġquickly": 3466,
        "ĠCatholic": 3467,
        "awn": 3468,
        "ras": 3469,
        "Ġx": 3470,
        "Ġfans": 3471,
        "ĠMr": 3472,
        "ĠIf": 3473,
        "ĠFore": 3474,
        "ĠForm": 3475,
        "Ġmeant": 3476,
        "Ġamb": 3477,
        "Ġepisodes": 3478,
        "Ġproposed": 3479,
        "Ġoccurred": 3480,
        "ĠChicago": 3481,
        "lo": 3482,
        "oir": 3483,
        "ĠSaint": 3484,
        "Ġlo": 3485,
        "imum": 3486,
        "Ġwhether": 3487,
        "Ġadapt": 3488,
        "Ġ400": 3489,
        "Ġassigned": 3490,
        "Ġaccess": 3491,
        "Ġincrease": 3492,
        "AS": 3493,
        "Ġcred": 3494,
        "Ġdram": 3495,
        "Ġhop": 3496,
        "ĠTre": 3497,
        "ĠBec": 3498,
        "ĠLatin": 3499,
        "umn": 3500,
        "Ġ32": 3501,
        "Ġpoet": 3502,
        "Ġcann": 3503,
        "Ġproduct": 3504,
        "Ġforms": 3505,
        "Ġtraffic": 3506,
        "Ġappears": 3507,
        "Ġdefeat": 3508,
        "Ġchanged": 3509,
        "Ġdestroyed": 3510,
        "iant": 3511,
        "Ġtons": 3512,
        "Ġlog": 3513,
        "ĠBen": 3514,
        "Ġasp": 3515,
        "ĠNix": 3516,
        "Ġcommission": 3517,
        "Ġtrade": 3518,
        "ĠEnter": 3519,
        "ĠArch": 3520,
        "Ġlonger": 3521,
        "ĠBattle": 3522,
        "ĠCentral": 3523,
        "Ġmeaning": 3524,
        "mas": 3525,
        "oned": 3526,
        "Ġbound": 3527,
        "anced": 3528,
        "rol": 3529,
        "Ġmom": 3530,
        "ĠSever": 3531,
        "ĠCamb": 3532,
        "ĠMey": 3533,
        "ĠHo": 3534,
        "ortun": 3535,
        "Ġran": 3536,
        "ĠAlice": 3537,
        "Ġjob": 3538,
        "Ġtheme": 3539,
        "Ġnumbers": 3540,
        "Ġprinc": 3541,
        "ĠScot": 3542,
        "Ġ1940": 3543,
        "undred": 3544,
        "Ġsoldiers": 3545,
        "Ġcompetition": 3546,
        "Ġnucle": 3547,
        "Ã³n": 3548,
        "ex": 3549,
        "Ġbomb": 3550,
        "Ġreach": 3551,
        "Ġgirl": 3552,
        "thing": 3553,
        "ĠDj": 3554,
        "Ġkil": 3555,
        "Ġleave": 3556,
        "ĠItal": 3557,
        "Ġnewsp": 3558,
        "Ġacqu": 3559,
        "Ġcarried": 3560,
        "ĠTex": 3561,
        "Ġawarded": 3562,
        "Ġfocus": 3563,
        "ĠNorthern": 3564,
        "tar": 3565,
        "Ġ300": 3566,
        "Ġ1998": 3567,
        "Ġconcert": 3568,
        "Ġconsider": 3569,
        "Ġconducted": 3570,
        "Ġprivate": 3571,
        "Ġdaughter": 3572,
        "NA": 3573,
        "ening": 3574,
        "anas": 3575,
        "rown": 3576,
        "ĠTw": 3577,
        "Ġnatural": 3578,
        "ows": 3579,
        "ĠJam": 3580,
        "Ġoverall": 3581,
        "Ġenv": 3582,
        "Ġ90": 3583,
        "Ġrecords": 3584,
        "ĠSecond": 3585,
        "Ġsubsequently": 3586,
        "cing": 3587,
        "itation": 3588,
        "Ġcause": 3589,
        "Ġtourn": 3590,
        "ĠTra": 3591,
        "Ġthick": 3592,
        "Ġemer": 3593,
        "ĠBC": 3594,
        "imin": 3595,
        "usband": 3596,
        "ĠDel": 3597,
        "ĠLiver": 3598,
        "Ġdeg": 3599,
        "Ġplans": 3600,
        "ĠVilla": 3601,
        "ĠAlkan": 3602,
        "Ġdism": 3603,
        "Ġ1930": 3604,
        "Ġanti": 3605,
        "Ġfighting": 3606,
        "bar": 3607,
        "ga": 3608,
        "lin": 3609,
        "Ġult": 3610,
        "Ġtakes": 3611,
        "Ġsus": 3612,
        "eds": 3613,
        "itor": 3614,
        "itude": 3615,
        "Ġbox": 3616,
        "Ġrein": 3617,
        "Ġlay": 3618,
        "Ġgraph": 3619,
        "Ġkind": 3620,
        "ective": 3621,
        "Ġwhole": 3622,
        "Ġ1993": 3623,
        "Ġelection": 3624,
        "ĠPolish": 3625,
        "Ġinfluence": 3626,
        "Ġcommented": 3627,
        "Ġdouble": 3628,
        "Ġindustry": 3629,
        "ken": 3630,
        "Ġ+": 3631,
        "ĠTay": 3632,
        "ĠTour": 3633,
        "ĠMinn": 3634,
        "Ġserious": 3635,
        "Ġfinally": 3636,
        "Ġbring": 3637,
        "Ġasked": 3638,
        "ĠNixon": 3639,
        "ĠLiverpool": 3640,
        "Ġtar": 3641,
        "Ġdig": 3642,
        "Ġthrow": 3643,
        "alled": 3644,
        "Ġupper": 3645,
        "Ġcompared": 3646,
        "ĠIts": 3647,
        "Ġjud": 3648,
        "Ġcentre": 3649,
        "Ġending": 3650,
        "ĠGeorg": 3651,
        "ĠSomers": 3652,
        "stitute": 3653,
        "Ġgreater": 3654,
        "Ġmethod": 3655,
        "ny": 3656,
        "Ġpurch": 3657,
        "Ġdone": 3658,
        "Ġreject": 3659,
        "ĠMal": 3660,
        "ĠBack": 3661,
        "olk": 3662,
        "ĠLady": 3663,
        "istics": 3664,
        "ells": 3665,
        "Ġunable": 3666,
        "Ġ47": 3667,
        "Ġflight": 3668,
        "ologist": 3669,
        "Ġpositions": 3670,
        "Ġaccomp": 3671,
        "itting": 3672,
        "Ġmarried": 3673,
        "ittee": 3674,
        "ĠTexas": 3675,
        "II": 3676,
        "ging": 3677,
        "Ġour": 3678,
        "Ġbig": 3679,
        "alys": 3680,
        "ĠHum": 3681,
        "ĠFoot": 3682,
        "Ġ39": 3683,
        "aily": 3684,
        "Ġbuildings": 3685,
        "Ġpersonal": 3686,
        "Ġmarket": 3687,
        "Ġstandard": 3688,
        "ĠMosley": 3689,
        "Ġrapid": 3690,
        "ĠSomerset": 3691,
        "ĠTropical": 3692,
        "ĠSol": 3693,
        "Ġgot": 3694,
        "ĠRob": 3695,
        "agon": 3696,
        "Ġyet": 3697,
        "ĠVict": 3698,
        "Ġparty": 3699,
        "Ġearned": 3700,
        "Ġbooks": 3701,
        "TV": 3702,
        "Ġmor": 3703,
        "Ġdark": 3704,
        "ĠTenn": 3705,
        "ĠCour": 3706,
        "Ġliving": 3707,
        "Ġhero": 3708,
        "ĠOut": 3709,
        "ĠThree": 3710,
        "Ġ1996": 3711,
        "Ġcollect": 3712,
        "Ġphot": 3713,
        "Ġconflict": 3714,
        "Ġbegins": 3715,
        "Ġissued": 3716,
        "ĠBusch": 3717,
        "car": 3718,
        "Ġmur": 3719,
        "Ġdom": 3720,
        "ĠSal": 3721,
        "ada": 3722,
        "ĠBob": 3723,
        "ĠFin": 3724,
        "ĠLake": 3725,
        "ria": 3726,
        "Ġdirectly": 3727,
        "Ġmarked": 3728,
        "Ġterms": 3729,
        "aught": 3730,
        "Ġtraditional": 3731,
        "house": 3732,
        "Ġsal": 3733,
        "umed": 3734,
        "Ġhealth": 3735,
        "Ġaband": 3736,
        "Ġscenes": 3737,
        "athan": 3738,
        "Ġmovement": 3739,
        "ĠSpanish": 3740,
        "ĠChristmas": 3741,
        "Ġmarriage": 3742,
        "Ġstatus": 3743,
        "ĠAfrican": 3744,
        "ĠTaylor": 3745,
        "rey": 3746,
        "Ġpath": 3747,
        "ĠFowler": 3748,
        "bery": 3749,
        "ĠCommand": 3750,
        "Ġslight": 3751,
        "Ġhelped": 3752,
        "Ġfigure": 3753,
        "ĠSeveral": 3754,
        "rical": 3755,
        "itch": 3756,
        "Ġbatter": 3757,
        "Ġpil": 3758,
        "ĠCross": 3759,
        "Ġnorm": 3760,
        "adm": 3761,
        "aded": 3762,
        "ĠDem": 3763,
        "ĠLou": 3764,
        "odon": 3765,
        "eway": 3766,
        "ĠStorm": 3767,
        "Ġsched": 3768,
        "embly": 3769,
        "Ġstarting": 3770,
        "Ġattacks": 3771,
        "Ġschools": 3772,
        "Ġexperi": 3773,
        "Ġinformation": 3774,
        "Ġsuffered": 3775,
        "Ġplanned": 3776,
        "bury": 3777,
        "anz": 3778,
        "Ġhusband": 3779,
        "Ġlif": 3780,
        "ĠIll": 3781,
        "Ġgiving": 3782,
        "ĠNor": 3783,
        "ĠJust": 3784,
        "Ġrh": 3785,
        "Ġperformances": 3786,
        "Ġassociated": 3787,
        "Ġinspired": 3788,
        "Ġsource": 3789,
        "ĠInfantry": 3790,
        "ĠSoviet": 3791,
        "ien": 3792,
        "Ġdivision": 3793,
        "cend": 3794,
        "ĠJane": 3795,
        "ify": 3796,
        "Ġplot": 3797,
        "Ġclosed": 3798,
        "ounds": 3799,
        "ibly": 3800,
        "Ġtransl": 3801,
        "ĠCont": 3802,
        "Ġpresented": 3803,
        "Ġinitial": 3804,
        "Ġcondoms": 3805,
        "ĠParty": 3806,
        "Ġmachine": 3807,
        "tation": 3808,
        "atre": 3809,
        "ican": 3810,
        "ĠTrans": 3811,
        "imb": 3812,
        "ĠGo": 3813,
        "Ġvia": 3814,
        "ĠInn": 3815,
        "Ġroom": 3816,
        "Ġimage": 3817,
        "Ġraised": 3818,
        "Ġpresence": 3819,
        "Ġpolic": 3820,
        "Ġgreatest": 3821,
        "ĠSeries": 3822,
        "Ġeducation": 3823,
        "ares": 3824,
        "like": 3825,
        "sylv": 3826,
        "uff": 3827,
        "erve": 3828,
        "Ġfell": 3829,
        "Ġinters": 3830,
        "Ġpay": 3831,
        "Ġhundred": 3832,
        "ĠTem": 3833,
        "ĠSix": 3834,
        "ĠCast": 3835,
        "olf": 3836,
        "ĠLong": 3837,
        "Ġchall": 3838,
        "ections": 3839,
        "Ġunit": 3840,
        "Ġuses": 3841,
        "Ġ42": 3842,
        "Ġwriters": 3843,
        "Ġcontinue": 3844,
        "Ġnearby": 3845,
        "ĠClub": 3846,
        "ĠParis": 3847,
        "orpor": 3848,
        "ĠCarolina": 3849,
        "Ġdocument": 3850,
        "ĠPennsylv": 3851,
        "ĠVirginia": 3852,
        "Ġsusp": 3853,
        "iated": 3854,
        "rate": 3855,
        "Ġpark": 3856,
        "ĠRam": 3857,
        "ĠLive": 3858,
        "Ġprep": 3859,
        "iami": 3860,
        "Ġcomplex": 3861,
        "Ġcovered": 3862,
        "Ã¡n": 3863,
        "Ġcollection": 3864,
        "Ġcyclone": 3865,
        "rid": 3866,
        "Ġtalk": 3867,
        "itect": 3868,
        "Ġhabit": 3869,
        "ĠMill": 3870,
        "imony": 3871,
        "Ġconver": 3872,
        "essa": 3873,
        "Ġspace": 3874,
        "Ġcomposed": 3875,
        "Ġenj": 3876,
        "Ġweap": 3877,
        "inner": 3878,
        "Ġannual": 3879,
        "Ġservices": 3880,
        "ĠAcad": 3881,
        "ĠQueen": 3882,
        "ĠCollege": 3883,
        "ĠMeyer": 3884,
        "iny": 3885,
        "Ġbodies": 3886,
        "Ġreally": 3887,
        "ether": 3888,
        "ĠWater": 3889,
        "Ġsev": 3890,
        "Ġ1997": 3891,
        "Ġnumerous": 3892,
        "Ġmetal": 3893,
        "Ġextended": 3894,
        "Ġcommander": 3895,
        "Ġcathedral": 3896,
        "Ġwaters": 3897,
        "Ġfigures": 3898,
        "Ġproducer": 3899,
        "Ġterritory": 3900,
        "oncÃ©": 3901,
        "ĠBeyoncÃ©": 3902,
        "een": 3903,
        "tain": 3904,
        "Ġhot": 3905,
        "Ġthings": 3906,
        "ĠMiami": 3907,
        "uries": 3908,
        "ĠDan": 3909,
        "ĠDam": 3910,
        "ĠLo": 3911,
        "ĠJose": 3912,
        "anta": 3913,
        "pted": 3914,
        "ports": 3915,
        "ĠGermany": 3916,
        "ĠMuseum": 3917,
        "Ġsomething": 3918,
        "Ġvocals": 3919,
        "Ġproteins": 3920,
        "Ġindividual": 3921,
        "ped": 3922,
        "zy": 3923,
        "ĠTheir": 3924,
        "ĠGames": 3925,
        "ĠNations": 3926,
        "ipal": 3927,
        "Ġ44": 3928,
        "Ġfinanc": 3929,
        "Ġartist": 3930,
        "Ġoperation": 3931,
        "ricket": 3932,
        "Ġnecess": 3933,
        "Ġinvestig": 3934,
        "ev": 3935,
        "uit": 3936,
        "Ġtax": 3937,
        "Ġsaf": 3938,
        "Ġpick": 3939,
        "Ġmorning": 3940,
        "estival": 3941,
        "ĠEr": 3942,
        "apo": 3943,
        "Ġcompanies": 3944,
        "ĠThrough": 3945,
        "Ġhighly": 3946,
        "Ġimpact": 3947,
        "Ġattacked": 3948,
        "Ġdetail": 3949,
        "Ġattempts": 3950,
        "Ġrequest": 3951,
        "ĠSomal": 3952,
        "Ġstrength": 3953,
        "ĠService": 3954,
        "ding": 3955,
        "pole": 3956,
        "vement": 3957,
        "Ġbad": 3958,
        "ĠCer": 3959,
        "ĠCrit": 3960,
        "omer": 3961,
        "ado": 3962,
        "adium": 3963,
        "ĠGar": 3964,
        "Ġrecover": 3965,
        "Ġdise": 3966,
        "ribution": 3967,
        "Ġvers": 3968,
        "Ġinteract": 3969,
        "Ġsymb": 3970,
        "Ġartillery": 3971,
        "Ġconfir": 3972,
        "Ġspeed": 3973,
        "Ġera": 3974,
        "Ġimmediately": 3975,
        "admium": 3976,
        "ĠPennsylvania": 3977,
        "track": 3978,
        "atives": 3979,
        "isation": 3980,
        "isher": 3981,
        "Ġpurs": 3982,
        "Ġpiano": 3983,
        "ĠAI": 3984,
        "ĠCons": 3985,
        "ĠMajor": 3986,
        "Ġstone": 3987,
        "ĠLi": 3988,
        "Ġplat": 3989,
        "Ġspir": 3990,
        "Ġdistance": 3991,
        "Ġallowing": 3992,
        "Ġtracks": 3993,
        "Ġpowerful": 3994,
        "Ġsituation": 3995,
        "ĠJackson": 3996,
        "Ġnuclear": 3997,
        "ĠSquadron": 3998,
        "Ġremoved": 3999,
        "Ġcelebr": 4000,
        "Ġkilomet": 4001,
        "hic": 4002,
        "onna": 4003,
        "Ġintern": 4004,
        "andid": 4005,
        "aging": 4006,
        "Ġrate": 4007,
        "Ġselected": 4008,
        "Ġsearch": 4009,
        "Ġkick": 4010,
        "iple": 4011,
        "Ġ51": 4012,
        "Ġoffered": 4013,
        "Ġsecret": 4014,
        "Ġblood": 4015,
        "Ġstudies": 4016,
        "Ġinside": 4017,
        "Ġadvance": 4018,
        "Ġvariety": 4019,
        "Ġfriends": 4020,
        "Ġneeded": 4021,
        "Ġpeaked": 4022,
        "Ġsexual": 4023,
        "Ġpurp": 4024,
        "ĠScotland": 4025,
        "ĠVictor": 4026,
        "Ġmole": 4027,
        "oura": 4028,
        "ĠSir": 4029,
        "Ġnative": 4030,
        "ĠBet": 4031,
        "ĠBoth": 4032,
        "Ġstra": 4033,
        "ĠRad": 4034,
        "ĠLos": 4035,
        "rial": 4036,
        "Ġ182": 4037,
        "izing": 4038,
        "Ġprec": 4039,
        "Ġtext": 4040,
        "Ġ1991": 4041,
        "Ġmeans": 4042,
        "Ġcoach": 4043,
        "ĠChris": 4044,
        "Ġcountries": 4045,
        "Ġheadquarters": 4046,
        "Ġattempted": 4047,
        "Ġcopies": 4048,
        "ĠFootball": 4049,
        "ãĥ": 4050,
        "ims": 4051,
        "ĠLand": 4052,
        "Ġrule": 4053,
        "ĠChina": 4054,
        "Ġscoring": 4055,
        "Ġadvant": 4056,
        "Ġhands": 4057,
        "Ġwidely": 4058,
        "Ġrespectively": 4059,
        "ĠOpen": 4060,
        "Ġresponsible": 4061,
        "Ġcasual": 4062,
        "aen": 4063,
        "hood": 4064,
        "ware": 4065,
        "alty": 4066,
        "Ġmax": 4067,
        "Ġhar": 4068,
        "ĠAlex": 4069,
        "Ġgrand": 4070,
        "Ġang": 4071,
        "send": 4072,
        "annel": 4073,
        "Ġsets": 4074,
        "Ġextrem": 4075,
        "Ġdescribes": 4076,
        "Ġappearances": 4077,
        "Ġcontrovers": 4078,
        "ĠAnderson": 4079,
        "Ġgenus": 4080,
        "Ġhigher": 4081,
        "ĠDepartment": 4082,
        "Ġtouchdown": 4083,
        "hew": 4084,
        "ĠAre": 4085,
        "iron": 4086,
        "ĠPost": 4087,
        "ĠOff": 4088,
        "aped": 4089,
        "ends": 4090,
        "Ġcanc": 4091,
        "Ġ1992": 4092,
        "Ġlands": 4093,
        "Ġconstit": 4094,
        "Ġcourse": 4095,
        "Ġmiddle": 4096,
        "Ġmagn": 4097,
        "Ġobserved": 4098,
        "ĠBraat": 4099,
        "ĠCorps": 4100,
        "Ġheavily": 4101,
        "MS": 4102,
        "me": 4103,
        "vin": 4104,
        "Ġess": 4105,
        "ĠTime": 4106,
        "ĠBre": 4107,
        "ĠNes": 4108,
        "illed": 4109,
        "Ġseem": 4110,
        "ellig": 4111,
        "Ġcompos": 4112,
        "rane": 4113,
        "Ġadult": 4114,
        "Ġdisplay": 4115,
        "Ġ1994": 4116,
        "Ġrelief": 4117,
        "ĠRev": 4118,
        "Ġbelow": 4119,
        "Ġsixth": 4120,
        "shire": 4121,
        "Ġadminist": 4122,
        "Ġreduced": 4123,
        "Ġmeeting": 4124,
        "Ġxenon": 4125,
        "Ġenjoy": 4126,
        "light": 4127,
        "esota": 4128,
        "ĠMidd": 4129,
        "ulations": 4130,
        "ĠLike": 4131,
        "umber": 4132,
        "Ġ37": 4133,
        "Ġ48": 4134,
        "Ġjump": 4135,
        "Ġ76": 4136,
        "Ġactive": 4137,
        "Ġblue": 4138,
        "Ġsinger": 4139,
        "Ġmatches": 4140,
        "Ġresulted": 4141,
        "Ġopportun": 4142,
        "Ġaudience": 4143,
        "force": 4144,
        "Ġconcluded": 4145,
        "ĠMinnesota": 4146,
        "uated": 4147,
        "Ġwing": 4148,
        "Ġcorn": 4149,
        "isk": 4150,
        "Ġpaper": 4151,
        "Ġhol": 4152,
        "Ġhour": 4153,
        "ĠCor": 4154,
        "ĠCapt": 4155,
        "ĠPit": 4156,
        "ĠEmp": 4157,
        "akapo": 4158,
        "rance": 4159,
        "Ġshell": 4160,
        "Ġinstit": 4161,
        "inkel": 4162,
        "Ġactivity": 4163,
        "Ġactivities": 4164,
        "ĠSmith": 4165,
        "Ġtrue": 4166,
        "Ġcompletely": 4167,
        "ris": 4168,
        "Ġcer": 4169,
        "isl": 4170,
        "Ġbene": 4171,
        "Ġpu": 4172,
        "room": 4173,
        "ĠSouthern": 4174,
        "ĠBol": 4175,
        "Ġstating": 4176,
        "utch": 4177,
        "ĠGreen": 4178,
        "ĠJul": 4179,
        "Ġdisapp": 4180,
        "Ġmanaged": 4181,
        "athus": 4182,
        "ĠSea": 4183,
        "ĠCenter": 4184,
        "ĠTownsend": 4185,
        "Ġrevealed": 4186,
        "ĠRosebery": 4187,
        "Ġquestion": 4188,
        "Ġcontemporary": 4189,
        "ĠHawai": 4190,
        "ĠItalian": 4191,
        "ĠMeyerbe": 4192,
        "ipped": 4193,
        "ãģ": 4194,
        "Ġwound": 4195,
        "ĠDist": 4196,
        "ĠFur": 4197,
        "ĠJim": 4198,
        "ift": 4199,
        "ĠKa": 4200,
        "Ġquality": 4201,
        "ervation": 4202,
        "Ġrefused": 4203,
        "Ġdrum": 4204,
        "Ġlevels": 4205,
        "Äģd": 4206,
        "Ġdeclared": 4207,
        "Ġtrees": 4208,
        "Ġseparate": 4209,
        "ĠNicole": 4210,
        "ĠMeyerbeer": 4211,
        "bed": 4212,
        "bird": 4213,
        "Ġpun": 4214,
        "acher": 4215,
        "ĠFinkel": 4216,
        "ecting": 4217,
        "ĠThunder": 4218,
        "rowd": 4219,
        "ĠConf": 4220,
        "Ġbrown": 4221,
        "ĠForce": 4222,
        "Ġapproach": 4223,
        "ĠWalpole": 4224,
        "Ġcontrast": 4225,
        "ĠBecause": 4226,
        "ĠFinkelstein": 4227,
        "ingu": 4228,
        "Ġtoday": 4229,
        "Ġdu": 4230,
        "ĠTessa": 4231,
        "stone": 4232,
        "ĠCat": 4233,
        "Ġlot": 4234,
        "ĠDo": 4235,
        "estic": 4236,
        "Ġuniversity": 4237,
        "peror": 4238,
        "Ġrecent": 4239,
        "ĠYue": 4240,
        "Ġwebs": 4241,
        "ĠShiva": 4242,
        "Ġbackground": 4243,
        "Ġreception": 4244,
        "Ġ150": 4245,
        "Ġfeaturing": 4246,
        "Ġrespond": 4247,
        "Ġcarry": 4248,
        "Ġmodel": 4249,
        "Ġtypically": 4250,
        "Ġhistorical": 4251,
        "Ġvocal": 4252,
        "Ġparents": 4253,
        "gal": 4254,
        "hold": 4255,
        "Ġwalk": 4256,
        "itual": 4257,
        "Ġchem": 4258,
        "Ġpow": 4259,
        "road": 4260,
        "Ġhair": 4261,
        "ĠSar": 4262,
        "Ġnation": 4263,
        "ĠPre": 4264,
        "Ġbeat": 4265,
        "ĠWild": 4266,
        "Ġ52": 4267,
        "Ġdispl": 4268,
        "Ġplays": 4269,
        "anger": 4270,
        "orship": 4271,
        "Ġactions": 4272,
        "Ġpeace": 4273,
        "Ġexpected": 4274,
        "Ġemot": 4275,
        "aha": 4276,
        "ĠBlue": 4277,
        "Ġissues": 4278,
        "ĠCharl": 4279,
        "Ġconditions": 4280,
        "Ġvehic": 4281,
        "ĠSociety": 4282,
        "ĠOttoman": 4283,
        "ĠIllino": 4284,
        "FA": 4285,
        "ka": 4286,
        "Ġinh": 4287,
        "Ġrear": 4288,
        "iled": 4289,
        "ĠBalt": 4290,
        "ĠHal": 4291,
        "ĠRo": 4292,
        "ogue": 4293,
        "Ġroy": 4294,
        "Ġbecomes": 4295,
        "Ġattention": 4296,
        "Ġweaken": 4297,
        "Ġassault": 4298,
        "Ġmainly": 4299,
        "Ġfamil": 4300,
        "Ġefforts": 4301,
        "ĠSpec": 4302,
        "arent": 4303,
        "Ġhouses": 4304,
        "eption": 4305,
        "Ġwear": 4306,
        "Ġmel": 4307,
        "Ġdraft": 4308,
        "ĠTurn": 4309,
        "ĠAv": 4310,
        "usion": 4311,
        "ĠDes": 4312,
        "ĠOm": 4313,
        "essions": 4314,
        "Ġ34": 4315,
        "Ġresidents": 4316,
        "Ġoffer": 4317,
        "ocks": 4318,
        "Ġspecim": 4319,
        "ype": 4320,
        "Ġinstr": 4321,
        "ĠAdam": 4322,
        "ĠFranc": 4323,
        "ĠHighway": 4324,
        "Ġstrugg": 4325,
        "ĠCourt": 4326,
        "ĠBraathens": 4327,
        "BA": 4328,
        "bon": 4329,
        "Ġathlet": 4330,
        "Ġsense": 4331,
        "ĠTod": 4332,
        "ĠBurn": 4333,
        "emic": 4334,
        "oses": 4335,
        "ocr": 4336,
        "Ġrecomm": 4337,
        "ĠArg": 4338,
        "Ġactually": 4339,
        "Ġcalling": 4340,
        "Ġelev": 4341,
        "Ġtitles": 4342,
        "Ġdemonst": 4343,
        "ĠHait": 4344,
        "Ġsoundtrack": 4345,
        "Ġprotein": 4346,
        "ufact": 4347,
        "onents": 4348,
        "Ġsn": 4349,
        "edo": 4350,
        "Ġcrowd": 4351,
        "enge": 4352,
        "Ġboard": 4353,
        "Ġthous": 4354,
        "Ġaltern": 4355,
        "ĠLittle": 4356,
        "Ġroles": 4357,
        "Ġpoly": 4358,
        "Ġseasons": 4359,
        "Ġwrite": 4360,
        "Ġdefend": 4361,
        "ledge": 4362,
        "ĠJohnson": 4363,
        "ĠColumb": 4364,
        "ĠDef": 4365,
        "Ġarchitect": 4366,
        "Ġaccepted": 4367,
        "Ġstruck": 4368,
        "Ġachieved": 4369,
        "ĠGovernment": 4370,
        "ĠPortugues": 4371,
        "Ġcannot": 4372,
        "cript": 4373,
        "iro": 4374,
        "ply": 4375,
        "Ġfruit": 4376,
        "anes": 4377,
        "ications": 4378,
        "Ġthr": 4379,
        "Ġnin": 4380,
        "ĠMog": 4381,
        "utions": 4382,
        "ĠFam": 4383,
        "ĠFey": 4384,
        "ĠOf": 4385,
        "pping": 4386,
        "berg": 4387,
        "ipl": 4388,
        "Ġresc": 4389,
        "Ġscient": 4390,
        "ension": 4391,
        "Ġtypes": 4392,
        "Ġpractice": 4393,
        "ĠVietnam": 4394,
        "alysis": 4395,
        "ĠPortuguese": 4396,
        "wen": 4397,
        "Ġrough": 4398,
        "Ġcam": 4399,
        "Ġfiction": 4400,
        "roll": 4401,
        "Ġdyn": 4402,
        "Ġlb": 4403,
        "ĠMat": 4404,
        "anded": 4405,
        "eller": 4406,
        "irection": 4407,
        "Ġ181": 4408,
        "Ġscul": 4409,
        "anning": 4410,
        "Ġdistinct": 4411,
        "Ġinfantry": 4412,
        "ĠSpain": 4413,
        "ĠAdd": 4414,
        "echan": 4415,
        "Ġavoid": 4416,
        "Ġprimarily": 4417,
        "ĠSecret": 4418,
        "Ġsequence": 4419,
        "ĠAcademy": 4420,
        "Ġsales": 4421,
        "ĠTint": 4422,
        "iles": 4423,
        "ĠCivil": 4424,
        "ĠBook": 4425,
        "ĠFer": 4426,
        "ĠGroup": 4427,
        "Ġplant": 4428,
        "Ġspread": 4429,
        "ĠYoung": 4430,
        "ĠEngine": 4431,
        "Ġ1986": 4432,
        "Ġowned": 4433,
        "Ġtwenty": 4434,
        "Ġelected": 4435,
        "Ġcombat": 4436,
        "Ġslightly": 4437,
        "met": 4438,
        "Ġsister": 4439,
        "ĠSarn": 4440,
        "ĠHorse": 4441,
        "use": 4442,
        "ĠWels": 4443,
        "Ġheart": 4444,
        "ĠEs": 4445,
        "Ġsuc": 4446,
        "Ġsust": 4447,
        "Ġsport": 4448,
        "ograp": 4449,
        "Ġinches": 4450,
        "Ġscale": 4451,
        "Ġoffensive": 4452,
        "ĠAnn": 4453,
        "Ġexpressed": 4454,
        "Ġconcent": 4455,
        "Ġextra": 4456,
        "Ġcounty": 4457,
        "ĠPrince": 4458,
        "Ġrights": 4459,
        "Ġnortheast": 4460,
        "Ġaffected": 4461,
        "ceeded": 4462,
        "onymous": 4463,
        "ĠLouis": 4464,
        "ĠCaptain": 4465,
        "AA": 4466,
        "right": 4467,
        "Ġsout": 4468,
        "Ġwords": 4469,
        "ora": 4470,
        "Ġfarm": 4471,
        "Ġple": 4472,
        "Ġmis": 4473,
        "ĠTri": 4474,
        "ĠChe": 4475,
        "ols": 4476,
        "ushed": 4477,
        "ĠDou": 4478,
        "Ġ180": 4479,
        "Ġneigh": 4480,
        "ĠAtt": 4481,
        "ĠReview": 4482,
        "Ġshowed": 4483,
        "Ġofficer": 4484,
        "Ġprogress": 4485,
        "ĠNesb": 4486,
        "ĠTintin": 4487,
        "ĠWelsh": 4488,
        "mond": 4489,
        "mitted": 4490,
        "orus": 4491,
        "Ġhy": 4492,
        "ĠSil": 4493,
        "ĠManc": 4494,
        "igg": 4495,
        "igan": 4496,
        "astic": 4497,
        "Ġability": 4498,
        "ĠThough": 4499,
        "Ġthemes": 4500,
        "ĠZhou": 4501,
        "ĠAdm": 4502,
        "Ġbattalion": 4503,
        "ĠAndrew": 4504,
        "Ġexcav": 4505,
        "Ġcombined": 4506,
        "ĠVaranas": 4507,
        "Ġnewspaper": 4508,
        "ĠCeres": 4509,
        "ironment": 4510,
        "ĠEmpire": 4511,
        "ĠVaranasi": 4512,
        "ãĤ": 4513,
        "rect": 4514,
        "Ġmess": 4515,
        "Ġhorse": 4516,
        "ĠFred": 4517,
        "ovic": 4518,
        "Ġqual": 4519,
        "ĠCommun": 4520,
        "Ġtitled": 4521,
        "Ġportray": 4522,
        "Ġcultural": 4523,
        "Ġsquare": 4524,
        "ĠOdaen": 4525,
        "ĠApple": 4526,
        "Ġcasualties": 4527,
        "ĠNesbitt": 4528,
        "Ġsays": 4529,
        "Ġox": 4530,
        "ĠTru": 4531,
        "Ġreign": 4532,
        "ĠWay": 4533,
        "aine": 4534,
        "Ġ49": 4535,
        "Ġremark": 4536,
        "Ġproduce": 4537,
        "Ġcontinues": 4538,
        "Ġgrass": 4539,
        "ĠEva": 4540,
        "Ġearliest": 4541,
        "Ġmountain": 4542,
        "while": 4543,
        "ĠAngeles": 4544,
        "Ġmentioned": 4545,
        "Ġancient": 4546,
        "Ġmurder": 4547,
        "Ġcerem": 4548,
        "ĠIllinois": 4549,
        "ĠOdaenathus": 4550,
        "Mont": 4551,
        "laim": 4552,
        "nown": 4553,
        "inus": 4554,
        "enant": 4555,
        "Ġfully": 4556,
        "Ġmission": 4557,
        "ented": 4558,
        "ĠCra": 4559,
        "ĠBoy": 4560,
        "etts": 4561,
        "ĠDirect": 4562,
        "ĠWash": 4563,
        "osen": 4564,
        "ĠJos": 4565,
        "oper": 4566,
        "Ġchampionship": 4567,
        "Ġmanufact": 4568,
        "Ġactor": 4569,
        "Ġprint": 4570,
        "Ġartists": 4571,
        "Ġresulting": 4572,
        "orpedo": 4573,
        "Ġ1920": 4574,
        "ĠRecords": 4575,
        "Ġauthorities": 4576,
        "Ġinfluenced": 4577,
        "ĠDuMont": 4578,
        "Ġflooding": 4579,
        "Ġnarrow": 4580,
        "ĠOlympic": 4581,
        "Ġadopted": 4582,
        "Ġdisease": 4583,
        "Ġadvantage": 4584,
        "ĠMogad": 4585,
        "ĠSarnia": 4586,
        "Ġwild": 4587,
        "ĠCap": 4588,
        "Ġnest": 4589,
        "ura": 4590,
        "Ġspl": 4591,
        "Ġ65": 4592,
        "ĠColon": 4593,
        "ĠProt": 4594,
        "Ġreports": 4595,
        "Ġlegal": 4596,
        "Ġbasis": 4597,
        "ĠPerÃ³n": 4598,
        "Ġrepresented": 4599,
        "lies": 4600,
        "lings": 4601,
        "mark": 4602,
        "Ã¨": 4603,
        "Ġsides": 4604,
        "Ġcandid": 4605,
        "Ġbott": 4606,
        "asc": 4607,
        "Ġtoward": 4608,
        "Ġmile": 4609,
        "ĠPop": 4610,
        "Ġalone": 4611,
        "ĠNC": 4612,
        "Ġcoming": 4613,
        "Ġexhib": 4614,
        "ella": 4615,
        "Ġapparent": 4616,
        "Ġagg": 4617,
        "ĠNews": 4618,
        "Ġdefense": 4619,
        "Ġbridge": 4620,
        "helm": 4621,
        "Ġbegin": 4622,
        "Ġviewers": 4623,
        "ĠWeek": 4624,
        "Ġletters": 4625,
        "Ġwithdraw": 4626,
        "Ġtower": 4627,
        "Ġtournament": 4628,
        "ĠMiddle": 4629,
        "ĠThunderbird": 4630,
        "ĠManchester": 4631,
        "bit": 4632,
        "writ": 4633,
        "Ġtorpedo": 4634,
        "Ġdirection": 4635,
        "Ġhun": 4636,
        "ĠSR": 4637,
        "ĠHome": 4638,
        "ĠHorn": 4639,
        "ĠFour": 4640,
        "ĠLar": 4641,
        "ĠOcean": 4642,
        "Ġrat": 4643,
        "Ġkakapo": 4644,
        "Ġyellow": 4645,
        "Ġarmed": 4646,
        "Ġworkers": 4647,
        "Ġrelatively": 4648,
        "Ġfounded": 4649,
        "Ġalongside": 4650,
        "Ġoccasion": 4651,
        "Ġeffort": 4652,
        "ĠClark": 4653,
        "Ġnorthwest": 4654,
        "ancy": 4655,
        "Ġillust": 4656,
        "ĠWashington": 4657,
        "aith": 4658,
        "bour": 4659,
        "lam": 4660,
        "lers": 4661,
        "Ġsac": 4662,
        "Ġcadmium": 4663,
        "ala": 4664,
        "Ġmechan": 4665,
        "Ġhors": 4666,
        "Ġlosing": 4667,
        "ĠMax": 4668,
        "ulate": 4669,
        "Ġrang": 4670,
        "iana": 4671,
        "Ġunivers": 4672,
        "ĠVan": 4673,
        "Ġcontain": 4674,
        "Ġcontact": 4675,
        "Ġadj": 4676,
        "ricult": 4677,
        "Ġattended": 4678,
        "Ġemph": 4679,
        "Ġ1988": 4680,
        "Ġofficially": 4681,
        "Ġedition": 4682,
        "Ġtried": 4683,
        "Ġorganized": 4684,
        "Ġcapture": 4685,
        "Ġindividuals": 4686,
        "Ġtransferred": 4687,
        "Ġphysical": 4688,
        "lim": 4689,
        "Ġáĥ": 4690,
        "Ġast": 4691,
        "ĠSum": 4692,
        "ental": 4693,
        "adel": 4694,
        "ĠMass": 4695,
        "ĠHu": 4696,
        "Ġproved": 4697,
        "abama": 4698,
        "gend": 4699,
        "Ġperman": 4700,
        "ĠAlabama": 4701,
        "Ġneut": 4702,
        "Ġacting": 4703,
        "prise": 4704,
        "ĠMean": 4705,
        "Ġrequire": 4706,
        "Ġwinter": 4707,
        "Ġbehav": 4708,
        "Ġpattern": 4709,
        "Ġofficials": 4710,
        "Ġmeasure": 4711,
        "Ġsurrounding": 4712,
        "Ġrainfall": 4713,
        "Ġdedicated": 4714,
        "ĠJoseph": 4715,
        "ĠOmaha": 4716,
        "ĠMogadish": 4717,
        "che": 4718,
        "can": 4719,
        "rong": 4720,
        "uous": 4721,
        "inem": 4722,
        "Ġfeder": 4723,
        "ĠSen": 4724,
        "Ġlives": 4725,
        "ĠMD": 4726,
        "ĠBu": 4727,
        "imore": 4728,
        "ĠDest": 4729,
        "ĠKent": 4730,
        "Ġenergy": 4731,
        "Ġ64": 4732,
        "ĠArm": 4733,
        "Ġdoing": 4734,
        "Ġedge": 4735,
        "ĠEdward": 4736,
        "Ġcouple": 4737,
        "ij": 4738,
        "iate": 4739,
        "onn": 4740,
        "Ġwa": 4741,
        "itness": 4742,
        "Ġfolk": 4743,
        "Ġmind": 4744,
        "ĠFant": 4745,
        "ĠGall": 4746,
        "ĠLord": 4747,
        "Ġchief": 4748,
        "Ġshape": 4749,
        "Ġ46": 4750,
        "izes": 4751,
        "ibr": 4752,
        "Ġprepar": 4753,
        "Ġfollows": 4754,
        "azz": 4755,
        "ĠIndepend": 4756,
        "Ġdesignated": 4757,
        "Ġshortly": 4758,
        "Ġpossibly": 4759,
        "ĠReception": 4760,
        "Ġsociety": 4761,
        "Ġdivided": 4762,
        "Ġfunction": 4763,
        "Ġdissip": 4764,
        "ĠHelms": 4765,
        "Ġintensity": 4766,
        "ĠInnis": 4767,
        "Ġfinancial": 4768,
        "ĠMogadishu": 4769,
        "RA": 4770,
        "kare": 4771,
        "Ġfaced": 4772,
        "Ġborder": 4773,
        "Ġpaid": 4774,
        "ĠBh": 4775,
        "ĠBowl": 4776,
        "ĠPrem": 4777,
        "ĠLis": 4778,
        "ĠJourn": 4779,
        "Ġyour": 4780,
        "Ġyoun": 4781,
        "Ġincorpor": 4782,
        "Ġimages": 4783,
        "Ġalbums": 4784,
        "Ġrepe": 4785,
        "Ġ1964": 4786,
        "Ġsimply": 4787,
        "Ġolder": 4788,
        "Ġlegisl": 4789,
        "ĠHistor": 4790,
        "Ġletter": 4791,
        "Ġsources": 4792,
        "ĠWilhelm": 4793,
        "ĠMcCall": 4794,
        "Ġeye": 4795,
        "Ġdetermined": 4796,
        "Ġjournal": 4797,
        "Ġmaximum": 4798,
        "ĠArgent": 4799,
        "VD": 4800,
        "eer": 4801,
        "ux": 4802,
        "wide": 4803,
        "Ġaid": 4804,
        "inated": 4805,
        "aling": 4806,
        "Ġmaster": 4807,
        "enture": 4808,
        "Ġthir": 4809,
        "Ġonto": 4810,
        "ĠEnd": 4811,
        "Ġcomedy": 4812,
        "ĠKore": 4813,
        "Ġplaces": 4814,
        "ipment": 4815,
        "Ġadvert": 4816,
        "ugby": 4817,
        "Ġmovie": 4818,
        "Ġbroken": 4819,
        "Ġportion": 4820,
        "ĠAssembly": 4821,
        "Ġkept": 4822,
        "Ġdoub": 4823,
        "Ġpiece": 4824,
        "Ġpotential": 4825,
        "Ġsculpt": 4826,
        "Ġemphas": 4827,
        "Station": 4828,
        "Åį": 4829,
        "Ġrom": 4830,
        "edar": 4831,
        "Ġcities": 4832,
        "Ġfrag": 4833,
        "Ġdut": 4834,
        "Ġhom": 4835,
        "ĠFleet": 4836,
        "ĠJup": 4837,
        "udd": 4838,
        "duction": 4839,
        "Ġcharge": 4840,
        "ĠCommission": 4841,
        "Ġargued": 4842,
        "Ġiron": 4843,
        "ĠPlayStation": 4844,
        "Ġdomestic": 4845,
        "Ġroyal": 4846,
        "isters": 4847,
        "lection": 4848,
        "ĠBir": 4849,
        "Ġge": 4850,
        "Ġgrew": 4851,
        "ety": 4852,
        "Ġstep": 4853,
        "ĠRih": 4854,
        "ĠFA": 4855,
        "ĠGood": 4856,
        "ĠNight": 4857,
        "agan": 4858,
        "istry": 4859,
        "ĠKn": 4860,
        "asty": 4861,
        "Ġspot": 4862,
        "Ġunk": 4863,
        "ĠVen": 4864,
        "Ġcontent": 4865,
        "Ġroll": 4866,
        "Ġ53": 4867,
        "Ġ55": 4868,
        "Ġcolor": 4869,
        "Ġdepth": 4870,
        "ĠCommon": 4871,
        "Ġsuggests": 4872,
        "Ġauthority": 4873,
        "Ġprojects": 4874,
        "Ġmanagement": 4875,
        "Ġsites": 4876,
        "ĠHamels": 4877,
        "ĠValley": 4878,
        "ĠBaltimore": 4879,
        "ĠRihanna": 4880,
        "Ġsay": 4881,
        "Ġsens": 4882,
        "Ġwor": 4883,
        "Ġwave": 4884,
        "Ġfung": 4885,
        "Ġpaint": 4886,
        "Ġhomes": 4887,
        "Ġhospital": 4888,
        "ĠSky": 4889,
        "acement": 4890,
        "lys": 4891,
        "Ġgained": 4892,
        "ĠWrit": 4893,
        "ĠGreek": 4894,
        "umes": 4895,
        "Ġshare": 4896,
        "Ġscience": 4897,
        "Ġattend": 4898,
        "Ġweak": 4899,
        "Ġprison": 4900,
        "Ġmuseum": 4901,
        "Ġentrance": 4902,
        "ertain": 4903,
        "Ġdepart": 4904,
        "Ġartic": 4905,
        "ĠConstant": 4906,
        "Ġbelong": 4907,
        "Ġphil": 4908,
        "Ġcausing": 4909,
        "Ġtwice": 4910,
        "Ġcriticized": 4911,
        "Ġstructures": 4912,
        "ĠPalest": 4913,
        "ĠDjed": 4914,
        "Ġultimately": 4915,
        "Ġtarget": 4916,
        "Ġschedul": 4917,
        "Ġwebsite": 4918,
        "rative": 4919,
        "Ġfres": 4920,
        "Ġmouth": 4921,
        "Ġhyd": 4922,
        "ĠBig": 4923,
        "ĠPen": 4924,
        "ĠDVD": 4925,
        "ĠLew": 4926,
        "Ġvess": 4927,
        "Ġdeploy": 4928,
        "ĠUl": 4929,
        "Ġcontaining": 4930,
        "Ġintellig": 4931,
        "ĠAnth": 4932,
        "Ġformation": 4933,
        "Ġinterp": 4934,
        "Ġdefence": 4935,
        "Ġresults": 4936,
        "Ġdebuted": 4937,
        "ĠForest": 4938,
        "Ġdismiss": 4939,
        "ĠJupiter": 4940,
        "ĠDjedkare": 4941,
        "gn": 4942,
        "ya": 4943,
        "yr": 4944,
        "Ġtail": 4945,
        "rel": 4946,
        "ati": 4947,
        "atur": 4948,
        "orter": 4949,
        "Ġcore": 4950,
        "Ġcricket": 4951,
        "Ġfast": 4952,
        "ĠMore": 4953,
        "ĠBur": 4954,
        "ĠHib": 4955,
        "Ġchosen": 4956,
        "Ġkg": 4957,
        "ĠUs": 4958,
        "Ġ56": 4959,
        "Ġremix": 4960,
        "Ġdefensive": 4961,
        "Ġopin": 4962,
        "Ġminer": 4963,
        "Ġ1947": 4964,
        "Ġbattles": 4965,
        "Ġforeign": 4966,
        "Ġplanet": 4967,
        "Ġcollabor": 4968,
        "ĠTorres": 4969,
        "Ġlabel": 4970,
        "more": 4971,
        "Ġfix": 4972,
        "Ġinch": 4973,
        "Ġpan": 4974,
        "ĠLock": 4975,
        "ĠJon": 4976,
        "ĠEastern": 4977,
        "ĠOx": 4978,
        "ĠChap": 4979,
        "ĠChild": 4980,
        "Ġ43": 4981,
        "Ġsecurity": 4982,
        "Ġconsecutive": 4983,
        "ĠShort": 4984,
        "Ġenter": 4985,
        "Ġ120": 4986,
        "Ġbrigade": 4987,
        "Ġprominent": 4988,
        "Ġorganization": 4989,
        "Ġstanding": 4990,
        "Ġreference": 4991,
        "Ġgrowing": 4992,
        "Ġanimal": 4993,
        "Ġburied": 4994,
        "Ġindependent": 4995,
        "Ġgranted": 4996,
        "Ġrejected": 4997,
        "Ġabandoned": 4998,
        "ML": 4999,
        "bl": 5000,
        "then": 5001,
        "Ã¼": 5002,
        "Ġsand": 5003,
        "Ġdiam": 5004,
        "ĠField": 5005,
        "ĠGre": 5006,
        "Ġven": 5007,
        "Ġseek": 5008,
        "ocated": 5009,
        "ĠOnce": 5010,
        "Ġweight": 5011,
        "Ġcolony": 5012,
        "Ġdoct": 5013,
        "Ġtherefore": 5014,
        "Ġstudent": 5015,
        "Ġ1941": 5016,
        "Ġvisited": 5017,
        "Ġclaims": 5018,
        "Ġtemple": 5019,
        "Ġorders": 5020,
        "ĠAirport": 5021,
        "Ġcondition": 5022,
        "Ġcells": 5023,
        "white": 5024,
        "ĠScottish": 5025,
        "ographer": 5026,
        "ĠApplewhite": 5027,
        "ees": 5028,
        "mon": 5029,
        "mosp": 5030,
        "Ġmic": 5031,
        "Ġdress": 5032,
        "ĠSo": 5033,
        "ĠSAF": 5034,
        "ĠCre": 5035,
        "ĠBon": 5036,
        "ĠBBC": 5037,
        "iring": 5038,
        "ĠRA": 5039,
        "ĠNorm": 5040,
        "Ġrisk": 5041,
        "Ġspect": 5042,
        "phia": 5043,
        "Ġnewly": 5044,
        "Ġregions": 5045,
        "Ġseconds": 5046,
        "Ġsingles": 5047,
        "Ġ1987": 5048,
        "airs": 5049,
        "Ġbroke": 5050,
        "Ġmoment": 5051,
        "Ġwounded": 5052,
        "adelphia": 5053,
        "ĠSAFE": 5054,
        "ao": 5055,
        "Ġtur": 5056,
        "Ġahead": 5057,
        "Ġcases": 5058,
        "Ġfear": 5059,
        "asters": 5060,
        "oured": 5061,
        "Ġreaching": 5062,
        "Ġheight": 5063,
        "resp": 5064,
        "ĠInstitute": 5065,
        "Ġseems": 5066,
        "Ġenemy": 5067,
        "ĠIndust": 5068,
        "Ġsolo": 5069,
        "ushing": 5070,
        "Ġequipment": 5071,
        "fficient": 5072,
        "Ġknowledge": 5073,
        "Ġidentified": 5074,
        "Ġnominated": 5075,
        "ĠEgyptian": 5076,
        "Ġtemperature": 5077,
        "ĠBackground": 5078,
        "Ġversions": 5079,
        "ners": 5080,
        "tav": 5081,
        "Ġtun": 5082,
        "Ġaired": 5083,
        "Ġcust": 5084,
        "Ġcouncil": 5085,
        "Ġbud": 5086,
        "Ġmales": 5087,
        "ading": 5088,
        "ĠBan": 5089,
        "ĠDue": 5090,
        "ĠJur": 5091,
        "Ġunique": 5092,
        "Ġ41": 5093,
        "Ġ1984": 5094,
        "Ġ1989": 5095,
        "Ġ1972": 5096,
        "Ġreturning": 5097,
        "Ġsupporting": 5098,
        "Ġelement": 5099,
        "ĠBefore": 5100,
        "Ġcampus": 5101,
        "Ġopposed": 5102,
        "urban": 5103,
        "Ġproblem": 5104,
        "ĠCroatia": 5105,
        "Ġenvironment": 5106,
        "ĠFurther": 5107,
        "Le": 5108,
        "cy": 5109,
        "mun": 5110,
        "Ġtim": 5111,
        "ero": 5112,
        "Ġfired": 5113,
        "Ġfox": 5114,
        "ishes": 5115,
        "ĠSub": 5116,
        "ads": 5117,
        "ĠMike": 5118,
        "ette": 5119,
        "oted": 5120,
        "Ġatmosp": 5121,
        "Ġanalysis": 5122,
        "ĠEach": 5123,
        "ĠKir": 5124,
        "Ġunp": 5125,
        "Ġ54": 5126,
        "Ġperfect": 5127,
        "Ġteacher": 5128,
        "Ġ1985": 5129,
        "Ġoperated": 5130,
        "ĠCarl": 5131,
        "ĠOrigin": 5132,
        "Ġlooking": 5133,
        "Ġincreasingly": 5134,
        "Ġliterature": 5135,
        "ĠOperation": 5136,
        "Ġscholars": 5137,
        "ĠEntertain": 5138,
        "Ġstraight": 5139,
        "Ġunknown": 5140,
        "uct": 5141,
        "Ġtheory": 5142,
        "Ġboy": 5143,
        "alle": 5144,
        "stream": 5145,
        "aming": 5146,
        "Ġec": 5147,
        "ĠMort": 5148,
        "ĠId": 5149,
        "ider": 5150,
        "ĠHMS": 5151,
        "ĠRy": 5152,
        "ĠRet": 5153,
        "Ġalter": 5154,
        "Ġhere": 5155,
        "ighth": 5156,
        "ĠKar": 5157,
        "Ġcompr": 5158,
        "Ġweather": 5159,
        "Ġwrites": 5160,
        "Ġdefin": 5161,
        "Ġacad": 5162,
        "Ġbelieve": 5163,
        "Ġbreeding": 5164,
        "Ġexplained": 5165,
        "Ġcommonly": 5166,
        "ĠBarrow": 5167,
        "Ġhistorian": 5168,
        "Ġideas": 5169,
        "Ġsettlement": 5170,
        "ĠSwed": 5171,
        "Ġburns": 5172,
        "ĠCardiff": 5173,
        "Ġconfirmed": 5174,
        "Ġmolec": 5175,
        "eg": 5176,
        "uge": 5177,
        "ych": 5178,
        "Ġod": 5179,
        "Ġoil": 5180,
        "ato": 5181,
        "ĠMic": 5182,
        "Ġstations": 5183,
        "ĠPublic": 5184,
        "ĠNever": 5185,
        "aved": 5186,
        "ĠEven": 5187,
        "Ġvo": 5188,
        "ĠKey": 5189,
        "ĠStan": 5190,
        "ĠVill": 5191,
        "Ġarrest": 5192,
        "Ġherself": 5193,
        "ĠOnly": 5194,
        "Ġconsisted": 5195,
        "Ġsinging": 5196,
        "Ġ1944": 5197,
        "Ġlandfall": 5198,
        "ĠClass": 5199,
        "Ġadvanced": 5200,
        "ĠDevelop": 5201,
        "Ġsystems": 5202,
        "Ġparliament": 5203,
        "Ġcriticism": 5204,
        "Ġfemales": 5205,
        "ĠMichigan": 5206,
        "ĠKeats": 5207,
        "Ġstrike": 5208,
        "ĠPhiladelphia": 5209,
        "Ġproperty": 5210,
        "ĠCongress": 5211,
        "Ġeconomic": 5212,
        "Ġcontrolled": 5213,
        "hu": 5214,
        "ket": 5215,
        "alions": 5216,
        "Ġpict": 5217,
        "asure": 5218,
        "ĠHart": 5219,
        "ĠRog": 5220,
        "ĠGi": 5221,
        "ĠGord": 5222,
        "ĠLl": 5223,
        "illo": 5224,
        "Ġdeities": 5225,
        "Ġimag": 5226,
        "weet": 5227,
        "awa": 5228,
        "Ġexped": 5229,
        "Ġcreation": 5230,
        "Ġleader": 5231,
        "Ġ130": 5232,
        "ĠWilliams": 5233,
        "ĠMounted": 5234,
        "Ġgrowth": 5235,
        "Ġmaintained": 5236,
        "Ġpieces": 5237,
        "Ġfailure": 5238,
        "Ġdropped": 5239,
        "Ġsemi": 5240,
        "ĠAddition": 5241,
        "ĠMeanwhile": 5242,
        "Ġawards": 5243,
        "inity": 5244,
        "inary": 5245,
        "ena": 5246,
        "Ġfict": 5247,
        "Ġmob": 5248,
        "ĠAp": 5249,
        "ĠMatt": 5250,
        "ĠBas": 5251,
        "Ġgar": 5252,
        "ĠRos": 5253,
        "ĠDen": 5254,
        "ĠDutch": 5255,
        "unic": 5256,
        "rak": 5257,
        "ĠGard": 5258,
        "ĠLu": 5259,
        "ĠLuc": 5260,
        "Ġcompar": 5261,
        "Ġarrang": 5262,
        "Ġresemb": 5263,
        "Ġ57": 5264,
        "ĠAlbum": 5265,
        "hips": 5266,
        "Ġfilmed": 5267,
        "ĠLeg": 5268,
        "fully": 5269,
        "Ġguest": 5270,
        "Ġkilling": 5271,
        "Ġfreeway": 5272,
        "Ġpitched": 5273,
        "Ġhonor": 5274,
        "Ġflying": 5275,
        "Ġinjury": 5276,
        "Ġfederal": 5277,
        "ias": 5278,
        "Ã¶": 5279,
        "Ġtact": 5280,
        "Ġtask": 5281,
        "onom": 5282,
        "Ġsen": 5283,
        "Ġbit": 5284,
        "Ġmist": 5285,
        "ĠBost": 5286,
        "ĠDer": 5287,
        "ĠDis": 5288,
        "ĠDun": 5289,
        "ĠGh": 5290,
        "ĠNathan": 5291,
        "antly": 5292,
        "ieval": 5293,
        "ĠItaly": 5294,
        "Ġserve": 5295,
        "ampion": 5296,
        "Ġ600": 5297,
        "Ġactress": 5298,
        "Ġretired": 5299,
        "ashion": 5300,
        "Ġmatter": 5301,
        "ĠGuard": 5302,
        "Ġrestaur": 5303,
        "ĠAndy": 5304,
        "Ġbelief": 5305,
        "Ġhumans": 5306,
        "ĠAbu": 5307,
        "Ġspeak": 5308,
        "ĠSteve": 5309,
        "Ġboats": 5310,
        "Ġreligion": 5311,
        "Ġpromoted": 5312,
        "Ġvalue": 5313,
        "Ġmounted": 5314,
        "ĠMinister": 5315,
        "lusion": 5316,
        "ĠJeff": 5317,
        "Ġrapidly": 5318,
        "Ġbattery": 5319,
        "Ġweapons": 5320,
        "Ġhorses": 5321,
        "cription": 5322,
        "jo": 5323,
        "kin": 5324,
        "Ġut": 5325,
        "Ġselling": 5326,
        "Ġbid": 5327,
        "Ġbank": 5328,
        "roph": 5329,
        "iced": 5330,
        "Ġham": 5331,
        "ĠAst": 5332,
        "ĠCold": 5333,
        "ĠMod": 5334,
        "uli": 5335,
        "ĠLes": 5336,
        "ersey": 5337,
        "ager": 5338,
        "alls": 5339,
        "ieut": 5340,
        "Ġagricult": 5341,
        "Ġflank": 5342,
        "Ġcolumn": 5343,
        "ĠAmericans": 5344,
        "Ġdescription": 5345,
        "Ġinvasion": 5346,
        "ĠConference": 5347,
        "Ġpasses": 5348,
        "Ġpassing": 5349,
        "Ġpublication": 5350,
        "Ġprotest": 5351,
        "Ġcougar": 5352,
        "Ġsignificantly": 5353,
        "Ġpromotion": 5354,
        "Ġconnected": 5355,
        "Ġrecognized": 5356,
        "Ġcreating": 5357,
        "Ġmultiple": 5358,
        "Ġclean": 5359,
        "Ġpremi": 5360,
        "Ġaccompan": 5361,
        "Ġprepared": 5362,
        "cop": 5363,
        "fort": 5364,
        "han": 5365,
        "haps": 5366,
        "Äĩ": 5367,
        "rete": 5368,
        "render": 5369,
        "Ġsought": 5370,
        "itable": 5371,
        "Ġbats": 5372,
        "Ġmo": 5373,
        "Ġdata": 5374,
        "ĠMur": 5375,
        "ĠMem": 5376,
        "ĠFinal": 5377,
        "ĠWat": 5378,
        "ĠWork": 5379,
        "ĠInst": 5380,
        "Ġchose": 5381,
        "ĠVideo": 5382,
        "icks": 5383,
        "amese": 5384,
        "Ġstarts": 5385,
        "Ġfamous": 5386,
        "Ġdeliver": 5387,
        "Ġpopularity": 5388,
        "Ġproducers": 5389,
        "chers": 5390,
        "Ġvolume": 5391,
        "Ġwalls": 5392,
        "ĠSlam": 5393,
        "Ġregarded": 5394,
        "Ġstrengthen": 5395,
        "Ġreaction": 5396,
        "Ġsilver": 5397,
        "Ġaspects": 5398,
        "Ġnucleus": 5399,
        "Ġseventh": 5400,
        "Ġnecessary": 5401,
        "Ġscheduled": 5402,
        "ca": 5403,
        "hi": 5404,
        "load": 5405,
        "yth": 5406,
        "Ġdrop": 5407,
        "Ġreform": 5408,
        "ĠAri": 5409,
        "ĠCole": 5410,
        "Ġlaid": 5411,
        "lying": 5412,
        "olved": 5413,
        "ote": 5414,
        "Ġbeaut": 5415,
        "ĠGulf": 5416,
        "ĠLine": 5417,
        "ĠLiber": 5418,
        "Ġvirt": 5419,
        "Ġrise": 5420,
        "Ġrival": 5421,
        "Ġsend": 5422,
        "ogen": 5423,
        "Ġnews": 5424,
        "Ġ96": 5425,
        "Ġ1981": 5426,
        "Ġlanding": 5427,
        "heless": 5428,
        "Ġstrik": 5429,
        "ĠVietnamese": 5430,
        "Ġsustained": 5431,
        "Ġphilos": 5432,
        "hm": 5433,
        "och": 5434,
        "uan": 5435,
        "Ġouter": 5436,
        "Ġfat": 5437,
        "Ġfought": 5438,
        "Ġdated": 5439,
        "ĠSund": 5440,
        "standing": 5441,
        "ĠMu": 5442,
        "ĠHaven": 5443,
        "ĠNaz": 5444,
        "ĠObs": 5445,
        "ifying": 5446,
        "Ġspring": 5447,
        "ips": 5448,
        "ocked": 5449,
        "venue": 5450,
        "ĠAdv": 5451,
        "ĠUSA": 5452,
        "Ġreflect": 5453,
        "ĠPho": 5454,
        "Ġdrive": 5455,
        "ĠAmong": 5456,
        "Ġcastle": 5457,
        "Ġcurrently": 5458,
        "Ġemployed": 5459,
        "ĠCambod": 5460,
        "Äģda": 5461,
        "Ġfamilies": 5462,
        "ĠThunderbirds": 5463,
        "Ġbudget": 5464,
        "rum": 5465,
        "yt": 5466,
        "à¸": 5467,
        "Ġtree": 5468,
        "heastern": 5469,
        "ini": 5470,
        "onent": 5471,
        "Ġsave": 5472,
        "Ġpul": 5473,
        "Ġmort": 5474,
        "ĠAthlet": 5475,
        "add": 5476,
        "ivity": 5477,
        "iments": 5478,
        "ĠDomin": 5479,
        "ĠGirl": 5480,
        "Ġrating": 5481,
        "Ġexec": 5482,
        "Ġcontained": 5483,
        "Ġarms": 5484,
        "Ġrow": 5485,
        "Ġ700": 5486,
        "Ġunderground": 5487,
        "orney": 5488,
        "Ġends": 5489,
        "ologists": 5490,
        "hess": 5491,
        "insula": 5492,
        "Ġ179": 5493,
        "Ġphase": 5494,
        "Ġ1939": 5495,
        "Ġtrial": 5496,
        "Ġfacilities": 5497,
        "Ġfrequently": 5498,
        "ĠOxford": 5499,
        "ĠEntertainment": 5500,
        "TC": 5501,
        "ii": 5502,
        "lines": 5503,
        "rig": 5504,
        "sw": 5505,
        "Ġwed": 5506,
        "rog": 5507,
        "Ġdial": 5508,
        "ĠCa": 5509,
        "Ġla": 5510,
        "ĠHan": 5511,
        "Ġbey": 5512,
        "thur": 5513,
        "ĠDar": 5514,
        "unction": 5515,
        "ĠFre": 5516,
        "ĠFriend": 5517,
        "ĠFestival": 5518,
        "ĠGreg": 5519,
        "ĠNH": 5520,
        "ĠEll": 5521,
        "Ġexecutive": 5522,
        "sea": 5523,
        "iance": 5524,
        "aph": 5525,
        "Ġunus": 5526,
        "Ġcomputer": 5527,
        "Ġcontributed": 5528,
        "Ġarc": 5529,
        "Ġprefer": 5530,
        "Ġcollected": 5531,
        "Ġactors": 5532,
        "Ġexpress": 5533,
        "Ġ1942": 5534,
        "Ġsimple": 5535,
        "Ġallows": 5536,
        "Ġnegative": 5537,
        "borough": 5538,
        "ĠStudios": 5539,
        "Ġdegree": 5540,
        "ĠRevolution": 5541,
        "Ġbottom": 5542,
        "ĠGordon": 5543,
        "iable": 5544,
        "kins": 5545,
        "ridge": 5546,
        "Ġcited": 5547,
        "Ġcraft": 5548,
        "arian": 5549,
        "Ġhor": 5550,
        "ĠSus": 5551,
        "ĠChel": 5552,
        "ayer": 5553,
        "ĠRail": 5554,
        "unte": 5555,
        "ĠNBA": 5556,
        "Ġshaped": 5557,
        "sey": 5558,
        "ĠStep": 5559,
        "Ġsports": 5560,
        "Ġoverl": 5561,
        "angers": 5562,
        "Ġ61": 5563,
        "Ġ73": 5564,
        "Ġ95": 5565,
        "Ġopera": 5566,
        "Ġ1918": 5567,
        "Ġeffective": 5568,
        "Ġentirely": 5569,
        "Ġanimals": 5570,
        "ĠCoast": 5571,
        "Ġimproved": 5572,
        "Ġsubsequent": 5573,
        "ĠBetween": 5574,
        "ĠTurner": 5575,
        "ĠCrazy": 5576,
        "ĠPremier": 5577,
        "Ġfictional": 5578,
        "ieutenant": 5579,
        "Ġbeyond": 5580,
        "ez": 5581,
        "iot": 5582,
        "mission": 5583,
        "Ã¤": 5584,
        "arp": 5585,
        "Ġmig": 5586,
        "ĠBru": 5587,
        "Ġgain": 5588,
        "Ġgives": 5589,
        "ĠRel": 5590,
        "agement": 5591,
        "Ġnotable": 5592,
        "perial": 5593,
        "Ġrecently": 5594,
        "ĠAlf": 5595,
        "Ġ62": 5596,
        "Ġ97": 5597,
        "Ġ800": 5598,
        "ĠMario": 5599,
        "Ġtrain": 5600,
        "Ġ1968": 5601,
        "Ġ1969": 5602,
        "Ġextensive": 5603,
        "ancing": 5604,
        "ĠProv": 5605,
        "Ġvisual": 5606,
        "Ġmedical": 5607,
        "Ġfinding": 5608,
        "Ġmyth": 5609,
        "Ġboat": 5610,
        "Ġencoura": 5611,
        "ĠBoise": 5612,
        "Ġgradually": 5613,
        "ĠTurk": 5614,
        "ĠMartin": 5615,
        "Ġkilometres": 5616,
        "ĠToday": 5617,
        "ĠLewis": 5618,
        "ĠBoston": 5619,
        "chen": 5620,
        "iences": 5621,
        "rine": 5622,
        "Ġsail": 5623,
        "atus": 5624,
        "isy": 5625,
        "Ġbass": 5626,
        "rot": 5627,
        "Ġdates": 5628,
        "ĠCle": 5629,
        "ĠCub": 5630,
        "Ġegg": 5631,
        "eck": 5632,
        "lywood": 5633,
        "ĠBart": 5634,
        "Ġstages": 5635,
        "ĠRod": 5636,
        "ĠFox": 5637,
        "ules": 5638,
        "ĠJain": 5639,
        "Ġchair": 5640,
        "ĠKang": 5641,
        "ĠUN": 5642,
        "ĠStone": 5643,
        "ĠHead": 5644,
        "aret": 5645,
        "Ġfinals": 5646,
        "rence": 5647,
        "Ġfloor": 5648,
        "Ġmush": 5649,
        "Ġsecondary": 5650,
        "Ġsevere": 5651,
        "Ġexpanded": 5652,
        "Ġ1975": 5653,
        "ĠBridge": 5654,
        "Ġoccas": 5655,
        "ĠJuan": 5656,
        "ycle": 5657,
        "Ġserving": 5658,
        "Ġantimony": 5659,
        "ĠBarb": 5660,
        "Ġsurvey": 5661,
        "Ġprograms": 5662,
        "Ġglob": 5663,
        "ĠCrown": 5664,
        "ĠPeople": 5665,
        "ĠSystem": 5666,
        "ĠRussian": 5667,
        "Ã¡nh": 5668,
        "ĠDaniel": 5669,
        "eed": 5670,
        "iations": 5671,
        "yson": 5672,
        "eda": 5673,
        "itan": 5674,
        "Ġbow": 5675,
        "Ġbul": 5676,
        "lee": 5677,
        "ĠAer": 5678,
        "ĠIgu": 5679,
        "Ġgreen": 5680,
        "Ġitems": 5681,
        "Ġcomes": 5682,
        "opp": 5683,
        "illing": 5684,
        "Ġchur": 5685,
        "usted": 5686,
        "Ġunf": 5687,
        "Ġcomposition": 5688,
        "Ġarran": 5689,
        "outs": 5690,
        "Ġcenturies": 5691,
        "Ġ72": 5692,
        "Ġ85": 5693,
        "ansas": 5694,
        "Ġ1965": 5695,
        "Ġ1974": 5696,
        "ographic": 5697,
        "Ġexclus": 5698,
        "Ġfinds": 5699,
        "ĠEvita": 5700,
        "Ġjoin": 5701,
        "ĠMagazine": 5702,
        "Ġoccupied": 5703,
        "ĠBelg": 5704,
        "ĠUpon": 5705,
        "set": 5706,
        "thes": 5707,
        "uate": 5708,
        "erts": 5709,
        "Ġfaith": 5710,
        "Ġdaily": 5711,
        "ompl": 5712,
        "Ġnaval": 5713,
        "ĠMen": 5714,
        "ecess": 5715,
        "ĠBand": 5716,
        "ĠGab": 5717,
        "ĠJac": 5718,
        "ĠJud": 5719,
        "izations": 5720,
        "ublin": 5721,
        "Ġdecades": 5722,
        "Ġ81": 5723,
        "Ġsole": 5724,
        "ĠIsab": 5725,
        "ĠCommander": 5726,
        "Ġdeaths": 5727,
        "Ġsuccessfully": 5728,
        "Ġlosses": 5729,
        "ĠKhÃ¡nh": 5730,
        "ĠMacLe": 5731,
        "Ġnegot": 5732,
        "Ġtreatment": 5733,
        "Ġslowly": 5734,
        "Ġindependence": 5735,
        "Ġcalc": 5736,
        "Ġcommissioned": 5737,
        "Ġexperienced": 5738,
        "win": 5739,
        "Ġaer": 5740,
        "ĠAvenue": 5741,
        "ĠCD": 5742,
        "amy": 5743,
        "Ġeth": 5744,
        "ĠRome": 5745,
        "ĠFar": 5746,
        "istan": 5747,
        "Ġ71": 5748,
        "Ġ94": 5749,
        "Ġflag": 5750,
        "Ġcool": 5751,
        "Ġ164": 5752,
        "Ġdidn": 5753,
        "ĠProject": 5754,
        "Ġtrip": 5755,
        "Ġpersonnel": 5756,
        "Ġsentence": 5757,
        "Ġengaged": 5758,
        "Ġcaptain": 5759,
        "ĠSongs": 5760,
        "ĠJamal": 5761,
        "Ġpurchased": 5762,
        "Ġpolicy": 5763,
        "ĠLiu": 5764,
        "Ġbenef": 5765,
        "aire": 5766,
        "Å¡": 5767,
        "Ġlabor": 5768,
        "Ġeas": 5769,
        "ĠMot": 5770,
        "ĠBrian": 5771,
        "Ġstreet": 5772,
        "ĠPers": 5773,
        "Ġbeach": 5774,
        "ĠRol": 5775,
        "ĠDublin": 5776,
        "ĠGA": 5777,
        "anda": 5778,
        "ava": 5779,
        "Ġchorus": 5780,
        "Ġnothing": 5781,
        "ĠChart": 5782,
        "Ġaccompl": 5783,
        "Ġcoal": 5784,
        "anny": 5785,
        "ĠSha": 5786,
        "Ġsupply": 5787,
        "ĠScience": 5788,
        "Ġ160": 5789,
        "Ġconcrete": 5790,
        "Ġ1946": 5791,
        "Ġsouthwest": 5792,
        "Ġprotagon": 5793,
        "Ġworldwide": 5794,
        "Ġbegun": 5795,
        "Ġelimin": 5796,
        "Ġpropos": 5797,
        "Ġdeclined": 5798,
        "Ġreasons": 5799,
        "ategory": 5800,
        "Ġbriefly": 5801,
        "ĠTennyson": 5802,
        "ĠTemple": 5803,
        "ĠThroughout": 5804,
        "ĠDistrict": 5805,
        "Ġfresh": 5806,
        "ĠIguan": 5807,
        "town": 5808,
        "Ġtheat": 5809,
        "aton": 5810,
        "ingly": 5811,
        "ela": 5812,
        "Ġnor": 5813,
        "ĠMov": 5814,
        "ĠBull": 5815,
        "Ġgas": 5816,
        "iration": 5817,
        "uting": 5818,
        "utation": 5819,
        "ĠDown": 5820,
        "ĠIng": 5821,
        "Ġincident": 5822,
        "ĠAlso": 5823,
        "Ġmoves": 5824,
        "ĠLeon": 5825,
        "pring": 5826,
        "Ġleaders": 5827,
        "Ġdrawn": 5828,
        "ĠTrack": 5829,
        "Ġimportance": 5830,
        "Ġroads": 5831,
        "ĠSimone": 5832,
        "Ġsumm": 5833,
        "Ġescape": 5834,
        "ĠGovernor": 5835,
        "Ġnormal": 5836,
        "Ġplatform": 5837,
        "bo": 5838,
        "born": 5839,
        "Ġ#": 5840,
        "Ġtall": 5841,
        "Ġtend": 5842,
        "erc": 5843,
        "onic": 5844,
        "Ġwitness": 5845,
        "Ġpet": 5846,
        "Ġdance": 5847,
        "Ġhired": 5848,
        "amin": 5849,
        "ĠBern": 5850,
        "ĠBaby": 5851,
        "ĠRay": 5852,
        "Ġisol": 5853,
        "ĠJes": 5854,
        "Ġrac": 5855,
        "Ġplum": 5856,
        "quake": 5857,
        "Ġspons": 5858,
        "elli": 5859,
        "rug": 5860,
        "rupt": 5861,
        "Ġdecade": 5862,
        "ooking": 5863,
        "ĠMaria": 5864,
        "Ġflu": 5865,
        "Ġfoundation": 5866,
        "Ġlongest": 5867,
        "Ġ1966": 5868,
        "Ġ1952": 5869,
        "Ġguard": 5870,
        "Ġ1936": 5871,
        "ĠProduction": 5872,
        "Ġ1919": 5873,
        "Ġpossibility": 5874,
        "ĠBrook": 5875,
        "ĠTeam": 5876,
        "Ġdelay": 5877,
        "Ġarrival": 5878,
        "Ġchapter": 5879,
        "Ġbillion": 5880,
        "Ġparticipated": 5881,
        "Ġfirm": 5882,
        "Ġunsu": 5883,
        "ĠArea": 5884,
        "Ġenjoyed": 5885,
        "Ġresponded": 5886,
        "ĠFamily": 5887,
        "Ġpaintings": 5888,
        "respond": 5889,
        "ĠDevelopment": 5890,
        "Ġsenior": 5891,
        "Ġaccompanied": 5892,
        "ĠMacLeod": 5893,
        "30": 5894,
        "BS": 5895,
        "ls": 5896,
        "rons": 5897,
        "isers": 5898,
        "ĠBoard": 5899,
        "Ġstret": 5900,
        "ĠRow": 5901,
        "ĠRox": 5902,
        "ĠDream": 5903,
        "ĠFive": 5904,
        "osa": 5905,
        "Ġheard": 5906,
        "Ġring": 5907,
        "ichol": 5908,
        "ĠUlys": 5909,
        "ĠChains": 5910,
        "ĠAli": 5911,
        "ĠAlbert": 5912,
        "Ġjack": 5913,
        "ĠMarl": 5914,
        "Ġvert": 5915,
        "Ġsubs": 5916,
        "ifications": 5917,
        "Ġsetting": 5918,
        "Ġ110": 5919,
        "Ġ177": 5920,
        "Ġdeveloping": 5921,
        "ĠDev": 5922,
        "Ġoldest": 5923,
        "Ġparalle": 5924,
        "Äģn": 5925,
        "ÃŃa": 5926,
        "Ġsquad": 5927,
        "Ġagreement": 5928,
        "Ġdollar": 5929,
        "hetic": 5930,
        "Ġroughly": 5931,
        "ĠAdmir": 5932,
        "ĠSummer": 5933,
        "ĠUlysses": 5934,
        "OC": 5935,
        "chest": 5936,
        "oe": 5937,
        "Ġi": 5938,
        "ano": 5939,
        "Ġpal": 5940,
        "Ġdog": 5941,
        "ĠTim": 5942,
        "ĠBor": 5943,
        "ĠBond": 5944,
        "imet": 5945,
        "ĠWall": 5946,
        "ĠInt": 5947,
        "Ġchoice": 5948,
        "pty": 5949,
        "essed": 5950,
        "Ġ77": 5951,
        "Ġremn": 5952,
        "Ġconsists": 5953,
        "Ġdecre": 5954,
        "Ġaccident": 5955,
        "Ġcalls": 5956,
        "Ġtransit": 5957,
        "Ġadding": 5958,
        "Ġpopulations": 5959,
        "Ġemp": 5960,
        "Ġ1973": 5961,
        "ĠConst": 5962,
        "Ġlasted": 5963,
        "espread": 5964,
        "ĠPhill": 5965,
        "Ġtowns": 5966,
        "Ġcombination": 5967,
        "Ġtechnology": 5968,
        "Ġexistence": 5969,
        "Ġregarding": 5970,
        "Ġviolence": 5971,
        "Ġdominated": 5972,
        "Ġpoetry": 5973,
        "Ġsymbol": 5974,
        "ĠFrancisc": 5975,
        "Ġathletes": 5976,
        "ĠDougl": 5977,
        "ĠAnthony": 5978,
        "ĠInstead": 5979,
        "ĠTurkish": 5980,
        "aver": 5981,
        "come": 5982,
        "rant": 5983,
        "war": 5984,
        "Ġign": 5985,
        "itors": 5986,
        "Ġfellow": 5987,
        "ĠSk": 5988,
        "ĠTheatre": 5989,
        "ĠBishop": 5990,
        "usal": 5991,
        "Ġaltar": 5992,
        "Ġcomic": 5993,
        "Ġseat": 5994,
        "Ġnote": 5995,
        "Ġcontrib": 5996,
        "Ġreserv": 5997,
        "Ġ59": 5998,
        "ressive": 5999,
        "Ġcommittee": 6000,
        "ĠAnonymous": 6001,
        "Ġundert": 6002,
        "Ġfilming": 6003,
        "Ġassass": 6004,
        "Ġsubmar": 6005,
        "Ġacres": 6006,
        "Ġdoor": 6007,
        "Ġtrav": 6008,
        "Ġperforming": 6009,
        "Ġ1967": 6010,
        "ĠConn": 6011,
        "ructure": 6012,
        "ĠCarib": 6013,
        "Ġclubs": 6014,
        "Ġcompetitions": 6015,
        "ĠBraz": 6016,
        "Ġcollege": 6017,
        "Ġassociation": 6018,
        "Ġclosely": 6019,
        "ĠOde": 6020,
        "Ġexisting": 6021,
        "Ġapplied": 6022,
        "Ġhabitat": 6023,
        "ĠRadio": 6024,
        "Ġweakened": 6025,
        "ĠHornung": 6026,
        "Ġunsuccess": 6027,
        "vens": 6028,
        "Ġtrou": 6029,
        "Ġtells": 6030,
        "Ġfashion": 6031,
        "isf": 6032,
        "Ġps": 6033,
        "ĠAston": 6034,
        "ĠAML": 6035,
        "iling": 6036,
        "ĠBi": 6037,
        "ĠLife": 6038,
        "agre": 6039,
        "agle": 6040,
        "iston": 6041,
        "ĠKenn": 6042,
        "Ġreconst": 6043,
        "Ġroof": 6044,
        "Ġperhaps": 6045,
        "Ġdescend": 6046,
        "Ġ66": 6047,
        "Ġ98": 6048,
        "Ġtruth": 6049,
        "ĠMarc": 6050,
        "Ġneither": 6051,
        "Ġsubstant": 6052,
        "Ġ175": 6053,
        "Ġdistingu": 6054,
        "Ġprovides": 6055,
        "Ġ1914": 6056,
        "Ġbattalions": 6057,
        "Ġserves": 6058,
        "Ġcapable": 6059,
        "Ġgreatly": 6060,
        "Ġappeal": 6061,
        "ĠMountain": 6062,
        "Ġcorrect": 6063,
        "Ġcorrespond": 6064,
        "Ġlearned": 6065,
        "Ġpainting": 6066,
        "Ġarchaeological": 6067,
        "Ġderived": 6068,
        "Ġreinforce": 6069,
        "Ġpilot": 6070,
        "Ġdetails": 6071,
        "Ġpurpose": 6072,
        "Ġadministration": 6073,
        "Ġopportunity": 6074,
        "Ġceremony": 6075,
        "Ġoccasionally": 6076,
        "ĠCaribbe": 6077,
        "OT": 6078,
        "burg": 6079,
        "var": 6080,
        "ona": 6081,
        "Ġsom": 6082,
        "Ġsort": 6083,
        "Ġfilled": 6084,
        "Ġbought": 6085,
        "Ġhyp": 6086,
        "entially": 6087,
        "Ġthing": 6088,
        "Ġones": 6089,
        "ĠHon": 6090,
        "ĠDota": 6091,
        "rait": 6092,
        "ĠOh": 6093,
        "Ġsufficient": 6094,
        "ĠInc": 6095,
        "ĠStew": 6096,
        "ountain": 6097,
        "Ġsupposed": 6098,
        "Ġexpans": 6099,
        "Ġreceiving": 6100,
        "Ġinvited": 6101,
        "Ġheaded": 6102,
        "Ġeditor": 6103,
        "Ġprotection": 6104,
        "Ġstoryline": 6105,
        "ĠBroad": 6106,
        "Ġbasket": 6107,
        "Ġspeaking": 6108,
        "Ġskin": 6109,
        "Ġencounter": 6110,
        "Ġhousehold": 6111,
        "Ġtechnique": 6112,
        "Ġneck": 6113,
        "Ġinnings": 6114,
        "ĠArchae": 6115,
        "Ġvehicles": 6116,
        "Ġdissipated": 6117,
        "ĠChelsea": 6118,
        "Ġchurches": 6119,
        "ĠDouglas": 6120,
        "ĠCaribbean": 6121,
        "GN": 6122,
        "RE": 6123,
        "VN": 6124,
        "la": 6125,
        "Ġaim": 6126,
        "inj": 6127,
        "oral": 6128,
        "Ġcit": 6129,
        "Ġcra": 6130,
        "Ġcrop": 6131,
        "Ġdrew": 6132,
        "Ġhat": 6133,
        "Ġeu": 6134,
        "ĠMel": 6135,
        "uri": 6136,
        "ĠDet": 6137,
        "ĠLow": 6138,
        "ĠLieutenant": 6139,
        "ĠJay": 6140,
        "agn": 6141,
        "ĠERA": 6142,
        "Ġseg": 6143,
        "abil": 6144,
        "pton": 6145,
        "ĠVol": 6146,
        "Ġevac": 6147,
        "ropri": 6148,
        "ĠAsia": 6149,
        "Ġacid": 6150,
        "Ġgoes": 6151,
        "Ġreceive": 6152,
        "Ġ1945": 6153,
        "Ġ1971": 6154,
        "ĠWhat": 6155,
        "Ġanything": 6156,
        "Ġclassified": 6157,
        "Ġtypical": 6158,
        "Ġviewed": 6159,
        "ĠAbout": 6160,
        "ĠPerry": 6161,
        "Ġsurvived": 6162,
        "Ġislands": 6163,
        "iece": 6164,
        "Ġwidespread": 6165,
        "idden": 6166,
        "Ġmassive": 6167,
        "Ġmotion": 6168,
        "ĠCardinal": 6169,
        "Ġstopped": 6170,
        "ĠMaeda": 6171,
        "Ġdrama": 6172,
        "ĠGeorgian": 6173,
        "Ġsoutheast": 6174,
        "ĠFreder": 6175,
        "Ġastron": 6176,
        "ĠConstantine": 6177,
        "ĠHibari": 6178,
        "lik": 6179,
        "rist": 6180,
        "ruli": 6181,
        "tty": 6182,
        "ÅĤ": 6183,
        "Ġopt": 6184,
        "Ġfuel": 6185,
        "ĠAge": 6186,
        "ilton": 6187,
        "Ġload": 6188,
        "acity": 6189,
        "ĠMTV": 6190,
        "ola": 6191,
        "ĠHin": 6192,
        "ĠHard": 6193,
        "ĠRun": 6194,
        "ĠRio": 6195,
        "ĠRÃ©": 6196,
        "Ġwhy": 6197,
        "ĠWind": 6198,
        "opes": 6199,
        "ighter": 6200,
        "Ġcho": 6201,
        "ĠKil": 6202,
        "Ġshared": 6203,
        "apes": 6204,
        "iege": 6205,
        "Ġrob": 6206,
        "ĠYe": 6207,
        "iously": 6208,
        "Ġflights": 6209,
        "Ġsubt": 6210,
        "Ġsoft": 6211,
        "anned": 6212,
        "Ġ1982": 6213,
        "Ġ176": 6214,
        "Ġdistrict": 6215,
        "ĠQedar": 6216,
        "Ġ250": 6217,
        "ĠPrinc": 6218,
        "Ġauthors": 6219,
        "Ġiniti": 6220,
        "ĠRomani": 6221,
        "ĠSimon": 6222,
        "Ġsettlers": 6223,
        "Ġmissing": 6224,
        "glades": 6225,
        "ĠGolden": 6226,
        "Ġtrying": 6227,
        "Ġacquired": 6228,
        "Ġdigital": 6229,
        "Ġconverted": 6230,
        "Ġsafety": 6231,
        "ĠFantasy": 6232,
        "ibrary": 6233,
        "Ġrepeated": 6234,
        "cer": 6235,
        "vis": 6236,
        "Ġice": 6237,
        "inosaur": 6238,
        "Ġcab": 6239,
        "Ġdub": 6240,
        "stances": 6241,
        "Ġlin": 6242,
        "idges": 6243,
        "ivered": 6244,
        "ĠPatt": 6245,
        "ĠGil": 6246,
        "ĠGang": 6247,
        "ĠGram": 6248,
        "ĠJones": 6249,
        "rier": 6250,
        "iful": 6251,
        "Ġrich": 6252,
        "Ġchannel": 6253,
        "Ġexact": 6254,
        "ĠStadium": 6255,
        "Ġspacing": 6256,
        "Ġlegend": 6257,
        "Ġroutes": 6258,
        "mann": 6259,
        "Ġfinish": 6260,
        "ilding": 6261,
        "issance": 6262,
        "Ġlocations": 6263,
        "Ġ1976": 6264,
        "Ġ1956": 6265,
        "Ġ1913": 6266,
        "Ġ1916": 6267,
        "Ġexperiment": 6268,
        "reme": 6269,
        "Ġglass": 6270,
        "Ġwatched": 6271,
        "Ġholding": 6272,
        "Ġbaseball": 6273,
        "Ġrebu": 6274,
        "Ġfunding": 6275,
        "ĠMoz": 6276,
        "Ġfocused": 6277,
        "Ġplanning": 6278,
        "ĠOslo": 6279,
        "Ġdepicted": 6280,
        "ĠSurv": 6281,
        "ĠHoly": 6282,
        "Ġinstrument": 6283,
        "ĠHaiti": 6284,
        "Ġsucceeded": 6285,
        "Ġpermanent": 6286,
        "ĠVenus": 6287,
        "Ġopinion": 6288,
        "ĠShortly": 6289,
        "Ġatmosphere": 6290,
        "ĠPhoen": 6291,
        "Ġwedding": 6292,
        "Ġarranged": 6293,
        "ĠIguanodon": 6294,
        "ĠBrazil": 6295,
        "Ġurban": 6296,
        "Ġtable": 6297,
        "Ġwick": 6298,
        "Ġbowl": 6299,
        "anth": 6300,
        "Ġpack": 6301,
        "Ġmut": 6302,
        "ĠMah": 6303,
        "ĠFel": 6304,
        "ĠFire": 6305,
        "ĠGra": 6306,
        "ĠLenn": 6307,
        "Ġchance": 6308,
        "ĠKat": 6309,
        "apers": 6310,
        "Ġresident": 6311,
        "Ġrose": 6312,
        "Ġoverse": 6313,
        "Ġknew": 6314,
        "Ġdecline": 6315,
        "ĠArts": 6316,
        "oba": 6317,
        "Ġcharter": 6318,
        "Ġassemb": 6319,
        "Ġdefined": 6320,
        "Ġ112": 6321,
        "Ġ1943": 6322,
        "Ġrevolution": 6323,
        "Ġproviding": 6324,
        "ĠAllied": 6325,
        "Ġprotect": 6326,
        "Ġreality": 6327,
        "ĠSimilar": 6328,
        "Ġcreator": 6329,
        "Ġpenalty": 6330,
        "Ġearthquake": 6331,
        "Ġrif": 6332,
        "Ġcredited": 6333,
        "ĠSecretary": 6334,
        "LI": 6335,
        "pass": 6336,
        "Ġtied": 6337,
        "Ġsun": 6338,
        "Ġwins": 6339,
        "Ġdating": 6340,
        "ĠSnow": 6341,
        "uration": 6342,
        "ĠBul": 6343,
        "ĠIGN": 6344,
        "ĠHell": 6345,
        "ĠHomer": 6346,
        "ĠRangers": 6347,
        "ĠGully": 6348,
        "Ġrub": 6349,
        "ĠChronic": 6350,
        "Ġpregn": 6351,
        "formation": 6352,
        "Ġ87": 6353,
        "Ġsupplies": 6354,
        "Ġ1963": 6355,
        "Ġdownload": 6356,
        "Ã©t": 6357,
        "Ġairport": 6358,
        "Ġmoder": 6359,
        "Ġheads": 6360,
        "Ġways": 6361,
        "Ġexplos": 6362,
        "ĠAbb": 6363,
        "Ġdelivered": 6364,
        "ĠStevens": 6365,
        "Ġlaws": 6366,
        "Ġtechnical": 6367,
        "ĠMorrison": 6368,
        "Ġseparated": 6369,
        "Ġrenamed": 6370,
        "ĠEverglades": 6371,
        "evo": 6372,
        "Ġthousands": 6373,
        "ĠAdditionally": 6374,
        "ĠHindu": 6375,
        "SB": 6376,
        "crib": 6377,
        "gÃ©": 6378,
        "hat": 6379,
        "min": 6380,
        "Ġsan": 6381,
        "Ġfair": 6382,
        "Ġdry": 6383,
        "ĠTop": 6384,
        "ĠSound": 6385,
        "ador": 6386,
        "Ġgal": 6387,
        "Ġrural": 6388,
        "Ġselect": 6389,
        "essing": 6390,
        "ears": 6391,
        "ĠUTC": 6392,
        "ube": 6393,
        "okes": 6394,
        "Ġenl": 6395,
        "Ġteaching": 6396,
        "issipp": 6397,
        "Ġsecure": 6398,
        "attle": 6399,
        "ĠArthur": 6400,
        "Ġcolour": 6401,
        "Ġregime": 6402,
        "Ġemperor": 6403,
        "ĠCommittee": 6404,
        "ĠAustralians": 6405,
        "Ġturning": 6406,
        "Ġcommanded": 6407,
        "Ġopposition": 6408,
        "ivalent": 6409,
        "Ġcourts": 6410,
        "Ġsurviv": 6411,
        "ĠMississipp": 6412,
        "Ġcertified": 6413,
        "ipping": 6414,
        "ĠWalter": 6415,
        "Ġeyes": 6416,
        "Ġassistance": 6417,
        "Ġremainder": 6418,
        "ĠHollywood": 6419,
        "Ġjourney": 6420,
        "Ġindicate": 6421,
        "Ġconsisting": 6422,
        "ĠBradford": 6423,
        "ĠAlexander": 6424,
        "ĠOffice": 6425,
        "Ġpowers": 6426,
        "ĠColumbia": 6427,
        "ĠTruj": 6428,
        "ĠSunday": 6429,
        "ĠFriends": 6430,
        "oh": 6431,
        "Ġaware": 6432,
        "erted": 6433,
        "rell": 6434,
        "Ġcard": 6435,
        "Ġpup": 6436,
        "Ġdrug": 6437,
        "Ġharm": 6438,
        "ĠTel": 6439,
        "ĠCop": 6440,
        "Ġlit": 6441,
        "Ġlov": 6442,
        "ĠMul": 6443,
        "ĠPu": 6444,
        "ĠRon": 6445,
        "ĠNative": 6446,
        "estone": 6447,
        "opher": 6448,
        "Ġsud": 6449,
        "ardo": 6450,
        "aked": 6451,
        "Ġimpr": 6452,
        "Ġattached": 6453,
        "ĠMarine": 6454,
        "Ġquite": 6455,
        "Ġhighlight": 6456,
        "Ġnoisy": 6457,
        "Ġsurrender": 6458,
        "Ġaddress": 6459,
        "Ġ1978": 6460,
        "Ġdisturb": 6461,
        "Ġoccurs": 6462,
        "Ġ1953": 6463,
        "Ġcamps": 6464,
        "Ġturns": 6465,
        "Ġviews": 6466,
        "Ġreferences": 6467,
        "Ġvalley": 6468,
        "ĠMaryland": 6469,
        "ĠMontana": 6470,
        "Ġeconomy": 6471,
        "Ġestablishment": 6472,
        "ĠCroatian": 6473,
        "ĠDemocr": 6474,
        "ĠCritical": 6475,
        "ĠDirector": 6476,
        "Ġhydro": 6477,
        "ĠTrujillo": 6478,
        "dal": 6479,
        "ients": 6480,
        "nest": 6481,
        "rin": 6482,
        "ture": 6483,
        "ĪĴ": 6484,
        "Ġfan": 6485,
        "Ġbranch": 6486,
        "ĠSav": 6487,
        "entions": 6488,
        "ĠML": 6489,
        "ĠMid": 6490,
        "ĠMaster": 6491,
        "othes": 6492,
        "Ġstore": 6493,
        "ĠDom": 6494,
        "ĠFish": 6495,
        "uma": 6496,
        "agues": 6497,
        "Ġpros": 6498,
        "Ġvic": 6499,
        "ewhere": 6500,
        "ĠâĪĴ": 6501,
        "Ġleaves": 6502,
        "Ġresist": 6503,
        "ĠAlan": 6504,
        "Ġfinishing": 6505,
        "ĠAnton": 6506,
        "icted": 6507,
        "Ġinterior": 6508,
        "itsune": 6509,
        "Ġmonarch": 6510,
        "Ġstudied": 6511,
        "Ġreputation": 6512,
        "Ġleads": 6513,
        "Ġdistribution": 6514,
        "ception": 6515,
        "Ġsuccessor": 6516,
        "Ġreplace": 6517,
        "ĠStef": 6518,
        "ĠExp": 6519,
        "Ġproducing": 6520,
        "Ġcircum": 6521,
        "Ġmissions": 6522,
        "Ġdenied": 6523,
        "Ġimmig": 6524,
        "Ġshooting": 6525,
        "Ġadapted": 6526,
        "Ġmethods": 6527,
        "Ġpuzz": 6528,
        "ĠCharlie": 6529,
        "ĠEngineer": 6530,
        "Ġportrayed": 6531,
        "ĠStephen": 6532,
        "ĠRoxas": 6533,
        "ĠMississippi": 6534,
        "bur": 6535,
        "break": 6536,
        "iÄĩ": 6537,
        "rations": 6538,
        "Ã¸": 6539,
        "real": 6540,
        "Ġworth": 6541,
        "Ġfranch": 6542,
        "Ġbaby": 6543,
        "ĠSap": 6544,
        "Ġlic": 6545,
        "Ġlane": 6546,
        "ĠHug": 6547,
        "ĠPress": 6548,
        "ĠDi": 6549,
        "ĠFlow": 6550,
        "ĠNBC": 6551,
        "rien": 6552,
        "ĠEdu": 6553,
        "aka": 6554,
        "onder": 6555,
        "Ġoffense": 6556,
        "Ġprey": 6557,
        "Ġupd": 6558,
        "Ġ69": 6559,
        "Ġgameplay": 6560,
        "Ġentry": 6561,
        "Ġentering": 6562,
        "Ġobt": 6563,
        "ĠPlunk": 6564,
        "Ġcharacteristics": 6565,
        "Ġ1915": 6566,
        "Ġprotected": 6567,
        "ĠRecording": 6568,
        "Ġwindow": 6569,
        "ĠWithin": 6570,
        "Ġpolitics": 6571,
        "Ġcrime": 6572,
        "Ġgetting": 6573,
        "ĠActivision": 6574,
        "Ġmotor": 6575,
        "Ġmaintain": 6576,
        "ĠHoward": 6577,
        "senal": 6578,
        "ĠSamuel": 6579,
        "Ġworst": 6580,
        "Ġintelligence": 6581,
        "Ġdismissed": 6582,
        "aug": 6583,
        "kh": 6584,
        "ni": 6585,
        "ns": 6586,
        "Ġtell": 6587,
        "inals": 6588,
        "orer": 6589,
        "orters": 6590,
        "Ġcry": 6591,
        "Ġcrown": 6592,
        "Ġpound": 6593,
        "Ġtomb": 6594,
        "Ġdie": 6595,
        "elve": 6596,
        "amber": 6597,
        "acent": 6598,
        "otes": 6599,
        "Ġstones": 6600,
        "ĠRidge": 6601,
        "ĠDNA": 6602,
        "ĠWy": 6603,
        "ĠLoc": 6604,
        "ĠNether": 6605,
        "ctions": 6606,
        "Ġvon": 6607,
        "Ġru": 6608,
        "Ġexerc": 6609,
        "ĠKel": 6610,
        "Ġnoting": 6611,
        "ender": 6612,
        "Ġresour": 6613,
        "Ġjoint": 6614,
        "Ġattributed": 6615,
        "Ġshel": 6616,
        "Ġknots": 6617,
        "ĠMarsh": 6618,
        "Ġcharges": 6619,
        "Ġretire": 6620,
        "Ġmonument": 6621,
        "Ġclasses": 6622,
        "Ġcapacity": 6623,
        "Ġbasin": 6624,
        "Ġelectric": 6625,
        "Ġnovels": 6626,
        "Ġhistoric": 6627,
        "ĠEliz": 6628,
        "Ġcharts": 6629,
        "Ġintroduction": 6630,
        "Ġinterested": 6631,
        "ĠCalvert": 6632,
        "Ġholds": 6633,
        "Ġdollars": 6634,
        "Ġdiscussed": 6635,
        "Ġphilosoph": 6636,
        "Ġmushroom": 6637,
        "ĠIsabella": 6638,
        "eenth": 6639,
        "gie": 6640,
        "wise": 6641,
        "Ġsector": 6642,
        "itage": 6643,
        "itled": 6644,
        "Ġcinem": 6645,
        "Ġfer": 6646,
        "ĠTs": 6647,
        "ĠTrib": 6648,
        "ĠCam": 6649,
        "ĠBos": 6650,
        "ĠPope": 6651,
        "ĠDanny": 6652,
        "ĠWalk": 6653,
        "osis": 6654,
        "osure": 6655,
        "ĠJersey": 6656,
        "Ġvan": 6657,
        "Ġvary": 6658,
        "Ġvision": 6659,
        "ĠStrand": 6660,
        "Ġcontest": 6661,
        "Ġagent": 6662,
        "Ġoffers": 6663,
        "ĠYank": 6664,
        "angerous": 6665,
        "Ġ74": 6666,
        "Ġ79": 6667,
        "aws": 6668,
        "Ġ91": 6669,
        "Ġpublisher": 6670,
        "Ġsym": 6671,
        "ajevo": 6672,
        "Ġ1948": 6673,
        "Ġdescribing": 6674,
        "Ġgeneration": 6675,
        "Ġappearing": 6676,
        "Ġ1917": 6677,
        "Ġmedieval": 6678,
        "Ġfields": 6679,
        "Ġsolid": 6680,
        "Ġstatement": 6681,
        "Ġ1890": 6682,
        "Ġpitch": 6683,
        "Ġcoastal": 6684,
        "Ġpredecess": 6685,
        "Ġaccounts": 6686,
        "Ġruled": 6687,
        "Ġrules": 6688,
        "Ġtribes": 6689,
        "Ġchapel": 6690,
        "ĠResear": 6691,
        "Ġcolonial": 6692,
        "Ġrhyth": 6693,
        "ĠSarajevo": 6694,
        "ĠWeekly": 6695,
        "ĠLisa": 6696,
        "Ġyounger": 6697,
        "ĠIndustry": 6698,
        "bles": 6699,
        "ef": 6700,
        "gra": 6701,
        "water": 6702,
        "rets": 6703,
        "Ġcaught": 6704,
        "Ġbond": 6705,
        "Ġinner": 6706,
        "Ġhope": 6707,
        "ĠSa": 6708,
        "ĠSor": 6709,
        "iders": 6710,
        "ivals": 6711,
        "ĠHere": 6712,
        "ĠDaily": 6713,
        "ĠWars": 6714,
        "ĠJif": 6715,
        "ateur": 6716,
        "Ġplants": 6717,
        "Ġkings": 6718,
        "Ġunn": 6719,
        "Ġarts": 6720,
        "Ġmanner": 6721,
        "Ġdesire": 6722,
        "intend": 6723,
        "Ġ88": 6724,
        "Ġreleg": 6725,
        "Ġsoil": 6726,
        "Ġsomeone": 6727,
        "Ġ1979": 6728,
        "Ġinstruct": 6729,
        "Ġ1951": 6730,
        "ĠOrgan": 6731,
        "engers": 6732,
        "Ġbasic": 6733,
        "Ġeverything": 6734,
        "Ġdiscovery": 6735,
        "Ġdifficulty": 6736,
        "offman": 6737,
        "Ġrecognition": 6738,
        "Ġzone": 6739,
        "Ġsynthes": 6740,
        "Ġexception": 6741,
        "Ġapart": 6742,
        "Ġforests": 6743,
        "ĠCampb": 6744,
        "Ġrarely": 6745,
        "Ġconsiderable": 6746,
        "ĠVictoria": 6747,
        "Ġemotional": 6748,
        "Ġninth": 6749,
        "ĠDestiny": 6750,
        "Ġarticle": 6751,
        "Ġrestaurant": 6752,
        "Ġeurop": 6753,
        "ĠFrederick": 6754,
        "ĠYankovic": 6755,
        "20": 6756,
        "Ã§": 6757,
        "Ġur": 6758,
        "Ġtaught": 6759,
        "Ġworship": 6760,
        "Ġcold": 6761,
        "ician": 6762,
        "Ġmine": 6763,
        "Ġmunic": 6764,
        "Ġha": 6765,
        "Ġhill": 6766,
        "Ġhall": 6767,
        "ĠAround": 6768,
        "ĠChen": 6769,
        "aments": 6770,
        "Ġnob": 6771,
        "Ġgall": 6772,
        "igades": 6773,
        "using": 6774,
        "ĠRem": 6775,
        "union": 6776,
        "ĠFair": 6777,
        "ĠElect": 6778,
        "ĠInit": 6779,
        "ables": 6780,
        "abeth": 6781,
        "Ġshore": 6782,
        "ultane": 6783,
        "Ġwealth": 6784,
        "ĠLee": 6785,
        "ĠJoe": 6786,
        "Ġ121": 6787,
        "Ġ1961": 6788,
        "Ġlanded": 6789,
        "Ġ1954": 6790,
        "Ġevening": 6791,
        "Ġopponents": 6792,
        "Ġreplacement": 6793,
        "ĠTelevision": 6794,
        "Ġinvolvement": 6795,
        "Ġsettle": 6796,
        "graded": 6797,
        "Ġvolunte": 6798,
        "Ġnomination": 6799,
        "Ġspecifically": 6800,
        "Ġwooden": 6801,
        "ĠTransport": 6802,
        "Ġhotel": 6803,
        "ĠSomali": 6804,
        "ĠClarkson": 6805,
        "Ġthirty": 6806,
        "ĠRolling": 6807,
        "ĠMozamb": 6808,
        "Ġsudden": 6809,
        "AC": 6810,
        "Brien": 6811,
        "eper": 6812,
        "iÅ": 6813,
        "iary": 6814,
        "lan": 6815,
        "yles": 6816,
        "Ġtal": 6817,
        "Ġtie": 6818,
        "reets": 6819,
        "atures": 6820,
        "orous": 6821,
        "Ġfish": 6822,
        "Ġbal": 6823,
        "ingale": 6824,
        "leep": 6825,
        "ĠAR": 6826,
        "ĠSi": 6827,
        "ĠSanta": 6828,
        "ĠSpring": 6829,
        "eless": 6830,
        "Ġstream": 6831,
        "verse": 6832,
        "ceived": 6833,
        "ĠDA": 6834,
        "ĠFame": 6835,
        "Ġconsequ": 6836,
        "ĠLords": 6837,
        "istol": 6838,
        "avia": 6839,
        "Ġleuk": 6840,
        "Ġju": 6841,
        "Ġjazz": 6842,
        "ĠYan": 6843,
        "ropol": 6844,
        "Ġsecured": 6845,
        "ĠAsh": 6846,
        "Ġ99": 6847,
        "Ġaccur": 6848,
        "ĠLev": 6849,
        "inking": 6850,
        "Ġcarbon": 6851,
        "Ġ1937": 6852,
        "ĠMuslim": 6853,
        "Ġbelieves": 6854,
        "ĠOrder": 6855,
        "Ġcommunities": 6856,
        "ĠSimps": 6857,
        "Ġdivine": 6858,
        "ĠRoberts": 6859,
        "Ġpoems": 6860,
        "aska": 6861,
        "ĠDuke": 6862,
        "Ġindustrial": 6863,
        "Ġveget": 6864,
        "ĠSingles": 6865,
        "ĠJerusal": 6866,
        "Ġintersection": 6867,
        "ĠCastle": 6868,
        "Ġpicked": 6869,
        "Ġcontroversy": 6870,
        "ranean": 6871,
        "ĠWilde": 6872,
        "Ġrecommended": 6873,
        "Ġsplit": 6874,
        "ĠColonel": 6875,
        "Ġfungus": 6876,
        "ĠSkye": 6877,
        "ĠBono": 6878,
        "ĠModern": 6879,
        "ĠFrancisco": 6880,
        "ĠJifna": 6881,
        "ĠSimpsons": 6882,
        "ĠJerusalem": 6883,
        "ban": 6884,
        "rast": 6885,
        "theless": 6886,
        "va": 6887,
        "á»": 6888,
        "Ġic": 6889,
        "Ġsed": 6890,
        "Ġsoul": 6891,
        "Ġwrong": 6892,
        "Ġfit": 6893,
        "Ġfaces": 6894,
        "Ġdim": 6895,
        "Ġdock": 6896,
        "ĠCab": 6897,
        "ĠCory": 6898,
        "ussion": 6899,
        "ĠRif": 6900,
        "ĠDur": 6901,
        "ĠWin": 6902,
        "Ġconvers": 6903,
        "ĠNap": 6904,
        "ĠNick": 6905,
        "ĠJun": 6906,
        "agu": 6907,
        "Ġvide": 6908,
        "allow": 6909,
        "ipe": 6910,
        "Ġwhereas": 6911,
        "ĠShak": 6912,
        "rows": 6913,
        "Ġdepend": 6914,
        "Ġleadership": 6915,
        "Ġsigning": 6916,
        "ĠCarter": 6917,
        "ĠPlot": 6918,
        "Ġ1955": 6919,
        "Ġstrateg": 6920,
        "Ġorganizations": 6921,
        "iveness": 6922,
        "ĠPrime": 6923,
        "Ġlegs": 6924,
        "Ġstandards": 6925,
        "ĠHamilton": 6926,
        "Ġmissed": 6927,
        "Ġdrawing": 6928,
        "Ġlaunch": 6929,
        "ĠÃĹ": 6930,
        "Ġabsor": 6931,
        "ĠOlympics": 6932,
        "Ġconcerns": 6933,
        "ĠMilitary": 6934,
        "Ġscholar": 6935,
        "Ġprincipal": 6936,
        "ĠHuman": 6937,
        "Ġextremely": 6938,
        "Ġspecimens": 6939,
        "ĠAdams": 6940,
        "ĠIndependent": 6941,
        "ĠArgentina": 6942,
        "cape": 6943,
        "ext": 6944,
        "iar": 6945,
        "pective": 6946,
        "onica": 6947,
        "rec": 6948,
        "Ġske": 6949,
        "Ġsession": 6950,
        "Ġbes": 6951,
        "Ġble": 6952,
        "ĠAD": 6953,
        "ĠSand": 6954,
        "adow": 6955,
        "iday": 6956,
        "imal": 6957,
        "ĠPan": 6958,
        "ĠPul": 6959,
        "ĠPower": 6960,
        "Ġconference": 6961,
        "Ġ1900": 6962,
        "Ġexisted": 6963,
        "Ġyouth": 6964,
        "Ġparties": 6965,
        "wealth": 6966,
        "Ġteeth": 6967,
        "ĠAnc": 6968,
        "Ġ89": 6969,
        "Ġmuscar": 6970,
        "Ġindig": 6971,
        "Ġminister": 6972,
        "Ġshowing": 6973,
        "iversary": 6974,
        "Ġdistributed": 6975,
        "Ġwarm": 6976,
        "Ġ1958": 6977,
        "ĠForces": 6978,
        "ĠBeach": 6979,
        "Ġtries": 6980,
        "Ġapproached": 6981,
        "Ġdemol": 6982,
        "ĠEarl": 6983,
        "Ġspeech": 6984,
        "Ġconnection": 6985,
        "Ġrelationships": 6986,
        "Ġtreaty": 6987,
        "Ġthreatened": 6988,
        "Ġgrav": 6989,
        "Ġsurrounded": 6990,
        "Ġemerged": 6991,
        "Ġchemical": 6992,
        "ĠWriting": 6993,
        "Ġdiameter": 6994,
        "ĠBanai": 6995,
        "Ġpsych": 6996,
        "Ġeuropium": 6997,
        "CA": 6998,
        "bie": 6999,
        "eor": 7000,
        "nes": 7001,
        "point": 7002,
        "Ġib": 7003,
        "edom": 7004,
        "Ġoption": 7005,
        "Ġwants": 7006,
        "organ": 7007,
        "itals": 7008,
        "Ġcorp": 7009,
        "Ġfal": 7010,
        "Ġfle": 7011,
        "inger": 7012,
        "Ġpage": 7013,
        "Ġmart": 7014,
        "Ġrect": 7015,
        "ĠCE": 7016,
        "amm": 7017,
        "ĠBank": 7018,
        "ĠIV": 7019,
        "ĠIron": 7020,
        "ĠHung": 7021,
        "Ġstem": 7022,
        "utt": 7023,
        "ĠPoint": 7024,
        "ĠDisc": 7025,
        "Ġalien": 7026,
        "cho": 7027,
        "ĠWW": 7028,
        "Ġcong": 7029,
        "uda": 7030,
        "oca": 7031,
        "Ġshark": 7032,
        "ĠChief": 7033,
        "Ġintention": 7034,
        "Ġpartial": 7035,
        "Ġoverw": 7036,
        "Ġdecor": 7037,
        "Ġdepartment": 7038,
        "Ġ1949": 7039,
        "Ġ1977": 7040,
        "Ġbright": 7041,
        "Ġpointed": 7042,
        "aurus": 7043,
        "Ġoppos": 7044,
        "Ġhistorians": 7045,
        "Ġadmitted": 7046,
        "Ġseeing": 7047,
        "Ġfacing": 7048,
        "Ġcrossed": 7049,
        "Ġregularly": 7050,
        "ĠDepression": 7051,
        "Ġrailway": 7052,
        "Ġimmediate": 7053,
        "Ġfiring": 7054,
        "Ġfavorite": 7055,
        "Ġhoped": 7056,
        "Ġdocumentary": 7057,
        "Ġconstitution": 7058,
        "Ġinstitutions": 7059,
        "Ġalternative": 7060,
        "Ġlbw": 7061,
        "Ġratings": 7062,
        "ĠNorman": 7063,
        "ĠRyan": 7064,
        "ĠRoger": 7065,
        "Ġexpedition": 7066,
        "Ġunusual": 7067,
        "Ġisolated": 7068,
        "Ġexpansion": 7069,
        "Ġcitiz": 7070,
        "ĠLennon": 7071,
        "ba": 7072,
        "iour": 7073,
        "ooth": 7074,
        "sch": 7075,
        "wich": 7076,
        "zen": 7077,
        "à¤": 7078,
        "Ġsulf": 7079,
        "Ġinland": 7080,
        "ĠAld": 7081,
        "Ġlap": 7082,
        "Ġeighth": 7083,
        "Ġgather": 7084,
        "uses": 7085,
        "usad": 7086,
        "aya": 7087,
        "ĠPerson": 7088,
        "ĠDesc": 7089,
        "eman": 7090,
        "emia": 7091,
        "ĠFern": 7092,
        "ĠFras": 7093,
        "ĠGoffman": 7094,
        "Ġchampion": 7095,
        "Ġrecre": 7096,
        "ĠUnlike": 7097,
        "formed": 7098,
        "Ġconsum": 7099,
        "Ġflo": 7100,
        "Ġregional": 7101,
        "Ġassumed": 7102,
        "Ġ07": 7103,
        "ledon": 7104,
        "Ġowner": 7105,
        "Ġdesignation": 7106,
        "ossible": 7107,
        "Ġanniversary": 7108,
        "ĠHergÃ©": 7109,
        "Ġprotests": 7110,
        "Ġbreaking": 7111,
        "Ġreviewer": 7112,
        "Ġmarks": 7113,
        "Ġstrongly": 7114,
        "Ġchanging": 7115,
        "spec": 7116,
        "ombat": 7117,
        "Ġwatch": 7118,
        "Ġdestroyers": 7119,
        "ÃŃvar": 7120,
        "Ġtreated": 7121,
        "Ġlanguages": 7122,
        "Ġsequel": 7123,
        "Ġliterary": 7124,
        "ĠTerrit": 7125,
        "Ġancest": 7126,
        "ĠRhodes": 7127,
        "Ġexamples": 7128,
        "Ġbringing": 7129,
        "ĠJaneiro": 7130,
        "Ġwatershed": 7131,
        "ĠBolÃŃvar": 7132,
        "Ġinhabit": 7133,
        "Ġmessage": 7134,
        "Ġromantic": 7135,
        "Ġduties": 7136,
        "Ġprotagonist": 7137,
        "ĠKilmer": 7138,
        "Ġfranchise": 7139,
        "ĠSaprang": 7140,
        "nell": 7141,
        "rates": 7142,
        "worth": 7143,
        "inet": 7144,
        "erog": 7145,
        "Ġsections": 7146,
        "Ġwinner": 7147,
        "ĠTest": 7148,
        "ĠTower": 7149,
        "sta": 7150,
        "ĠMand": 7151,
        "ĠBal": 7152,
        "ĠBall": 7153,
        "ĠBase": 7154,
        "ĠBert": 7155,
        "eton": 7156,
        "otic": 7157,
        "Ġstadium": 7158,
        "ĠPA": 7159,
        "ĠPine": 7160,
        "ĠWimb": 7161,
        "rapped": 7162,
        "ĠLanc": 7163,
        "Ġorchest": 7164,
        "ockey": 7165,
        "ĠKit": 7166,
        "ĠStation": 7167,
        "ĠStory": 7168,
        "ĠStock": 7169,
        "ogether": 7170,
        "ĠHearts": 7171,
        "Ġaged": 7172,
        "Ġoutf": 7173,
        "Ġ63": 7174,
        "Ġ93": 7175,
        "Ġmeets": 7176,
        "Ġretreat": 7177,
        "Ġindicated": 7178,
        "Ġ06": 7179,
        "ekÄģn": 7180,
        "Ġ1983": 7181,
        "Ġcrest": 7182,
        "ĠGerard": 7183,
        "Ġairline": 7184,
        "ĠColor": 7185,
        "Ġ1910": 7186,
        "ĠGuy": 7187,
        "Ġdetailed": 7188,
        "Ġapproved": 7189,
        "istered": 7190,
        "encies": 7191,
        "Ġgenre": 7192,
        "Ġcoup": 7193,
        "Ġimprove": 7194,
        "Ġengineering": 7195,
        "Ġgrey": 7196,
        "ĠSquare": 7197,
        "Ġcompletion": 7198,
        "ĠLawton": 7199,
        "ĠJean": 7200,
        "Ġattracted": 7201,
        "ĠBCE": 7202,
        "ĠGeorgia": 7203,
        "onnaissance": 7204,
        "Ġwearing": 7205,
        "Ġspecimen": 7206,
        "ĠBurns": 7207,
        "Ġrescue": 7208,
        "ĠJournal": 7209,
        "Ġacademic": 7210,
        "Ġeggs": 7211,
        "Ġeasily": 7212,
        "ĠResearch": 7213,
        "ĠWimbledon": 7214,
        "how": 7215,
        "know": 7216,
        "ois": 7217,
        "Ġsam": 7218,
        "Ġsell": 7219,
        "Ġocean": 7220,
        "Ġcul": 7221,
        "Ġbay": 7222,
        "Ġpric": 7223,
        "lets": 7224,
        "ĠSher": 7225,
        "ĠCru": 7226,
        "ĠCook": 7227,
        "ĠCorn": 7228,
        "Ġlob": 7229,
        "ĠBass": 7230,
        "igation": 7231,
        "Ġstreak": 7232,
        "ĠRaj": 7233,
        "ĠWolf": 7234,
        "Ġconqu": 7235,
        "osm": 7236,
        "ĠNeb": 7237,
        "aga": 7238,
        "agas": 7239,
        "ĠOffic": 7240,
        "Ġproport": 7241,
        "ppet": 7242,
        "Ġshif": 7243,
        "Ġspaces": 7244,
        "oked": 7245,
        "Ġcloud": 7246,
        "range": 7247,
        "ĠThird": 7248,
        "Ġpreced": 7249,
        "Ġflat": 7250,
        "Ġaccused": 7251,
        "Ġinterchange": 7252,
        "Ġcoord": 7253,
        "Ġacknow": 7254,
        "Ġdepos": 7255,
        "ĠConc": 7256,
        "Ġimplement": 7257,
        "Ġstarling": 7258,
        "Ġattempting": 7259,
        "Ġmedium": 7260,
        "Ġterminus": 7261,
        "Ġeffectively": 7262,
        "ĠXe": 7263,
        "Ġsurviving": 7264,
        "Ġequal": 7265,
        "Ġreading": 7266,
        "Ġcatch": 7267,
        "Ġlooked": 7268,
        "Ġsettled": 7269,
        "Ġinspiration": 7270,
        "Ġtraveled": 7271,
        "Ġpractices": 7272,
        "Ġterritories": 7273,
        "Ġcivilian": 7274,
        "ĠRichardson": 7275,
        "Ġfeeling": 7276,
        "Ġassistant": 7277,
        "Ġhappy": 7278,
        "ĠCambridge": 7279,
        "Ġrhym": 7280,
        "Ġchallenge": 7281,
        "ĠSomalia": 7282,
        "ĠAttorney": 7283,
        "Ġadjacent": 7284,
        "Ġagricultural": 7285,
        "Ġencouraged": 7286,
        "Ġethn": 7287,
        "ĠAdmiral": 7288,
        "cation": 7289,
        "dess": 7290,
        "hl": 7291,
        "mel": 7292,
        "Ê»": 7293,
        "Ġtick": 7294,
        "heim": 7295,
        "Ġsight": 7296,
        "Ġswe": 7297,
        "itated": 7298,
        "ĠTam": 7299,
        "ĠSb": 7300,
        "Ġet": 7301,
        "Ġnone": 7302,
        "Ġnick": 7303,
        "ĠBed": 7304,
        "ĠHun": 7305,
        "Ġstead": 7306,
        "ĠPass": 7307,
        "emet": 7308,
        "ĠLab": 7309,
        "ĠNow": 7310,
        "Ġanth": 7311,
        "Ġhear": 7312,
        "ifer": 7313,
        "Ġvac": 7314,
        "Ġraces": 7315,
        "Ġritual": 7316,
        "ewhat": 7317,
        "Ġchronic": 7318,
        "Ġorn": 7319,
        "abled": 7320,
        "ĠKombat": 7321,
        "Ġplain": 7322,
        "Ġshots": 7323,
        "Ġcompounds": 7324,
        "Ġrecalled": 7325,
        "Ġpartly": 7326,
        "Ġserial": 7327,
        "Ġevil": 7328,
        "ĠAniston": 7329,
        "aware": 7330,
        "ĠMarg": 7331,
        "Ġaccomm": 7332,
        "Ġ05": 7333,
        "Ġ122": 7334,
        "ennis": 7335,
        "Ġpossession": 7336,
        "Ġvisible": 7337,
        "Ġstands": 7338,
        "attered": 7339,
        "Ġconvoy": 7340,
        "Ġpatron": 7341,
        "Ġ1909": 7342,
        "ĠKeamy": 7343,
        "Ġidentity": 7344,
        "Ġarmor": 7345,
        "Ġ1880": 7346,
        "Ġmulti": 7347,
        "Ġpainted": 7348,
        "Ġbrothers": 7349,
        "going": 7350,
        "Ġtowers": 7351,
        "ĠEvery": 7352,
        "ĠFormula": 7353,
        "Ġchalleng": 7354,
        "ĠGarc": 7355,
        "Ġrecovered": 7356,
        "Ġextreme": 7357,
        "Ġseemed": 7358,
        "Ġscientific": 7359,
        "Ġcandidate": 7360,
        "ĠCommonwealth": 7361,
        "ĠMortal": 7362,
        "Ġarrangement": 7363,
        "ĠJesus": 7364,
        "Ġsomewhat": 7365,
        "Ġobtained": 7366,
        "Ġvideos": 7367,
        "Ġaccommod": 7368,
        "SA": 7369,
        "ds": 7370,
        "ĠÅ": 7371,
        "Ġtone": 7372,
        "Ġtheatre": 7373,
        "Ġcens": 7374,
        "Ġcycle": 7375,
        "isis": 7376,
        "Ġbat": 7377,
        "icate": 7378,
        "icity": 7379,
        "Ġhip": 7380,
        "Ġhits": 7381,
        "ĠTon": 7382,
        "ĠType": 7383,
        "entures": 7384,
        "ĠBron": 7385,
        "Ġgross": 7386,
        "idae": 7387,
        "igins": 7388,
        "ĠHor": 7389,
        "ĠHospital": 7390,
        "utz": 7391,
        "thosaurus": 7392,
        "ĠGun": 7393,
        "ĠJoy": 7394,
        "ĠOwen": 7395,
        "Ġproceed": 7396,
        "Ġexha": 7397,
        "oven": 7398,
        "Ġ58": 7399,
        "Ġschem": 7400,
        "achus": 7401,
        "Ġimpl": 7402,
        "Ġteach": 7403,
        "Ġconsult": 7404,
        "ĠMarines": 7405,
        "Ġrelative": 7406,
        "Ġfled": 7407,
        "Ġverse": 7408,
        "Ġacts": 7409,
        "Ġraid": 7410,
        "annah": 7411,
        "Ġ08": 7412,
        "roscop": 7413,
        "Ġpreserved": 7414,
        "ĠJohnston": 7415,
        "Ġestate": 7416,
        "ĠIslam": 7417,
        "Ġpassage": 7418,
        "ĠGermans": 7419,
        "Ġ1931": 7420,
        "Ġ1935": 7421,
        "Ġ1912": 7422,
        "espe": 7423,
        "Ġtwelve": 7424,
        "Ġfootage": 7425,
        "Ġconvin": 7426,
        "ĠPoland": 7427,
        "Ġreduce": 7428,
        "ĠIslands": 7429,
        "stitution": 7430,
        "Ġhosted": 7431,
        "Ġfunds": 7432,
        "Ġsuffering": 7433,
        "Ġabsol": 7434,
        "iques": 7435,
        "ĠFIA": 7436,
        "ĠArabic": 7437,
        "Ġlinked": 7438,
        "Ġspirit": 7439,
        "Ġcontroversial": 7440,
        "ĠDesign": 7441,
        "Ġsculpture": 7442,
        "Ġcustom": 7443,
        "Ġbasketball": 7444,
        "ĠPlunketts": 7445,
        "ĠElizabeth": 7446,
        "ĠCorythosaurus": 7447,
        "ĠFraser": 7448,
        "ait": 7449,
        "bishop": 7450,
        "Ġtailed": 7451,
        "Ġau": 7452,
        "Ġsessions": 7453,
        "Ġsiege": 7454,
        "Ġwars": 7455,
        "Ġcart": 7456,
        "Ġinaug": 7457,
        "Ġdivers": 7458,
        "lete": 7459,
        "ĠTig": 7460,
        "illy": 7461,
        "Ġthin": 7462,
        "elin": 7463,
        "amic": 7464,
        "ĠBark": 7465,
        "olay": 7466,
        "uts": 7467,
        "ĠDC": 7468,
        "ĠDiv": 7469,
        "ĠDyn": 7470,
        "Ġalleg": 7471,
        "ĠGib": 7472,
        "ĠLate": 7473,
        "ĠNintend": 7474,
        "Ġprohib": 7475,
        "Ġshut": 7476,
        "Ġincome": 7477,
        "Ġcontext": 7478,
        "ĠYour": 7479,
        "ensis": 7480,
        "amps": 7481,
        "Ġ68": 7482,
        "Ġ86": 7483,
        "Ġverte": 7484,
        "Ġdefended": 7485,
        "Ġmusc": 7486,
        "ificial": 7487,
        "ĠRele": 7488,
        "Ġexpensive": 7489,
        "athers": 7490,
        "Ġcontinuing": 7491,
        "Ġprovince": 7492,
        "ĠAllah": 7493,
        "Ġattacking": 7494,
        "Ġ1932": 7495,
        "ĠProf": 7496,
        "Ġreviewers": 7497,
        "Ġdestruction": 7498,
        "Ġdebate": 7499,
        "Ġequipped": 7500,
        "ĠPalmy": 7501,
        "Ġsteel": 7502,
        "Ġcirculation": 7503,
        "Ġresponsibility": 7504,
        "Ġlearning": 7505,
        "Ġblocks": 7506,
        "Ġstayed": 7507,
        "Ġconcerned": 7508,
        "ĠHotel": 7509,
        "Ġunderstand": 7510,
        "Ġmoral": 7511,
        "Ġcomposer": 7512,
        "Ġadults": 7513,
        "ĠSpecial": 7514,
        "ĠProtest": 7515,
        "Ġincorporated": 7516,
        "ĠPeninsula": 7517,
        "ĠMarlborough": 7518,
        "Ġparallel": 7519,
        "ĠShakespe": 7520,
        "Ġopposite": 7521,
        "erogative": 7522,
        "ĠNintendo": 7523,
        "ĠShakespeare": 7524,
        "MO": 7525,
        "body": 7526,
        "nal": 7527,
        "Ġtrick": 7528,
        "Ġow": 7529,
        "Ġpushed": 7530,
        "Ġmap": 7531,
        "ĠTechn": 7532,
        "Ġrepr": 7533,
        "ĠSem": 7534,
        "ĠSweet": 7535,
        "state": 7536,
        "Ġgone": 7537,
        "oli": 7538,
        "iminal": 7539,
        "uscript": 7540,
        "ithic": 7541,
        "ĠPict": 7542,
        "ĠDark": 7543,
        "osl": 7544,
        "Ġansw": 7545,
        "rif": 7546,
        "aku": 7547,
        "Ġkitsune": 7548,
        "ĠUr": 7549,
        "aste": 7550,
        "ĠChannel": 7551,
        "Ġreserve": 7552,
        "Ġagree": 7553,
        "arked": 7554,
        "Ġpool": 7555,
        "Ġsongwrit": 7556,
        "Ġ82": 7557,
        "ĠReal": 7558,
        "Ġmusicians": 7559,
        "Ġpassengers": 7560,
        "ĠSpace": 7561,
        "Ġgovernor": 7562,
        "Ġwilling": 7563,
        "Ġ1911": 7564,
        "Ġclassical": 7565,
        "ĠGeoff": 7566,
        "Ġ1921": 7567,
        "Ġ1929": 7568,
        "Ġdriving": 7569,
        "ĠFlight": 7570,
        "Ġelabor": 7571,
        "Ġlowest": 7572,
        "Ġvictims": 7573,
        "Ġpatrol": 7574,
        "Ġlimit": 7575,
        "ĠPalace": 7576,
        "Ġpromote": 7577,
        "Ġcrossing": 7578,
        "Ġmeetings": 7579,
        "Ġstrip": 7580,
        "ĠMedia": 7581,
        "Ġfalling": 7582,
        "Ġrebels": 7583,
        "Ġmeasures": 7584,
        "Ġrenew": 7585,
        "ĠFei": 7586,
        "ĠLawrence": 7587,
        "ĠPatrick": 7588,
        "Ġvoted": 7589,
        "Ġobservations": 7590,
        "Ġthrowing": 7591,
        "hews": 7592,
        "ĠPitman": 7593,
        "iplom": 7594,
        "ĠStanley": 7595,
        "Ġoccasions": 7596,
        "Ġremnants": 7597,
        "ĠConstruction": 7598,
        "Ġinitiative": 7599,
        "ĠNetherlands": 7600,
        "AT": 7601,
        "fare": 7602,
        "hol": 7603,
        "pent": 7604,
        "rating": 7605,
        "uv": 7606,
        "vention": 7607,
        "yard": 7608,
        "ĠÎ": 7609,
        "onia": 7610,
        "Ġster": 7611,
        "Ġbrick": 7612,
        "Ġdiet": 7613,
        "Ġhang": 7614,
        "ĠTreat": 7615,
        "ĠAk": 7616,
        "eline": 7617,
        "acle": 7618,
        "otal": 7619,
        "otton": 7620,
        "ĠHob": 7621,
        "ĠRain": 7622,
        "ĠFree": 7623,
        "ĠWic": 7624,
        "ĠLink": 7625,
        "ĠLabor": 7626,
        "ĠOur": 7627,
        "Ġcomments": 7628,
        "Ġprol": 7629,
        "ifies": 7630,
        "Ġray": 7631,
        "Ġrum": 7632,
        "Ġsees": 7633,
        "oceratops": 7634,
        "Ġretained": 7635,
        "Ġacclaim": 7636,
        "Ġraise": 7637,
        "Ġdefences": 7638,
        "Ġ161": 7639,
        "Ġobl": 7640,
        "Ġ1962": 7641,
        "Ġreturns": 7642,
        "Ġ1959": 7643,
        "Ġ1938": 7644,
        "ĠMega": 7645,
        "quez": 7646,
        "alky": 7647,
        "Ġinvolving": 7648,
        "Ġrepresenting": 7649,
        "Ġequivalent": 7650,
        "Ġgoddess": 7651,
        "Ġpraise": 7652,
        "ĠAtlanta": 7653,
        "Ġvillages": 7654,
        "ymph": 7655,
        "Ġpitcher": 7656,
        "Ġdifficulties": 7657,
        "Ġsuperior": 7658,
        "ĠImperial": 7659,
        "Ġbiography": 7660,
        "ĠEmperor": 7661,
        "ĠPlayer": 7662,
        "Ġobjects": 7663,
        "ĠQueens": 7664,
        "Ġintensified": 7665,
        "Ġpurchase": 7666,
        "Ġcarrying": 7667,
        "ĠKorean": 7668,
        "Ġvessels": 7669,
        "Ġfixed": 7670,
        "ĠGuardian": 7671,
        "Ġbatsman": 7672,
        "ĠCambodia": 7673,
        "Ġglobal": 7674,
        "Ġunsuccessful": 7675,
        "ĠStefani": 7676,
        "Ġrhythm": 7677,
        "emetery": 7678,
        "ĠGarcÃŃa": 7679,
        "don": 7680,
        "mes": 7681,
        "rator": 7682,
        "wald": 7683,
        "yer": 7684,
        "zi": 7685,
        "Ġtight": 7686,
        "Ġfine": 7687,
        "Ġfold": 7688,
        "Ġblow": 7689,
        "Ġbone": 7690,
        "Ġpure": 7691,
        "icop": 7692,
        "icide": 7693,
        "ĠAP": 7694,
        "ĠCult": 7695,
        "Ġonline": 7696,
        "ĠBang": 7697,
        "Ġgro": 7698,
        "terbury": 7699,
        "ĠHind": 7700,
        "ĠRaff": 7701,
        "ĠFurt": 7702,
        "chang": 7703,
        "Ġhem": 7704,
        "resents": 7705,
        "iform": 7706,
        "Ġexchange": 7707,
        "Ġunion": 7708,
        "ureau": 7709,
        "Ġcloth": 7710,
        "overs": 7711,
        "Ġcommit": 7712,
        "Ġcommitted": 7713,
        "Ġ67": 7714,
        "Ġamino": 7715,
        "Ġ162": 7716,
        "Ġconcerts": 7717,
        "Ġsimultane": 7718,
        "ĠCanterbury": 7719,
        "echism": 7720,
        "Ġperiods": 7721,
        "Ġcovers": 7722,
        "iterranean": 7723,
        "Ġdefeating": 7724,
        "Ġinfluences": 7725,
        "Ġdivisions": 7726,
        "Ġneeds": 7727,
        "Ġcollaps": 7728,
        "ĠMediterranean": 7729,
        "Ġnarrative": 7730,
        "Ġreveals": 7731,
        "Ġescort": 7732,
        "ĠPrior": 7733,
        "ĠEnterprise": 7734,
        "Ġaccompany": 7735,
        "Ġinternal": 7736,
        "Ġdisappoint": 7737,
        "Ġcamera": 7738,
        "Ġbehaviour": 7739,
        "ĠPalestine": 7740,
        "Ġvoiced": 7741,
        "ĠAthletic": 7742,
        "Ġpreferred": 7743,
        "ĠAerith": 7744,
        "ĠPhillies": 7745,
        "ĠGrammy": 7746,
        "Ġsurvivors": 7747,
        "Ġresources": 7748,
        "species": 7749,
        "after": 7750,
        "burn": 7751,
        "boy": 7752,
        "math": 7753,
        "rich": 7754,
        "vements": 7755,
        "Ġbor": 7756,
        "Ġdens": 7757,
        "ĠSports": 7758,
        "elle": 7759,
        "ĠMir": 7760,
        "ĠMother": 7761,
        "ĠMÃ¡": 7762,
        "urrent": 7763,
        "ĠHou": 7764,
        "ĠRugby": 7765,
        "ĠFound": 7766,
        "ĠFront": 7767,
        "Ġrugby": 7768,
        "Ġexit": 7769,
        "ĠKen": 7770,
        "ĠKann": 7771,
        "ĠKrak": 7772,
        "iped": 7773,
        "ishment": 7774,
        "ĠAlong": 7775,
        "rene": 7776,
        "Ġfeed": 7777,
        "Ġdeck": 7778,
        "Ġformally": 7779,
        "Ġfollowers": 7780,
        "Ġ09": 7781,
        "Ġrepresents": 7782,
        "Ġoperating": 7783,
        "Ġconsiders": 7784,
        "ĠUSD": 7785,
        "ĠProg": 7786,
        "Ġclassic": 7787,
        "Ġrefers": 7788,
        "ĠMcG": 7789,
        "Ġcovering": 7790,
        "Ġelse": 7791,
        "Ġcriticised": 7792,
        "Ġdoesn": 7793,
        "Ġcloser": 7794,
        "ĠChampionships": 7795,
        "ĠMarkgra": 7796,
        "Ġtribut": 7797,
        "Ġabsence": 7798,
        "Ġcruiser": 7799,
        "Ġfeelings": 7800,
        "Ġvisitors": 7801,
        "Ġproducts": 7802,
        "Ġnormally": 7803,
        "Ġhundreds": 7804,
        "ĠCathedral": 7805,
        "Ġlegislation": 7806,
        "Ġdeployed": 7807,
        "Ġinterpret": 7808,
        "Ġpanel": 7809,
        "Ġarrested": 7810,
        "Ġdialogue": 7811,
        "Ġproposal": 7812,
        "inje": 7813,
        "Ġastronom": 7814,
        "Ġpupils": 7815,
        "Ġmunicipal": 7816,
        "ĠFernand": 7817,
        "ĠColorado": 7818,
        "ĠRaffles": 7819,
        "ĠFurtado": 7820,
        "ĠMarkgraf": 7821,
        "CC": 7822,
        "OK": 7823,
        "ean": 7824,
        "iy": 7825,
        "Ġille": 7826,
        "Ġtank": 7827,
        "hered": 7828,
        "Ġaw": 7829,
        "Ġfram": 7830,
        "ashed": 7831,
        "ĠSatur": 7832,
        "Ġliber": 7833,
        "ĠBell": 7834,
        "ĠBath": 7835,
        "otype": 7836,
        "ĠHud": 7837,
        "ĠHok": 7838,
        "Ġstable": 7839,
        "ĠRoc": 7840,
        "rage": 7841,
        "ĠLy": 7842,
        "ĠNar": 7843,
        "ĠNad": 7844,
        "ĠNichol": 7845,
        "Ġdeem": 7846,
        "Ġchoir": 7847,
        "Ġorb": 7848,
        "ĠUsta": 7849,
        "ishn": 7850,
        "ĠValky": 7851,
        "Ġreconnaissance": 7852,
        "Ġappropri": 7853,
        "Ġmanuscript": 7854,
        "Ġoutl": 7855,
        "Ġtele": 7856,
        "ĠComb": 7857,
        "Ġprerogative": 7858,
        "Ġforming": 7859,
        "ĠSholay": 7860,
        "Ġenth": 7861,
        "Ġsurpr": 7862,
        "Ġ166": 7863,
        "Ġextent": 7864,
        "Ġinfrast": 7865,
        "ullen": 7866,
        "Ġannually": 7867,
        "Ġ140": 7868,
        "Ġtrading": 7869,
        "Ġconvection": 7870,
        "Ġskull": 7871,
        "Ġbiographer": 7872,
        "Ġdevot": 7873,
        "Ġresearchers": 7874,
        "Ġpoorly": 7875,
        "Ġstationed": 7876,
        "Ġcheck": 7877,
        "Ġsatisf": 7878,
        "Ġensure": 7879,
        "Ġmoments": 7880,
        "Ġdrums": 7881,
        "Ġdisplays": 7882,
        "onomy": 7883,
        "ĠDominican": 7884,
        "ĠNHL": 7885,
        "Ġsubmarine": 7886,
        "Ġreconstruction": 7887,
        "cribed": 7888,
        "ĠDAG": 7889,
        "Ġmuscaria": 7890,
        "Ġoverwhel": 7891,
        "ĠUstaÅ¡": 7892,
        "DH": 7893,
        "friend": 7894,
        "life": 7895,
        "rants": 7896,
        "vati": 7897,
        "zac": 7898,
        "inian": 7899,
        "Ġsunk": 7900,
        "Ġsaves": 7901,
        "Ġwings": 7902,
        "ori": 7903,
        "Ġcreek": 7904,
        "Ġbrand": 7905,
        "Ġdream": 7906,
        "Ġdinosaur": 7907,
        "entional": 7908,
        "ĠCape": 7909,
        "Ġlose": 7910,
        "Ġloy": 7911,
        "Ġlists": 7912,
        "Ġnav": 7913,
        "ĠBat": 7914,
        "owiec": 7915,
        "Ġstreets": 7916,
        "ĠRom": 7917,
        "ĠWiÅ": 7918,
        "ĠJenn": 7919,
        "ateau": 7920,
        "Ġorbit": 7921,
        "anti": 7922,
        "ogy": 7923,
        "Ġintense": 7924,
        "Ġclock": 7925,
        "Ġabund": 7926,
        "ĠAlb": 7927,
        "ricted": 7928,
        "Ġjun": 7929,
        "ĠShow": 7930,
        "Ġentitled": 7931,
        "Ġtransition": 7932,
        "Ġobst": 7933,
        "Ġextension": 7934,
        "ĠWho": 7935,
        "Ġbelt": 7936,
        "ĠBlood": 7937,
        "Ġuseful": 7938,
        "Ġphr": 7939,
        "Ġmodified": 7940,
        "Ġdriven": 7941,
        "ĠRecord": 7942,
        "Ġposted": 7943,
        "Ġinfluential": 7944,
        "Ġdivor": 7945,
        "ĠRichmond": 7946,
        "ĠMaggie": 7947,
        "Ġsteam": 7948,
        "ĠMexican": 7949,
        "Ġinjuries": 7950,
        "Ġframe": 7951,
        "Ġmemory": 7952,
        "Ġwithdrew": 7953,
        "ĠFIFA": 7954,
        "Ġunderstanding": 7955,
        "Ġdramatic": 7956,
        "Ġbombard": 7957,
        "Ġemerg": 7958,
        "Ġpurposes": 7959,
        "Ġessential": 7960,
        "Ġdynasty": 7961,
        "Ġdoubt": 7962,
        "Ġutil": 7963,
        "niowiec": 7964,
        "ĠWiÅĽ": 7965,
        "eared": 7966,
        "hist": 7967,
        "ker": 7968,
        "lie": 7969,
        "lock": 7970,
        "ng": 7971,
        "oom": 7972,
        "ugh": 7973,
        "Ġtests": 7974,
        "Ġsaved": 7975,
        "Ġchess": 7976,
        "arth": 7977,
        "Ġbed": 7978,
        "rous": 7979,
        "Ġdiplom": 7980,
        "ĠSn": 7981,
        "ilst": 7982,
        "ĠCBS": 7983,
        "ĠMun": 7984,
        "ĠMach": 7985,
        "ĠBow": 7986,
        "ĠBab": 7987,
        "ĠBenn": 7988,
        "Ġgard": 7989,
        "Ġash": 7990,
        "ĠRest": 7991,
        "andy": 7992,
        "ĠEle": 7993,
        "Ġrated": 7994,
        "Ġrates": 7995,
        "Ġridge": 7996,
        "Ġplane": 7997,
        "Ġshipping": 7998,
        "acks": 7999,
        "Ġspoke": 8000,
        "ĠVII": 8001,
        "Ġago": 8002,
        "Ġotherwise": 8003,
        "teenth": 8004,
        "Ġ78": 8005,
        "Ġ900": 8006,
        "ugosl": 8007,
        "ĠArk": 8008,
        "Ġwritings": 8009,
        "Ġactual": 8010,
        "Ġformal": 8011,
        "Ġsubspecies": 8012,
        "inson": 8013,
        "Ġammun": 8014,
        "Ġ101": 8015,
        "Ġtrail": 8016,
        "Ġseverely": 8017,
        "Ġexposure": 8018,
        "Ġ155": 8019,
        "Ġoriginated": 8020,
        "Ġinstalled": 8021,
        "Ġgenerated": 8022,
        "Ġhelicop": 8023,
        "Ġrestrict": 8024,
        "ĠParvati": 8025,
        "Ġlisten": 8026,
        "Ġparish": 8027,
        "Ġ1928": 8028,
        "Ġengines": 8029,
        "Ġdemand": 8030,
        "Ġsuggesting": 8031,
        "Ġexcess": 8032,
        "Ġfactors": 8033,
        "ĠFederal": 8034,
        "Ġwatching": 8035,
        "Ġinterests": 8036,
        "restling": 8037,
        "ĠTownship": 8038,
        "Ġcrosses": 8039,
        "Ġburned": 8040,
        "Ġinformed": 8041,
        "ĠMoore": 8042,
        "Ġkingdom": 8043,
        "Ġmaterials": 8044,
        "Ġpersu": 8045,
        "itzer": 8046,
        "Ġhappened": 8047,
        "ĠPortugal": 8048,
        "ĠIsraeli": 8049,
        "Ġloan": 8050,
        "ĠNorway": 8051,
        "criptions": 8052,
        "Ġapparently": 8053,
        "ĠMassachus": 8054,
        "Ġjournalist": 8055,
        "Ġpicture": 8056,
        "Ġchairman": 8057,
        "ĠJacob": 8058,
        "Ġjackrab": 8059,
        "ĠRÃ©union": 8060,
        "Ġcircumstances": 8061,
        "ĠEducation": 8062,
        "ekÄģntav": 8063,
        "ĠBarker": 8064,
        "ĠWiÅĽniowiec": 8065,
        "Ġammunition": 8066,
        "ĠMassachusetts": 8067,
        "DS": 8068,
        "western": 8069,
        "heera": 8070,
        "Ġori": 8071,
        "Ġwine": 8072,
        "Ġciting": 8073,
        "Ġfestival": 8074,
        "ĠSid": 8075,
        "ĠSab": 8076,
        "ilation": 8077,
        "ĠCec": 8078,
        "acter": 8079,
        "urse": 8080,
        "ĠBaker": 8081,
        "ĠBranch": 8082,
        "ĠHamp": 8083,
        "ĠHaving": 8084,
        "ĠProm": 8085,
        "ĠRoth": 8086,
        "ĠDh": 8087,
        "ĠDig": 8088,
        "ĠGary": 8089,
        "ĠGwen": 8090,
        "ĠLith": 8091,
        "ĠLang": 8092,
        "ĠNiel": 8093,
        "ĠEaton": 8094,
        "ĠEagle": 8095,
        "oren": 8096,
        "ĠIntern": 8097,
        "ĠKim": 8098,
        "ĠâĤ": 8099,
        "iang": 8100,
        "Ġunlike": 8101,
        "oko": 8102,
        "Ġclimate": 8103,
        "Ġresign": 8104,
        "ryce": 8105,
        "Ġdisaster": 8106,
        "Ġpartially": 8107,
        "ĠYugosl": 8108,
        "Ġconsc": 8109,
        "Ġ84": 8110,
        "Ġrelie": 8111,
        "inder": 8112,
        "ĠSee": 8113,
        "Ġmovements": 8114,
        "Ġimpossible": 8115,
        "Ġoperate": 8116,
        "Ġcarved": 8117,
        "Ġgenerals": 8118,
        "Ġeleven": 8119,
        "ĠDeath": 8120,
        "ĠGuide": 8121,
        "Ġlatex": 8122,
        "Ġstarlings": 8123,
        "Ġparas": 8124,
        "urricanes": 8125,
        "Ġ1927": 8126,
        "Ġcauses": 8127,
        "Ġvictories": 8128,
        "Ġsurvive": 8129,
        "Ġsky": 8130,
        "Ġready": 8131,
        "Ġmixture": 8132,
        "Ġpredomin": 8133,
        "Ġburning": 8134,
        "ĠMinor": 8135,
        "ĠMinistry": 8136,
        "ĠKhand": 8137,
        "ĠWilson": 8138,
        "Ġmerch": 8139,
        "forced": 8140,
        "Ġtransportation": 8141,
        "Ġmemorial": 8142,
        "rorist": 8143,
        "Ġlayer": 8144,
        "Ġcancer": 8145,
        "Ġshells": 8146,
        "Ġinstitution": 8147,
        "Ġinstruments": 8148,
        "Ġthousand": 8149,
        "ĠSilver": 8150,
        "Ġbehavior": 8151,
        "ĠHistoric": 8152,
        "Ġdeparture": 8153,
        "ĠRAAF": 8154,
        "ĠSwedish": 8155,
        "Ġsubstantial": 8156,
        "Ġoverseas": 8157,
        "Ġresistance": 8158,
        "ĠKannada": 8159,
        "ĠUstaÅ¡e": 8160,
        "ekÄģntavÄģda": 8161,
        "EC": 8162,
        "Hg": 8163,
        "cru": 8164,
        "de": 8165,
        "gov": 8166,
        "pan": 8167,
        "put": 8168,
        "pson": 8169,
        "piece": 8170,
        "rquez": 8171,
        "Ġtack": 8172,
        "Ġturb": 8173,
        "inery": 8174,
        "err": 8175,
        "Ġmamm": 8176,
        "Ġdangerous": 8177,
        "ĠAz": 8178,
        "ĠSans": 8179,
        "ĠSup": 8180,
        "ĠSoon": 8181,
        "ĠCelt": 8182,
        "Ġeat": 8183,
        "Ġwasn": 8184,
        "ĠMidge": 8185,
        "ĠMasters": 8186,
        "urst": 8187,
        "ĠBudd": 8188,
        "ĠBureau": 8189,
        "Ġbearing": 8190,
        "ĠRa": 8191,
        "ĠLast": 8192,
        "Ġheat": 8193,
        "Ġspend": 8194,
        "Ġspores": 8195,
        "Ġresigned": 8196,
        "Ġrecur": 8197,
        "Ġrooms": 8198,
        "Ġafterwards": 8199,
        "weight": 8200,
        "Ġcommem": 8201,
        "Ġtex": 8202,
        "obile": 8203,
        "ĠSeason": 8204,
        "Ġsubst": 8205,
        "Ġamateur": 8206,
        "Ġsupporters": 8207,
        "Ġ113": 8208,
        "Ġ178": 8209,
        "Ġinstance": 8210,
        "Ġmusician": 8211,
        "Ġadvis": 8212,
        "Ġmodels": 8213,
        "Ġ1933": 8214,
        "onto": 8215,
        "Ġrestored": 8216,
        "Ġmarry": 8217,
        "Ġlisting": 8218,
        "Ġwindows": 8219,
        "ĠPerfect": 8220,
        "Ġtemples": 8221,
        "Ġelectronic": 8222,
        "encing": 8223,
        "Ġcompete": 8224,
        "ĠSimpson": 8225,
        "ĠPolice": 8226,
        "ĠGlad": 8227,
        "Ġinteresting": 8228,
        "Ġlooks": 8229,
        "Ġtechniques": 8230,
        "Ġsquadron": 8231,
        "Ġsequences": 8232,
        "Ġ1860": 8233,
        "Ġcopy": 8234,
        "Ġengineers": 8235,
        "Ġthinking": 8236,
        "Ġtribute": 8237,
        "Ġestablishing": 8238,
        "Ġdocuments": 8239,
        "Ġautom": 8240,
        "ĠHowe": 8241,
        "ĠVeronica": 8242,
        "ASA": 8243,
        "Ġsafe": 8244,
        "Ġinteraction": 8245,
        "Ġspiritual": 8246,
        "Ġopportunities": 8247,
        "Ġstruggle": 8248,
        "Ġpremiered": 8249,
        "Ġbeautiful": 8250,
        "ĠStewart": 8251,
        "ĠGilbert": 8252,
        "ĠYanke": 8253,
        "Ġcongreg": 8254,
        "Ġnickn": 8255,
        "ĠMÃ¡rquez": 8256,
        "ĠKhandoba": 8257,
        "mate": 8258,
        "ti": 8259,
        "uable": 8260,
        "za": 8261,
        "Ġels": 8262,
        "Ġty": 8263,
        "inate": 8264,
        "Ġsale": 8265,
        "isler": 8266,
        "Ġbord": 8267,
        "ĠinHg": 8268,
        "Ġpale": 8269,
        "Ġtoll": 8270,
        "roit": 8271,
        "Ġmode": 8272,
        "ĠCob": 8273,
        "oma": 8274,
        "omura": 8275,
        "ĠThen": 8276,
        "ĠBa": 8277,
        "ĠBah": 8278,
        "ĠIra": 8279,
        "Ġforcing": 8280,
        "ĠPur": 8281,
        "ĠDak": 8282,
        "ĠFall": 8283,
        "ĠFRE": 8284,
        "ulating": 8285,
        "ĠWag": 8286,
        "ĠWright": 8287,
        "ĠJr": 8288,
        "opl": 8289,
        "Ġprove": 8290,
        "Ġvast": 8291,
        "udes": 8292,
        "Ġnotably": 8293,
        "apse": 8294,
        "ĠVul": 8295,
        "Ġrecru": 8296,
        "Ġdesert": 8297,
        "Ġattrib": 8298,
        "Ġremember": 8299,
        "Ġconsol": 8300,
        "Ġconservation": 8301,
        "ologies": 8302,
        "Ġregiment": 8303,
        "Ġcoins": 8304,
        "Ġ123": 8305,
        "Ġ165": 8306,
        "Ġminimum": 8307,
        "Ġreprodu": 8308,
        "Ġpoll": 8309,
        "Ġartwork": 8310,
        "Ġartificial": 8311,
        "Ġdesigns": 8312,
        "Ġoffices": 8313,
        "Ġ1957": 8314,
        "Ġadventure": 8315,
        "Ġhelmet": 8316,
        "ĠMcL": 8317,
        "Ġstorms": 8318,
        "Ġcriminal": 8319,
        "Ġmyst": 8320,
        "Ġsituated": 8321,
        "Ġreaders": 8322,
        "Ġrecognised": 8323,
        "Ġachieve": 8324,
        "ĠToronto": 8325,
        "Ġproperties": 8326,
        "Ġexperiences": 8327,
        "ĠJustice": 8328,
        "ĠMiller": 8329,
        "Ġweapon": 8330,
        "Ġneighbor": 8331,
        "Ġvessel": 8332,
        "ĠJurchen": 8333,
        "ĠGirls": 8334,
        "ĠDetroit": 8335,
        "ĠPhoenix": 8336,
        "LIMO": 8337,
        "ĠMulder": 8338,
        "Ġretirement": 8339,
        "ĠMozambique": 8340,
        "Ġacknowled": 8341,
        "ĠSaturday": 8342,
        "Ġelsewhere": 8343,
        "ĠFRELIMO": 8344,
        "book": 8345,
        "mit": 8346,
        "wick": 8347,
        "zo": 8348,
        "Ġrib": 8349,
        "Ġtiss": 8350,
        "Ġtanks": 8351,
        "rees": 8352,
        "Ġsad": 8353,
        "Ġsons": 8354,
        "Ġsung": 8355,
        "Ġfant": 8356,
        "Ġfountain": 8357,
        "Ġbod": 8358,
        "Ġbell": 8359,
        "asm": 8360,
        "Ġhorn": 8361,
        "ĠAra": 8362,
        "ĠSuch": 8363,
        "ĠCP": 8364,
        "ĠCas": 8365,
        "lyn": 8366,
        "ĠImp": 8367,
        "Ġgiant": 8368,
        "ĠPC": 8369,
        "ĠPot": 8370,
        "ĠRen": 8371,
        "uls": 8372,
        "Ġalle": 8373,
        "ĠGray": 8374,
        "ĠNetwork": 8375,
        "ĠEsh": 8376,
        "Ġselection": 8377,
        "arte": 8378,
        "ĠKy": 8379,
        "ĠKansas": 8380,
        "ĠVice": 8381,
        "Ġagents": 8382,
        "Ġenh": 8383,
        "phy": 8384,
        "ĠUnivers": 8385,
        "oyage": 8386,
        "Ġformat": 8387,
        "Ġcooper": 8388,
        "Ġfounder": 8389,
        "Ġsurg": 8390,
        "Ġtrained": 8391,
        "ĠScully": 8392,
        "Ġdepending": 8393,
        "atherine": 8394,
        "yline": 8395,
        "ĠWarren": 8396,
        "Ġcounties": 8397,
        "Ġcharacterized": 8398,
        "ĠCanal": 8399,
        "Ġstarred": 8400,
        "Ġengage": 8401,
        "Ġantic": 8402,
        "ĠManagement": 8403,
        "Ġformerly": 8404,
        "ĠBarry": 8405,
        "Ġwestward": 8406,
        "Ġstatistics": 8407,
        "Ġprogramme": 8408,
        "Ġgrounds": 8409,
        "Ġradiation": 8410,
        "ĠKevin": 8411,
        "Ġ1850": 8412,
        "Ġfallen": 8413,
        "Ġmeasured": 8414,
        "Ġcosts": 8415,
        "Ġburial": 8416,
        "Ġobjective": 8417,
        "Ġfrig": 8418,
        "Ġnetworks": 8419,
        "Ġdepicts": 8420,
        "ĠRussia": 8421,
        "Ġcleared": 8422,
        "Ġbiggest": 8423,
        "Ġphotograph": 8424,
        "Ġholiday": 8425,
        "Ġvehicle": 8426,
        "Ġexcavation": 8427,
        "Ġremarked": 8428,
        "chell": 8429,
        "ĠJourney": 8430,
        "ĠAlbums": 8431,
        "ĠMemorial": 8432,
        "ĠColeman": 8433,
        "ĠBulls": 8434,
        "Ġdelayed": 8435,
        "Ġcrops": 8436,
        "Ġcitizens": 8437,
        "Ġconvinced": 8438,
        "ĠHudson": 8439,
        "Ġinfrastructure": 8440,
        "ĠWiÅĽniowiecki": 8441,
        "Ch": 8442,
        "iac": 8443,
        "night": 8444,
        "yo": 8445,
        "Ã±": 8446,
        "Ġå": 8447,
        "Ġid": 8448,
        "Ġfert": 8449,
        "esh": 8450,
        "alley": 8451,
        "icit": 8452,
        "icul": 8453,
        "Ġmoon": 8454,
        "Ġdwar": 8455,
        "ĠTu": 8456,
        "Ġrender": 8457,
        "ellect": 8458,
        "acec": 8459,
        "ĠMuch": 8460,
        "ĠBad": 8461,
        "olen": 8462,
        "Ġstyles": 8463,
        "ĠPow": 8464,
        "ĠDave": 8465,
[...]
